#version: 0.2
2 0
国 家</w>
委 员
委员 会</w>
20 0
问 题</w>
会 议</w>
联 合
国 际</w>
工 作</w>
联合 国</w>
组 织</w>
报 告</w>
发 展</w>
提 供</w>
我 们</w>
1 9
政 府</w>
关 于</w>
方 面</w>
以 及</w>
进 行</w>
社 会</w>
包 括</w>
这 些</w>
通 过</w>
机 构</w>
其 他</w>
情 况</w>
方 案</w>
行 动</w>
执 行</w>
有 关</w>
20 1
19 9
妇 女</w>
人 员</w>
活 动</w>
经 济</w>
决 议</w>
安 全</w>
人 权</w>
他 们</w>
所 有</w>
公 约</w>
秘 书
建 议</w>
合 作</w>
没 有</w>
区 域</w>
项 目</w>
需 要</w>
大 会</w>
技 术</w>
儿 童</w>
根 据</w>
规 定</w>
事 会</w>
可 以</w>
可 能</w>
理 事会</w>
提 出</w>
系 统</w>
权 利</w>
特 别</w>
采 取</w>
法 律</w>
管 理</w>
支 持</w>
措 施</w>
决 定</w>
计 划</w>
代 表</w>
必 须</w>
1 0
影 响</w>
政 策</w>
和 平</w>
服 务</w>
资 源</w>
世 界</w>
继 续</w>
目 标</w>
重 要</w>
要 求</w>
保 护</w>
促 进</w>
认 为</w>
加 强</w>
主 义</w>
努 力</w>
1 2
秘书 长</w>
一 些</w>
能 力</w>
美 元</w>
确 保</w>
信 息</w>
研 究</w>
行 为</w>
使 用</w>
教 育</w>
任 何</w>
主 要</w>
环 境</w>
提 交</w>
部 门</w>
作 为</w>
建 立</w>
部 分</w>
援 助</w>
注 意</w>
因 为</w>
已 经</w>
期 间</w>
实 现</w>
因 此</w>
文 件</w>
这 个</w>
缔 约
地 区</w>
举 行</w>
如 果</w>
基 金</w>
之 间</w>
草 案</w>
审 查</w>
主 席</w>
解 决</w>
审 议</w>
战 略</w>
A /
实 施</w>
增 加</w>
关 系</w>
- -
开 展</w>
成 员</w>
领 域</w>
参 与</w>
工 作
考 虑</w>
1 1
先 生</w>
全 球</w>
共 和
相 关</w>
表 示</w>
作 出</w>
作 用</w>
武 器</w>
0 0</w>
共和 国</w>
得 到</w>
0 年</w>
非 洲</w>
政 治</w>
其 中</w>
有 效</w>
协 调</w>
公 司</w>
持 续</w>
员 国</w>
指 出</w>
获 得</w>
小 组</w>
人 民</w>
程 序</w>
支 助</w>
代 表
中 心</w>
预 算</w>
讨 论</w>
方 法</w>
提 高</w>
5 年</w>
3 年</w>
事 务</w>
1 年</w>
处 理</w>
基 础</w>
自 己</w>
2 年</w>
人 口</w>
资 料</w>
特 别
9 年</w>
特别 是</w>
由 于</w>
培 训</w>
- -</w>
能 够</w>
正 在</w>
发 展
但 是</w>
特 派
目 前</w>
特派 团</w>
第 一</w>
意 见</w>
代表 团</w>
8 年</w>
美 国</w>
机 制</w>
任 务</w>
4 年</w>
调 查</w>
同 时</w>
许 多</w>
方 式</w>
取 得</w>
一 步</w>
中 国</w>
它 们</w>
进 一步</w>
时 间</w>
缔约 国</w>
秘书 处</w>
减 少</w>
家 庭</w>
暴 力</w>
犯 罪</w>
平 等</w>
条 约</w>
利 用</w>
参 加</w>
开 始</w>
制 定</w>
标 准</w>
专 家</w>
行 政</w>
7 年</w>
贸 易</w>
框 架</w>
评 估</w>
发展 中</w>
强 调</w>
确 定</w>
法 院</w>
数 据</w>
什 么</w>
进 程</w>
原 则</w>
第 二</w>
部 队</w>
斯 坦</w>
1 日</w>
司 法</w>
12 月</w>
生 活</w>
伙 伴</w>
6 年</w>
联 合</w>
制 度</w>
欧 洲</w>
以 便</w>
文 化</w>
必 要</w>
冲 突</w>
具 有</w>
办 法</w>
议 程</w>
工作 组</w>
说 明</w>
费 用</w>
机 会</w>
结 果</w>
不 同</w>
而 且</w>
分 析</w>
具 体</w>
目 的</w>
范 围</w>
咨 询</w>
缔 约</w>
歧 视</w>
责 任</w>
发 生</w>
1 5
存 在</w>
充 分</w>
人 道</w>
联 盟</w>
条 件</w>
此 外</w>
成 为</w>
希 望</w>
现 在</w>
这 样</w>
全 面</w>
为 了</w>
1 0</w>
事 处</w>
发 言</w>
进 展</w>
办 事处</w>
对 于</w>
维 持</w>
应 该</w>
共 同</w>
会 员国</w>
是 否</w>
公 共</w>
接 受</w>
设 立</w>
建 设</w>
地 方</w>
及 其</w>
自 由</w>
适 当</w>
用 于</w>
利 亚</w>
基 本</w>
按 照</w>
造 成</w>
消 除</w>
市 场</w>
性 别</w>
产 生</w>
资 金</w>
最 后</w>
受 到</w>
投 资</w>
协 助</w>
严 重</w>
承 诺</w>
开 发</w>
恐 怖</w>
3 0
应 当</w>
做 法</w>
监 测</w>
并 且</w>
如 何</w>
义 务</w>
设 施</w>
帮 助</w>
变 化</w>
鼓 励</w>
6 月</w>
企 业</w>
形 式</w>
民 主</w>
以 色
改 革</w>
涉 及</w>
负 责</w>
尼 亚</w>
协 定</w>
1 3
认 识</w>
过 程</w>
定 书</w>
议 定书</w>
控 制</w>
欢 迎</w>
办 公
可 持续</w>
非 政府</w>
1 2</w>
业 务</w>
生 产</w>
正 式</w>
以色 列</w>
完 成</w>
尽 管</w>
积 极</w>
例 如</w>
个 人</w>
安 排</w>
健 康</w>
当 局</w>
人 们</w>
地 位</w>
办公 室</w>
第 三</w>
以 下</w>
武 装</w>
7 月</w>
一 切</w>
利 益</w>
知 道</w>
挑 战</w>
1 4
1 8
谈 判</w>
法 庭</w>
巴 勒
预 防</w>
独 立</w>
国 内</w>
表 明</w>
批 准</w>
-- --</w>
采 用</w>
成 果</w>
那 些</w>
事 项</w>
改 善</w>
规 则</w>
银 行</w>
之 后</w>
200 5年</w>
1 5</w>
1 1</w>
介 绍</w>
出 现</w>
优 先</w>
非 常</w>
报 告
时 候</w>
高 级</w>
种 族</w>
社 区</w>
选 举</w>
状 况</w>
仍 然</w>
1 6
关 切</w>
军 事</w>
/ 2
难 民</w>
案 件</w>
收 入</w>
立 法</w>
协 商</w>
直 接</w>
以 来</w>
1 7
附 件</w>
关 注</w>
阿 拉
知 识</w>
履 行</w>
200 8年</w>
200 9年</w>
报告 员</w>
评 价</w>
之 前</w>
禁 止</w>
刑 事</w>
原 因</w>
卫 生</w>
金 融</w>
无 法</w>
增 长</w>
结 构</w>
一 致</w>
一 般</w>
稳 定</w>
201 0年</w>
200 7年</w>
风 险</w>
保 障</w>
1 3</w>
宣 言</w>
限 制</w>
200 6年</w>
指 导</w>
虽 然</w>
领 土</w>
内 容</w>
空 间</w>
防 止</w>
9 月</w>
最 近</w>
2 0</w>
警 察</w>
打 击</w>
1 4</w>
综 合</w>
现 有</w>
财 政</w>
因 素</w>
同 意</w>
10 月</w>
经 费</w>
然 而</w>
划 署</w>
理 会</w>
经 验</w>
广 泛</w>
C .
集 团</w>
11 月</w>
安 理会</w>
需 求</w>
产 品</w>
科 学</w>
土 著</w>
公 民</w>
联 系</w>
过 去</w>
201 1年</w>
重 申</w>
材 料</w>
临 时</w>
规 划</w>
针 对</w>
监 督</w>
适 用</w>
发 挥</w>
重 新</w>
网 络</w>
3 月</w>
发 达</w>
了 解</w>
0 0
受 害
导 致</w>
联 邦</w>
审 计</w>
实 际</w>
某 些</w>
组 成</w>
一 直</w>
成 功</w>
呼 吁</w>
巴勒 斯坦</w>
比 亚</w>
论 坛</w>
5 月</w>
纳 入</w>
长 期</w>
1 6</w>
200 4年</w>
明 确</w>
准 则</w>
并 不</w>
拉 克</w>
财 务</w>
之 一</w>
扩 大</w>
裁 军</w>
制 订</w>
专 门</w>
艾 滋
多 数</w>
非 法</w>
阶 段</w>
选 择</w>
1 8</w>
其 是</w>
就 业</w>
结 束</w>
发 现</w>
尤 其是</w>
协 议</w>
事 件</w>
200 3年</w>
承 认</w>
对 话</w>
阿拉 伯</w>
完 全</w>
推 动</w>
关 键</w>
威 胁</w>
收 到</w>
或 者</w>
请 求</w>
符 合</w>
程 度</w>
运 动</w>
设 计</w>
员 额</w>
内 部</w>
伊 拉克</w>
保 证</w>
上 述</w>
1 月</w>
城 市</w>
遵 守</w>
群 体</w>
专 员</w>
条 款</w>
4 月</w>
人 类</w>
总 统</w>
危 机</w>
定 期</w>
. 1</w>
第 十
200 0年</w>
面 临</w>
保 健</w>
年 度</w>
2 5
保 持</w>
200 2年</w>
当 地</w>
土 地</w>
学 校</w>
统 计</w>
重 点</w>
从 而</w>
/ 200
201 2年</w>
违 反</w>
气 候</w>
重 大</w>
罗 斯</w>
不 断</w>
感 到</w>
侵 犯</w>
病 毒</w>
加 入</w>
a n
大 学</w>
普 遍</w>
宪 法</w>
专 业</w>
民 族</w>
俄 罗斯</w>
成 员国</w>
改 进</w>
恢 复</w>
来 自</w>
缔约 方</w>
质 量</w>
合 同</w>
更 加</w>
19 8
200 1年</w>
记 录</w>
新 闻</w>
应 对</w>
设 备</w>
助 于</w>
自 然</w>
观 察
下 列</w>
应 用</w>
学 生</w>
经 常</w>
3 0</w>
结 论</w>
A/ 6
所 述</w>
基 于</w>
a r
准 备</w>
2 1</w>
起 来</w>
农 业</w>
宗 教</w>
1 .
粮 食</w>
水 平</w>
1 7</w>
确 认</w>
你 们</w>
人 数</w>
工 具</w>
拥 有</w>
编 写</w>
只 有</w>
估 计</w>
倡 议</w>
第 6
贡 献</w>
尊 重</w>
生 物</w>
2 3
有 助于</w>
5 /
做 出</w>
一 样</w>
法 官</w>
不 过</w>
整 个</w>
文 书</w>
民 间</w>
部 长</w>
199 9年</w>
达 到</w>
201 3年</w>
编 制</w>
贩 运</w>
达 成</w>
第 5
显 示</w>
还 是</w>
官 员</w>
L .
2 4
落 实</w>
宣 传</w>
保 留</w>
同 样</w>
未 来</w>
举 办</w>
现 象</w>
就 是</w>
要 性</w>
传 统</w>
基 金
受害 者</w>
首 脑</w>
美 洲</w>
电 子</w>
境 内</w>
艾滋 病</w>
基金 会</w>
实 体</w>
带 来</w>
局 势</w>
规 模</w>
8 月</w>
能 源</w>
缺 乏</w>
2 月</w>
议 会</w>
核 武器</w>
指 标</w>
一 起</w>
扩 散</w>
价 值</w>
很 多</w>
解 释</w>
支 付</w>
资 产</w>
国 际
2 2
计 划署</w>
反 映</w>
委 会</w>
1 9</w>
给 予</w>
西 亚</w>
日 本</w>
紧 急</w>
构 成</w>
A/ 5
调 整</w>
进 入</w>
改 变</w>
手 段</w>
协 会</w>
199 8年</w>
第 四</w>
0 00</w>
列 入</w>
贫 穷</w>
证 明</w>
分 配</w>
权 力</w>
若 干</w>
30 日</w>
申 请</w>
2 8
危 险</w>
总 部</w>
2 5</w>
2 6
允 许</w>
提 议</w>
医 疗</w>
提 到</w>
管 理
相 互</w>
农 村</w>
今 天</w>
管 制</w>
有 些</w>
满 足</w>
反 对</w>
访 问</w>
理 由</w>
享 有</w>
声 明</w>
所 以</w>
条 例</w>
回 顾</w>
3 /
来 说</w>
苏 丹</w>
大 量</w>
女 性</w>
女 士</w>
英 语</w>
2 7
出 口</w>
意 义</w>
少 数</w>
二 十
数 量</w>
补 充</w>
大 多数</w>
2 .
/ C
看 到</w>
成 立</w>
国际 法</w>
2 4</w>
3 1日</w>
交 流</w>
签 署</w>
精 神</w>
森 林</w>
通 知</w>
实 行</w>
私 营</w>
主 管</w>
超 过</w>
职 能</w>
青 年</w>
运 输</w>
4 /
那 么</w>
困 难</w>
授 权</w>
商 业</w>
领 导</w>
如 此</w>
采 购</w>
人 力</w>
. .
残 疾
酷 刑</w>
后 续</w>
以 上</w>
我 国</w>
题 为</w>
伊 斯
团 体</w>
修 订</w>
残疾 人</w>
多 边</w>
价 格</w>
职 业</w>
宣 布</w>
4 0</w>
效 率</w>
为 此</w>
发 表</w>
2 2</w>
感 谢</w>
拟 议</w>
外 国</w>
A/ C.
在 内</w>
5 0</w>
e r
支 出</w>
核 心</w>
2 9
治 疗</w>
学 习</w>
密 切</w>
拟 订</w>
然 后</w>
收 集</w>
级 别</w>
地 点</w>
避 免</w>
毒 品</w>
属 于</w>
创 造</w>
阿 富
模 式</w>
另 外</w>
证 据</w>
来 源</w>
o r
加 以</w>
财 产</w>
今 后</w>
1 /
主 任</w>
外 交</w>
研 究
海 洋</w>
增 强</w>
罪 行</w>
重 要性</w>
2 3</w>
工 业</w>
A d
而 言</w>
贫 困</w>
部 署</w>
详 细</w>
成 本</w>
旨 在</w>
一 定</w>
通 常</w>
鉴 于</w>
再 次</w>
阿富 汗</w>
统 一</w>
十 分</w>
在 这
特 殊</w>
第 五</w>
星 期
全 体</w>
课 程</w>
亚 洲</w>
从 事</w>
步 骤</w>
i n
通 信</w>
最 终</w>
登 记</w>
担 任</w>
纲 领</w>
筹 备</w>
在这 方面</w>
答 复</w>
传 播</w>
马 里</w>
提 案</w>
体 制</w>
6 /
印 度</w>
如 下</w>
承 担</w>
媒 体</w>
比 较</w>
其 它</w>
拘 留</w>
比 例</w>
孩 子</w>
移 民</w>
历 史</w>
a l
损 失</w>
刚 果</w>
机 关</w>
专 题</w>
系 列</w>
有 限</w>
第 五
计 算</w>
流 离
3 .
加 拿
失 所</w>
商 定</w>
敦 促</w>
召 开</w>
干 事</w>
流离 失所</w>
公 平</w>
寻 求</w>
单 位</w>
Ad d
赔 偿</w>
加拿 大</w>
0 万</w>
维 护</w>
概 念</w>
内 瓦</w>
运 作</w>
协 调
以 前</w>
日 内瓦</w>
主 题</w>
引 起</w>
障 碍</w>
自 愿</w>
除 了</w>
越 来
里 亚</w>
越来 越</w>
观察 员</w>
观 点</w>
199 7年</w>
黎 巴
公 众</w>
P -
她 们</w>
债 务</w>
予 以</w>
语 言</w>
迅 速</w>
7 /
宪 章</w>
趋 势</w>
最 高</w>
每 个</w>
多 样
2 6</w>
还 有</w>
至 少</w>
黎巴 嫩</w>
王 国</w>
定 义</w>
告 诉</w>
a s
依 据</w>
药 物</w>
法 国</w>
香 港</w>
喜 欢</w>
事 实</w>
只 是</w>
核 准</w>
不 仅</w>
占 领</w>
甚 至</w>
2 /
重 视</w>
反 应</w>
表 现</w>
过 渡</w>
平 民</w>
良 好</w>
举 措</w>
检 查</w>
8 /
住 房</w>
体 系</w>
理 解</w>
第五 十
4 .
讲 习
职 位</w>
交 易</w>
首 先</w>
决 策</w>
古 巴</w>
数 字</w>
开 发
身 份</w>
2 7</w>
相 信</w>
移 徙</w>
199 6年</w>
律 师</w>
灾 害</w>
顾 问</w>
19 7
似 乎</w>
预 期</w>
任 命</w>
真 正</w>
领 导
纽 约</w>
战 争</w>
预 计</w>
贸 发</w>
降 低</w>
讲习 班</w>
公 开</w>
性 质</w>
年 人</w>
非 正式</w>
立 即</w>
死 亡</w>
物 质</w>
遭 受</w>
伊斯 兰</w>
分 别</w>
检 察
指 控</w>
转 让</w>
2 8</w>
电 话</w>
双 方</w>
伊 朗</w>
工 人</w>
国 民</w>
男 女</w>
依 照</w>
199 4年</w>
愿 意</w>
实 质
6 0</w>
邀 请</w>
199 5年</w>
资 助</w>
3 2</w>
居 民</w>
破 坏</w>
当 前</w>
常 驻</w>
探 讨</w>
0 %</w>
网 站</w>
叙 利亚</w>
训 练</w>
疾 病</w>
竞 争</w>
力 量</w>
发 出</w>
劳 工</w>
明 显</w>
2 9</w>
有 所</w>
这 里</w>
背 景</w>
及 时</w>
东 西</w>
开发 署</w>
损 害</w>
艾 滋</w>
德 国</w>
一 般
全 部</w>
实质 性</w>
公 正</w>
生 命</w>
形 成</w>
事 务
与 会
第 六
3 1</w>
下 降</w>
阿 尔
适 应</w>
残 疾</w>
几 乎</w>
索 赔</w>
出 席</w>
特 定</w>
随 着</w>
磋 商</w>
5 .
拒 绝</w>
女 孩</w>
世 纪</w>
生 效</w>
福 利</w>
飞 机</w>
3 5</w>
工 程</w>
待 遇</w>
9 /
不 可
外 地</w>
e n
之 外</w>
那 样</w>
货 币</w>
诉 讼</w>
力 于</w>
加 勒
找 到</w>
行 使</w>
起 诉</w>
致 力于</w>
澳 大
捐 助
日 益</w>
与会 者</w>
人 士</w>
事 情</w>
英 国</w>
清 单</w>
201 4年</w>
3 3</w>
那 个</w>
指 定</w>
本 身</w>
的 话</w>
难 民
捐 款</w>
时 期</w>
辩 论</w>
修 改</w>
复 杂</w>
往 往</w>
维 亚</w>
第 二十
容 易</w>
虐 待</w>
意 识</w>
至 关</w>
澳大 利亚</w>
3 7</w>
o n
3 4</w>
3 6</w>
足 够</w>
保 险</w>
a n</w>
任 择</w>
研 讨
类 似</w>
最 新</w>
经 过</w>
西 班
199 3年</w>
研讨 会</w>
截 至</w>
平 衡</w>
领导 人</w>
朋 友</w>
执 行
上 诉</w>
4 5</w>
平 均</w>
工作 队</w>
腐 败</w>
合 理</w>
第 六</w>
最 佳</w>
巨 大</w>
视 为</w>
意 味</w>
商 品</w>
接 触</w>
中 央</w>
少 年</w>
赞 赏</w>
数 额</w>
职 责</w>
侵 害</w>
地 雷</w>
审 判</w>
下 午</w>
货 物</w>
大 约</w>
监 狱</w>
尤 其</w>
主 权</w>
立 场</w>
墨 西
太 平
加勒 比</w>
国 人</w>
用 户</w>
索 马里</w>
集 中</w>
卢 旺
筹 资</w>
数 据
15 日</w>
太平 洋</w>
欧 盟</w>
3 9</w>
制 裁</w>
全 球
卢旺 达</w>
出 来</w>
小 时</w>
以 后</w>
处 于</w>
日 期</w>
分 子</w>
a t
6 .
研究 所</w>
双 边</w>
停 止</w>
那 里</w>
会 计</w>
最 大</w>
心 理</w>
理 论</w>
劳 动</w>
年 龄</w>
以 外</w>
一般 性</w>
3 8</w>
第六 十
动 力</w>
科 索
案 文</w>
多样 性</w>
评 论</w>
土 耳
科索 沃</w>
201 5年</w>
各 自</w>
原 子
救 济</w>
数 目</w>
试 验</w>
执 法</w>
官 方</w>
离 开</w>
压 力</w>
岛 屿</w>
今 年</w>
巴 西</w>
土耳 其</w>
为 什么</w>
工 程
供 应</w>
墨西 哥</w>
本 国</w>
创 新</w>
供 资</w>
随 后</w>
治 理</w>
后 果</w>
一 下</w>
技 能</w>
4 4</w>
延 长</w>
获 取</w>
来 文</w>
科 威
即 使</w>
名 单</w>
全 国</w>
结 合</w>
私 人</w>
捐 助</w>
男 子</w>
通 报</w>
状 态</w>
唯 一</w>
a m
原子 能</w>
提 及</w>
4 8</w>
相 同</w>
流 动</w>
10 0</w>
信 托</w>
第 1</w>
清 楚</w>
资 格</w>
大 部分</w>
预 测</w>
启 动</w>
7 .
攸 关</w>
遭 到</w>
5 %</w>
4 1</w>
发 言
更 新</w>
不 足</w>
账 户</w>
4 2</w>
N .
表 达</w>
在 于</w>
助 理</w>
打 算</w>
父 母</w>
数据 库</w>
生 态</w>
切 实</w>
4 -
修 正</w>
觉 得</w>
巴 基
增 进</w>
科威 特</w>
生 产
法 治</w>
科 技</w>
攻 击</w>
重 建</w>
初 步</w>
南 部</w>
利 于</w>
查 明</w>
也 许</w>
19 6
母 亲</w>
效 果</w>
类 型</w>
袭 击</w>
途 径</w>
协调 员</w>
规 范</w>
指 南</w>
20 日</w>
0 .
实 际
巴基 斯坦</w>
4 3</w>
所 需</w>
兴 趣</w>
S /
贷 款</w>
分 发</w>
第 2</w>
信 任</w>
南 非</w>
各 个</w>
5 2</w>
投 票</w>
便 利</w>
开 放</w>
检察 官</w>
卫 星</w>
普 通</w>
维 也
4 6</w>
实际 上</w>
化 学</w>
维也 纳</w>
2 -
23 日</w>
达 尔
严 格</w>
起 草</w>
道 路</w>
外 部</w>
合 法</w>
4 7</w>
印 度
根 本</w>
食 物</w>
享 受</w>
共 同
埃 及</w>
大 家</w>
提 请</w>
期 限</w>
行 业</w>
22 日</w>
方 针</w>
当 然</w>
包 含</w>
拉 丁
汽 车</w>
4 9</w>
高 度</w>
交 通</w>
投 入</w>
建 筑</w>
态 度</w>
销 售</w>
边 界</w>
协 作</w>
学 家</w>
北 京</w>
现 实</w>
申 诉</w>
7 7</w>
不 利</w>
方 向</w>
额 外</w>
转 移</w>
下 来</w>
总 体</w>
剥 夺</w>
补 救</w>
利 比
为 止</w>
判 决</w>
国 籍</w>
斯 拉
拉丁 美洲</w>
看 法</w>
集 体</w>
用 途</w>
维 和</w>
更 为</w>
18 日</w>
意 大
当 时</w>
工 资</w>
功 能</w>
克 斯坦</w>
遗 憾</w>
富 尔</w>
瑞 士</w>
候 选
模 型</w>
相 当</w>
中 东</w>
对 此</w>
订 正</w>
达尔 富尔</w>
展 开</w>
制 造</w>
事 实
资 本</w>
事实 上</w>
共同 体</w>
上 文</w>
总 是</w>
污 染</w>
规 划署</w>
跨 国</w>
特 点</w>
环 境
之 下</w>
海 地</w>
团 结</w>
仅 仅</w>
放 在</w>
不 得
高 兴</w>
安 保</w>
石 油</w>
28 日</w>
变 得</w>
透 明
12 日</w>
哪 些</w>
能 性</w>
报 道</w>
主 持</w>
学 院</w>
利比 里亚</w>
次 级</w>
现 行</w>
千 年</w>
最 低</w>
怎 么</w>
使 得</w>
依 然</w>
废 物</w>
正 常</w>
8 .
实 践</w>
总 额</w>
强 迫</w>
酌 情</w>
客 户</w>
执行 局</w>
19 日</w>
难 以</w>
意大 利</w>
公 布</w>
载 有</w>
供 应
斯拉 夫</w>
0 -
5 3</w>
10 日</w>
值 得</w>
争 取</w>
层 面</w>
法 令</w>
四 十
14 日</w>
表 决</w>
三 十
之 中</w>
伤 害</w>
适 用于</w>
女 童</w>
后 勤</w>
化 学
简 单</w>
2 1日</w>
尼 西亚</w>
显 然</w>
难民 署</w>
可 能性</w>
医 生</w>
载 于</w>
常 设</w>
西班 牙</w>
颁 布</w>
地 球</w>
分 享</w>
现 金</w>
剥 削</w>
16 日</w>
经 济
透明 度</w>
朝 鲜</w>
干 预</w>
观 察</w>
指 示</w>
利 坚</w>
差 异</w>
返 回</w>
雇 员</w>
尼 日
身 体</w>
满 意</w>
子 女</w>
特 设</w>
南 斯拉夫</w>
加 拉
11 日</w>
哥 伦
差 距</w>
相 比</w>
试 图</w>
道 德</w>
中 期</w>
测 试</w>
旅 行</w>
克 兰</w>
斯 坦
25 日</w>
这 么</w>
24 日</w>
5 1</w>
基 地</w>
软 件</w>
只 要</w>
食 品</w>
议 事</w>
医 院</w>
出 版
裁 决</w>
持 久</w>
候选 人</w>
上 午</w>
坚 持</w>
务 员</w>
参 考</w>
正 确</w>
e r</w>
o u
化学 品</w>
发 布</w>
错 误</w>
第 七</w>
赞 扬</w>
容 忍</w>
拟 定</w>
教 师</w>
几 内
17 日</w>
Add .
27 日</w>
年 轻</w>
相 应</w>
快 速</w>
美 利坚</w>
有 时</w>
效 力</w>
逮 捕</w>
9 .
书 面</w>
法 案</w>
进 口</w>
车 辆</w>
全球 化</w>
成 就</w>
众 国</w>
上 升</w>
失 踪</w>
进 步</w>
e l
哥伦 比亚</w>
和 解</w>
不 要</w>
语 文</w>
计 算
29 日</w>
津 贴</w>
取 消</w>
诸 如</w>
阿 根
遇 到</w>
26 日</w>
次 区域</w>
营 养</w>
教 学</w>
主 席
尽 可能</w>
年 代</w>
分 类</w>
动 物</w>
8 -
几内 亚</w>
逐 步</w>
合 众国</w>
阿根 廷</w>
航 空</w>
角 度</w>
潜 在</w>
附 属</w>
速 度</w>
现 代</w>
防 治</w>
科 特
法 规</w>
5 5</w>
秘 书</w>
特 征</w>
7 3</w>
工程 处</w>
共 识</w>
男 性</w>
5 4</w>
帝 汶</w>
迄 今</w>
有 利于</w>
环境 署</w>
决 心</w>
制 止</w>
波 斯
印度 尼西亚</w>
即 将</w>
挪 威</w>
百 分
负 担</w>
平 台</w>
第 四十
科特 迪
爱 尔
减 轻</w>
阻 碍</w>
7 0</w>
派 遣</w>
有 的</w>
得 以</w>
军 队</w>
c h
合 并</w>
居 住</w>
199 2年</w>
续 性</w>
群 岛</w>
面 前</w>
任 期</w>
塞 拉
作 了</w>
免 费</w>
民 众</w>
多 少</w>
青 少年</w>
科特迪 瓦</w>
报 表</w>
赋 予</w>
完 整</w>
核 查</w>
父 亲</w>
强 烈</w>
有 力</w>
因 而</w>
开 支</w>
弹 药</w>
5 6</w>
燃 料</w>
大 规模</w>
消 费
电 视</w>
付 款</w>
经 营</w>
面 对</w>
i l
单 独</w>
透 明</w>
生 殖</w>
用 来</w>
2 日</w>
并 在</w>
爱尔 兰</w>
6 5</w>
公 务员</w>
解 除</w>
业 绩</w>
外 勤</w>
事务 部</w>
9 日</w>
思 想</w>
8 日</w>
死 刑</w>
部 长
婚 姻</w>
位 置</w>
确 实</w>
消 费</w>
装 置</w>
担 保</w>
经 历</w>
购 买</w>
替 代</w>
工 发</w>
更 多</w>
争 端</w>
论 会</w>
东 帝汶</w>
S /200
199 9</w>
13 日</w>
中 的</w>
阁 下</w>
惩 罚</w>
吁 请</w>
调 动</w>
20 0</w>
荷 兰</w>
波斯 尼亚</w>
感 觉</w>
滥 用</w>
主席 团</w>
场 所</w>
o n</w>
亚 太</w>
计算 机</w>
赞 同</w>
体 现</w>
刑 法</w>
1 -
无 论</w>
证 实</w>
推 广</w>
肯 定</w>
储 存</w>
各 地</w>
P .
6 -
5 8</w>
出版 物</w>
全 世界</w>
Add .1</w>
i t
5 7</w>
竞 争
西 非</w>
乌 克兰</w>
处 罚</w>
证 人</w>
交 换</w>
效 益</w>
有 权</w>
定 性</w>
e v
E /C
4 日</w>
回 答</w>
3 日</w>
讨 论会</w>
担 心</w>
监 管</w>
着 重</w>
突 出</w>
阐 述</w>
仲 裁</w>
布 隆
服 务
C C
反 恐</w>
u n
漠 化</w>
第 3</w>
议 题</w>
小 型</w>
命 令</w>
并 没有</w>
布隆 迪</w>
去 年</w>
5 9</w>
6 4</w>
比 赛</w>
管 辖</w>
谴 责</w>
199 0年</w>
w w
手 册</w>
混 合</w>
第 三十
释 放</w>
新 西
地 理</w>
出 版</w>
促 使</w>
教 科
志 愿</w>
决 于</w>
利 昂</w>
埃 塞
最 好</w>
取 决于</w>
对 象</w>
紧 张</w>
除 非</w>
融 资</w>
埃塞 俄
寻 找</w>
6 1</w>
实 地</w>
深 入</w>
联 络</w>
会 议
体 化</w>
记 者</w>
联合 会</w>
议 员</w>
涵 盖</w>
教 训</w>
塞拉 利昂</w>
塞 浦
塞浦 路
加 沙</w>
旅 游</w>
6 日</w>
新西 兰</w>
摩 洛
自 我</w>
操 作</w>
a d
族 裔</w>
制 作</w>
E/C N.
管 辖
以 往</w>
信 仰</w>
融 入</w>
促 请</w>
大 使</w>
一 旦</w>
自 身</w>
示 范</w>
8 0</w>
i s
相 对</w>
克 罗
情 报</w>
摩洛 哥</w>
埃塞俄 比亚</w>
一 方面</w>
预 咨</w>
巴勒 斯坦
审 理</w>
推 进</w>
巩 固</w>
7 日</w>
瑞 典</w>
荒 漠化</w>
认 可</w>
死 亡
装 备</w>
捐助 者</w>
排 放</w>
后 来</w>
概 述</w>
监 督
e s
回 应</w>
体 育</w>
常 常</w>
款 项</w>
高 专</w>
消 息</w>
确 立</w>
周 期</w>
塞浦路 斯</w>
彻 底</w>
5 日</w>
显 著</w>
尚 未</w>
整 体</w>
感 染</w>
投 资
一 体化</w>
成 绩</w>
例 子</w>
时 代</w>
代 理</w>
6 2</w>
运 行</w>
斗 争</w>
常 规</w>
附 近</w>
新 的</w>
5 00</w>
证 书</w>
依 赖</w>
7 2</w>
死亡 率</w>
斯 洛
尼日 利亚</w>
衡 量</w>
适 合</w>
主 流</w>
摘 要</w>
诉 人</w>
别 人</w>
6 7</w>
意 愿</w>
曾 经</w>
极 端</w>
注 重</w>
产 权</w>
得 出</w>
殖 民
筹 措</w>
脆 弱</w>
可 靠</w>
6 3</w>
失 去</w>
o l
高 等</w>
分 摊</w>
调 查
艾滋 病毒</w>
职 权</w>
受害 人</w>
00 万</w>
怎 样</w>
阿尔 及
199 1年</w>
总 理</w>
重 返</w>
恶 化</w>
可 行</w>
c l
药 品</w>
6 6</w>
征 聘</w>
外 层</w>
劳 动力</w>
有 利</w>
妨 碍</w>
物 品</w>
贸 易
永 远</w>
在 一起</w>
吸 引</w>
实 验</w>
口 头</w>
类 别</w>
澄 清</w>
加 快</w>
安 全
发 起</w>
艺 术</w>
199 8</w>
阿 塞
7 5</w>
声 称</w>
言 论</w>
会议 室</w>
缅 甸</w>
中 非</w>
争 议</w>
认 真</w>
描 述</w>
放 弃</w>
北 部</w>
列 出</w>
管辖 权</w>
监 禁</w>
观 念</w>
阿塞 拜
200 9</w>
具 备</w>
建 造</w>
事 业</w>
不 再</w>
与 此
自 动</w>
期 待</w>
一 点</w>
联 网</w>
阿塞拜 疆</w>
部长 级</w>
修 正
这 一</w>
葡 萄
高 级别</w>
贩 卖</w>
驱 逐</w>
要 素</w>
短 期</w>
职 务</w>
真 的</w>
尽 快</w>
界 定</w>
战 斗</w>
产 出</w>
9 0</w>
登 记
恤 金</w>
大 大</w>
修正 案</w>
经 委会</w>
下 文</w>
期 望</w>
准 确</w>
任 意</w>
秩 序</w>
塞 尔
5 0
儿 子</w>
并 非</w>
设 想</w>
黑 塞
i c
乌 干
C /
申 请
菲 律
信 贷</w>
翻 译</w>
, 000</w>
细 胞</w>
泰 国</w>
供应 商</w>
教科 文</w>
6 9</w>
海 关</w>
设 法</w>
分 钟</w>
乌干 达</w>
雇 主</w>
不得 不</w>
极 为</w>
特 性</w>
清 洁</w>
管理 局</w>
终 止</w>
可 是</w>
应 急</w>
政 党</w>
护 理</w>
男 人</w>
菲律 宾</w>
意 思</w>
维 那</w>
与 其</w>
潜 力</w>
201 1</w>
克 服</w>
电 脑</w>
痛 苦</w>
最 初</w>
主 动</w>
蒙 特
第 5</w>
利 比亚</w>
格 鲁
患 者</w>
6 8</w>
参 与
7 4</w>
听 取</w>
谅 解</w>
格鲁 吉
3 8
通 讯</w>
广 播</w>
A l
弱 势</w>
互 动</w>
机 场</w>
推 迟</w>
习 惯</w>
阻 止</w>
想 要</w>
监督 厅</w>
自 治</w>
克罗 地
u r
被 告</w>
前 往</w>
黑塞 哥
黑塞哥 维那</w>
201 3</w>
4 8
200 0</w>
生 育</w>
拨 款</w>
引 渡</w>
克罗地 亚</w>
规 约</w>
渔 业</w>
初 级</w>
拉 圭</w>
气 体</w>
0 年代</w>
前 景</w>
重 复</w>
动 员</w>
东 道
格鲁吉 亚</w>
肯 尼亚</w>
星 期</w>
豁 免</w>
相 反</w>
文 章</w>
关 心</w>
女 人</w>
询 问</w>
运 用</w>
人 人</w>
7 1</w>
怀 疑</w>
阿尔及 利亚</w>
低 于</w>
观察 团</w>
飞 行</w>
设 置</w>
教 授</w>
掌 握</w>
电 影</w>
限 于</w>
空 缺</w>
cl as
角 色</w>
好 处</w>
负 责
第 九</w>
事 故</w>
持 续性</w>
称 为</w>
失 业</w>
名 义</w>
马 拉</w>
照 顾</w>
教 育
消费 者</w>
创 建</w>
许 可</w>
周 年</w>
员 工</w>
宗 旨</w>
民 事</w>
出 生</w>
细 则</w>
希 腊</w>
核 裁军</w>
尼 斯</w>
正 规</w>
结 婚</w>
巴勒斯坦 人</w>
爆 炸</w>
智 利</w>
看 来</w>
工 会</w>
第 6</w>
特 里亚</w>
薪 金</w>
200 8-
1 %</w>
应 付</w>
7 %</w>
所 谓</w>
丰 富</w>
对 待</w>
指 数</w>
想 法</w>
3 %</w>
马 来
尔 ·
敏 感</w>
纪 念</w>
自 由
赞 成</w>
安 装</w>
4 0
申 诉人</w>
副 主席</w>
测 量</w>
地 利</w>
厄 立
厄立 特里亚</w>
监 察
受 理</w>
植 物</w>
百 万</w>
性 能</w>
出 于</w>
足 以</w>
奥 地利</w>
7 6</w>
备 忘
备忘 录</w>
销 毁</w>
空 气</w>
发 放</w>
培 养</w>
注 册</w>
补 偿</w>
就 此</w>
老 年人</w>
住 区</w>
无 核武器</w>
3 00</w>
案 例</w>
玻 利
经 社会</w>
保 护
固 定</w>
东道 国</w>
与此 同时</w>
至 于</w>
2 %</w>
3 9
E /
i n</w>
马来 西亚</w>
不 良</w>
声 音</w>
备 选</w>
人 格</w>
优 势</w>
惯 例</w>
加 上</w>
早 期</w>
节 目</w>
讲 话</w>
作 业</w>
取 代</w>
成 年人</w>
听 到</w>
检 测</w>
罗 马</w>
位 于</w>
塞尔 维亚</w>
4 9
转 变</w>
a b
补 贴</w>
男 孩</w>
变 成</w>
完 善</w>
粮 农</w>
图 书
许 可
灭 绝</w>
正 义</w>
柬 埔
塞 尔</w>
柬埔 寨</w>
妻 子</w>
欧 元</w>
卖 淫</w>
总 数</w>
将 来</w>
移 动</w>
遣 队</w>
建 设
尊 严</w>
外 交
耶 路
第 十</w>
告 知</w>
耶路 撒
定 于</w>
逐 渐</w>
图书 馆</w>
行 为
提 醒</w>
发言 者</w>
康 复</w>
限 度</w>
项 下</w>
投资 者</w>
或 是</w>
提 名</w>
不 到</w>
大 型</w>
方 便</w>
主 张</w>
名 额</w>
削 减</w>
危 害</w>
民 国</w>
副 秘书长</w>
为 期</w>
考 试</w>
6 %</w>
巴 黎</w>
事 先</w>
耶路撒 冷</w>
家 人</w>
200 1</w>
许可 证</w>
当 事</w>
看 见</w>
用 品</w>
缺 少</w>
加 速</w>
当 选</w>
丈 夫</w>
白 俄罗斯</w>
收 益</w>
协 同</w>
制 性</w>
南 亚</w>
情 形</w>
一 半</w>
故 事</w>
关 联</w>
约 旦</w>
7 8</w>
分 布</w>
近 东</w>
第 八</w>
英 文</w>
充 满</w>
获 悉</w>
移 交</w>
而 是</w>
法 定</w>
囚 犯</w>
大 楼</w>
他 人</w>
8 7</w>
4 %</w>
建设 性</w>
驻 地</w>
强 制</w>
a l</w>
201 0</w>
发 射</w>
例 外</w>
i r
生 存</w>
金 属</w>
世 界
大 陆</w>
安 哥
应 在</w>
失 败</w>
200 5</w>
以 期</w>
丹 麦</w>
不 论</w>
加 剧</w>
海 洋
音 乐</w>
撒 哈
o m
有 害</w>
士 兵</w>
共 体</w>
复 员</w>
排 除</w>
重 于</w>
转 型</w>
交 付</w>
内 罗
随 时</w>
5 -
病 人</w>
内罗 毕</w>
安哥 拉</w>
绝 对</w>
否 则</w>
波 兰</w>
始 终</w>
回 到</w>
遵 循</w>
7 9</w>
任 职</w>
强 化</w>
各 国</w>
经济 体</w>
概 算</w>
束 力</w>
产 业</w>
工 艺</w>
连 接</w>
下 去</w>
I I</w>
汇 编</w>
很 少</w>
工作 者</w>
很 大</w>
安 置</w>
配 置</w>
雇 用</w>
19 5
200 4</w>
国 内
比 如</w>
时 间
撒哈 拉</w>
近 年</w>
农 民</w>
独 特</w>
理 想</w>
伦 敦</w>
基 准</w>
贸易 法</w>
迫 切</w>
尼 泊
芬 兰</w>
本 人</w>
充 足</w>
名 字</w>
简 要</w>
文 本</w>
日 常</w>
缔 结</w>
经 社</w>
e t
巴 布
邻 国</w>
边 境</w>
推 行</w>
比 利
上 帝</w>
退 休</w>
a y
小 学</w>
互 联网</w>
尼泊 尔</w>
变 革</w>
卫 生
总 结</w>
主 办</w>
动 态</w>
着 手</w>
亚 美
当 事
据 称</w>
秘 鲁</w>
间 接</w>
绿 色</w>
问 责</w>
P- 3</w>
U N
孟 加拉
特 遣队</w>
谈 会</w>
强 奸</w>
不 得</w>
有 效
军 备</w>
第 7</w>
首 席</w>
洗 钱</w>
护 者</w>
结 盟</w>
扩 展</w>
邮 件</w>
毁 灭
信 心</w>
尽 量</w>
8 3</w>
毁灭 性</w>
改 为</w>
警 方</w>
受 益
约 束力</w>
事 态</w>
导 弹</w>
加 工</w>
渠 道</w>
危 地
无 论
活 性</w>
外 国人</w>
融 合</w>
所 列</w>
前 提</w>
坚 定</w>
产 妇</w>
策 略</w>
调 解</w>
广 告</w>
动 者</w>
出 售</w>
看 看</w>
法 典</w>
e s</w>
签 订</w>
R ev
现 状</w>
内 陆</w>
公 路</w>
别 的</w>
比 率</w>
幅 度</w>
: 00</w>
形 势</w>
正 如</w>
区 别</w>
百分 比</w>
P- 4</w>
文 职</w>
有 用</w>
另 一方面</w>
C E
检 查
二 十</w>
暂 停</w>
后 者</w>
毛 里
衣 服</w>
纲 要</w>
职 等</w>
孟加拉 国</w>
拘 留
关 闭</w>
核 定</w>
201 0-
保 存</w>
索 赔
设 在</w>
突 尼斯</w>
不 平等</w>
空 中</w>
耶 和
耶和 华</w>
武 力</w>
或 许</w>
汇 率</w>
格 式</w>
废 除</w>
认 定</w>
连 续</w>
8 1</w>
遣 返</w>
定 居
危地 马拉</w>
8 %</w>
余 额</w>
分 之一</w>
国 外</w>
提 升</w>
处 境</w>
不 久</w>
跟 踪</w>
3 -
r o
h a
委 员</w>
我 的</w>
婴 儿</w>
裁 定</w>
印 发</w>
附 加</w>
组 合</w>
月 份</w>
缺 陷</w>
陈 述</w>
公 里</w>
斯 ·
19 4
退 化</w>
统 计
的 确</w>
转 递</w>
人 权
信 号</w>
下 面</w>
8 2</w>
企 图</w>
先 前</w>
地 带</w>
汇 报</w>
成 效</w>
不 妨</w>
排 雷</w>
亚美 尼亚</w>
等 待</w>
参 数</w>
内 瑞
支 援</w>
A C.
委 内瑞
a c
/C /
单 方面</w>
循 环</w>
守 则</w>
多 尔</w>
5 9
u s
眼 睛</w>
核 可</w>
审 评</w>
厄 瓜
时间 表</w>
房 间</w>
委内瑞 拉</w>
来 看</w>
依 靠</w>
帐 户</w>
负责 人</w>
有 罪</w>
人 居
探 索</w>
学 会</w>
配 合</w>
网 上</w>
海洋 法</w>
名 称</w>
周 围</w>
i m
比利 时</w>
处 决</w>
明 白</w>
8 8</w>
8 4</w>
距 离</w>
个 别</w>
游 戏</w>
穷 人</w>
里 兰
坚 决</w>
.. .</w>
房 子</w>
200 6-
第 9</w>
基 本
越 南</w>
转 交</w>
表 格</w>
容 性</w>
国 别</w>
规 章</w>
合 作
政 治
8 5</w>
董 事会</w>
删 除</w>
业 化</w>
捷 克</w>
负 有</w>
使 用
商 务</w>
必 要性</w>
持 有</w>
厄瓜 多尔</w>
骚 扰</w>
晚 上</w>
妈 妈</w>
偿 还</w>
覆 盖</w>
P /
于 是</w>
宏 观</w>
单 一</w>
新 加
推 出</w>
元 首</w>
各 位</w>
动 机</w>
其 余</w>
总 值</w>
受 伤</w>
仇 外</w>
繁 荣</w>
缓 解</w>
维 修</w>
卡 塔
8 6</w>
极 其</w>
过 境</w>
价 值
大 韩</w>
海 外</w>
当 中</w>
面 积</w>
遗 产</w>
首 长</w>
南 南
斯 里兰
再 生</w>
高 于</w>
房 屋</w>
不 管</w>
建 筑
身 上</w>
订 立</w>
所 在</w>
解 放</w>
简 化</w>
祝 贺</w>
经 理</w>
南南 合作</w>
8 9</w>
斯里兰 卡</w>
现 场</w>
世 贸</w>
大 力</w>
新加 坡</w>
R .
法 语</w>
做 到</w>
A/ C
如 今</w>
丧 失</w>
决 策
金 额</w>
6 0
合 适</w>
培 训
投 诉</w>
终 了</w>
沿 海</w>
残 忍</w>
忽 视</w>
轻 武器</w>
犯 下</w>
A/C. 3/
罪 犯</w>
秘 密</w>
A/C. 2/
红 十
199 7</w>
裁 谈会</w>
彼 此</w>
接 近</w>
4 00</w>
诊 断</w>
罗 马
突 然</w>
第十 四</w>
C R
怀 孕</w>
地 震</w>
自 从</w>
S T
负 债</w>
文 明</w>
档 案</w>
物 资</w>
竞争 力</w>
r e
处 置</w>
拖 延</w>
干 旱</w>
行为 者</w>
沟 通</w>
国 防
首 要</w>
分 列</w>
流 程</w>
外交 部</w>
o s
南 方</w>
中 等</w>
决 权</w>
快 乐</w>
之 内</w>
说 法</w>
旅 游
子 们</w>
合 物</w>
能 否</w>
么 样</w>
a h</w>
杀 害</w>
有 辱</w>
季 度</w>
人居 署</w>
00 00</w>
东 部</w>
当事 人</w>
强 大</w>
6 00</w>
减 贫</w>
批 评</w>
国 会</w>
加 大</w>
约 翰
现 代
假 设</w>
以 为</w>
第 4
识 别</w>
1 ,
老 师</w>
纪 律</w>
有 机</w>
顺 利</w>
合 法
过 来</w>
某 个</w>
算 法</w>
京 都</w>
葡萄 牙</w>
监察 员</w>
暂 时</w>
绩 效</w>
差 别</w>
萨 尔
作 品</w>
1 /2
人 群</w>
愿 望</w>
司 法
标 志</w>
友 好</w>
灵 活</w>
升 级</w>
9 1</w>
会 上</w>
正 当</w>
责 制</w>
200 4-
旅 费</w>
宝 贵</w>
定 为</w>
多样 化</w>
反 腐败</w>
温 室</w>
承 包
实 验
200 3</w>
地 域</w>
捐助 国</w>
上 面</w>
H R
阅 读</w>
C h
阐 明</w>
众 多</w>
200 7</w>
消 耗</w>
桑 尼亚</w>
西 方</w>
博 士</w>
表 面</w>
上 空</w>
海 上</w>
促 成</w>
临 床</w>
学 术</w>
幸 福</w>
照 片</w>
9 6</w>
照 料</w>
响 应</w>
辩 护</w>
坦 桑尼亚</w>
斯 达
质 疑</w>
财 富</w>
沙 特
回 来</w>
第十 一</w>
共 享</w>
用 以</w>
e n</w>
手 术</w>
e c
包 容性</w>
9 2</w>
证 券</w>
入 侵</w>
区 分</w>
一 致
索赔 人</w>
萨 克斯坦</w>
C or
穆 斯
侵 略</w>
刺 激</w>
用 水</w>
天 气</w>
大 幅</w>
来 到</w>
工 厂</w>
发言 人</w>
谈 到</w>
特 网</w>
5 /2
根 源</w>
富 有</w>
过 度</w>
效 应</w>
行 事</w>
披 露</w>
a k
9 3</w>
以 此</w>
进 度</w>
破 产</w>
有效 性</w>
人 身</w>
展 示</w>
主 导</w>
净 额</w>
政 权</w>
制 造
作 物</w>
负 面</w>
时 刻</w>
排 放
领 袖</w>
图 像</w>
201 2-
判 处</w>
夫 人</w>
留 下</w>
201 2</w>
9 7</w>
第 8</w>
物 体</w>
并 未</w>
现代 化</w>
乍 得</w>
9 8</w>
哥 斯达
A/C. 5/
领 取</w>
施 加</w>
黎 加</w>
北 爱尔兰</w>
哥斯达 黎加</w>
等 等</w>
灾 难</w>
中 间</w>
指 挥
联 络
其 实</w>
真 实</w>
没 收</w>
停 火</w>
革 命</w>
因 特网</w>
会 谈</w>
加 尔</w>
到 达</w>
引 发</w>
穆斯 林</w>
阿尔 巴
I N
清 除</w>
警 告</w>
时 限</w>
新 闻
9 4</w>
被 迫</w>
变 动</w>
9 9</w>
r i
种 种</w>
对 策</w>
a h
份 额</w>
定 罪</w>
优 惠</w>
饥 饿</w>
电 信</w>
沙特 阿拉伯</w>
招 募</w>
不 列
199 6</w>
出 去</w>
乌 拉圭</w>
从 未</w>
不列 颠</w>
受 益</w>
德 ·
庇 护</w>
孩 子们</w>
陷 入</w>
不 扩散</w>
首 次</w>
7 0
实 质</w>
罗马 尼亚</w>
u l
公 报</w>
7 /2
同 等</w>
辅 助</w>
久 性</w>
歧 视
轨 道</w>
全 民</w>
加 纳</w>
也 是</w>
制 品</w>
业 率</w>
至 今</w>
尝 试</w>
编 列</w>
有 可能</w>
追 求</w>
200 6</w>
经 合</w>
对 付</w>
Rev .1</w>
其 后</w>
合 格</w>
办 公</w>
习 俗</w>
基 因</w>
登记 册</w>
参 照</w>
塞 内
视 察</w>
封 锁</w>
此 种</w>
/C O
9 5</w>
疟 疾</w>
思 考</w>
库 存</w>
必 需</w>
领 空</w>
兄 弟</w>
意 外</w>
侧 重于</w>
保 安</w>
当 于</w>
第十 二</w>
a r</w>
爆 炸
疑 问</w>
纠 正</w>
塞内 加尔</w>
哈 萨克斯坦</w>
含 有</w>
一致 性</w>
鼓 舞</w>
实 例</w>
本 文</w>
对 其</w>
支 柱</w>
面 向</w>
匈 牙
玻利 维亚</w>
港 口</w>
3 5
医 学</w>
庆 祝</w>
政 部</w>
作 者</w>
列 为</w>
科 学家</w>
污 染
填 补</w>
敌 对</w>
w .
永 久</w>
监 察</w>
排 斥</w>
营 地</w>
相 当于</w>
土 壤</w>
在 线</w>
女 儿</w>
明 天</w>
中 学</w>
氧 化
本 地</w>
记 得</w>
e l</w>
杀 伤</w>
电 力</w>
家 们</w>
约 束</w>
倡 导</w>
条 文</w>
最 为</w>
脆 弱
税 收</w>
培训 班</w>
温 度</w>
分 歧</w>
绑 架</w>
萨尔 瓦
9 %</w>
10 .
用 作</w>
担 忧</w>
地 址</w>
上 海</w>
脆弱 性</w>
排放 量</w>
关 税</w>
实验 室</w>
团 队</w>
害 人</w>
代表 性</w>
违 背</w>
也 门</w>
说 话</w>
违 法</w>
情 绪</w>
利 润</w>
普 查</w>
制 约</w>
乌 兹
传 染
匈牙 利</w>
马 拉
学 科</w>
反 对
左 右</w>
超 出</w>
认 证</w>
提 起</w>
尼 加拉
乌兹 别
吸 收</w>
接 收</w>
ww w.
活 力</w>
所 有权</w>
铭 记</w>
预 警</w>
更 大</w>
免 疫</w>
萨尔瓦 多</w>
资 讯</w>
债 权
相 关
这 儿</w>
人 和</w>
中 华</w>
在 此</w>
是 的</w>
普 及</w>
均 衡</w>
消 极</w>
家 属</w>
尼加拉 瓜</w>
a g
斯洛 伐
新 型</w>
民 主
分 庭</w>
一 系列</w>
爆 发</w>
利 率</w>
从 来</w>
选 出</w>
标 准
优 化</w>
7 00</w>
或 有辱</w>
那 时</w>
选 民</w>
电 台</w>
海 事</w>
社 会
流 行
客 观</w>
斯洛伐 克</w>
色 情</w>
h t
一 贯</w>
隔 离</w>
先 进</w>
备 金</w>
检 验</w>
不 结盟</w>
设 定</w>
S R.
关 押</w>
形 象</w>
选 定</w>
撤 销</w>
禁 运</w>
马 尔
包 容</w>
全 力</w>
种 植</w>
观 测</w>
拉 斯</w>
查 询</w>
细 节</w>
会 晤</w>
增 长
对 外</w>
圆 桌</w>
民 兵</w>
模 拟</w>
地 图</w>
仔 细</w>
席 位</w>
代 价</w>
西班 牙
股 票</w>
巴 马</w>
发展 权</w>
回 收</w>
住 在</w>
价值 观</w>
摆 脱</w>
改 造</w>
打 开</w>
西 岸</w>
钻 石</w>
决策 者</w>
开 办</w>
所 得</w>
i d
A/ AC.
赢 得</w>
伟 大</w>
近 期</w>
反 恐怖</w>
阿尔巴 尼亚</w>
单 元</w>
阿拉 伯
o v
好 像</w>
歧视 性</w>
船 舶</w>
D -
强 制性</w>
土 著
指 称</w>
由 此</w>
里 面</w>
上 去</w>
每 天</w>
判 断</w>
试 点</w>
原 来</w>
意 图</w>
灵 活性</w>
人 才</w>
入 境</w>
P R
离 职</w>
开 会</w>
昨 天</w>
. or
地 面</w>
土著 人</w>
拘留 者</w>
公 认</w>
薪 酬</w>
下 述</w>
节 省</w>
查 阅</w>
全球 性</w>
冻 结</w>
编 辑</w>
标 题</w>
剩 余</w>
A/C. 1/
日 子</w>
看 起来</w>
为 何</w>
版 本</w>
发 行</w>
每 年</w>
童 工</w>
大 不列颠</w>
星期 一</w>
配 偶</w>
4 /2
首 都</w>
生 计</w>
散 发</w>
论 述</w>
华 盛
迹 象</w>
机 械</w>
好 的</w>
200 2-
养 护</w>
司 长</w>
加 紧</w>
A/ HR
流 行</w>
不 安</w>
有 益</w>
论 文</w>
自 决</w>
国内 法</w>
论 性</w>
分 离</w>
行 政
Cor r
韩 国</w>
世界 上</w>
削 弱</w>
a s</w>
辐 射</w>
真 相</w>
分 为</w>
种 类</w>
谢 谢</w>
船 只</w>
多 哈</w>
定居 点</w>
会 费</w>
参与 者</w>
下 放</w>
增长 率</w>
比 绍</w>
答 案</w>
债权 人</w>
清 理</w>
申请 人</w>
12 0</w>
太 阳</w>
e d</w>
8 0
它 的</w>
黑 山</w>
保 加
星期 五</w>
常 见</w>
坐 在</w>
激 励</w>
8 00</w>
高 效</w>
阿 布
买 卖</w>
第 3
巴 塞尔</w>
年 底</w>
互 相</w>
华盛 顿</w>
7 -
和 谐</w>
西 洋</w>
u b
做 好</w>
旅游 业</w>
信 通</w>
计 量</w>
有 点</w>
污染 物</w>
授 予</w>
S -
3 /2
尽 早</w>
发 动</w>
共 计</w>
保 险
人 物</w>
中 亚</w>
不 当</w>
殖民 化</w>
人 生</w>
结 论性</w>
矛 盾</w>
成 长</w>
脱 离</w>
继 承</w>
应 由</w>
增 多</w>
接 着</w>
合法 性</w>
刚 刚</w>
中 部</w>
储 备</w>
产 量</w>
喀 麦
布 尔</w>
塔 吉
上 涨</w>
喀麦 隆</w>
召 集</w>
东 欧</w>
美 丽</w>
综 合
12 .
司法 部</w>
尼 亚
斯洛 文
当 今</w>
保加 利亚</w>
新 兴</w>
10 00</w>
A b
行 性</w>
同 一</w>
有 待</w>
核 实</w>
神 经</w>
免 受</w>
层 次</w>
无论 是</w>
大 众</w>
权 能</w>
书 记</w>
短 缺</w>
家 里</w>
技 术
牙 买
国 防</w>
斯洛文 尼亚</w>
S h
难民 营</w>
输 入</w>
免 遭</w>
消 灭</w>
多 个</w>
A/C N.
美 好</w>
e m
卡塔 尔</w>
含 量</w>
常 任</w>
咨 商</w>
缓 慢</w>
毛里 求
利 尔</w>
西 部</w>
验 证</w>
标准 化</w>
复 苏</w>
I S
地 下</w>
牙买 加</w>
可 行性</w>
自由 化</w>
杂 志</w>
198 9年</w>
特 使</w>
美 国人</w>
机 器</w>
寿 命</w>
网 页</w>
Corr .1</w>
P- 5</w>
毛里求 斯</w>
其 次</w>
基本 上</w>
a v
终 于</w>
麻 醉</w>
第十 九</w>
e d
成 人</w>
干 涉</w>
哪 里</w>
吉 尔
X X
6 /2
s p
第6 0</w>
议 院</w>
队 伍</w>
I n
当 代</w>
盟 约</w>
报 纸</w>
围 绕</w>
被 拘留者</w>
给 出</w>
蒙 古</w>
初 次</w>
缩 小</w>
广 大</w>
会 见</w>
机 遇</w>
公 园</w>
基 督
健 全</w>
at i
迫 使</w>
青 年人</w>
同 事</w>
要 是</w>
征 求</w>
3 6
恰 当</w>
局 面</w>
通 用</w>
蒙特 利尔</w>
开 幕</w>
C O
回 家</w>
F .
负 责任</w>
想 到</w>
B .
文 字</w>
远 远</w>
毛 额</w>
不 够</w>
气 象</w>
管理 层</w>
非 殖民化</w>
依 法</w>
颜 色</w>
更 改</w>
企 业
第 15</w>
报 酬</w>
10 5</w>
置 于</w>
著 名</w>
起 到</w>
十 二</w>
无 害</w>
见 到</w>
知 情</w>
站 在</w>
对 抗</w>
后 面</w>
巡 逻</w>
布 鲁
开 设</w>
海 盗</w>
援 引</w>
准 入</w>
红十 字</w>
预 防
被 占</w>
罗 姆
u m
i a</w>
暂 行</w>
指 挥</w>
人 均</w>
添 加</w>
俱 乐
不 错</w>
联 黎</w>
想 象</w>
clas s
10 %</w>
clas s</w>
总 共</w>
俱乐 部</w>
A/6 0</w>
台 湾</w>
警 务</w>
赠 款</w>
分 之
修 建</w>
视 频</w>
抗 议</w>
马 其
据 说</w>
非 正规</w>
运 送</w>
顾 客</w>
承 受</w>
前 面</w>
爆炸 物</w>
同 次</w>
否 认</w>
t h
发 送</w>
生 长</w>
M ar
多 米
性 虐待</w>
生产 力</w>
成 熟</w>
小 额</w>
形 态</w>
逻 辑</w>
找 出</w>
分 析
人 为</w>
200 8</w>
保 密</w>
学 率</w>
支 配</w>
被 捕</w>
签 证</w>
预防 性</w>
通 货
奥 巴马</w>
通货 膨
事 宜</w>
气 氛</w>
马其 顿</w>
运 会</w>
吉尔 吉
一 部分</w>
照 会</w>
性 的</w>
国 王</w>
深 刻</w>
个 案</w>
阿 卜
铁 路</w>
招 聘</w>
交 给</w>
疫 苗</w>
留 在</w>
第 10</w>
那 儿</w>
4 5
an d
D /
简 报</w>
5 0%</w>
E /200
申 明</w>
委 托</w>
马 上</w>
建筑 物</w>
卫生 部</w>
大 小</w>
双 重</w>
国 务
直 升
失 望</w>
熟 悉</w>
序 言</w>
设 有</w>
失 业率</w>
替 代
次 数</w>
控 制
特 权</w>
对 方</w>
201 4-
文 学</w>
村 庄</w>
指挥 官</w>
强 有力</w>
回 返</w>
集 会</w>
德 里</w>
仇 恨</w>
阶 层</w>
家 园</w>
草 稿</w>
无 效</w>
追 究</w>
证 件</w>
恐 惧</w>
期 内</w>
林 业</w>
煽 动</w>
必 然</w>
过 于</w>
治 安</w>
整 合</w>
详 情</w>
福 祉</w>
赞 比亚</w>
老 人</w>
立 陶
补 助</w>
多米 尼
198 8年</w>
本 来</w>
实 物</w>
署 长</w>
老 年</w>
可 持续性</w>
权 益</w>
权 限</w>
波 动</w>
引 入</w>
提 前</w>
之 时</w>
修 复</w>
力 求</w>
国 有</w>
养 恤</w>
分 担</w>
工作 量</w>
比 额</w>
冲 击</w>
立陶 宛</w>
各 方</w>
真 是</w>
办 理</w>
如 同</w>
桑 比
莫 桑比
搜 索</w>
利 息</w>
责 任
人权 法</w>
奥 运会</w>
瓦 尔</w>
开 列</w>
妇 发</w>
统 治</w>
20 %</w>
10 时</w>
德 班</w>
普 遍
号 决议</w>
延 迟</w>
消 失</w>
审 计
可 再生</w>
紧 迫</w>
东 南亚</w>
A .
采 纳</w>
必 不可
振 兴</w>
可 用</w>
购 置</w>
所 作</w>
分 散</w>
199 5</w>
分 段</w>
紧 密</w>
能 量</w>
塔吉 克斯坦</w>
筹 集</w>
认 捐</w>
防 范</w>
并 请</w>
布 基</w>
联 利</w>
无 疑</w>
诉 诸</w>
裂 变</w>
莫桑比 克</w>
较 为</w>
架 构</w>
乌兹别 克斯坦</w>
员 们</w>
第十 三</w>
不 仅仅</w>
10 9</w>
星期 四</w>
不 稳定</w>
今 日</w>
相 似</w>
物 理</w>
既 定</w>
局 长</w>
代 码</w>
要 点</w>
多 瓦</w>
定 位</w>
除 外</w>
事务 处</w>
指 令</w>
开 采</w>
带 有</w>
提 供
中 美洲</w>
协调 会</w>
一 道</w>
付 出</w>
转 向</w>
3 7
这 种</w>
放 射
.. .
法 索</w>
转 换</w>
诉 讼
供 水</w>
东 盟</w>
工 业化</w>
技 巧</w>
里 约</w>
漂 亮</w>
组 建</w>
奖 励</w>
本 着</w>
划 分</w>
家 长</w>
民 警</w>
警 察
11 .
阵 线</w>
契 约</w>
债 券</w>
必不可 少</w>
不 起</w>
t i
增 至</w>
UN E
年 轻
转 化</w>
此 后</w>
害 怕</w>
复 原</w>
理 事
星期 二</w>
前 进</w>
交 易
体 面</w>
命 运</w>
术 语</w>
巴 拿
影 响
包 装</w>
重 组</w>
受 害</w>
15 0</w>
部 委</w>
分 割</w>
权 威</w>
行 动者</w>
记 忆</w>
驱 动</w>
边 缘</w>
撤 出</w>
住 宅</w>
源 于</w>
贯 彻</w>
所 在
奠 定</w>
0 /
满 意
影响 力</w>
典 型</w>
津 巴布
仪 式</w>
范 畴</w>
力 度</w>
部 落</w>
毫 不</w>
津巴布 韦</w>
梦 想</w>
民 用</w>
女 的</w>
不 幸</w>
摊 款</w>
仲 裁
年轻 人</w>
成 分</w>
布 什</w>
原 理</w>
还 应</w>
手 机</w>
老 板</w>
收 费</w>
浪 费</w>
格 兰</w>
元 素</w>
缴 款</w>
理事 国</w>
驳 回</w>
追 踪</w>
运 营</w>
团 伙</w>
线 图</w>
最 多</w>
演 变</w>
耶 稣</w>
困 境</w>
A/HR C/
常 会</w>
马 耳
目 的
干 扰</w>
反 馈</w>
o h
令 人
路 线</w>
199 3</w>
立 性</w>
犯 罪
团 长</w>
纳 法索</w>
电 视
竞 赛</w>
闭 会</w>
马耳 他</w>
伤 亡</w>
实 用</w>
I D
考 察</w>
物 种</w>
艺 术
任 用</w>
-- -</w>
遗 传</w>
更 好</w>
自 主</w>
部 件</w>
犯 有</w>
市 民</w>
数 学</w>
活 跃</w>
屠 杀</w>
A n
欺 诈</w>
胜 利</w>
多 么</w>
忘 记</w>
统 筹</w>
爸 爸</w>
爱 沙
显 得</w>
o t
10 1</w>
第 16</w>
谋 求</w>
职 类</w>
al -
纳 米
第 11</w>
复 杂
真 诚</w>
优 质</w>
平 方
地 产</w>
叙 述</w>
竞 选</w>
200 2</w>
10 2</w>
顾 及</w>
走 向</w>
S t
谨 慎</w>
对 性</w>
人 事</w>
城 镇</w>
颁 发</w>
应 以</w>
动 性</w>
爱 情</w>
之 际</w>
法 外</w>
土 库
信 用
斯 德
会 员</w>
199 4</w>
放射 性</w>
超 越</w>
W G
章 程</w>
巴拿 马</w>
花 费</w>
礼 物</w>
弥 补</w>
抓 住</w>
10 4</w>
测 定</w>
助 金</w>
等 级</w>
出 口
鱼 类</w>
含 义</w>
全 权</w>
外 空</w>
s t
罚 款</w>
出 发</w>
姓 名</w>
提 倡</w>
服务 器</w>
承包 商</w>
克 斯</w>
拉 脱
敌 人</w>
外 联</w>
洲 人</w>
3 4
几 十</w>
A/5 9/
爱沙 尼亚</w>
便 于</w>
公 职</w>
到 底</w>
不 限</w>
哥 尔
徒 刑</w>
创 业</w>
垃 圾</w>
9 0
军 火</w>
8 /2
5 5
一 再</w>
演 讲</w>
贝 宁</w>
追 加</w>
中 文</w>
衰 退</w>
罗姆 人</w>
联 刚</w>
离 婚</w>
警 官</w>
斯德 哥尔
偏 见</w>
人 工</w>
臭 氧</w>
缴 纳</w>
麻 烦</w>
有 趣</w>
教 会</w>
联 塞</w>
或 者
2 /2
11 1</w>
作 法</w>
印 刷</w>
中 海</w>
娱 乐</w>
斯德哥尔 摩</w>
使 命</w>
毕 业</w>
施 工</w>
第 13</w>
积 累</w>
合作 社</w>
特 区</w>
学 者</w>
200 0-
拉脱 维亚</w>
怎 么样</w>
抵 达</w>
目的 地</w>
区 域
摧 毁</w>
A/CN. 9/
a f
人 体</w>
住 所</w>
自 行</w>
成 年</w>
刑 法典</w>
并 使</w>
向 前</w>
减 缓</w>
10 3</w>
D A
理 念</w>
款 额</w>
学 位</w>
尔 德</w>
致 使</w>
土库 曼
边 缘
9 00</w>
路 线图</w>
遗 留</w>
迁 移</w>
普遍 性</w>
咖 啡</w>
R E
流 化</w>
补 助金</w>
救 助</w>
配 备</w>
酒 店</w>
理 性</w>
打 破</w>
确 切</w>
益 于</w>
热 情</w>
之 上</w>
构 想</w>
撤 回</w>
生 成</w>
海 岸</w>
合 成</w>
休 息</w>
商 店</w>
纳米 比亚</w>
立 法
持 久性</w>
签 发</w>
到 了</w>
代 理
赞 助</w>
出 色</w>
星期 三</w>
预 先</w>
核 能</w>
所 需要</w>
表 演</w>
红 色</w>
乡 村</w>
E/CN. 4/
联 科</w>
第十 七</w>
直升 机</w>
早 上</w>
边缘 化</w>
环 保</w>
对 手</w>
4 /200
税 务</w>
总 务</w>
可 怕</w>
感 受</w>
精 力</w>
欣 见</w>
太 阳
品 牌</w>
199 0年代</w>
未 决</w>
生 命
理 学</w>
土库曼 斯坦</w>
对 应</w>
A/6 1/
谈 话</w>
展 望</w>
核 试验</w>
感 兴趣</w>
碎 片</w>
天 然
冰 岛</w>
塔 利
当 作</w>
饮 食</w>
三 分之一</w>
30 %</w>
顺 序</w>
分 裂</w>
独 立性</w>
下 次</w>
更 换</w>
处 在</w>
应 为</w>
i g
大 西洋</w>
维 护者</w>
不 可能</w>
上 学</w>
代 替</w>
in g</w>
教育 部</w>
身 心</w>
采 矿</w>
跨 界</w>
准 许</w>
结 余</w>
使用 者</w>
退 出</w>
租 赁</w>
补 编</w>
3 3
2008- 2009</w>
A/5 8/
刚 才</w>
判 例</w>
遭 遇</w>
犹 太
看 出</w>
A/5 7/
减 免</w>
器 官</w>
假 如</w>
针 对性</w>
事 物</w>
皮 肤</w>
强 度</w>
慈 善</w>
斯 堡</w>
禁 毒
带 着</w>
未 经</w>
引 导</w>
好 吗</w>
不 少</w>
孕 妇</w>
惩 治</w>
多米尼 加</w>
内 政</w>
接 纳</w>
发 明</w>
送 交</w>
不 用</w>
艰 难</w>
口 译</w>
明 年</w>
手 续</w>
斯 特</w>
签 名</w>
案 情</w>
l e
o d
订 约</w>
透 过</w>
第十 五</w>
网 址</w>
频 率</w>
反对 派</w>
妥 善</w>
人 民
抵 抗</w>
精 确</w>
零 零
法 人</w>
地 中海</w>
o b
传 递</w>
中 止</w>
4 6
A/C.3/ 6
不 是</w>
过 分</w>
惩 处</w>
A/6 5/
渴 望</w>
分 开</w>
学 金</w>
先 决</w>
重 叠</w>
遏 制</w>
公 务</w>
截 止</w>
11 0</w>
15 .
塔利 班</w>
智 慧</w>
2 ,
堕 胎</w>
上 次</w>
捍 卫</w>
大 幅度</w>
名 册</w>
木 材</w>
措 辞</w>
a d</w>
A/6 3/
巴 林</w>
吉尔吉 斯
10 万</w>
绝 大多数</w>
玻 璃</w>
流 入</w>
9 /2
挑 选</w>
次 序</w>
恶 劣</w>
10 6</w>
操 守</w>
抑 制</w>
示 威</w>
捕 捞</w>
激 烈</w>
9 6
职 员</w>
是 说</w>
指 明</w>
酋 长
实 在</w>
编 号</w>
隔 离
文 献</w>
高 速</w>
租 金</w>
推 荐</w>
品 质</w>
者 们</w>
约 翰</w>
14 .
聘 用</w>
实 务</w>
构 建</w>
国防 军</w>
西 撒哈拉</w>
牵 头</w>
浓 度</w>
10 0
海 牙</w>
三 十</w>
宣 称</w>
天然 气</w>
酋长 国</w>
A/6 2/
C -
糟 糕</w>
准 备金</w>
诉讼 法</w>
完 美</w>
危 及</w>
u t
I II</w>
未 成年人</w>
I /
对 比</w>
深 信</w>
过 境
中 断</w>
10 8</w>
报 复</w>
愉 快</w>
蔓 延</w>
号 码</w>
A/6 4/
专 用</w>
内 在</w>
调 节</w>
印 象</w>
记 住</w>
信 函</w>
相关 性</w>
劳 动
以 南</w>
结 构
勘 探</w>
教 堂</w>
内 阁</w>
势 头</w>
感 情</w>
导 航</w>
赤 字</w>
穷 国</w>
总 干事</w>
A/C.2/ 6
炸 弹</w>
第 二十</w>
10 7</w>
存 款</w>
从 中</w>
定 型</w>
看 作</w>
收 取</w>
饮 用水</w>
到 来</w>
买 方</w>
乐 观</w>
精 简</w>
火 箭</w>
博 物
伊斯 兰
小 姐</w>
移 徙
原 始</w>
审 讯</w>
储 蓄</w>
5 ％</w>
检查 组</w>
国务 院</w>
会 期</w>
严 峻</w>
使 馆</w>
a t</w>
创 造
00 0
第十 六</w>
吉 布
预 定</w>
外 债</w>
优 秀</w>
性 恋</w>
侵 权</w>
议 定</w>
幼 儿</w>
企业 家</w>
4 7
布 雷
延 误</w>
巴 拉圭</w>
运 动员</w>
庇 护者</w>
节 约</w>
生 物
列 举</w>
邮 政</w>
洪 都
护 照</w>
北 方</w>
检察 长</w>
申 报</w>
西班牙 语</w>
克 ·
F CC
雇 佣
非 国家</w>
撤 离</w>
混 乱</w>
可 靠
手 中</w>
入 学</w>
聪 明</w>
每 次</w>
13 .
不 满</w>
第 14</w>
第 18</w>
有 意</w>
稳 定性</w>
目 录</w>
业 者</w>
外 汇</w>
副 本</w>
提 取</w>
流行 病</w>
羁 押</w>
施 政</w>
要 么</w>
第二十 三</w>
女 生</w>
博物 馆</w>
同 上</w>
参 观</w>
组 织
故 意</w>
据 此</w>
传 真</w>
严 厉</w>
o p
媒 介</w>
注 意
岗 位</w>
支 持
尽 力</w>
17 .
9 -
展 览</w>
初 期</w>
洪都 拉斯</w>
无 线
发 电
异 常</w>
联 检</w>
头 发</w>
A/6 6/
金 钱</w>
老 龄</w>
研 所</w>
蒙特 雷</w>
农 场</w>
估 算</w>
摩 尔</w>
假 定</w>
11 3</w>
债 务
弃 权</w>
动 作</w>
海 底</w>
归 还</w>
第 12</w>
C A
主 义
19 .
解 释
划 界</w>
196 7年</w>
禁 令</w>
指 责</w>
半 年</w>
核 算</w>
意 志</w>
作 家</w>
主 体</w>
损 坏</w>
进 来</w>
警察 局</w>
热 带</w>
注意 力</w>
核 证</w>
斯 特
l i
预 见</w>
系 数</w>
抵 消</w>
风 格</w>
可 否</w>
11 2</w>
存 储</w>
该 国</w>
发 给</w>
o r</w>
小 心</w>
多 年
向 于</w>
自 决权</w>
与 会</w>
大 多</w>
2010- 2011</w>
远 程</w>
监 控</w>
行 径</w>
无 需</w>
ht t
老 挝</w>
斐 济</w>
提供 者</w>
谋 杀</w>
街 头</w>
批 款</w>
看 上去</w>
占 有</w>
配 额</w>
确 信</w>
11 4</w>
救 援</w>
拯 救</w>
据 报</w>
作 战</w>
/ /
少 女</w>
二 零零
之 所以</w>
综合 性</w>
根 除</w>
而 非</w>
吉尔吉斯 斯坦</w>
家 具</w>
见 解</w>
避 孕</w>
旅 馆</w>
看 待</w>
第十 八</w>
评 注</w>
奇 怪</w>
纤 维</w>
个 体</w>
进 出口</w>
不 必</w>
引 力</w>
谈 论</w>
忆 及</w>
大 气</w>
移徙 者</w>
缺 点</w>
sp an</w>
N F.
服 装</w>
等 于</w>
覆 盖
之 以
无线 电</w>
医 务</w>
驾 驶</w>
二十 一</w>
世 卫</w>
震 惊</w>
a p
应 将</w>
就 是说</w>
载 列</w>
司 机</w>
收 养</w>
军 用</w>
改 组</w>
证 词</w>
签 字</w>
会 儿</w>
C P.
用 性</w>
小 说</w>
确 定性</w>
房 地</w>
htt p</w>
此 前</w>
军 人</w>
二 氧化
院 长</w>
流 通</w>
无 人</w>
有 时候</w>
通货膨 胀</w>
十 一</w>
20 万</w>
清 晰</w>
费 率</w>
涉 嫌</w>
第 20</w>
复 兴</w>
标 签</w>
争 论</w>
吉布 提</w>
处 以</w>
曼 谷</w>
思 维</w>
殖民 地</w>
吸 取</w>
太 太</w>
不 多</w>
函 数</w>
标 记</w>
S A
塞 族</w>
论 点</w>
早 日</w>
倾 向</w>
北 约</w>
缩 短</w>
延 期</w>
传染 病</w>
总 的</w>
场 合</w>
适 足</w>
承 付</w>
尊 敬</w>
Al -
间 的</w>
将 近</w>
毕 业
借 此</w>
详 尽</w>
199 1</w>
第 七
本 质</w>
第 一
模 糊</w>
前 任</w>
主 教</w>
各 样</w>
收 回</w>
结 社</w>
内 外</w>
移 民
流 量</w>
11 6</w>
何 时</w>
模 块</w>
区域 性</w>
13 0</w>
样 子</w>
克 里
a w
生 境</w>
不 法</w>
枪 支</w>
i s</w>
i k
称 赞</w>
2006- 2007</w>
既 然</w>
斯 科</w>
山 区</w>
汇 款</w>
捐 赠</w>
像 是</w>
警 卫</w>
11 5</w>
解 放
场 地</w>
附 上</w>
科 学
癌 症</w>
心 里</w>
恐 吓</w>
通 道</w>
尤 为</w>
火 车</w>
接 到</w>
4 0%</w>
携 带</w>
亚 人</w>
专 利</w>
13 73</w>
i y
实 效</w>
苦 难</w>
199 2</w>
体 上</w>
理 事</w>
牺 牲</w>
第 23</w>
概 况</w>
属 性</w>
工程 师</w>
阳 光</w>
运 载</w>
获 益</w>
指 派</w>
听 说</w>
诊 所</w>
联 海</w>
呼 吸</w>
雇佣 军</w>
A/5 5/
种 子</w>
198 6年</w>
动 荡</w>
坚 信</w>
揽 子</w>
第 24</w>
戈 兰</w>
入 学率</w>
以色 列
对 本</w>
连 续性</w>
基 层</w>
斯 加</w>
信 念</w>
下 跌</w>
十 五</w>
社会 主义</w>
不 但</w>
a m</w>
纪 念
奖 学金</w>
增 编</w>
o c
引 用</w>
草 坪</w>
降 至</w>
完 整
战 争
8/ L.
放 松</w>
g /
基 会</w>
商 会</w>
清 洗</w>
不 予</w>
递 交</w>
立 刻</w>
敦 士
将 军</w>
女 子</w>
分之 二</w>
黑 暗</w>
敦士 登</w>
16 .
亲 属</w>
内 地</w>
复杂 性</w>
呈 现</w>
军 官</w>
原 先</w>
对 在</w>
危 害人</w>
训 研所</w>
今 晚</w>
继 承
拨 出</w>
孕 产妇</w>
森 堡</w>
野 生</w>
嫌 疑
素 质</w>
8 0%</w>
多 哥</w>
言 之</w>
借 鉴</w>
自 动
第五十 七</w>
业 已</w>
e t</w>
足 球</w>
研 制</w>
极 大</w>
应 有</w>
信 息
主义 者</w>
卡 拉
P- 2</w>
采 访</w>
地 上</w>
加 深</w>
选 项</w>
航 行</w>
CE DA
派 出</w>
援 助
规 律</w>
第 22</w>
满意 地</w>
a z
业 界</w>
借 口</w>
异 议</w>
纠 纷</w>
诸 多</w>
游 客</w>
即 便</w>
虚 拟</w>
A/5 3/
大 脑</w>
约翰 内
扭 转</w>
第 27</w>
遵 照</w>
第5 0</w>
战争 罪</w>
某 一</w>
回 归</w>
12 2</w>
生 意</w>
卢 森堡</w>
主 人</w>
感 染
列 支
列支 敦士登</w>
K h
题 目</w>
忽 略</w>
ID B.
易 受</w>
增 设</w>
略 性</w>
大 地</w>
约翰内 斯堡</w>
卷 入</w>
萨 摩
薄 弱</w>
18 .
运 动
格 林
段 落</w>
助 长</w>
统计 局</w>
周 末</w>
救 灾</w>
微 型</w>
麻 醉
概 要</w>
布鲁 塞尔</w>
市 政</w>
行政 区</w>
11 8</w>
高 层</w>
力 学</w>
较 大</w>
倾 向于</w>
选 举
特 ·
说 道</w>
完整 性</w>
宇 宙</w>
解释 性</w>
7/ L.
依 赖
5 亿</w>
峰 会</w>
多 斯</w>
年 级</w>
介 绍
行 车</w>
20 年</w>
自动 化</w>
萨摩 亚</w>
好 几</w>
联 阿</w>
练 习</w>
认 同</w>
情 感</w>
线 性</w>
扫 盲</w>
E/CN. 4/200
玻利 瓦尔</w>
第 4</w>
深 切</w>
很 快</w>
学 术
本 条</w>
汤 姆</w>
海 军</w>
解 雇</w>
故 障</w>
用 尽</w>
巴 巴
僵 局</w>
境 况</w>
5 6
代理 人</w>
绳 之以
绳之以 法</w>
马拉 维</w>
结构 性</w>
大 赦</w>
三 分之二</w>
基督 教</w>
回 报</w>
甄 选</w>
抱 怨</w>
可 信</w>
球 队</w>
接 待</w>
第五十 八</w>
第五十 九</w>
尼日 尔</w>
同 于</w>
职 工</w>
频 繁</w>
集 束</w>
施 行</w>
原 料</w>
5 000</w>
T h
回 合</w>
剩 下</w>
性 骚扰</w>
外 面</w>
这 时</w>
后 代</w>
an d</w>
均 等</w>
房 地产</w>
东 京</w>
病 例</w>
审计 员</w>
纪 录</w>
陆 地</w>
可靠 性</w>
附 录</w>
程 序
匹 配</w>
不 懈</w>
奥 斯
一 体</w>
非 公开</w>
盘 旋</w>
密 度</w>
瓦 纳</w>
中 小型</w>
2012- 2013</w>
章 节</w>
20 .
界 限</w>
哈 马
不 如</w>
2004- 2005</w>
人 居</w>
系 统
调查 团</w>
收 购</w>
预 算
利 害</w>
A/5 4/
监 视</w>
现 任</w>
沉 重</w>
儿 基会</w>
此 类</w>
爱 的</w>
追 回</w>
市 化</w>
无 关</w>
体 罚</w>
劳 工
荣 幸</w>
益 处</w>
ST /
为 本</w>
管 道</w>
无 视</w>
习 惯
鉴 定</w>
第六 十</w>
200 5/
惠 益</w>
穿 着</w>
工 商</w>
多 元
症 状</w>
FCC C/
哈 根</w>
收 容</w>
公 私</w>
读 者</w>
CEDA W
聚 集</w>
卖 方</w>
以 供</w>
优 点</w>
消 耗
内 政部</w>
类 罪</w>
隔离 墙</w>
12 5</w>
10 0万</w>
联 委会</w>
变 更</w>
调 集</w>
非 索</w>
百分 之
5 7
平 静</w>
非 统</w>
哪 个</w>
30 万</w>
抢 劫</w>
支持 者</w>
复 制</w>
12 3</w>
矿 物</w>
特 色</w>
赤 贫</w>
空 运</w>
o v</w>
en t
债务 人</w>
环 节</w>
身 份
编 纂</w>
信 用</w>
自 然
刑 罚</w>
创 伤</w>
译 文</w>
切 割</w>
自 治
小 岛屿</w>
马 德里</w>
缴 付</w>
苹 果</w>
专 长</w>
小 孩</w>
遥 感</w>
一 边</w>
四 十</w>
198 0年</w>
2014- 201
身 边</w>
籍 国</w>
为 主</w>
各 种
11 7</w>
分 支</w>
明 智</w>
欧 安</w>
毫 米</w>
黄 金</w>
16 0</w>
扮 演</w>
出 台</w>
引 进</w>
专 家们</w>
WG .
淘 汰</w>
象 征</w>
产 假</w>
问 卷</w>
病 率</w>
燃 烧</w>
D- 1</w>
航 天</w>
国 界</w>
定 居</w>
国防 部</w>
时 机</w>
损 伤</w>
克 劳</w>
电 池</w>
学术 界</w>
五 十</w>
观 众</w>
不 足
o s</w>
i b
布 罗
回 复</w>
假 期</w>
上 市</w>
198 7年</w>
急 剧</w>
研 发</w>
制造 商</w>
澳 门</w>
数 值</w>
演 员</w>
热 烈</w>
邮 票</w>
庭 长</w>
慢 慢</w>
哲 学</w>
而 已</w>
第六十 一</w>
得 知</w>
依 存</w>
198 2年</w>
本 法</w>
限 期</w>
受益 人</w>
哥 本
d e</w>
存 者</w>
哥本 哈根</w>
究 竟</w>
巴巴 多斯</w>
英 镑</w>
勇 气</w>
.. ...
概 览</w>
保护 区</w>
尸 体</w>
Add. 2</w>
接 下来</w>
灵 魂</w>
路 上</w>
第二十 四</w>
A/C.5/ 5
二氧化 碳</w>
吸 毒</w>
慷 慨</w>
地 质</w>
o o
外 来</w>
并 对</w>
4 4
A r
充 当</w>
还 要</w>
也 就是</w>
0 1</w>
通 告</w>
用 语</w>
各 项</w>
并 将</w>
兼 顾</w>
替代 品</w>
开 罗</w>
连 同</w>
身份 证</w>
确 性</w>
无 数</w>
幸 运</w>
无 辜</w>
马尔 代
信 中</w>
茨 瓦纳</w>
1 :
杰 出</w>
图 片</w>
侧 重</w>
分 娩</w>
A/ 4
计 师</w>
伴 侣</w>
原 则
难 道</w>
白 色</w>
30 00</w>
14 0</w>
博 茨瓦纳</w>
创 作</w>
偷 运</w>
下 载</w>
境 外</w>
马尔代 夫</w>
占 据</w>
25 %</w>
有 者</w>
马 达
妥 协</w>
前 后</w>
养 老
为 由</w>
监 护
西 欧</w>
朝 着</w>
适 宜</w>
蛋 白</w>
在 此
高 中</w>
或 缺</w>
吸 引力</w>
第二十 六</w>
5 8
贩 毒</w>
圆 满</w>
不可 或缺</w>
奴 役</w>
巴 格
得 不</w>
布雷 顿</w>
注 射</w>
股 东</w>
微 笑</w>
11 9</w>
原 籍国</w>
仪 器</w>
十 三</w>
天 然</w>
出 境</w>
1 亿</w>
第五十 五</w>
发 育</w>
焦 点</w>
波 多
所 致</w>
流 感</w>
营 销</w>
体 重</w>
夫 妇</w>
介 入</w>
12 4</w>
实 力</w>
苏 联</w>
应 向</w>
输 出</w>
l e</w>
大 臣</w>
裁 减</w>
A/C.1/ 6
贫 民
智 能</w>
种 群</w>
迎 接</w>
吸 烟</w>
第 29</w>
迫 害</w>
e b
198 5年</w>
群 众</w>
收 款</w>
总 的
加 重</w>
致 命</w>
迈 出</w>
进 而</w>
所 未
大 批</w>
S B
劳 动者</w>
述 及</w>
多 国</w>
马达 加
细 菌</w>
悲 剧</w>
同 行</w>
麻醉 品</w>
城 市化</w>
· 阿
蓄 意</w>
难 题</w>
友 谊</w>
全 文</w>
运 转</w>
国内 外</w>
i m</w>
15 %</w>
民 和</w>
族 人</w>
解放 军</w>
布 拉
12 1</w>
A/6 7/
历 史
9/ L.
可 在</w>
抚 养</w>
亚 那</w>
什 么样</w>
应 用于</w>
第 28</w>
波多 黎
核 查
阵 地</w>
再 度</w>
教 徒</w>
2010- 2011年</w>
扣 押</w>
整 理</w>
连 贯</w>
波多黎 各</w>
M a
15 3</w>
马达加 斯加</w>
挂 钩</w>
夏 天</w>
年 龄
一 次</w>
201 4</w>
圭 亚那</w>
调 解
所在 地</w>
第五十 六</w>
动 议</w>
生 们</w>
.or g</w>
194 9年</w>
非 洲人</w>
都 会</w>
A/5 6/
幸 存者</w>
平 面</w>
多 重</w>
财 政部</w>
诺 贝
英 里</w>
年 会</w>
感 激</w>
奥 林
占 领
第 39</w>
国 性</w>
4/ L.
可 疑</w>
容 器</w>
复 合</w>
5 0万</w>
传 输</w>
辅 导</w>
暴 露</w>
卡 车</w>
an g
法 文</w>
生命 权</w>
23 .
应 予</w>
累 积</w>
知 名</w>
姑 娘</w>
2008- 2009年</w>
13 4</w>
里 程
总 量</w>
扩 张</w>
央 行</w>
前 所未
公 然</w>
2 1.
经济 学</w>
P .1</w>
犯 人</w>
招 标</w>
叛 乱</w>
抱 歉</w>
萨 拉
庞 大</w>
沉 默</w>
15 40</w>
交 叉</w>
莫 斯科</w>
东 亚</w>
简 介</w>
相 符</w>
仓 库</w>
划 拨</w>
e z</w>
18 0</w>
措 词</w>
不 明</w>
第 17</w>
亚 贝
举 报</w>
房 舍</w>
农 产品</w>
塔 尼亚</w>
物 流</w>
链 接</w>
偏 远</w>
分 组</w>
扶 持</w>
er n
斯 亚贝
信 件</w>
12 7</w>
聚 会</w>
以色列 人</w>
进 去</w>
投 票
借 助</w>
伴 随</w>
生产 性</w>
尔 斯</w>
D P</w>
着 眼</w>
周 知</w>
违 约</w>
延 伸</w>
课 题</w>
拘 押</w>
斡 旋</w>
20 20年</w>
in g
壁 垒</w>
透 露</w>
各种 各样</w>
睡 觉</w>
巴格 达</w>
乘 客</w>
训 练
家 伙</w>
合 约</w>
e p
制造 业</w>
自 杀</w>
12 8</w>
球 员</w>
大 概</w>
偿 金</w>
运 人</w>
信 誉</w>
名 为</w>
哪 儿</w>
亚 的
接 种</w>
孤 立</w>
反 复</w>
奥林 匹
亚的 斯亚贝
征 税</w>
情 报
主 持
首 相</w>
毛里 塔尼亚</w>
全 国性</w>
6 8
宽 容</w>
长 官</w>
12 6</w>
P O
党 派</w>
革 新</w>
延 续</w>
此 时</w>
改 动</w>
附 带</w>
发 病率</w>
走 私</w>
更 正</w>
18 2</w>
殴 打</w>
核查 团</w>
..... .</w>
家 中</w>
战 略性</w>
养老 金</w>
大 纲</w>
13 8</w>
一 会儿</w>
拘 禁</w>
崩 溃</w>
护 士</w>
15 5</w>
有 形</w>
o w
q u
或 在</w>
册 子</w>
抵 制</w>
F -
伊斯 坦
拉 ·
而 易
量 化</w>
统计 司</w>
送 到</w>
差 旅</w>
听 见</w>
2 亿</w>
孤 儿</w>
第五十 三</w>
昂 贵</w>
展 现</w>
无 线</w>
奴 隶</w>
共 产
6 0%</w>
道 理</w>
品 种</w>
结 核</w>
有 一些</w>
人民 币</w>
第五十 四</w>
破 坏
核 不扩散</w>
保 卫</w>
色 彩</w>
选 择
背 后</w>
刑 警</w>
好 好</w>
血 液</w>
半 岛</w>
沿 着</w>
判 定</w>
将 要</w>
太阳 能</w>
裁 撤</w>
感 器</w>
血 管</w>
动 用</w>
到 期</w>
靠 近</w>
词 汇</w>
公 立</w>
有 人</w>
阶 级</w>
窗 口</w>
无论 如何</w>
带 到</w>
伊斯坦 布尔</w>
话 题</w>
托 克劳</w>
航 天
有 化</w>
公 告</w>
修 理</w>
贝 尔
空 白</w>
污 水</w>
众 所
a u
同 性恋</w>
3/ L.
易 于</w>
审 判
硬 件</w>
对 不起</w>
原则 上</w>
暴 行</w>
到 处</w>
电视 台</w>
征 得</w>
供应 链</w>
减 灾</w>
火 器</w>
3 ,
走 到</w>
第 21</w>
协调 人</w>
写 作</w>
过 时</w>
全 额</w>
C M
第二十 一</w>
夫 妻</w>
仿 真</w>
决 定性</w>
众所 周知</w>
抵 押</w>
认 知</w>
判 刑</w>
A/C.2/ 5
塑 料</w>
体 验</w>
同 情</w>
穿 过</w>
社 团</w>
派 驻</w>
同 步</w>
疗 法</w>
增 效</w>
海 啸</w>
势 力</w>
中 将</w>
前所未 有</w>
遵 约</w>
影 片</w>
皇 家</w>
官 长</w>
动 产</w>
限 额</w>
e g
蔬 菜</w>
A m
愤 怒</w>
亚的斯亚贝 巴</w>
年 期</w>
第六十 二</w>
22 .
样 本</w>
侦 查</w>
生产 率</w>
旁 边</w>
浏 览</w>
创 立</w>
诚 实</w>
进 口
第 25</w>
○ ○
分 项</w>
7 0%</w>
自由 权</w>
自 行车</w>
相 对于</w>
CR C
肿 瘤</w>
替 换</w>
阿布 哈
科 技
生产 者</w>
下 令</w>
小 册子</w>
下 表</w>
互 助</w>
住 宿</w>
6 6
早 些</w>
插 入</w>
超 级</w>
第 19</w>
自 主权</w>
拖 欠</w>
艰 苦</w>
13 2</w>
主持 人</w>
P ar
9 0%</w>
保 罗</w>
中 立</w>
主 意</w>
24 .
便 利
烟 草</w>
学 员</w>
G C.
锻 炼</w>
m an</w>
防 御</w>
周 边</w>
逆 转</w>
远 离</w>
2 12</w>
技术 性</w>
黑 人</w>
拆 除</w>
.. ...</w>
i r</w>
庇 护
撰 写</w>
面 试</w>
肇 事
米 尔</w>
12 9</w>
室 内</w>
愿 景</w>
形 状</w>
填 写</w>
股 份</w>
决 不</w>
海 湾</w>
心 脏</w>
报 导</w>
5/ L.
.or g/
时 性</w>
按 时</w>
新 增</w>
简 直</w>
公 寓</w>
日 程</w>
亲 自</w>
后 裔</w>
传 感器</w>
水 准</w>
16 9</w>
在 场</w>
里程 碑</w>
指 引</w>
少 于</w>
格林 纳
中 国人</w>
立法 会</w>
此 项</w>
杀 死</w>
使 该</w>
预 审</w>
点 儿</w>
相 称</w>
胁 迫</w>
音 乐
从 前</w>
: 30</w>
市 长</w>
一 揽子</w>
巴 哈
联 苏</w>
惊 讶</w>
2012- 2013年</w>
构 造</w>
便利 化</w>
i l</w>
列 于</w>
服务 业</w>
古 老</w>
天 空</w>
化 合物</w>
阿布哈 兹</w>
地 名</w>
200 万</w>
理 化</w>
奥林匹 克</w>
i ch
舞 台</w>
教 材</w>
说 服</w>
便 是</w>
犹太 人</w>
建 制</w>
旅 客</w>
在 职</w>
大 选</w>
交 往</w>
死 于</w>
直 布罗
长 度</w>
冷 战</w>
直布罗 陀</w>
营 业</w>
有 毒</w>
发 电</w>
飞 离</w>
法 郎</w>
无 力</w>
液 体</w>
轻 松</w>
良 心</w>
型 期</w>
转 型期</w>
i d</w>
播 放</w>
一 九
200 6/
新 生
杰 克</w>
晋 升</w>
受 教育</w>
跨 部门</w>
受益 者</w>
严 肃</w>
句 子</w>
多 巴
黑 色</w>
民 政</w>
传染 性</w>
管 制
A/6 8/
好 吧</w>
总 局</w>
赤 道</w>
族 群</w>
生 育
制 备</w>
毒 性</w>
00 0万</w>
as s
保 人</w>
传 达</w>
13 5</w>
il l
水 域</w>
机 器
加 蓬</w>
省 份</w>
肇事 者</w>
自 卫</w>
引 擎</w>
常 性</w>
外 包</w>
样 品</w>
200 8/
弱 点</w>
患 有</w>
2006- 2007年</w>
辞 职</w>
航 班</w>
初 等</w>
保 养</w>
鹿 特
毕业 生</w>
余 留</w>
ati on
汲 取</w>
谈 谈</w>
大 战</w>
深 度</w>
弹 性</w>
鹿特 丹</w>
国 务</w>
十 六</w>
有 组织</w>
实 时</w>
人 质</w>
不 受</w>
性 健康</w>
民 法</w>
机器 人</w>
二 ○○
CRC /C/
14 1</w>
致 力</w>
学 年</w>
妇 女
200 7-
征 收</w>
i v
脸 上</w>
编 码</w>
正 面</w>
拥 挤</w>
杀 人</w>
殖 民</w>
取 向</w>
马 里
桥 梁</w>
流 动性</w>
不 确定性</w>
历史 性</w>
水 果</w>
逃 离</w>
度 过</w>
书 籍</w>
s h
13 3</w>
购 物</w>
初 始</w>
公 式</w>
院 校</w>
200 5-
回 国</w>
免 除</w>
投 标</w>
深 表</w>
帝 国</w>
多元 化</w>
农 药</w>
检 察</w>
公 斤</w>
视 角</w>
荣 誉</w>
省 级</w>
心 情</w>
变 量</w>
激 光</w>
尺 寸</w>
销 售
00 多</w>
暗 示</w>
A/C.3/ 5
非 盟</w>
业 性</w>
或者 是</w>
之 类</w>
拿 出</w>
免 于</w>
多 万</w>
早 晨</w>
生 率</w>
兑 现</w>
客 人</w>
忧 虑</w>
尼 达</w>
付 诸</w>
深 化</w>
变 为</w>
对 照</w>
习惯 法</w>
1 .1</w>
业 部</w>
支 撑</w>
第5 2</w>
女 工</w>
解 散</w>
石 头</w>
桌 子</w>
南 南</w>
传 媒</w>
加 迪
劳动 法</w>
内 心</w>
电 路</w>
姆 ·
推 翻</w>
不 论
. 2</w>
大 学生</w>
基 线</w>
声 援</w>
in d
居 留</w>
便 宜</w>
无 所
跨 越</w>
民主 化</w>
阿卜 杜
视 觉</w>
深 为</w>
毫 无</w>
不 变</w>
不 丹</w>
欣 赏</w>
强 行</w>
发展 部</w>
巴布 亚</w>
民 航</w>
困 扰</w>
加 倍</w>
克 尔</w>
相 成</w>
6 7
相 辅
熟 练</w>
FCCC/ SB
忍 受</w>
往 来</w>
现 况</w>
25 0</w>
进 攻</w>
调查 表</w>
被 害人</w>
百 姓</w>
1/ L.
续 不断</w>
自 信</w>
捕 鱼</w>
伊斯兰 教</w>
生 气</w>
竞争 法</w>
执 照</w>
家 族</w>
混 凝
r a
伯 利
民主 党</w>
冠 军</w>
支 票</w>
综 述</w>
简 短</w>
大 使馆</w>
北 美</w>
订 单</w>
洪 水</w>
处 长</w>
市 镇</w>
限 制性</w>
节 余</w>
紧 缩</w>
社 交</w>
切 尔
街 道</w>
制 度
e k
20 1</w>
A R
相辅 相成</w>
自 于</w>
密 集</w>
使 之</w>
高 效率</w>
雇 佣</w>
千 万</w>
摩 加迪
固 有</w>
产 值</w>
一 向</w>
门 户</w>
25 .
热 线</w>
餐 厅</w>
挖 掘</w>
私 有化</w>
财 力</w>
贫民 窟</w>
出 庭</w>
怎 么
商 人</w>
探 测</w>
飞 越</w>
CEDAW /C/
作 证</w>
疗 效</w>
检查 站</w>
200 1-
s on</w>
列 表</w>
1 ％</w>
陆 架</w>
所 附</w>
草 拟</w>
生 殖
分 区</w>
生 日</w>
重 性</w>
法 制</w>
所 犯</w>
大 致</w>
维 尔
摩加迪 沙</w>
艺术 家</w>
下 属</w>
al l
利 斯</w>
经 由</w>
性 地</w>
甲 基
愿 者</w>
睡 眠</w>
扶 贫</w>
多 次</w>
蓝 色</w>
水 层</w>
威 尔
混凝 土</w>
健 康
参 议院</w>
通 知
联 体</w>
特 立
赋 权</w>
新 鲜</w>
多巴 哥</w>
安 盟</w>
伯 利</w>
揭 示</w>
2002- 2003</w>
心 灵</w>
劫 持</w>
毁 坏</w>
13 6</w>
多 样</w>
查 看</w>
日 历</w>
实 况</w>
上 班</w>
新闻 稿</w>
源 自</w>
合 办</w>
战 胜</w>
开 幕
16 2</w>
董 事</w>
心 中</w>
低 收入</w>
中 欧</w>
阿 曼</w>
数 码</w>
应 力</w>
审 核</w>
家 务</w>
传 染</w>
定 稿</w>
大 卫</w>
独 联体</w>
第五十 二</w>
医 药</w>
访 问
优 先
毒 素</w>
交 谈</w>
浓 缩</w>
获 准</w>
讲 座</w>
丧 生</w>
讨 厌</w>
竞争 性</w>
常 用</w>
第六十 三</w>
十 四</w>
编 入</w>
机 密</w>
合 理化</w>
13 9</w>
炮 弹</w>
并 与</w>
季 节</w>
201 6年</w>
13 1</w>
节 日</w>
上 万</w>
成 千
可 爱</w>
湖 区</w>
同 学</w>
一 月</w>
www. un
股 市</w>
曲 线</w>
以 免</w>
观 看</w>
勇 敢</w>
恐 怕</w>
附 表</w>
常 务</w>
才 能</w>
本 次</w>
第二十 二</w>
r an
剂 量</w>
受 援
深 深</w>
杂 项</w>
崇 高</w>
终 身</w>
罢 工</w>
5 4
组 件</w>
想 起</w>
u s</w>
应 于</w>
务 部</w>
花 园</w>
年 份</w>
急 性</w>
定居 者</w>
不 容忍</w>
基 督</w>
供 给</w>
深 远</w>
惊 人</w>
情 节</w>
传 送</w>
收 支</w>
搜 查</w>
之 处</w>
第五 十</w>
总 裁</w>
智 力</w>
N A</w>
强 劲</w>
类 似
特立 尼达</w>
回 忆</w>
199 0</w>
7 7
面 包</w>
表 述</w>
新生 儿</w>
局 部</w>
校 长</w>
规 格</w>
结 核
回 去</w>
发电 机</w>
金 伯利</w>
推 定</w>
文 盲</w>
否 定</w>
精 度</w>
神 圣</w>
2 ％</w>
部长 们</w>
厨 房</w>
o g
第六十 五</w>
人 选</w>
激 发</w>
14 2</w>
走 上</w>
奥 运</w>
圣 诞
军 方</w>
英 雄</w>
第五十 一</w>
多年 来</w>
罕 默
波 恩</w>
饮 水</w>
13 7</w>
198 4年</w>
开 车</w>
居 住
反 应
圣 诞</w>
工作 日</w>
对 妇</w>
O NF.
货 运</w>
索 托</w>
索 取</w>
口 粮</w>
创 收</w>
摩 纳
破坏 性</w>
发 票</w>
不 利于</w>
范 性</w>
安全 性</w>
198 1年</w>
近 来</w>
装 箱</w>
成千 上万</w>
审 视</w>
铲 除</w>
巴 尔
波 黑</w>
减 至</w>
固 体</w>
战 斗
冒 险</w>
周 转</w>
从 不</w>
产 物</w>
克 拉</w>
第二十 五</w>
阿拉伯 语</w>
我 方</w>
数 百万</w>
扭 曲</w>
维 尔</w>
参与 性</w>
科 研</w>
S ub
载 入</w>
27 .
6/ L.
200 7/
依赖 于</w>
4 3
列 明</w>
当 天</w>
吃 饭</w>
P ro
令人 满意</w>
步 伐</w>
闭 幕</w>
氯 化</w>
受援 国</w>
A/C. 4/
把 握</w>
A/5 2</w>
开 心</w>
名 誉</w>
致 函</w>
线 路</w>
特 许</w>
特 派</w>
布 莱
新 生</w>
外 界</w>
出 入</w>
舒 适</w>
S/ PR
阿 鲁
2 .1</w>
走 进</w>
I V</w>
出 身</w>
u d
摩纳 哥</w>
14 3</w>
行 李</w>
修 订
登记 处</w>
土 族</w>
健康 权</w>
饮 料</w>
过 渡
无 罪</w>
管理 厅</w>
前 途</w>
汽 油</w>
一 日</w>
会 前</w>
各 种</w>
10 0%</w>
奴 隶
仲裁 庭</w>
估 值</w>
随 之</w>
197 8年</w>
进 出</w>
考 验</w>
总 之</w>
6 9
误 解</w>
消耗 性</w>
巴哈 马</w>
注 入</w>
糖 尿
第四十 九</w>
穆 罕默
14 4</w>
越 境</w>
咱 们</w>
系统 性</w>
信用 证</w>
隐 藏</w>
贪 污</w>
罗 伯
纳 尔</w>
无 须</w>
外 籍</w>
被 告
去 世</w>
半 数</w>
使 其</w>
旋 转</w>
垄 断</w>
发 动机</w>
通知 书</w>
重 量</w>
走 廊</w>
兴 奋</w>
法 学</w>
基 石</w>
关 岛</w>
军 事
纯 粹</w>
应 计</w>
拍 摄</w>
结核 病</w>
发 援</w>
自 豪</w>
毫 无
冈 比亚</w>
7 8
突 破</w>
所 罗
不 能</w>
3 0年</w>
装 饰</w>
干 净</w>
P /200
嫌疑 人</w>
前 体</w>
不论 是</w>
大 于</w>
富 裕</w>
飓 风</w>
英 尺</w>
Ab d
无 障碍</w>
反 而</w>
15 7</w>
敏 感
内 战</w>
宣 读</w>
反 叛</w>
停 留</w>
注 销</w>
泡 沫</w>
废 水</w>
197 9年</w>
无 可
防 护</w>
创造 性</w>
核 对</w>
平 行</w>
字 会</w>
定 量</w>
车 站</w>
艰 巨</w>
糖尿 病</w>
车 队</w>
树 立</w>
直 到</w>
届 满</w>
坚 实</w>
红十 字会</w>
操 纵</w>
英 格兰</w>
十 八</w>
u k
水 道</w>
落 后</w>
激 动</w>
26 .
转 达</w>
河 流</w>
严 重性</w>
欧 元
路 径</w>
平 均
CR P.
演 出</w>
疯 狂</w>
大 会
牛 奶</w>
斯 蒂
分 工</w>
兵 役</w>
脂 肪</w>
移 植</w>
婚 礼</w>
-- --
显 而易
联 索</w>
策 划</w>
显而易 见</w>
存 放</w>
如 有</w>
暂 定</w>
托 管</w>
附 有</w>
时 尚</w>
公 营</w>
其 所</w>
管理 员</w>
伦 理</w>
i t</w>
似 的</w>
欧元 区</w>
采 集</w>
差 不多</w>
联 大</w>
汇 集</w>
稳 步</w>
履 约</w>
起 着</w>
答 应</w>
玩 具</w>
领 事</w>
多 元</w>
上 限</w>
过 多</w>
喜 爱</w>
体 内</w>
禁毒 署</w>
提 问</w>
中 介</w>
范 例</w>
教 练</w>
寻 常</w>
列 报</w>
可 怜</w>
兵 力</w>
莱 索托</w>
结 成</w>
甲基 溴</w>
灌 溉</w>
贯 穿</w>
2004- 2005年</w>
扫 描</w>
使 团</w>
创 意</w>
苯 醚</w>
游 行</w>
臭 氧
游 泳</w>
体 育
2014-201 5</w>
逃 避</w>
头 脑</w>
一 并</w>
邻 近</w>
转 到</w>
慢 性</w>
广 场</w>
重 计</w>
陈 规</w>
第 26</w>
深 感</w>
14 5</w>
15 /
流 域</w>
也 就是说</w>
蛋 白
漫 长</w>
公 顷</w>
标 识</w>
就 要</w>
复 审</w>
从 业</w>
除 此
生育 率</w>
选择 性</w>
经 常性</w>
30 0万</w>
沙 特</w>
S .
新闻 界</w>
指 望</w>
二 月</w>
文 档</w>
预算 外</w>
叫 做</w>
15 6</w>
镇 压</w>
强 加</w>
F /
19 0
集 装箱</w>
撤 消</w>
原 子</w>
· 卡
15 2</w>
监护 人</w>
估 价</w>
校 园</w>
见 面</w>
概 括</w>
陪 同</w>
接 口</w>
前 者</w>
第六十 四</w>
讲 述</w>
原 有</w>
所罗 门</w>
宣 告</w>
增 大</w>
性 格</w>
威 士
约 会</w>
提 示</w>
臭氧 层</w>
收 获</w>
原 文</w>
第一 百
生 涯</w>
盈 余</w>
代表 们</w>
某 人</w>
服 从</w>
数 百</w>
奴隶 制</w>
事 例</w>
搬 迁</w>
不 幸
裁 判</w>
横 向</w>
200 3/
无 意</w>
伪 造</w>
参 阅</w>
T D/
巴勒斯坦 国</w>
表 中</w>
令 人</w>
拍 卖</w>
G DP</w>
预 报</w>
字 母</w>
i z
14 6</w>
手 工</w>
合 金</w>
休 假</w>
密 斯</w>
业 主</w>
an i</w>
国 家
el l
3 亿</w>
阿卜 耶
持 续不断</w>
14 7</w>
淡 水</w>
差 旅费</w>
一 同</w>
保 守</w>
退 休
玛 丽</w>
少 量</w>
总的 来说</w>
对 面</w>
应 收</w>
UNE P</w>
长 久</w>
控 告</w>
大 麻</w>
16 6</w>
加 利</w>
处 理
密 码</w>
打 死</w>
am m
大 陆架</w>
储 备金</w>
联络 点</w>
苏 格兰</w>
禁 毒</w>
检 索</w>
舆 论</w>
15 1</w>
罪 名</w>
商 界</w>
1. 2</w>
骄 傲</w>
懂 得</w>
in a</w>
友 们</w>
预 备</w>
沮 丧</w>
效 能</w>
197 4年</w>
r a</w>
西 藏</w>
定 价</w>
交易 所</w>
无 家
集 合</w>
雷 达</w>
古 代</w>
事务 局</w>
门 口</w>
萨 赫
公 用</w>
飞 行
长 远</w>
无家 可
ar d</w>
还 为</w>
咨 询
经 典</w>
审 前</w>
约 定</w>
时 至</w>
写 信</w>
废 料</w>
资 本
肌 肉</w>
产 前</w>
缺 口</w>
大 胆</w>
目 睹</w>
太 空</w>
管制 署</w>
i o</w>
职 司</w>
惩 戒</w>
毁 灭</w>
恶 性</w>
座 位</w>
承 办</w>
不 对</w>
租 用</w>
欺 骗</w>
4 ,
残 酷</w>
制度 化</w>
简 易</w>
数 千</w>
中 午</w>
邻 居</w>
尽 全力</w>
北 非</w>
日 志</w>
树 木</w>
a j
国 情</w>
沙 漠</w>
高 校</w>
夏 季</w>
28 .
殖民 主义</w>
掩 盖</w>
000 多</w>
先 例</w>
流 产</w>
B /
老 鼠</w>
界 面</w>
E/CN.4/ Sub
来 自于</w>
录 音</w>
起 飞</w>
阻 挠</w>
格 莱
塞 人</w>
窗 户</w>
永 久性</w>
隐 私</w>
名 词</w>
演 习</w>
7 ％</w>
造 林</w>
运 输
相 处</w>
变 形</w>
第5 9/2
第5 7/
悲 惨</w>
的 是</w>
安 保
生 理</w>
P .</w>
教 室</w>
8 8
可 信
犹 太</w>
第六十 六</w>
印 第
平方 米</w>
绝 不</w>
不 知道</w>
总 体上</w>
牲 畜</w>
纳 斯</w>
第二十 七</w>
该 系统</w>
城 乡</w>
矿 业</w>
学 到</w>
交 存</w>
压 缩</w>
预 料</w>
余 地</w>
牧 师</w>
更 高</w>
参 见</w>
不幸 的是</w>
积 压</w>
15 8</w>
调解 人</w>
贝 鲁
导 向</w>
大 厦</w>
弹 道</w>
E C</w>
监 护</w>
疼 痛</w>
史 密斯</w>
举 例</w>
海 运</w>
钥 匙</w>
经 营
15 4</w>
审 慎</w>
筛 选</w>
携 手</w>
危 险
转 运</w>
特 有</w>
什 麽</w>
情 景</w>
外 科</w>
偿 付</w>
萨赫 勒</w>
饭 店</w>
着 重于</w>
a y</w>
封 闭</w>
报 价</w>
走 出</w>
柏 林</w>
o u</w>
振 动</w>
资 料
真 理</w>
第5 7/2
3 ％</w>
分 成</w>
不 同于</w>
an t
风 暴</w>
管理 处</w>
马 克
刑 事
旅 行
o f</w>
过境 点</w>
A/C.5/ 6
A S
摩 罗</w>
追 溯</w>
优先 权</w>
祖 国</w>
D P/
录 像</w>
程序 性</w>
协 力</w>
实 习</w>
何 种</w>
通 胀</w>
界 线</w>
出 资</w>
第 9
舒 服</w>
志 愿者</w>
阿卜耶 伊</w>
拿 到</w>
得 角</w>
安 德
佛 得角</w>
援助 团</w>
众 议院</w>
负责 者</w>
眼 前</w>
印度 洋</w>
离 子</w>
C ar
词 语</w>
模 板</w>
日 趋</w>
20 8</w>
时 光</w>
A/C.1/ 5
随 机</w>
科 摩罗</w>
天 主教</w>
多 方</w>
启 用</w>
19 2</w>
长 大</w>
使 我</w>
201 1-
获 释</w>
第6 3/2
I CC
较 好</w>
差 额</w>
南 北</w>
急 需</w>
C D/
研究 生</w>
14 8</w>
第5 5/
申请 书</w>
200 0
17 0</w>
诚 意</w>
有 益
扫 雷</w>
方 程</w>
十 九</w>
上 网</w>
空 军</w>
住 院</w>
不 公平</w>
所 设</w>
14 9</w>
总 督</w>
第6 1/2
容 许</w>
只 不过</w>
增 值</w>
亲 爱的</w>
营 养
13 25</w>
第六十 七</w>
餐 馆</w>
大 声</w>
I M
应 是</w>
多 方面</w>
大 门</w>
贝鲁 特</w>
机 理</w>
生殖 器</w>
6 4
精 神
乔 治
谘 询</w>
特 拉
下 滑</w>
列 有</w>
管理 人</w>
有 着</w>
增 列</w>
排 列</w>
o k
V .
营 造</w>
姆 斯</w>
轰 炸</w>
原 本</w>
· 拉
划 定</w>
宪 政</w>
岩 石</w>
3 .1</w>
人 事
海 域</w>
队 员</w>
斯 科
维 斯</w>
毕 竟</w>
味 道</w>
16 1</w>
贿 赂</w>
巴 赫</w>
原 告</w>
奉 行</w>
龄 化</w>
汇 总</w>
单 身</w>
届 会</w>
行 星</w>
工 具
相关 者</w>
表 决权</w>
捐助 方</w>
联络 处</w>
性 行为</w>
私 立</w>
联 格</w>
硕 士</w>
巴 斯</w>
受 损</w>
等 到</w>
副 部长</w>
全 新</w>
o m</w>
7 9
扣 除</w>
退休 金</w>
A/AC. 10
评 级</w>
绝 望</w>
喀 布尔</w>
受 过</w>
小 小</w>
索 偿</w>
数 十</w>
老 龄化</w>
贵 国</w>
火 灾</w>
官 处</w>
巡 逻
务 实</w>
放 射</w>
当 年</w>
届 时</w>
196 1年</w>
肤 色</w>
男 童</w>
屏 幕</w>
星期 六</w>
感染 者</w>
东 非</w>
氯 化
正 是</w>
加 利
住 户</w>
消 防</w>
明 书</w>
15 9</w>
局 限于</w>
就 职</w>
M oh
201 1/
魅 力</w>
00 000</w>
训 所</w>
营 利</w>
第 2
下 落</w>
压 迫</w>
十 七</w>
短 暂</w>
197 5年</w>
逮 捕
和 为</w>
马 克</w>
被告 人</w>
热 点</w>
姐 妹</w>
B ar
王 子</w>
an a</w>
自然 人</w>
动 脉</w>
仆 人</w>
高 达</w>
消费 量</w>
侵 入</w>
检 讨</w>
答 辩</w>
到 位</w>
有 意义</w>
已 婚</w>
都 市</w>
那 位</w>
课 堂</w>
开 枪</w>
卫 队</w>
冬 天</w>
在 与</w>
克 林
并 为</w>
一 天</w>
扩 充</w>
A/C. 6/
鸿 沟</w>
话 说</w>
射 击</w>
6 5
调查 员</w>
第 7
16 5</w>
用 的</w>
明 星</w>
三 角</w>
第 34</w>
法 医</w>
帮 忙</w>
兴 奋
符 号</w>
刊 登</w>
3 3.
通 往</w>
高 质量</w>
苏 里
温 暖</w>
沃 尔
在 家</w>
折 磨</w>
拓 展</w>
197 1年</w>
廉 价</w>
追 查</w>
看 着</w>
战 术</w>
自治 区</w>
团 聚</w>
不 动产</w>
我 的
并 入</w>
仿 佛</w>
水 泥</w>
氧 化</w>
检察 院</w>
综 管</w>
制 成</w>
关 键
可 为</w>
个 性</w>
出 国</w>
e x
大 湖区</w>
及 早</w>
违 规</w>
以 致</w>
里 ·
200 4/
多 地</w>
命 名</w>
s k
通 行</w>
会 面</w>
专 注</w>
限 定</w>
来 讲</w>
胀 率</w>
缓 和</w>
管理 部</w>
审 案</w>
E/ C.
缩 减</w>
爵 士</w>
化 剂</w>
as h
30 .
税 率</w>
0 3</w>
神 秘</w>
is t
转 入</w>
有益 的</w>
乃 至</w>
教育 权</w>
S/200 0/
为 例</w>
沿 岸</w>
取 缔</w>
I I
不 时</w>
零 件</w>
第四十 八</w>
击 者</w>
五 年</w>
椅 子</w>
访 谈</w>
春 天</w>
多 边
警 惕</w>
耐 心</w>
2 /200
调 度</w>
比 尔</w>
198 3年</w>
开 来</w>
交 货</w>
榜 样</w>
L A
文 化
帽 子</w>
动 词</w>
全 面
o f
承 运人</w>
育 儿</w>
独 自</w>
原 油</w>
副 总统</w>
研 训所</w>
介绍 性</w>
开 关</w>
计 数</w>
悲 伤</w>
担 负</w>
力 图</w>
2. 2</w>
10 亿</w>
帮 我</w>
200 9-
标 的</w>
为 使</w>
选 票</w>
否 决</w>
D- 2</w>
起 点</w>
图 表</w>
共 处</w>
X V
户 主</w>
伯利 兹</w>
审 批</w>
记 载</w>
类似 于</w>
联合 体</w>
玛 丽
i f
准 确性</w>
屋 子</w>
电 流</w>
上 半年</w>
多 久</w>
本 性</w>
圣诞 节</w>
18 9</w>
目 光</w>
摆 在</w>
括 号</w>
所 指</w>
t o</w>
酒 精</w>
妹 妹</w>
布 朗</w>
罗 姆</w>
199 4-
巧 克
第 纳尔</w>
2/ L.
16 4</w>
蛋白 质</w>
197 7年</w>
监察 组</w>
不 公正</w>
M u
2000- 2001</w>
极 度</w>
c e</w>
in e</w>
增 订</w>
A/C ONF.
单 词</w>
正 好</w>
黄 色</w>
访问 团</w>
办 事</w>
下 达</w>
说 来</w>
受益 于</w>
保 育</w>
例 句</w>
血 压</w>
A l</w>
学 生们</w>
集 成</w>
侮 辱</w>
序 列</w>
基本 法</w>
信用 卡</w>
查 验</w>
呆 在</w>
愚 蠢</w>
误 差</w>
精 算</w>
虚 假</w>
一 律</w>
送 给</w>
地 板</w>
其 第</w>
溴 二</w>
防 卫</w>
侵 蚀</w>
中 为</w>
en t</w>
福 利
调 用</w>
新 设</w>
管理 者</w>
朋 友们</w>
方 应</w>
关键 性</w>
欧 安
保 管</w>
给 我</w>
变 性</w>
低 下</w>
一 开始</w>
升 高</w>
D E
/C R
双 语</w>
_ _
麦 克
酒 吧</w>
四 分之一</w>
E l
L e
联 储</w>
订 购</w>
红 新
阿拉伯 人</w>
第 35</w>
16 7</w>
中 间
领 先</w>
衷 心</w>
简 称</w>
卡 尔
彼 得</w>
渗 透</w>
19 9</w>
高 昂</w>
节 能</w>
巧克 力</w>
禁毒 办</w>
规 范性</w>
E/CN.4/Sub .
政治 家</w>
偶 尔</w>
本 项</w>
导 言</w>
食 用</w>
耳 朵</w>
排 名</w>
容 量</w>
苏 丹
手 指</w>
喂 养</w>
温 和</w>
第六十 八</w>
结 算</w>
第 24
数 以
坦 克</w>
D ec
道 歉</w>
转 录</w>
购 买
另 见</w>
派 别</w>
偏 离</w>
9 /200
母 婴</w>
3 4.
195 1年</w>
零 售</w>
玉 米</w>
两 方面</w>
197 3年</w>
子 弹</w>
来 临</w>
公 正
18 3</w>
16 3</w>
牢 固</w>
无 限</w>
试 验
198 0年代</w>
微 生物</w>
安 静</w>
外 资</w>
贬 值</w>
思 路</w>
夜 间</w>
行 列</w>
碰 到</w>
版 权</w>
16 8</w>
出 示</w>
基 础
197 2年</w>
昨 晚</w>
安保 部</w>
随 意</w>
发展 局</w>
S ha
矿 产</w>
好 了</w>
利 亚
3 1.
遥 远</w>
度 假</w>
并 由</w>
不 安全</w>
电 站</w>
轻 易</w>
勃 勃</w>
说 出</w>
挑 战
引 人
噪 音</w>
R A
阿拉 木
阿拉木 图</w>
政 局</w>
索 引</w>
机 动</w>
29 .
里 多
始 于</w>
商 业性</w>
: 00
合 资</w>
E n
哥 哥</w>
建 成</w>
起 码</w>
激 进</w>
增 添</w>
功 率</w>
h m
手 里</w>
总 计</w>
南 欧</w>
以 求</w>
缺 席</w>
应 收款</w>
南 极</w>
承包 者</w>
放 置</w>
广 阔</w>
印 机</w>
原 谅</w>
us t
薪 水</w>
称 作</w>
前 来</w>
保护 法</w>
I P
M an
敏感 性</w>
7 5%</w>
格 局</w>
航 运</w>
第6 2/
执 政</w>
对 称</w>
迟 于</w>
发 性</w>
欠 款</w>
效 用</w>
总 表</w>
即 时</w>
并 经</w>
S al
S a
格莱 德</w>
土 穆</w>
间 隔</w>
喀 里多
公 主</w>
阿鲁 沙</w>
描 绘</w>
更 多地</w>
薪 资</w>
卫 者</w>
长 时间</w>
电 器</w>
东 方</w>
北 极</w>
喀 土穆</w>
文 人</w>
I X</w>
3. 2</w>
累 计</w>
7 6
访 者</w>
人 家</w>
礼 貌</w>
床 上</w>
不 了</w>
不 等</w>
瓦 努
资 发</w>
还 将</w>
抽 样</w>
同 样
装 运</w>
潜 能</w>
纳 米</w>
17 5</w>
应 邀</w>
并 行</w>
电 邮</w>
失 效</w>
分 阶段</w>
专 项</w>
生 病</w>
参 议员</w>
仅 有</w>
A s
部 位</w>
制 剂</w>
贝尔 格莱德</w>
页 面</w>
折 扣</w>
带 头</w>
假 日</w>
终 端</w>
想 想</w>
性 取向</w>
儿 基</w>
躺 在</w>
英 译</w>
议 案</w>
炸 药</w>
第5 8/2
空 调</w>
i e</w>
总 会</w>
干 燥</w>
1 :00</w>
名 叫</w>
陪 伴</w>
创 新
之 为</w>
翻 修</w>
7 5
Add. 3</w>
吃 惊</w>
证 会</w>
改 良</w>
上 所述</w>
试 着</w>
款 人</w>
武 库</w>
先 后</w>
L .1</w>
休 会</w>
广 为</w>
占 用</w>
控 诉</w>
哈马 斯</w>
发 生率</w>
听 起来</w>
拉 加</w>
海 峡</w>
抛 弃</w>
运 费</w>
纺 织
生物 学</w>
联 保</w>
闭 门</w>
申请 者</w>
1 号</w>
案 子</w>
大 气
借 贷</w>
盈 利</w>
地 说</w>
因 子</w>
A/5 1/
公 海</w>
巴 拉
并 就</w>
议 书</w>
覆盖 面</w>
占领 军</w>
纽 约
2008/ 0
维 奇</w>
母 乳</w>
23 5</w>
珊 瑚
也 可能</w>
斯 基</w>
未 能</w>
上 来</w>
In t
政 体</w>
攸 关
下 半年</w>
聘 请</w>
197 6年</w>
3 5.
口 语</w>
学 业</w>
那 边</w>
中 型</w>
致 意</w>
高 峰</w>
除此 之外</w>
学 费</w>
9 9
果 断</w>
96 3-
基 伍</w>
头 上</w>
例 法</w>
一 生</w>
挫 折</w>
克林 顿</w>
A 节</w>
卓 越</w>
部 份</w>
土 地
后 期</w>
可 供</w>
雷 斯</w>
评 估
第6 4/2
哺 乳</w>
克 隆</w>
图 瓦
祈 祷</w>
教科 书</w>
S /2
长 达</w>
视 察
开 辟</w>
咖 啡
阿 图</w>
共产 党</w>
东 北</w>
冬 季</w>
不 应</w>
景 观</w>
10 000</w>
阿 比
生产 商</w>
培 育</w>
周 一</w>
上 校</w>
精神 病</w>
北 欧</w>
行为 人</w>
玩 笑</w>
爱 国</w>
其 为</w>
节 点</w>
总 统
跟 着</w>
瓦努 阿图</w>
邪 恶</w>
性 化</w>
互 联</w>
短 语</w>
侦 察
电 子
驻 科</w>
年 初</w>
苏里 南</w>
子 孙</w>
专 属</w>
多 于</w>
切 合</w>
做 了</w>
陪 审
牌 照</w>
匮 乏</w>
17 2</w>
i p
国际 性</w>
附 注</w>
绘 制</w>
湿 地</w>
商 标</w>
市 区</w>
低 估</w>
C on
新 喀里多
某 种</w>
丢 失</w>
隧 道</w>
水 源</w>
奥 尔
考 绩</w>
灾 难
18 5</w>
搜 集</w>
据 以</w>
亲 密</w>
I CE
迁 徙</w>
断 定</w>
评 审</w>
4 000</w>
特 尔</w>
放 缓</w>
研究 员</w>
17 3</w>
金 沙
得 益于</w>
庄 严</w>
P L
拉 美</w>
约翰 ·
颗 粒</w>
接 管</w>
大会 堂</w>
谨 向</w>
19 1</w>
转 为</w>
破 裂</w>
欧 共体</w>
E R
第 37</w>
总 署</w>
兴奋 剂</w>
道 义</w>
一 次
逾 期</w>
海 水</w>
时 常</w>
渔 船</w>
17 7</w>
威士 兰</w>
en d
兑 换</w>
克 制</w>
A t
寡 妇</w>
在 外</w>
存 货</w>
备 件</w>
四 周</w>
零 售
抵 触</w>
开 启</w>
落 在</w>
听 证会</w>
夫 ·
年龄 组</w>
牙 齿</w>
漏 洞</w>
树 林</w>
捍 卫者</w>
从 一开始</w>
4 亿</w>
码 头</w>
奖 金</w>
产 科</w>
b er
祝 愿</w>
抵 销</w>
开 放
男 生</w>
19 0</w>
精 心</w>
声 誉</w>
伤 残</w>
称 之为</w>
注 视</w>
教 员</w>
会 计师</w>
4 ％</w>
不 管
微 软</w>
油 价</w>
利 人</w>
5 ,
活 的</w>
是 非</w>
联 系
忠 诚</w>
让 人</w>
庇护 所</w>
i c</w>
多 种</w>
克 莱
部 族</w>
迈 进</w>
清 偿</w>
17 4</w>
零 部件</w>
或 将</w>
现 已</w>
博 客</w>
e h</w>
新 年</w>
分 解</w>
余 下</w>
午 餐</w>
调 拨</w>
u n</w>
过境 国</w>
奋 斗</w>
金沙 萨</w>
大 为</w>
不 足以</w>
斯 威士兰</w>
啤 酒</w>
函 件</w>
灾难 性</w>
可 见</w>
共和 党</w>
速 效</w>
警 报</w>
善 意</w>
历 来</w>
读 书</w>
战 士</w>
等 候</w>
第三十 一</w>
乘 坐</w>
汉 语</w>
拘留 所</w>
ou n
出 租
白 宫</w>
幻 想</w>
u c
爱 好</w>
南 美洲</w>
不 适用</w>
20 3</w>
平方 公里</w>
停 战</w>
S G
一般 来说</w>
18 6</w>
所 知</w>
组织 法</w>
天 使</w>
图瓦 卢</w>
加 州</w>
贯 性</w>
挑 衅</w>
9 8
跨 境</w>
第 四十</w>
空 间
196 9年</w>
多 媒体</w>
u g
经营 者</w>
事 后</w>
质 的</w>
用 率</w>
第 8
20 6</w>
电 气</w>
M A
相 机</w>
人 文</w>
月 球</w>
K ar
轻 微</w>
第5 8/
公正 性</w>
于 此</w>
祝 福</w>
歌 曲</w>
摄 影</w>
火 山</w>
里 奥</w>
委 任</w>
W P.
E S-
文 物</w>
否 决权</w>
15 00</w>
选举 法</w>
e y
至 迟</w>
母 语</w>
不 然</w>
巴 厘</w>
塑 造</w>
e f
3 7.
渐 渐</w>
夜 晚</w>
之 急</w>
错 过</w>
多 达</w>
卡 因</w>
es t
戏 剧</w>
早 婚</w>
18 1</w>
起 因</w>
深 海</w>
请 愿
完 毕</w>
特 许
之 友</w>
因 果</w>
1 30
诞 生</w>
C T
第4 8/
借 款</w>
教 廷</w>
格 里
明 了</w>
尼 科
学 历</w>
激 素</w>
橡 胶</w>
S/ 1999</w>
充 实</w>
过 早</w>
不 定</w>
第四十 六</w>
心 脏
容 纳</w>
人 心</w>
S/ 1998</w>
日 起</w>
控制 权</w>
同 盟</w>
中 方</w>
可 取</w>
向 上</w>
或 非</w>
幼 儿
多 余</w>
反应 堆</w>
领导 层</w>
备 用</w>
发 布
18 7</w>
鼓 掌</w>
好 象</w>
含 水层</w>
浪 漫</w>
识 字</w>
单 个</w>
2014- 2015年</w>
圣 卢
17 8</w>
第5 8</w>
流 失</w>
大气 层</w>
前 南</w>
仍 未</w>
焦 虑</w>
氛 围</w>
19 3
血 统</w>
德 里
典 礼</w>
格 拉
不 平衡</w>
注 目</w>
F A
19 4</w>
第6 7/2
人 造</w>
总 协定</w>
诽 谤</w>
点 击</w>
报告 期</w>
无 限期</w>
姿 态</w>
出 差</w>
下 届</w>
毫无 疑问</w>
人 称</w>
所 称</w>
同 酬</w>
UNE P/
西班牙 文</w>
负 荷</w>
e w
圣卢 西亚</w>
付 给</w>
17 1</w>
竟 然</w>
光 学</w>
罗 ·
放 到</w>
幼儿 园</w>
偶 然</w>
还 说</w>
维尔 京</w>
有效 期</w>
发 症</w>
催 化剂</w>
过 高</w>
覆盖 率</w>
挑战 性</w>
赛 季</w>
压 制</w>
帕 拉</w>
希 尔</w>
不 确定</w>
除 名</w>
197 0年</w>
搜 寻</w>
何 处</w>
伊 尔</w>
从 其</w>
不 清</w>
平 稳</w>
退 还</w>
20 9</w>
5 万</w>
维 生
出 缺</w>
互 补</w>
专 业化</w>
进 化</w>
卡拉 巴赫</w>
关 节</w>
暗 杀</w>
赔 偿金</w>
明 文</w>
光 盘</w>
乐 队</w>
L .</w>
5 00万</w>
日 后</w>
0 5</w>
与 否</w>
并 发症</w>
审 定</w>
产 地</w>
面 谈</w>
小 麦</w>
第 30</w>
机 票</w>
图 形</w>
频 道</w>
成 员们</w>
200 3-
评 定</w>
百分 点</w>
根 深
昨 日</w>
较 少</w>
交 战</w>
乐 意</w>
每 当</w>
碰 撞</w>
电 压</w>
承 包</w>
重 重</w>
轻 重</w>
所在 国</w>
恰 恰</w>
还 在</w>
六 月</w>
语 法</w>
意 在</w>
变 暖</w>
不 停</w>
蒂 固</w>
姐 姐</w>
天 堂</w>
ati on</w>
单 纯</w>
性 暴力</w>
国 立</w>
根深 蒂固</w>
未 成年</w>
所 得
办公 厅</w>
17 6</w>
广 义</w>
获 量</w>
反 洗钱</w>
18 8</w>
10 :00</w>
越 过</w>
合 计</w>
务 之急</w>
入 口</w>
201 7年</w>
来 信</w>
当 务之急</w>
20 5</w>
被 动</w>
清 真
定 向</w>
因 于</w>
检 疫</w>
不 人道</w>
欢 乐</w>
第6 5/2
晚 餐</w>
18 4</w>
选 手</w>
解 读</w>
动 乱</w>
尺 度</w>
安 提
谷 歌</w>
清真 寺</w>
例 行</w>
经济 区</w>
可 卡因</w>
事务 所</w>
洁 净</w>
死 去</w>
期 性</w>
威 慑</w>
留 给</w>
催 化</w>
优 良</w>
奥 ·
毒 者</w>
塞 舌
合法 化</w>
一 百</w>
船 上</w>
相 连</w>
坦 率</w>
反 思</w>
静 止</w>
新 建</w>
噪 声</w>
高 出</w>
调 和</w>
心脏 病</w>
Dec .
只 好</w>
休 闲</w>
所 为</w>
跨 国界</w>
维 纳斯</w>
造 福</w>
普 里
阿 克拉</w>
西 北</w>
P A
垂 直</w>
船 长</w>
第 九
e y</w>
ar d
赫 尔
所 用</w>
大 人</w>
跳 舞</w>
8 6
注 明</w>
替代 性</w>
密 封</w>
非 线性</w>
被 控</w>
舞 蹈</w>
B r
敬 意</w>
10 号</w>
现 时</w>
塞舌 尔</w>
流 向</w>
竭 尽全力</w>
4 5.
珊瑚 礁</w>
句 话说</w>
受 灾</w>
道 尔</w>
怎么 办</w>
互 利</w>
街 上</w>
听 众</w>
见 证</w>
有 望</w>
换 句话说</w>
2007/ 0
算 是</w>
揭 露</w>
侦察 机</w>
悬 而
安全 区</w>
凯 恩</w>
可 使</w>
览 会</w>
推 销</w>
多边 主义</w>
览 表</w>
期 刊</w>
新喀里多 尼亚</w>
斯 塔
在 乎</w>
缩 编</w>
文 莱</w>
决 书</w>
阴 影</w>
半 球</w>
凡 是</w>
一九 九
安 慰</w>
马 丁</w>
股 权</w>
水 质</w>
化 物</w>
俄 国</w>
渐 进</w>
异 性</w>
些 时候</w>
法 例</w>
一 点
路 易
管理 制</w>
不管 是</w>
20 2</w>
谋 生</w>
运动 会</w>
帮 你</w>
在 前</w>
图 书</w>
无 国籍</w>
交 由</w>
一次 性</w>
外 聘</w>
那 天</w>
悬而 未决</w>
管 局</w>
物 价</w>
以 至于</w>
东 南欧</w>
诺 斯
球 场</w>
政 策
犯罪 者</w>
以 使</w>
热 爱</w>
三 维</w>
判 例法</w>
海 洛
语 音</w>
芝 加
孤 独</w>
不 合理</w>
你 方</w>
来 源
挽 救</w>
回 避</w>
8 9
代 办</w>
贵 方</w>
混 合物</w>
德 黑
12 67</w>
无 形</w>
处 分</w>
发 射
D NA</w>
视 听</w>
无家可 归</w>
外交 官</w>
基础 上</w>
仲裁 员</w>
萨 卡</w>
19 2
还 对</w>
财 务
19 8</w>
奉 献</w>
哈 迈
各 界</w>
森 特</w>
鸦 片</w>
晚 些时候</w>
P S
英 国人</w>
屋 顶</w>
电 源</w>
i ć</w>
详 述</w>
光 明</w>
19 3</w>
指 认</w>
候 补</w>
众 人</w>
in t
3 :00</w>
陆 军</w>
电 影
G r
C /2
迟 到</w>
c h</w>
00 亿</w>
德黑 兰</w>
四 月</w>
礼 拜</w>
本 节</w>
听 着</w>
出 生
ec t
哈 利
之 日起</w>
五 月</w>
a ch
M IS
鼻 子</w>
葡萄 酒</w>
按 钮</w>
安提 瓜</w>
P D
P C</w>
价值 链</w>
切尔 诺贝
芝加 哥</w>
减 排</w>
196 0年</w>
此 刻</w>
操 作
天 体</w>
跟 进</w>
索 马里
中 旬</w>
S ch
产 法</w>
圣 经</w>
不 止</w>
渥 太
棘 手</w>
发布 会</w>
2. 3</w>
联 东</w>
遗 弃</w>
服 刑</w>
宽 带</w>
创新 性</w>
财 产权</w>
诚 信</w>
收 缴</w>
诗 人</w>
得 了</w>
─ ─</w>
2002- 2003年</w>
迫 性</w>
第四十 七</w>
渥太 华</w>
合 乎</w>
物 业</w>
弟 弟</w>
反对 党</w>
金 融
远 景</w>
矩 阵</w>
斯 克</w>
还 没有</w>
最 少</w>
乐 趣</w>
5 3
起 诉
译 员</w>
时 效</w>
第三十 三</w>
20 7</w>
树 脂</w>
铺 平</w>
蒙 受</w>
星 球</w>
高 地</w>
增 补</w>
非 暴力</w>
联 伊</w>
第 三十</w>
真 空</w>
1. 3</w>
驾 驶
妊 娠</w>
上 课</w>
轮 胎</w>
罪 恶</w>
倾 销</w>
es s
通货膨 胀率</w>
较 低</w>
恶 意</w>
天 文
不可 分割</w>
圣 马
A/CN.9/ WG.
纷 纷</w>
阿比 让</w>
面 上</w>
比 重</w>
安 道尔</w>
责 成</w>
家 乡</w>
形 容</w>
记 入</w>
S/200 1/
2 :
如 上所述</w>
纳 粹</w>
百 慕
悬 挂</w>
6 :00</w>
收 容
学 前</w>
文 森特</w>
厕 所</w>
疲 劳</w>
I T
墨西 哥
蛋 糕</w>
倾 听</w>
空 局</w>
出 租</w>
差 价</w>
所 有者</w>
劳 资</w>
粒 子</w>
用 在</w>
全 境</w>
限 性</w>
17 9</w>
政 变</w>
P r
华 尔
附 加
重 型</w>
途 中</w>
情 事</w>
输 送</w>
纳 税
轻 轻</w>
会 在</w>
第三十 二</w>
略 有</w>
死 者</w>
海洛 因</w>
印第 安
起 源</w>
有 序</w>
已 知</w>
不 在</w>
角 落</w>
玫 瑰</w>
艾 哈迈
稍 后</w>
教 养</w>
借 调</w>
备 灾</w>
减 弱</w>
4. 2</w>
迫 击
营 运</w>
第四十 一</w>
第三十 六</w>
机 能</w>
候选 国</w>
奇 迹</w>
科 目</w>
建 模</w>
场 景</w>
封 信</w>
联 署</w>
周 五</w>
军事 化</w>
纵 向</w>
第 32</w>
安 第
正 常
0 2</w>
十 亿</w>
特许 权</w>
中 乍</w>
难 度</w>
用 法</w>
敌 方</w>
巨 额</w>
热 内
穿 越</w>
原 材料</w>
安全 网</w>
应 受</w>
野 蛮</w>
变 换</w>
分 部</w>
阴 谋</w>
里 约
第5 7</w>
人事 费</w>
伸 出</w>
6 3
干 部</w>
十 万</w>
联 席
特 里
加 热</w>
19 5</w>
科 斯</w>
棉 花</w>
带 给</w>
参 看</w>
切尔诺贝 利</w>
M or
灰 色</w>
12 %</w>
海 滩</w>
肥 胖</w>
6 000</w>
非 经</w>
配 套</w>
MIS C.
第三十 九</w>
学 士</w>
4 1.
20 世纪</w>
er s</w>
盆 地</w>
犯罪 人</w>
大 自然</w>
减 小</w>
童 年</w>
制 图</w>
还 没</w>
议 长</w>
公 安</w>
里约 热内
冷 却</w>
第6 5/
降 到</w>
划 为</w>
集 群</w>
腺 癌</w>
CO P.
19 7</w>
表 情</w>
航天 局</w>
焊 接</w>
不 太</w>
纺织 品</w>
普 林
20 4</w>
// www.
牢 房</w>
ST /200
安第 斯</w>
大 马
1 时
腐 蚀</w>
归 纳</w>
一 年</w>
4 0万</w>
所 定</w>
避 孕
本 土</w>
建 议书</w>
失 衡</w>
连 贯性</w>
更 具</w>
报 销</w>
里约热内 卢</w>
电 缆</w>
年 中</w>
核 爆炸</w>
当 是</w>
联席 会议</w>
大 鼠</w>
制 定
E S
账 目</w>
胜 任</w>
大 厅</w>
陷 于</w>
这 类</w>
空 前</w>
S/200 2/
激 情</w>
内 务部</w>
所得 税</w>
年 纪</w>
选 用</w>
砍 伐</w>
g u
显 现</w>
不 知
杀 伤
微 观</w>
转 用</w>
待 命</w>
保险 费</w>
狭 窄</w>
劳工 法</w>
as t
关 怀</w>
交 道</w>
可 向</w>
摩 托
7/ Add.
数 字
巡逻 队</w>
卢 萨卡</w>
税 款</w>
法 学院</w>
巴尔 干</w>
著 作</w>
代表 权</w>
氯 烃</w>
难 者</w>
8 7
一 无
穿 上</w>
第六十 九</w>
高 频</w>
商 用</w>
标 书</w>
中 毒</w>
克 人</w>
均 匀</w>
冷 静</w>
边 远</w>
辩 称</w>
上 级</w>
第 八
宁 愿</w>
牵 涉</w>
制 服</w>
活 着</w>
斯 顿</w>
政治 化</w>
润 滑
辍 学</w>
南 太平洋</w>
举 动</w>
宪 兵</w>
煤 炭</w>
丝 毫</w>
M .
E/ ICE
25 00</w>
第 36</w>
S/PR ST/200
本 组</w>
加利 福
第二十 八</w>
多 学科</w>
出口 国</w>
X V</w>
3. 3</w>
尚 待</w>
进 修</w>
3 8.
敌 军</w>
宿 舍</w>
第四十 四</w>
对 人</w>
生 活
影 像</w>
e v</w>
避 难</w>
起 初</w>
注 定</w>
停 车
增 加
0 7
绘 画</w>
境 地</w>
打 印</w>
女 王</w>
准 予</w>
现 存</w>
斯 托
论 证</w>
5/ 1</w>
电 讯</w>
九 月</w>
J oh
达 喀
宣 誓</w>
多 项</w>
商 讨</w>
刊 物</w>
口 袋</w>
印 制</w>
译 汉</w>
国 旗</w>
第二十 九</w>
让 步</w>
包 裹</w>
仍 旧</w>
体 检</w>
RE S</w>
杀 戮</w>
居 民
随 便</w>
三 月</w>
移 送</w>
服 用</w>
相 等</w>
击 中</w>
为 限</w>
非 核心</w>
膨 胀</w>
每 日</w>
升 值</w>
争 夺</w>
缺 失</w>
反 过来</w>
心 理学</w>
删 去</w>
I S</w>
罕 见</w>
外 贸</w>
精 彩</w>
巴布 达</w>
汤 加</w>
i i</w>
行 之
a i</w>
废 止</w>
产 后</w>
派 往</w>
开 头</w>
应 分</w>
工作 人员</w>
4 3.
50 ％</w>
赦 免</w>
坚 强</w>
言 语</w>
纳税 人</w>
客 观
去 除</w>
佛 罗
法 学家</w>
设 计师</w>
0 亿</w>
逗 留</w>
第三十 八</w>
刑 期</w>
归 属</w>
农 发</w>
清 醒</w>
m a</w>
S/200 6/
19 6</w>
高 温</w>
经 纪
经 受</w>
反 驳</w>
an g</w>
计 入</w>
科学 家们</w>
模 仿</w>
术 后</w>
总 体
全 盘</w>
过 后</w>
讯 息</w>
尔 多瓦</w>
对 立</w>
th e</w>
捕 获</w>
复 性</w>
凭 借</w>
钢 铁</w>
动 植物</w>
标 明</w>
执行 官</w>
作 好</w>
专 职</w>
200 00</w>
早 先</w>
外 表</w>
奥斯 陆</w>
万 亿</w>
遵 行</w>
达喀 尔</w>
白 人</w>
4 .1</w>
视 作</w>
意 向</w>
分 辨
抵 御</w>
热 量</w>
查 访</w>
村 民</w>
银 行业</w>
报 名</w>
吻 合</w>
举 证</w>
丁 斯</w>
正常 化</w>
查 找</w>
体 积</w>
门 槛</w>
接 替</w>
- 1</w>
动 物
5 5/
寒 冷</w>
化 石</w>
un .org</w>
提 法</w>
终 结</w>
预 订</w>
不 经</w>
脚 注</w>
照 射</w>
构 架</w>
日 前</w>
带 领</w>
过 剩</w>
百慕 大</w>
成 品</w>
局 限性</w>
ou r
票 据</w>
圣 多
驻 扎</w>
各 方面</w>
关 爱</w>
为 人</w>
on g</w>
U n
6 ,
航 空
第 25
一 百
无 权</w>
六 十</w>
第5 3/
清 算</w>
S O
沉 积</w>
逆 转录</w>
行 人</w>
等 着</w>
诺贝 尔</w>
科 长</w>
烦 恼</w>
关 系
代 谢</w>
郊 区</w>
求 助</w>
战 时</w>
面 的</w>
C om
er r
A hm
第6 1</w>
永 恒</w>
中 性</w>
示 威
马克 思</w>
打 交道</w>
务 必</w>
专 题
彼 得
国 土</w>
后 于</w>
可 观</w>
率 领</w>
测 器</w>
6 ％</w>
早 餐</w>
7 ,
车 间</w>
惠 及</w>
开 火</w>
反 歧视</w>
194 8年</w>
规 划
摩 西</w>
说 到</w>
扰 乱</w>
美 联储</w>
o y
移民 局</w>
混 淆</w>
拉 丁</w>
从 此</w>
研究 者</w>
或 由</w>
紧 要</w>
三 角
稳 固</w>
圣 文森特</w>
3 2.
过 失</w>
工 发
工发 组织</w>
光 谱</w>
资 深</w>
48 /2
士 革</w>
希 族
宠 物</w>
雷 区</w>
试 行</w>
月 会</w>
大马 士革</w>
主 观</w>
4 6.
第6 6/2
为 数</w>
P V.
R D
图 案</w>
10 ％</w>
定 制</w>
印 刷
加 索</w>
鸡 蛋</w>
行之 有效</w>
招 待
全 职</w>
狮 子</w>
乔 治</w>
内 涵</w>
盗 窃</w>
an n
贝 尔</w>
架 次</w>
雨 水</w>
制定 者</w>
六 年</w>
尔 顿</w>
介 质</w>
4 7.
线 索</w>
h a</w>
劳 务</w>
8 ％</w>
西 斯</w>
业 务
安全 局</w>
配 件</w>
白 天</w>
牢 记</w>
交 互</w>
4 8.
眼 光</w>
为 准</w>
泄 漏</w>
欲 望</w>
电 机</w>
方 可</w>
推 断</w>
安 南</w>
4 4.
高 尔
第6 1/
动 力学</w>
私 有</w>
所 占</w>
及 第</w>
减 损</w>
用 地</w>
C H
第三十 四</w>
演 说</w>
周 二</w>
克 什
民 权</w>
停 滞</w>
缓 冲
极 少</w>
无 知</w>
利 用率</w>
人 性</w>
新 近</w>
引人 注目</w>
高 专
游 说</w>
吩 咐</w>
4 2.
3 5%</w>
卡 尔</w>
力 诺</w>
出口 商</w>
识 字
篮 球</w>
最 大
保 障
ar i</w>
问 责制</w>
活 动
不 加</w>
W /
A N
圣马 力诺</w>
防 扩散</w>
15 -
虫 剂</w>
诗 歌</w>
理 学家</w>
海 报</w>
开 创</w>
大 海</w>
院 的</w>
胎 儿</w>
散 步</w>
一 时</w>
重 振</w>
脉 冲</w>
神 经
市 政府</w>
3 6.
尼 尔</w>
走 过</w>
第 38</w>
格林纳 达</w>
国 营</w>
4 0.
领 地</w>
该 法</w>
不可 避免</w>
XX V
既 有</w>
惊 奇</w>
供 电</w>
更 快</w>
周 三</w>
编 程</w>
第四十 三</w>
I C</w>
地 铁</w>
6 亿</w>
13 %</w>
布 宜
华尔 街</w>
遇 见</w>
开幕 式</w>
咎 于</w>
简 历</w>
示威 者</w>
条 第</w>
不 容
银 行
英 联邦</w>
致 辞</w>
突 发</w>
节 奏</w>
第四十 二</w>
战 场</w>
分析 师</w>
日 报</w>
改 正</w>
诺斯 艾
日 渐</w>
布宜 诺斯艾
好 多</w>
通 讯
包 围</w>
几 百</w>
饥 荒</w>
那 就是</w>
送 回</w>
笔 译</w>
批 准
A L
随 函
随函 附上</w>
萧 条</w>
联 发援</w>
精 英</w>
哈 瓦
机 组</w>
总 监</w>
中 级</w>
S E
醒 来</w>
平均 数</w>
H ar
补 性</w>
生 人</w>
星期 天</w>
可 望</w>
践 踏</w>
高专 办</w>
达 鲁
抽 象</w>
为 重</w>
四 年</w>
另 行</w>
马 尼
分 区域</w>
底 部</w>
顽 固</w>
散 布</w>
10 0000</w>
化 为</w>
衬 衫</w>
吸 毒者</w>
照 明</w>
部 际</w>
来 源于</w>
e -
ICC D
鉴 别</w>
科技 委</w>
外 出</w>
戈 马</w>
七 月</w>
er s
可 将</w>
聚 力</w>
工 业
第5 9</w>
机 械
萨 里奥</w>
绍 尔</w>
楼 宇</w>
人 际</w>
3 50</w>
传 说</w>
圣 地
老 是</w>
文 凭</w>
得 很</w>
衍 生</w>
紧 紧</w>
音 机</w>
教 派</w>
掠 夺</w>
并 以</w>
Par t</w>
收 缩</w>
归 咎于</w>
印 尼</w>
托 马
传 单</w>
演 奏</w>
妇 女的</w>
极 性</w>
在 第</w>
反 抗</w>
身 为</w>
触 发</w>
医 师</w>
IN F</w>
分 化</w>
O /
19 号</w>
阿布 贾</w>
搁 置</w>
对 着</w>
5/ Add.
总 经理</w>
就 业率</w>
第四十 五</w>
弗 里
珍 贵</w>
手 法</w>
方 对</w>
就 读</w>
获 胜</w>
C N
鲜 明</w>
耕 地</w>
免 税</w>
萨 兰
第 27
收容 所</w>
必 定</w>
免 权</w>
高 的</w>
长 者</w>
当 初</w>
下 雨</w>
陛 下</w>
阿拉伯 文</w>
扶 养</w>
侦 察</w>
al l</w>
静 脉</w>
翻 新</w>
法 律
摩 尔多瓦</w>
对 联</w>
推 移</w>
P /C
速 率</w>
农 田</w>
传 授</w>
互 补性</w>
. c
默 认</w>
十 年代</w>
普 京</w>
送 往</w>
应 变</w>
or t
反 射</w>
以 内</w>
国 贸</w>
准 时</w>
更 生</w>
微 妙</w>
伤 心</w>
福 克兰</w>
格林纳 丁斯</w>
他 国</w>
25 1</w>
亚 历
足 于</w>
来 的</w>
名 人</w>
5. 2</w>
信 服</w>
沿 线</w>
总体 而言</w>
幽 默</w>
克什 米尔</w>
俄 语</w>
加勒 比
杀 虫剂</w>
1. 5</w>
选 区</w>
2 20</w>
环境 法</w>
灵 活的</w>
征 募</w>
创 办</w>
方 位</w>
水 文</w>
国 中</w>
为 时
/CO NF.
眼 镜</w>
剧 院</w>
马 绍尔</w>
第5 6/
开 端</w>
根 本性</w>
依 旧</w>
中 产</w>
调 控</w>
放 下</w>
尼科 西亚</w>
和 睦</w>
列 名</w>
荣 耀</w>
世 上</w>
系 指</w>
更 是</w>
第三十 五</w>
第三十 七</w>
火 焰</w>
忠 实</w>
旱 地</w>
20 ％</w>
赚 取</w>
欧 空局</w>
切 断</w>
亚 哥</w>
B A</w>
菜 单</w>
至 多</w>
步 行</w>
均 应</w>
降 落</w>
林 迪</w>
历 年</w>
高 风险</w>
细 目</w>
次 要</w>
帕 劳</w>
W e
瘫 痪</w>
泰 勒</w>
娜 ·
病 学</w>
政治 犯</w>
赞 成
群 组</w>
水 分</w>
换 言之</w>
宣 扬</w>
船 员</w>
站 点</w>
国家 级</w>
12 时</w>
以 防</w>
g e</w>
过渡 期</w>
局 限</w>
柴 油</w>
诱 惑</w>
极 限</w>
赫 纳</w>
画 面</w>
协 理</w>
A/C.4/ 6
而 言之</w>
张 贴</w>
本 章</w>
小 企业</w>
S u
适 于</w>
过 滤</w>
克 拉
保 有</w>
解 体</w>
红新 月会</w>
信 徒</w>
年 鉴</w>
伊 丽
问 道</w>
将 于</w>
装 修</w>
在此 之前</w>
8 亿</w>
第6 7</w>
外 围</w>
骨 折</w>
隐 私
陈 旧</w>
远 见</w>
上 下</w>
是 吗</w>
C T</w>
第5 3</w>
未 满</w>
控制 器</w>
这 项</w>
资本 主义</w>
改 建</w>
居住 地</w>
不足 之处</w>
主 党</w>
F P
音乐 会</w>
/ Add.1</w>
所 处</w>
卡塔 赫纳</w>
真 主党</w>
放 心</w>
拨 给</w>
22 7</w>
原 力</w>
200 2/
随 函</w>
退 回</w>
研究 院</w>
测 验</w>
谎 言</w>
识字 率</w>
凝 聚力</w>
轮 流</w>
账 款</w>
收 藏</w>
瞻 性</w>
心 态</w>
伤 口</w>
消 化</w>
带 走</w>
逃 跑</w>
B C</w>
生产 国</w>
法 则</w>
水 量</w>
来源 国</w>
豁 免权</w>
第6 4</w>
工 商业</w>
头 部</w>
偏 低</w>
视 野</w>
排 序</w>
前 瞻性</w>
星期 日</w>
抗 击</w>
再 见</w>
马尔 维纳斯</w>
或 以</w>
洛 杉
直 至</w>
判 决书</w>
讽 刺</w>
导 则</w>
经纪 人</w>
摩 擦</w>
d a</w>
抱 有</w>
开 拓</w>
陪审 团</w>
新 任</w>
圣地 亚哥</w>
使用 权</w>
英 译汉</w>
年 满</w>
亲 爱</w>
兼 职</w>
专 委</w>
额 度</w>
第 48</w>
达鲁 萨兰
存 量</w>
A/6 9/
达鲁萨兰 国</w>
放 宽</w>
布宜诺斯艾 利斯</w>
养 育</w>
不 一</w>
共 存</w>
am b
适 用性</w>
成 像</w>
密 克罗
一 览表</w>
油 田</w>
域 外</w>
岛 上</w>
如 说</w>
刑事 罪</w>
1 /200
植 被</w>
放 大</w>
创造 力</w>
体 会</w>
ES- 10</w>
马 车</w>
赞成 票</w>
购买 力</w>
拥 抱</w>
担 保
视 力</w>
第6 2</w>
社 群</w>
批准 书</w>
启 发</w>
I s
海 港</w>
保 全</w>
印第安 人</w>
竭 力</w>
客 户
归 因于</w>
听 力</w>
间 断</w>
矿 石</w>
新 娘</w>
情 势</w>
享 用</w>
P et
微 波</w>
第6 2/2
危 急</w>
初 中</w>
赶 上</w>
七 年</w>
受 众</w>
陌 生人</w>
没 错</w>
降 解</w>
气 温</w>
T r
R e
高 压</w>
行 驶</w>
付 费</w>
结 案</w>
防 空</w>
开 庭</w>
同 伴</w>
格 ·
调 到</w>
物 权</w>
气 味</w>
推 理</w>
扣 留</w>
箱 子</w>
轻 型</w>
扎 伊尔</w>
应 性</w>
B e
u m</w>
官 僚</w>
20 多</w>
行 走</w>
电 联</w>
旱 灾</w>
Al i</w>
2. 5</w>
点 钟</w>
激 增</w>
概 率</w>
打 印机</w>
地 形</w>
A T
破 产法</w>
感 冒</w>
威尔 士</w>
大 街</w>
发言 权</w>
波 罗
化 管</w>
潮 流</w>
服 役</w>
对 等</w>
M E
17 01</w>
难 过</w>
20 2
笑 话</w>
公 吨</w>
知 识
互 惠</w>
一般 而言</w>
脾 气</w>
杀伤 性</w>
4 9.
遴 选</w>
联 苯</w>
出 具</w>
剧 烈</w>
en n
上 游</w>
e k</w>
ST/ SG
里 亚
视 委</w>
所 能</w>
副 总理</w>
辛 基</w>
罂 粟</w>
倒 退</w>
迈 向</w>
归 类</w>
州 长</w>
乙 烯</w>
示 例</w>
波 利</w>
礼 品</w>
党 人</w>
之 地</w>
全 身</w>
充 作</w>
葡萄 牙
各 次</w>
光 线</w>
元 件</w>
布 局</w>
八 年</w>
销 商</w>
手 臂</w>
不 移</w>
分辨 率</w>
陶 瓷</w>
装 有</w>
分 数</w>
i j
托 人</w>
力 争</w>
I R
祸 害</w>
萨 米
9 7
24 0</w>
高 加索</w>
201 0
装 甲</w>
昆 虫</w>
ation al</w>
G u
罗 斯
离 去</w>
密克罗 尼西亚</w>
有 鉴
巴 士</w>
涌 入</w>
养 费</w>
伊 拉
on g
望 远
有鉴 于此</w>
若 要</w>
P h
1 200</w>
伊丽 莎
最 迟</w>
同 性</w>
报 会</w>
崛 起</w>
酸 盐</w>
拦 截</w>
弗 兰
老 化</w>
天 赋</w>
杜 绝</w>
会 的</w>
不 前</w>
逍 遥
好 转</w>
An d
4. 3</w>
趋 于</w>
自 力
第6 6</w>
2 14</w>
隐私 权</w>
连 任</w>
管理 司</w>
温 柔</w>
困 惑</w>
教 导</w>
城 里</w>
用 处</w>
善 于</w>
iy ah</w>
运 往</w>
深 处</w>
拜 访</w>
应 从</w>
望远 镜</w>
数字 化</w>
字 符</w>
S/200 4/
格 陵
东 北部</w>
r ic
缓冲 区</w>
发 光</w>
动 摇</w>
规 例</w>
电 网</w>
特 兰</w>
演 示</w>
卡 拉</w>
以 在</w>
. .</w>
许 是</w>
花 钱</w>
琼 斯</w>
犹 豫</w>
决 赛</w>
导 者</w>
监 核</w>
地 毯</w>
is s
3 9.
不 下</w>
不 一定</w>
自力 更生</w>
攸关 方</w>
搭 配</w>
送 达</w>
草 地</w>
旅 程</w>
10 -
第5 5/2
春 季</w>
适 度</w>
第5 9/
t a</w>
金 枪
务 局</w>
引 述</w>
就 任</w>
暴 风
无 核</w>
向 下</w>
未 清</w>
平 安</w>
十 多</w>
el l</w>
缔 造</w>
晚 饭</w>
争 吵</w>
政 务</w>
弹 头</w>
外 观</w>
弥 合</w>
期 货</w>
射 线</w>
其 间</w>
临 近</w>
ir a</w>
B a
纸 张</w>
失 业者</w>
击 败</w>
净 化</w>
8 000</w>
开 曼</w>
受 让人</w>
欣 慰</w>
辍 学率</w>
私 法</w>
安 娜</w>
方 为</w>
典 范</w>
公 益</w>
贝 克</w>
董 事
带 上</w>
宽 松</w>
号 召</w>
破 碎</w>
超 声</w>
尼 ·
就 算</w>
书 写</w>
临 时性</w>
身 分</w>
参与 人</w>
制 宪</w>
m an
归 于</w>
单 据</w>
5 5.
核 武库</w>
探 访</w>
德 拉
应 能</w>
好 地</w>
舞 弊</w>
同 类</w>
盲 率</w>
2005/ 0
余 力</w>
深 受</w>
劳 力</w>
9 5%</w>
C l
迈 克尔</w>
士 们</w>
四 处</w>
风 景</w>
第 33</w>
自 足</w>
常 委会</w>
外 长</w>
兰 人</w>
D i
约 瑟
种 植
祭 司</w>
埃 尔</w>
停 车</w>
信 奉</w>
代表 作</w>
能 效</w>
征 服</w>
轮 调</w>
车 子</w>
超 支</w>
罚 金</w>
妇女 署</w>
敲 定</w>
减 去</w>
197 3</w>
逍遥 法外</w>
一 度</w>
ar a</w>
C /CO
聊 天</w>
眼 泪</w>
善 良</w>
合 众</w>
第6 3/
危险 性</w>
金枪 鱼</w>
爱 上</w>
y a</w>
领导 者</w>
希族 塞人</w>
周 日</w>
可 予</w>
十 年期</w>
M L</w>
12 -
世界 杯</w>
繁 殖</w>
生 动</w>
洛杉 矶</w>
因 其</w>
A/AC. 109</w>
谷 物</w>
即 可</w>
主 计</w>
由 该</w>
伯 爵</w>
阳 性</w>
型 号</w>
喜 悦</w>
倾 倒</w>
不 堪</w>
k a</w>
is h
列 车</w>
A -
芯 片</w>
宝 贝</w>
彩 色</w>
哈 利</w>
发 病</w>
营 商</w>
态 势</w>
天 才</w>
自 助</w>
A g
滥 杀</w>
逃 犯</w>
乐 于</w>
股 价</w>
拿 着</w>
译 成</w>
坐 标</w>
内 存</w>
驱 逐
钢 琴</w>
置 疑</w>
痕 迹</w>
爱 德
燃 油</w>
买 到</w>
不 愿意</w>
E .
盒 子</w>
水 中</w>
自 营</w>
空 袭</w>
控 件</w>
写 入</w>
该 部</w>
生 化</w>
埃 尔
单 亲</w>
得 起</w>
水 电</w>
意 料</w>
宝 宝</w>
师 们</w>
也 可以</w>
镜 子</w>
瑙 鲁</w>
悠 久</w>
尼亚 州</w>
大 韩
最 早</w>
大韩 民国</w>
十 月</w>
出租 车</w>
u r</w>
比 性</w>
歪 曲</w>
岁 月</w>
接 入</w>
热 窝</w>
创 始
U R
O E
2. 4</w>
写 道</w>
it y</w>
c o</w>
S/ 201
迷 人</w>
学 的</w>
2 10</w>
兴 建</w>
业 余</w>
禽 流感</w>
理 工</w>
帐 篷</w>
不 遗
参 谋
延 至</w>
废 弃</w>
er v
首 领</w>
圆 形</w>
会 同</w>
第5 6</w>
睦 邻</w>
物 料</w>
唱 歌</w>
倾 斜</w>
亲 戚</w>
5 1.
瞬 间</w>
疏 忽</w>
学 期</w>
多 部门</w>
6 0万</w>
倘 若</w>
掌 控</w>
文 版</w>
妇 人</w>
功 效</w>
组织 者</w>
着 力</w>
戈 尔
17 /
濒 危</w>
投 机</w>
on e</w>
论 及</w>
生活 费</w>
赞 美</w>
维 多
无 情</w>
即 便是</w>
S/200 5/
26 0</w>
文 中</w>
搬 到</w>
明 亮</w>
原 定</w>
失 踪
北 大西洋</w>
p p
冰 箱</w>
全 会</w>
不遗 余力</w>
边 防</w>
实 证</w>
S am
需 求
指 向</w>
感 动</w>
12 号</w>
领 养</w>
微 小</w>
鞋 子</w>
走 去</w>
尼亚 人</w>
告 诫</w>
跟 随</w>
全 都</w>
22 6</w>
束 缚</w>
坚 定
S/ AC.
理 智</w>
打 造</w>
其 下</w>
停车 场</w>
说 的</w>
电 梯</w>
遵 从</w>
祷 告</w>
波罗 的
弃 物</w>
既 往</w>
8 5%</w>
苯 丙
t er</w>
波罗的 海</w>
警 员</w>
歌 手</w>
某 项</w>
兴 起</w>
青 春</w>
摄 影
恩 德
口 径</w>
十 二月</w>
报 刊</w>
单 证</w>
求 解</w>
宝 石</w>
呼 声</w>
主 旨</w>
溶 液</w>
内 向</w>
通 风</w>
光 纤</w>
人 大</w>
i k</w>
甲 基</w>
合 伙</w>
出 发
S/200 3/
A/5 2/
弯 曲</w>
实 性</w>
I C
少 年
谋 杀
穆罕默 德·
穆罕默 德</w>
嘉 宾</w>
书 中</w>
纺 织</w>
猜 测</w>
西 南</w>
第 49</w>
@ un.org</w>
证 明书</w>
篇 幅</w>
敌 意</w>
可 比</w>
分之 三</w>
磺 酸</w>
如 在</w>
扼 要</w>
CC PR
足 额</w>
安 东
什 蒂
静 态</w>
间 谍</w>
秋 天</w>
古 典</w>
景 象</w>
上 将</w>
豪 华</w>
存 活</w>
亚 非</w>
盛 行</w>
灯 光</w>
流 体</w>
家 用</w>
闻 名</w>
水 面</w>
换 取</w>
库 尔
外 线</w>
分 泌</w>
196 8年</w>
月 亮</w>
保 留
通 盘</w>
神 话</w>
小 国</w>
1 万</w>
s /
本 地区</w>
周 四</w>
亏 损</w>
步 枪</w>
旗 帜</w>
性 病</w>
厉 害</w>
减 除</w>
科学 界</w>
天 线</w>
哈 里
蒸 汽</w>
挣 扎</w>
被 判</w>
电 话
独 裁</w>
溶 剂</w>
工具 包</w>
出 血</w>
酗 酒</w>
s e
196 3年</w>
裁 研</w>
完 工</w>
30 分</w>
萨拉 热窝</w>
抬 头</w>
密 性</w>
大 都</w>
厌 恶</w>
作 文</w>
S p
5 4/
争 辩</w>
运 气</w>
转 而</w>
此 处</w>
接 收
养 殖</w>
露 出</w>
阿尔及 尔</w>
模 具</w>
布 里
减 量</w>
伊丽莎 白</w>
P T
日 制</w>
大 体上</w>
蓝 图</w>
本 函</w>
20 亿</w>
第5 6/2
毗 邻</w>
介 意</w>
18 %</w>
塞 族人</w>
2 11</w>
综合 症</w>
情报 局</w>
应 按</w>
战斗 机</w>
稍 微</w>
看 守</w>
民 选</w>
居 留
份 子</w>
M ich
B 节</w>
猛 烈</w>
非 洲
纳 税</w>
焚 烧</w>
推 测</w>
信 赖</w>
CE RD
举 止</w>
总统 令</w>
失 误</w>
可 比性</w>
谈 判
流 血</w>
加 密</w>
做 成</w>
恩德 培</w>
会 使</w>
26 /
布 拉</w>
饲 料</w>
利 亚人</w>
管辖 区</w>
委 派</w>
中 小学</w>
沉 积
当 日</w>
布 置</w>
亨 利</w>
TD/ B/
有 益于</w>
1 ,000</w>
谈 及</w>
摩托 车</w>
夺 取</w>
史 蒂
影 子</w>
先 知</w>
确 凿</w>
房 产</w>
平 时</w>
继承 国</w>
海 里</w>
来 访</w>
as h</w>
科 菲
增 幅</w>
坚定 不移</w>
时 数</w>
镜 头</w>
诉 求</w>
薪 金
隐 瞒</w>
助 益</w>
触 犯</w>
祖 先</w>
捐助 界</w>
楼 梯</w>
/CO /
组 办</w>
专题 组</w>
软 弱</w>
看 成</w>
做 事</w>
脑 袋</w>
颠 覆</w>
叔 叔</w>
厚 度</w>
不 行</w>
无 偿</w>
帐 目</w>
198 9</w>
治 愈</w>
变 的</w>
49 /2
水 资源</w>
惠 国</w>
5 1/
B l
格陵 兰</w>
整 整</w>
想 像</w>
情 愿</w>
山 脉</w>
7 4
率 先</w>
教育 法</w>
特 种</w>
导 游</w>
维 持
援 用</w>
卧 室</w>
亚 ·
可信 度</w>
3 65</w>
轿 车</w>
程 式</w>
当 你</w>
选举 权</w>
负 债
有 名</w>
恐 慌</w>
出发 点</w>
责任 人</w>
德 拉</w>
查 出</w>
放 入</w>
e m</w>
被 盗</w>
安 全部</w>
避 难
辈 子</w>
民 意</w>
接 受
东 南</w>
第 28
宴 会</w>
减 肥</w>
见 表</w>
晚 会</w>
富 人</w>
密 集
救 护
处 方</w>
国际 化</w>
第 29
极 大地</w>
弗 朗
性 侵犯</w>
基督 徒</w>
起 见</w>
结 局</w>
2 30</w>
红 外</w>
指 的</w>
话 语</w>
科 尔
脑 子</w>
终 生</w>
提供 商</w>
前 线</w>
羞 辱</w>
直 线</w>
断 裂</w>
恪 守</w>
多 ·
珍 惜</w>
后 悔</w>
年龄 段</w>
吉 尔</w>
逮捕 令</w>
狂 热</w>
欧安 会</w>
期 满</w>
前 沿</w>
请愿 人</w>
多 氯</w>
a k</w>
5 .1</w>
留 意</w>
极 力</w>
9 ％</w>
en g
7 000</w>
火 星</w>
r y</w>
须 经</w>
走 了</w>
结 清</w>
预 付款</w>
通 向</w>
辛 烷</w>
学 龄</w>
油 气</w>
FCCC/SB ST
哈瓦 那</w>
司 令
分 布
S C
过 期</w>
嫌疑 犯</w>
8 ,
电 动</w>
可 由</w>
蔑 视</w>
检 方</w>
往 年</w>
国务 卿</w>
含 糊</w>
雅 典</w>
7 3
筹 款</w>
场 址</w>
一点 点</w>
Int ern
缘 故</w>
运 河</w>
没 事</w>
未 必</w>
载 体</w>
惟 一</w>
哨 所</w>
2 15</w>
0 7</w>
远 处</w>
打 断</w>
户 外</w>
www.un .org/
J .
兼 容</w>
佐 证</w>
5 7.
皇 帝</w>
求 职</w>
辉 煌</w>
动 式</w>
R es
密集 型</w>
吉 姆</w>
严 密</w>
不足 道</w>
科 学院</w>
登 录</w>
时 报</w>
17 %</w>
14 %</w>
职 者</w>
30 ％</w>
利 马</w>
落 入</w>
有 素</w>
同 胞</w>
经 管</w>
开 口</w>
停 顿</w>
该 报告</w>
注 册
翅 膀</w>
后 备</w>
受 访者</w>
优 雅</w>
金 牌</w>
前 期</w>
11 %</w>
缉 获量</w>
什蒂 纳</w>
不 信任</w>
嫁 给</w>
牧 业</w>
带 薪</w>
8 5
营 业
往 返</w>
威 尔</w>
纽约 市</w>
威 廉</w>
偿 债</w>
l a</w>
H am
加 班</w>
飞行 员</w>
L E
逃 脱</w>
训练 有素</w>
蒙特 塞拉
张 正义</w>
底 下</w>
大 宗</w>
哪 怕</w>
er g
N a
身 材</w>
肺 结核</w>
字 符
地 缘</w>
债 权</w>
30 5</w>
解 析</w>
an e</w>
4 5%</w>
2000- 2001年</w>
避 开</w>
方 括号</w>
外 语</w>
全 氟</w>
适 时</w>
可 转让</w>
u l</w>
9 0年代</w>
通 行
而 不
注 释</w>
座 谈会</w>
名 声</w>
事 关</w>
辩 护
民 们</w>
共 有</w>
陆 上</w>
德 尔</w>
呼 吸
护 送</w>
备 份</w>
可 得</w>
安 圭
升 温</w>
冲 动</w>
氢 氟</w>
出 门</w>
S/ 1994</w>
走 访</w>
负 起</w>
特 殊
汉 堡</w>
居 然</w>
20 5
较 高</w>
记 本</w>
伙 伴
IN F/
1. 4</w>
平 常</w>
加勒比 海</w>
不 一致</w>
受 控</w>
P S</w>
石 棉</w>
奶 奶</w>
中 小</w>
病 假</w>
安圭 拉</w>
特 洛
星 星</w>
居 所</w>
多 年</w>
液 压</w>
每 人</w>
盟 友</w>
应 把</w>
广 州</w>
22 5</w>
当事 国</w>
阿富 汗
简 明</w>
理 应</w>
激 活</w>
普里 什蒂纳</w>
8 0万</w>
非 传统</w>
评 论
检 控</w>
微 不足道</w>
阿 斯
实质 上</w>
O N
集 结</w>
在 案</w>
D C
责任 感</w>
自 给
圣 地</w>
促 进
7 亿</w>
非 常任</w>
适 应性</w>
涂 料</w>
收 据</w>
成 见</w>
L a
进口 国</w>
抽 烟</w>
分 销</w>
阿 里
可 通过</w>
中 就</w>
2 16</w>
正 直</w>
强 硬</w>
十 几</w>
A/AC.10 9/200
该 区域</w>
国 民
从 没</w>
非 歧视</w>
触 及</w>
致 电</w>
杠 杆</w>
巡 回</w>
o t</w>
19 /
耕 作</w>
战 俘</w>
患 病</w>
导 体</w>
受 权</w>
物 理学</w>
宽 泛</w>
专 科</w>
A/4 9/
轴 承</w>
R ob
6. 2</w>
配 方</w>
有 期</w>
已 向</w>
口 号</w>
F ran
走 路</w>
英 寸</w>
脖 子</w>
登 上</w>
基 加利</w>
3 16</w>
政 客</w>
排 定</w>
理 查
航天 器</w>
农 户</w>
八 月</w>
5 4.
在 各</w>
不 动</w>
共 用</w>
公 法</w>
交 通
秋 季</w>
沦 为</w>
魔 法</w>
第6 8</w>
整 天</w>
乳 腺癌</w>
10 00万</w>
立 方
商 事</w>
A/HR C/2
. g
米 兰</w>
疫 情</w>
公 署</w>
第6 4/
法 域</w>
橄 榄
榴 弹</w>
有 史
不 符</w>
情报 区</w>
助 手</w>
5 0.
独 一无
欠 缺</w>
体 力</w>
行 程</w>
肉 体</w>
世 人</w>
独一无 二</w>
尴 尬</w>
切 除</w>
非 凡</w>
有史 以来</w>
扩 建</w>
哭 泣</w>
积 极性</w>
电 厂</w>
点 燃</w>
制 药</w>
公 信
黑 海</w>
Rev .
萨 斯
电 磁</w>
佛 教</w>
中 和</w>
转 发</w>
联 安</w>
矫 正</w>
惩 教</w>
国 籍
酋 长</w>
文 盲率</w>
戈 尔</w>
比 如说</w>
m a
M on
D .
4 8/
美 妙</w>
考 生</w>
有 机
外 流</w>
做 些</w>
30 多</w>
2008/0 9年</w>
防 备</w>
起诉 书</w>
引 爆</w>
国 都</w>
厘 米</w>
装 配</w>
受 审</w>
崇 拜</w>
亟 需</w>
Add. 1-
法 兰
忽 然</w>
11 月
V ol
投票 权</w>
打 下</w>
失踪 者</w>
B an
西 比</w>
第 31</w>
福利 部</w>
16 %</w>
鸟 类</w>
眼 中</w>
服 务员</w>
天 上</w>
迈 克</w>
藐 视</w>
拿 起</w>
15 号</w>
在此 期间</w>
和 第</w>
分析 性</w>
转 送</w>
撞 击</w>
听 证</w>
能 使</w>
农 作物</w>
置 信</w>
神 奇</w>
本 应</w>
初 审</w>
农 业部</w>
5 5/2
天 生</w>
发 誓</w>
再 加上</w>
会议 厅</w>
不 致</w>
ad i</w>
及 时性</w>
军 营</w>
演 化</w>
嗣 后</w>
同 仁</w>
反 倾销</w>
各 地区</w>
哈 拉
合 伙
e e</w>
雄 心</w>
申请 表</w>
将 对</w>
er t
辩 解</w>
转 给</w>
斯 卡</w>
倡 导者</w>
i on</w>
G E
救护 车</w>
阿富汗 人</w>
等 人</w>
立 于</w>
并 同</w>
进 驻</w>
晶 体</w>
为 之</w>
飞 往</w>
连 带</w>
瓶 颈</w>
数以 千
好 事</w>
un d
风 俗</w>
维持 费</w>
急 救</w>
市 中心</w>
196 6年</w>
等 同于</w>
数以千 计</w>
公信 力</w>
优 于</w>
超 市</w>
方 法学</w>
把 手</w>
宣 传
麻 疹</w>
配 有</w>
电 报</w>
乌兹别 克
顺 便</w>
� �</w>
载 明</w>
见 度</w>
火 箭
杜 古</w>
学 习
本 说明</w>
嫌 犯</w>
返 还</w>
妓 女</w>
减 低</w>
f or
植 物
坎 帕拉</w>
喝 酒</w>
来 往</w>
大 国</w>
A/4 8/
家 政</w>
军 警</w>
· 安南</w>
高 血压</w>
吉尔吉 斯</w>
l as</w>
阿 姆
牙 科</w>
废 弃物</w>
后 送</w>
笔 记本</w>
私 下</w>
器 材</w>
单 边</w>
核 销</w>
受 灾
断 言</w>
开 了</w>
之 不
老 婆</w>
盖 茨</w>
十 字
四 分之三</w>
at e</w>
M ah
7 0万</w>
睡 着</w>
同 工</w>
一 夫
评 述</w>
致 死</w>
省 长</w>
玩 家</w>
时 在</w>
26 6</w>
约 有</w>
残 余</w>
小 于</w>
M e
马 ·
应 得</w>
地 人</w>
善 政</w>
调 研</w>
悄 悄</w>
之 二</w>
马 丁
宽 恕</w>
G S</w>
惯 常</w>
伸 张正义</w>
蒙 罗
笑 容</w>
器 具</w>
不 作为</w>
2 万</w>
轮 换</w>
误 导</w>
盼 望</w>
满意 度</w>
源 部</w>
午 饭</w>
再 一次</w>
随 即</w>
财 物</w>
蒙特塞拉 特</w>
树 上</w>
安 援</w>
ar t
诚 挚</w>
解 答</w>
股 长</w>
紧 迫性</w>
留 住</w>
CM P.1</w>
规 避</w>
第6 87</w>
存 档</w>
舍 尔德</w>
不可 逆转</w>
订 于</w>
占领 区</w>
责任 制</w>
筹 划</w>
持 有人</w>
手 上</w>
骚 乱</w>
网 格</w>
宁 静</w>
福 特</w>
眼 下</w>
S/200 7/
蒙罗 维亚</w>
美 味</w>
特殊 性</w>
天 性</w>
圣多 美</w>
嘲 笑</w>
缉 获</w>
人权 署</w>
at t
D av
网 球</w>
第5 4</w>
硬 币</w>
带 动</w>
邮 局</w>
载 荷</w>
贵 族</w>
摄 像
洛 斯</w>
和 善</w>
出版 社</w>
赖 于</w>
不 善</w>
简 便</w>
前 夕</w>
5. 3</w>
获 利</w>
子 公司</w>
基 因
可 可</w>
合 理性</w>
加 元</w>
5 6/
德 意志</w>
预 示</w>
许 诺</w>
葡 萄</w>
桌 面</w>
佛罗 里
邮 寄</w>
城 堡</w>
圣 保罗</w>
世界 性</w>
I T</w>
上 一</w>
地 步</w>
假 装</w>
显 示
几 千</w>
任 一</w>
ic e</w>
评 判</w>
安 曼</w>
坚 固</w>
c on
预 言</w>
观 者</w>
- 3
长 得</w>
珠 宝</w>
油 漆</w>
气 象
执行 率</w>
周 期性</w>
A y
第 40</w>
皮 书</w>
试 试</w>
细 致</w>
开 除</w>
订 阅</w>
佣 金</w>
一 点儿</w>
有 赖于</w>
收 拾</w>
感染 率</w>
质 素</w>
联络 官</w>
科菲 ·安南</w>
域 网</w>
i an</w>
辖 区</w>
织 物</w>
介绍 会</w>
五 日</w>
水 下</w>
导 演</w>
妇 幼</w>
或 有</w>
r e</w>
议 者</w>
自 愿
毫 克</w>
分 期</w>
15 0万</w>
英 属</w>
5 6.
2 13</w>
避难 所</w>
诺 言</w>
泛 滥</w>
查 尔斯</w>
路 网</w>
视 图</w>
分 包</w>
转 动</w>
绝 大部分</w>
情 人</w>
卜 拉
8 4
巴 塞
宇 航
分 类
22 %</w>
副 主任</w>
跟 上</w>
牛 津</w>
弟 兄</w>
凸 显</w>
维 埃</w>
普 通
卡 罗
住 处</w>
上 方</w>
退 役</w>
卖 给</w>
不 便</w>
非 关税</w>
无 聊</w>
打 扰</w>
磨 损</w>
亲 人</w>
195 8年</w>
启 示</w>
匿 名</w>
不 大
西 撒</w>
埃 尔·
A c
部 厅</w>
隔 绝</w>
科威 特
心 理学家</w>
图 象</w>
哈 佛</w>
监 测
受灾 国</w>
处理 器</w>
17 号</w>
裙 子</w>
波 特</w>
健 身</w>
派 对</w>
分 派</w>
. ht
队 长</w>
调 配</w>
收 益
不 久
还 请</w>
由 其</w>
条 目</w>
合伙 人</w>
全 日制</w>
侨 民</w>
p l
预 约</w>
自 称</w>
调查 局</w>
泄 露</w>
佣 工</w>
3. 4</w>
指 示
化 工</w>
4 50</w>
八 国</w>
以 东</w>
当 成</w>
饱 受</w>
耗 费</w>
排 水</w>
厂 商</w>
中 小企业</w>
E x
直 径</w>
潘 基
血 清</w>
蓬 勃</w>
督 察</w>
未 知</w>
可 乐</w>
笼 统</w>
瓦 加
慎 重</w>
董事 长</w>
第6 3</w>
激 起</w>
2007/0 8年</w>
I D</w>
肩 膀</w>
撰 文人</w>
分 会</w>
0 4</w>
耻 辱</w>
环 卫</w>
加 达</w>
第 23
擅 长</w>
播 出</w>
得 分</w>
发 掘</w>
J os
有 钱</w>
不 必要</w>
c om
里 斯
爷 爷</w>
不 力</w>
门 诊</w>
湖 泊</w>
园 里</w>
er a</w>
北 美洲</w>
勉 强</w>
F l
象 是</w>
移民 法</w>
潘基 文</w>
戈尔 诺</w>
下 一次</w>
R am
自愿 性</w>
不 佳</w>
D P/200
阻 力</w>
特 等</w>
变 异</w>
价 钱</w>
狭 隘</w>
妥 当</w>
太 子
80 ％</w>
拉 里</w>
论 据</w>
教 法</w>
所 属</w>
年 限</w>
Add. 4</w>
照 管</w>
F /200
0. 7%</w>
试 用</w>
缴 费</w>
收 音机</w>
入 伍</w>
列 示</w>
CA T
路 口</w>
草 原</w>
纪念 日</w>
约翰 逊</w>
没 法</w>
队 部</w>
瓦加 杜古</w>
宣 判</w>
A/C.6/ 6
福 音</w>
Q u
隶 属</w>
号 法</w>
4 7/
威 廉
主 机</w>
需 品</w>
快 捷</w>
存 入</w>
天 基</w>
传 给</w>
丑 闻</w>
12 44</w>
舞 会</w>
基 薪</w>
国籍 法</w>
不 已</w>
3 60</w>
残 暴</w>
15 000</w>
耦 合</w>
齿 轮</w>
范 本</w>
继承 权</w>
IM F</w>
诱 导</w>
精 密</w>
日 增</w>
下 一</w>
拨 付</w>
5 0000</w>
天文 台</w>
9 9.
遗 址</w>
数 次</w>
斟 酌</w>
一 千</w>
199 8-
需求 量</w>
表 面上</w>
发 酵</w>
at h
连 串</w>
投 标
小 鼠</w>
同 期</w>
原 型</w>
交 换
降 临</w>
自给 自足</w>
渔 民</w>
胳 膊</w>
弗 雷
弗 拉
一 共</w>
联 布</w>
拒 服</w>
传 来</w>
绳 子</w>
C L
骨 头</w>
责 备</w>
艺术 品</w>
不 见
b a</w>
理 所
合 规</w>
所 长</w>
阿 勒
电视 机</w>
捕 捉</w>
克 里</w>
40 ％</w>
不大 可能</w>
携 式</w>
肩 负</w>
海洋 学</w>
延 地</w>
少年 犯</w>
飞 船</w>
讯 问</w>
詹 姆斯</w>
战 机</w>
E/CN.4/Sub. 2/200
青 春
现 正</w>
润滑 油</w>
审 问</w>
哀 悼</w>
疏 散</w>
环 保
牧 场</w>
可 惜</w>
例 证</w>
数据 集</w>
单 击</w>
r o</w>
周 六</w>
准 军事</w>
全面 地</w>
递 送</w>
莱 坞</w>
朱 巴</w>
一 会</w>
C F
纤 维
卡 特尔</w>
二 .
胚 胎</w>
肢 体</w>
天 天</w>
统 治
第 18
流 亡</w>
比 起</w>
山 谷</w>
初 稿</w>
调 入</w>
纪念 碑</w>
巴塞 罗
出 自</w>
不 知</w>
魔 鬼</w>
评 委</w>
裤 子</w>
侵 略
C o
0 9</w>
鼓 吹</w>
着 陆</w>
沉积 物</w>
富 国</w>
E d
跟 你</w>
步 兵</w>
普林 西比</w>
所 获</w>
平 原</w>
合 于</w>
各 州</w>
助 者</w>
五 分之一</w>
成 套</w>
悲 痛</w>
一 一</w>
饲 养</w>
烹 饪</w>
流 浪</w>
备 有</w>
杰 夫</w>
地 方
同 居</w>
赫 勒
当 他</w>
原 籍</w>
课 本</w>
病 情</w>
用 到</w>
球 迷</w>
欧 洲人</w>
取 样</w>
信息 网</w>
197 0年代</w>
预 付</w>
勒 索</w>
22 2</w>
院 子</w>
还 向</w>
资 历</w>
货 车</w>
简 洁</w>
赔 偿
手 枪</w>
ic a</w>
协 商会</w>
动 画</w>
推 动力</w>
别 于</w>
P C
部 内</w>
起 床</w>
气 专委</w>
亚 马
第 20
玻 璃
PD F</w>
负 载</w>
然 不同</w>
共 和</w>
不 曾</w>
肚 子</w>
病 理</w>
政 府
开 出</w>
居 高
最 小</w>
加 权</w>
犹 如</w>
有 损</w>
嘉 莉</w>
招待 会</w>
家 禽</w>
好 奇</w>
11 时
198 8</w>
积 金</w>
上 司</w>
廉 正</w>
参 谋</w>
体 外</w>
校 正</w>
I /200
微 额</w>
尾 巴</w>
鲨 鱼</w>
繁 重</w>
费 尔
Moh am
4 00万</w>
坟 墓</w>
样 式</w>
2008- 2011年</w>
核 扩散</w>
歇 尔</w>
格 外</w>
想 知道</w>
将 由</w>
化 解</w>
z a</w>
离 境</w>
爱 人</w>
外 商</w>
3. 5</w>
远 距离</w>
观察 站</w>
疑 虑</w>
格 林</w>
197 8</w>
造 型</w>
大 师</w>
县 级</w>
重 力</w>
结 尾</w>
氯化 碳</w>
20 30年</w>
灵 感</w>
.. ..
而 出</w>
果 实</w>
凭 证</w>
二十 五</w>
乌兹别克 斯坦
三 年</w>
199 5-
库 尔德</w>
姿 势</w>
勤 奋</w>
动 力
6 5.
空间 站</w>
长 老</w>
水 灾</w>
大 豆</w>
哈马 舍尔德</w>
副 作用</w>
复 会</w>
b r
行 长</w>
同样 的</w>
兼 并</w>
当 量</w>
和 平
双 性恋</w>
9 ,
画 家</w>
掩 饰</w>
o w</w>
0 8</w>
霍 乱</w>
细 胞
毁 林</w>
格 雷</w>
头 痛</w>
二十 年</w>
遗 忘</w>
灾 后</w>
侯 赛
同 在</w>
k o</w>
账 单</w>
词 典</w>
拆 毁</w>
多 多</w>
九 龙</w>
近 日</w>
至 为</w>
反 政府</w>
航空 器</w>
盘 存</w>
滴 滴
感 知</w>
返 回
维生 素
一 块</w>
S/200 8/
无 条件</w>
技术 员</w>
塔 尔</w>
商 业化</w>
3 3%</w>
马 路</w>
赫尔 辛基</w>
表 达
苏 维埃</w>
am a</w>
里 昂</w>
管理 科</w>
安 ·
交 际</w>
G ar
繁 忙</w>
养 老</w>
下 子</w>
24 3</w>
遍 布</w>
边 际</w>
a -
权 衡</w>
尼 古
克 逊</w>
不 及</w>
补 给</w>
9 000</w>
4. 4</w>
话 者</w>
检查 员</w>
抗 体</w>
优 美</w>
200 1/
磁 场</w>
196 4年</w>
换 成</w>
公 会</w>
屋 里</w>
听 从</w>
高 危</w>
立 足于</w>
九 年</w>
CCPR /C/
求 职者</w>
过 量</w>
公 爵</w>
受害 国</w>
创始 人</w>
旋 风</w>
A M
30 4</w>
悲 观</w>
安 非
因 应</w>
看 似</w>
并 于</w>
立 足</w>
朝 向</w>
慰 问</w>
P l
耗 氧</w>
珊 瑚</w>
目 击者</w>
潮 湿</w>
公 允</w>
上 任</w>
6 5%</w>
问 候</w>
辨 认</w>
组 装</w>
磁 盘</w>
关 在</w>
酌 处</w>
执行 人</w>
安非 他
S P</w>
非 营利</w>
碳 化</w>
照 看</w>
才 干</w>
194 6年</w>
键 盘</w>
资料 库</w>
展 出</w>
发 作</w>
下 班</w>
好 莱坞</w>
C ol
荒 谬</w>
经 纪</w>
扎 菲</w>
汇 票</w>
性 教育</w>
字 样</w>
下 称</w>
挪 用</w>
层 级</w>
勒 ·
视察 员</w>
想 象
受 训</w>
几 何</w>
i on
载 述</w>
设 计
联 接</w>
太子 港</w>
C D</w>
节 性</w>
特 克斯</w>
某 事</w>
I P</w>
近 地</w>
要 使</w>
蜡 烛</w>
菲 利
祖 父</w>
不 负责任</w>
W il
零售 商</w>
萨 达
树 枝</w>
探 测器</w>
吸 附</w>
跑 到</w>
盲 人</w>
暴风 雨</w>
养 恤金</w>
传 唤</w>
顶 部</w>
疲 软</w>
民 盟</w>
残 留</w>
接 获</w>
全 人类</w>
第4 6/
物 件</w>
文 件
担 当</w>
庭 审</w>
坦 诚</w>
便 携式</w>
9 亿</w>
香 烟</w>
工 业界</w>
p r
Mar t
高 科技</w>
雅 加达</w>
并 购</w>
成 立于</w>
公 升</w>
佩 斯</w>
遣 散</w>
在 最</w>
动物 园</w>
行 的</w>
煤 矿</w>
泛 美</w>
字 典</w>
附加 值</w>
M c
编 拟</w>
旅行 社</w>
展 览会</w>
无 误</w>
客 们</w>
友 善</w>
优 越</w>
葡萄牙 语</w>
稀 少</w>
瞄 准</w>
岛 国</w>
屈 服</w>
医 治</w>
第 44</w>
景 色</w>
放 进</w>
想象 力</w>
增 拨</w>
CP. 7</w>
客观 性</w>
事 们</w>
n e</w>
U S
移 居</w>
南 美</w>
亚历 山
联 邦
盘 子</w>
甲 烷</w>
兔 子</w>
m l</w>
指挥 部</w>
宽 度</w>
0 6</w>
通行 证</w>
赫 ·
贸易 区</w>
第6 7/
未 付</w>
新 颖</w>
俄 文</w>
乔治 ·
缓 冲</w>
成 份</w>
B o
谨 此</w>
认 出</w>
糊 不清</w>
恋 爱</w>
17 18</w>
蚊 帐</w>
现 今</w>
深 圳</w>
投资 人</w>
纳 尔
澳 洲</w>
地 表</w>
分 隔</w>
高 原</w>
萎 缩</w>
知 晓</w>
刑 院</w>
以 人
锁 定</w>
归 入</w>
产 士</w>
30 000</w>
自 杀
纪 要</w>
利 ·
以人 为本</w>
所 要</w>
叶 子</w>
双 向</w>
十 一月</w>
7 /200
简 述</w>
第5 1</w>
周 岁</w>
了 不起</w>
东 省</w>
行 了</w>
房 价</w>
宾 馆</w>
不 复</w>
A/AC.10 5/
政治 处</w>
探 视</w>
宏 伟</w>
哈 尔
映 射</w>
古 怪</w>
轮 廓</w>
赶 到</w>
成 形</w>
将 使</w>
S/PR ST/
Joh n</w>
22 8</w>
祖 母</w>
消 防
工 商界</w>
定 额</w>
安 定</w>
修 饰</w>
为 首</w>
行 者</w>
更 替</w>
大 体</w>
借 以</w>
交 出</w>
一 无所
打 发</w>
J ab
高 潮</w>
升 至</w>
B E
195 4年</w>
要 件</w>
肯 尼
偷 窃</w>
买 家</w>
IS O</w>
长 途</w>
滴滴 涕</w>
安非他 明</w>
仍 在</w>
记 名</w>
第 0
备 受</w>
化 验</w>
厄 尔
北 朝鲜</w>
关 联
叛 军</w>
促 销</w>
50 亿</w>
环 绕</w>
毛 病</w>
巴 马
保护 性</w>
为 生</w>
1994- 1995</w>
轨 迹</w>
凯 科斯</w>
6 1.
迪 拜</w>
绘 图</w>
死 的</w>
出 任</w>
C D
躲 避</w>
口 腔</w>
副 代表</w>
C 节</w>
说 服
恋 者</w>
理所 当然</w>
必 需品</w>
发展 司</w>
人 间</w>
难 得</w>
牧 民</w>
恩 ·
思 议</w>
夏 威
从 句</w>
196 2年</w>
克 鲁
人 手</w>
2 17</w>
金 山</w>
因 数</w>
卡 片</w>
二十 四</w>
上 诉
ti on</w>
2 21</w>
194 5年</w>
研 训</w>
反 腐</w>
音 频</w>
认 罪</w>
短 信</w>
总 检察长</w>
当 性</w>
大 道</w>
E/CN.4/Sub. 2/
达 尔</w>
细 分</w>
很 久</w>
公 国</w>
一 如
i -
at a</w>
22 4</w>
6 3.
美 军</w>
核 设施</w>
服务 台</w>
日 刊</w>
政 界</w>
世 俗</w>
6 2.
ou s
亵 渎</w>
老 虎</w>
罗伯 特</w>
小 学生</w>
姓 氏</w>
制 冷</w>
广 告
定 的</w>
书 店</w>
丹 尼尔</w>
青春 期</w>
在 在</w>
南 共</w>
下 游</w>
G h
装 载</w>
聆 听</w>
巴 特</w>
好 看</w>
候 选</w>
薪金 税</w>
突 显</w>
邮 政局</w>
或 为</w>
录 取</w>
le y</w>
民 法典</w>
譬 如</w>
螺 旋</w>
硫 丹</w>
末 尾</w>
市 值</w>
及 格</w>
DP/ FP
196 7</w>
16 00</w>
负债 表</w>
绝 育</w>
可 从</w>
之 初</w>
5 8/
加 拉</w>
E 4</w>
奖 项</w>
器 件</w>
关 上</w>
G e
浪 潮</w>
性 传播</w>
大 火</w>
嘴 唇</w>
占 到</w>
修 缮</w>
E l</w>
C S
迟 交</w>
跑 步</w>
字符 串</w>
前 方</w>
蝴 蝶</w>
地 狱</w>
参 政</w>
26 5</w>
196 5年</w>
阻 挡</w>
药 具</w>
不 许</w>
24 8</w>
赶 出</w>
贫 民</w>
消 毒</w>
心 勃勃</w>
年 假</w>
出 卖</w>
S/ 199
飞行 器</w>
还 给</w>
权 威
反 弹</w>
艾 伦</w>
红 利</w>
并 能</w>
小 伙
呼 叫</w>
20 -
成 因</w>
怀 着</w>
后 的</w>
司 令</w>
n a</w>
论 者</w>
本 ·
5 2.
嫉 妒</w>
CERD /C/
战斗 员</w>
圣 基
消费 品</w>
O r
路 面</w>
第 47</w>
有 助</w>
身 处</w>
肉 类</w>
未 婚</w>
不 使用</w>
in t</w>
警 卫队</w>
积 分</w>
真 实性</w>
避孕 套</w>
海 面</w>
23 7</w>
面 面</w>
裂 缝</w>
热 门</w>
居民 区</w>
填 充</w>
公 民权</w>
托 运人</w>
冗 长</w>
党 员</w>
好 在</w>
花 在</w>
时 有</w>
在 上</w>
Q /
IDB. 3
折 衷</w>
就 座</w>
历 程</w>
中 长期</w>
不可 思议</w>
t on</w>
B /200
开放 式</w>
底 层</w>
工 伤</w>
北 亚</w>
上 层</w>
a '
6 .1</w>
14 号</w>
运 到</w>
粗 糙</w>
低 温</w>
M S
打 败</w>
已 故</w>
体 性</w>
Moham ed</w>
/CO P</w>
达 格·
编 排</w>
浮 动</w>
带 回</w>
amm ad</w>
25 ％</w>
胡 子</w>
研究 金</w>
民 行</w>
心 地</w>
东 道</w>
说服 力</w>
23 3</w>
共同 点</w>
2 18</w>
对 之</w>
墙 壁</w>
叫 我</w>
专 为</w>
5 6/2
索马里 兰</w>
演 讲
尼 维斯</w>
交 织</w>
一夫 多
掌 管</w>
伯 特</w>
Ab u</w>
驻 留</w>
陷 阱</w>
赌 博</w>
联 卢</w>
害 性</w>
圣 城</w>
加 固</w>
联 赛</w>
投 掷</w>
复杂 化</w>
基 里
使 不</w>
郁 症</w>
卡 扎菲</w>
医 护</w>
调 试</w>
水 产</w>
权威 性</w>
救 济
银行 家</w>
抑 郁</w>
it h</w>
195 5年</w>
表 扬</w>
无 期</w>
敞 开</w>
加利福 尼亚</w>
临 界</w>
2005/0 6年</w>
运 营商</w>
组 长</w>
牛 肉</w>
欧 亚</w>
无 比</w>
感 和</w>
利 物
25 2</w>
拟 于</w>
德 斯</w>
小 孩子</w>
大 意</w>
圣基 茨</w>
ha t</w>
第 48/2
恢 复性</w>
布 兰
傲 慢</w>
编 撰</w>
有 一天</w>
At las</w>
性 恋者</w>
6 7.
球 赛</w>
洄 游</w>
歌 唱</w>
上 下文</w>
继承 人</w>
称 呼</w>
汇 聚</w>
名 录</w>
加 斯</w>
长 短</w>
身 子</w>
有 损
教 皇</w>
留 出</w>
座 标</w>
一如 既往</w>
达格· 哈马舍尔德</w>
斯 普
文化 部</w>
外 阴</w>
同 事们</w>
分 离
领 水</w>
给 他</w>
棕 色</w>
审 美</w>
UNE P/C
程 表</w>
会 话</w>
香 蕉</w>
猴 子</w>
夜 里</w>
V /
22 3</w>
观 测
UNEP/ FA
G -
有损 于</w>
收益 率</w>
3 :
2006/ 07
讲 解</w>
尼 诺</w>
四 川</w>
A B
选 取</w>
柔 软</w>
枢 纽</w>
在 校</w>
吸 入</w>
变 迁</w>
几 率</w>
乐 器</w>
下 设</w>
管 控</w>
公 平
IN F.
G l
服务 处</w>
征 用</w>
中 去</w>
除 去</w>
闪 烁</w>
炮 击</w>
无 遗</w>
唱 片</w>
3 /200
服务 费</w>
偶 像</w>
返回 者</w>
粗 暴</w>
立法 者</w>
所 涉</w>
道 而
评 分</w>
订 有</w>
性 关系</w>
库 克
学 说</w>
发电 厂</w>
事 儿</w>
争 执</w>
对 第</w>
主 角</w>
F ar
瞩 目</w>
烟 雾</w>
沙 发</w>
撤 退</w>
冰 淇
优 异</w>
205 0年</w>
部 将</w>
系统 化</w>
皮 革</w>
外 套</w>
un g
t r
We b</w>
18 00</w>
赛 事</w>
崭 新</w>
如 果
小 儿
大 院</w>
23 6</w>
献 身</w>
3 万</w>
自 发</w>
第5 1/2
本 能</w>
新 德里</w>
吉 普
en s
笼 罩</w>
希 腊
可 获得</w>
199 6-
滚 动</w>
之 久</w>
适 当地</w>
自 尊</w>
尼 克</w>
尔 特</w>
小 计</w>
天 数</w>
声 波</w>
布莱 尔</w>
存 有</w>
分 手</w>
ar e</w>
30 1</w>
顺 应</w>
贪 婪</w>
汇 总表</w>
oo k</w>
非 歧视性</w>
盲 目</w>
海 员</w>
比 照</w>
政 令</w>
L u
问 及</w>
长 于</w>
献 给</w>
凯 瑟
面 部</w>
露 天</w>
适 合于</w>
整 编</w>
停 滞
亲 眼</w>
聚 焦</w>
司令 部</w>
上 周</w>
an c
起 义</w>
河 谷</w>
E/C. 12</w>
美 德</w>
人 日</w>
付 诸
二 战</w>
17 37</w>
16 12</w>
爱德 华</w>
阀 门</w>
重 伤</w>
里斯 本</w>
滞 后</w>
6 6.
让 我</w>
表达 式</w>
联系 国</w>
灌 木</w>
戴 上</w>
安 大
I I/
挂 在</w>
报 率</w>
手 套</w>
巧 妙</w>
P E
新闻 处</w>
完 备</w>
伊拉 克人</w>
FCCC/SBST A/
迪 亚
未 用</w>
战 后</w>
动 器</w>
4. 5</w>
27 0</w>
麻 管局</w>
喜 剧</w>
参谋 长</w>
剧 性</w>
30 3</w>
侯赛 因</w>
企业 界</w>
不 可</w>
采 购
议 席</w>
可 选</w>
鲜 花</w>
经 销商</w>
脚 步</w>
本 科</w>
大 米</w>
ICCD /COP</w>
23 %</w>
2002- 2005年</w>
毛 利人</w>
哪 种</w>
日 元</w>
心 协力</w>
取 出</w>
印 件</w>
专 制</w>
开 玩笑</w>
对 吗</w>
国 产</w>
压 倒</w>
9 :
还 未</w>
男 朋友</w>
厂 家</w>
公 诉</w>
借 用</w>
使用 率</w>
f f
N A
季 节性</w>
流行 率</w>
期 中</w>
干 嘛</w>
1996- 1997</w>
裁 员</w>
考 核</w>
打 扮</w>
失 调</w>
S R
J I
E/ICE F/200
衡 平</w>
灾 区</w>
民 防</w>
有 幸</w>
强 壮</w>
廉 政</w>
同 志</w>
冰淇 淋</w>
瓶 子</w>
快 点</w>
信息 化</w>
A/5 0</w>
辛 苦</w>
第一百 零
班 吉</w>
最大 化</w>
摒 弃</w>
夸 大</w>
N e
还 原</w>
摄 入</w>
195 0年</w>
饱 和</w>
罢 了</w>
S e
高 管</w>
卓 有</w>
4 :
天 下</w>
依赖 性</w>
S ar
重 心</w>
淹 没</w>
商 场</w>
连 接
处 处</w>
囚 禁</w>
口 味</w>
第4 7/
主席 国</w>
获 知</w>
每 月</w>
报 警</w>
批 发</w>
上 岗</w>
al a</w>
24 2</w>
门 徒</w>
逐 字</w>
罗 夫</w>
工 地</w>
a b</w>
9 0万</w>
遗 嘱</w>
而 异</w>
电 极</w>
博 拉</w>
利物 浦</w>
附 文</w>
通 信
社会 学</w>
实 话</w>
信 守</w>
传 动</w>
高 尚</w>
构 件</w>
投 保</w>
布 斯</w>
偏 差</w>
低 廉</w>
轮 值</w>
巴塞罗 那</w>
将 其</w>
口 岸</w>
口 中</w>
停滞 不前</w>
面 孔</w>
迟 迟</w>
库克 群岛</w>
土地 权</w>
你 自己</w>
R O
遗 失</w>
贮 存</w>
死 了</w>
6. 3</w>
规 管</w>
据 点</w>
惊 喜</w>
共产 主义</w>
浴 室</w>
偏 好</w>
车 上</w>
线 上</w>
手 表</w>
分 项目</w>
克 减</w>
P B
问 问</w>
猛 虎</w>
不 好</w>
聚 合物</w>
统治 者</w>
票 数</w>
牙 医</w>
求 助于</w>
戒 指</w>
成 型</w>
恩 斯</w>
年 青
S/ RES</w>
直升 飞机</w>
灿 烂</w>
时 段</w>
成 瘾</w>
不 应该</w>
流行 病学</w>
回 报率</w>
前 列</w>
兄 弟
使 者</w>
改 性</w>
安 宁</w>
墙 上</w>
颁 奖</w>
金 色</w>
可 接受</w>
受 雇</w>
上 了</w>
23 8</w>
跑 道</w>
组 别</w>
甚 麽</w>
源 泉</w>
全 局</w>
28 3</w>
缺 率</w>
坐 下</w>
别 无
保 健
难民 法</w>
洛 克</w>
法 第</w>
年青 人</w>
地 政</w>
在 意</w>
魁 北
祝 你</w>
对 了</w>
女 孩子</w>
恫 吓</w>
5 3.
权 法</w>
打 扫</w>
夏威 夷</w>
2 1%</w>
领 海</w>
尼 奥</w>
人 节</w>
与 众
下 调</w>
19 %</w>
第 XV
巴 里</w>
寄 宿</w>
不可 缺少</w>
马尼 拉</w>
衣 物</w>
童 婚</w>
清 晨</w>
耽 搁</w>
玩 耍</w>
就 说</w>
创 始</w>
与众 不同</w>
水 管</w>
劳动 部</w>
鸟 儿</w>
领 事
起 步</w>
新 界</w>
小 农</w>
诺 夫</w>
律 的</w>
字 体</w>
处 所</w>
4 25</w>
记 录
推 导</w>
回 头</w>
M al
J e
2 19</w>
颇 为</w>
伯 格</w>
待 在</w>
奥 塞
千 克</w>
分 权</w>
S im
讲 授</w>
而 后</w>
亚 伯
重 罪</w>
第七 十三</w>
生 态
瓦 斯</w>
格 斯</w>
格 尔</w>
有 无</w>
X X</w>
连 锁</w>
转 账</w>
讲 师</w>
浏 览
法 国人</w>
柜 台</w>
授 课</w>
开 门</w>
医 疗
震 动</w>
班 级</w>
机 油</w>
普 及
敏 捷</w>
国 债</w>
全 方位</w>
十 二
养 成</w>
山 上</w>
多 层面</w>
规 程</w>
es s</w>
滞 留</w>
并 把</w>
迫击 炮弹</w>
致 敬</w>
相 对
呼吸 道</w>
但 愿</w>
Mu h
抗 力</w>
议 和</w>
自 在</w>
水 稻</w>
万 一</w>
A k
5 8.
达 州</w>
租 约</w>
看 护</w>
可 用性</w>
退 伍</w>
凶 手</w>
偏 向</w>
D e
饮 用</w>
排 除
总 和</w>
布 琼
居高 不下</w>
面 貌</w>
走 在</w>
或者 说</w>
中 共</w>
S c
E M
23 4</w>
表 彰</w>
男 士</w>
独 家</w>
不 均衡</w>
陌 生</w>
纽 带</w>
厌 倦</w>
做 完</w>
不 适</w>
100 多</w>
验 收</w>
马 格里
说 成</w>
蜜 蜂</w>
知 悉</w>
波 里</w>
杰 克逊</w>
回 想</w>
告 别</w>
参与 率</w>
B en
25 000</w>
饮 酒</w>
衔 接</w>
联 想</w>
房 租</w>
停 下来</w>
知 名
海 平面</w>
城 区</w>
口 气</w>
加 班
a el</w>
坚 称</w>
近 于</w>
知名 度</w>
杆 菌</w>
平均 值</w>
就 绪</w>
好 运</w>
两 部分</w>
不 偏
30 7</w>
其 一</w>
保 守
阻 塞</w>
正 规
仅 限于</w>
航 线</w>
沥 青</w>
叶 片</w>
9 8.
详 见</w>
派 系</w>
干 活</w>
固 然</w>
反 击</w>
高 涨</w>
膝 盖</w>
用 具</w>
望 着</w>
h e
am p
一 带</w>
递 解</w>
火 车站</w>
多米尼 克</w>
基 数</w>
以 北</w>
耶 夫</w>
笔 者</w>
信 封</w>
身 后</w>
18 9
货 品</w>
同 侪</w>
G .
野 心</w>
性 感</w>
外 侨</w>
厄尔 尼诺</w>
ad a</w>
驾驶 员</w>
随 身</w>
肌 肤</w>
un g</w>
UNEP/C H
40 1</w>
防 务</w>
贷 记</w>
裨 益</w>
自 私</w>
爆炸 性</w>
巴 西
仍 有</w>
6 4.
胜 过</w>
沙 滩</w>
放 牧</w>
小儿 麻
交 互
雅 各</w>
肯尼 迪</w>
擅 自</w>
割 礼</w>
24 5</w>
而 上</w>
导 师</w>
增加 额</w>
3 38</w>
紫 色</w>
放 慢</w>
拿 走</w>
儿 女</w>
世 代</w>
S/ 2010</w>
脑 海</w>
悲 哀</w>
充 斥</w>
二 年</w>
27 %</w>
辛 格</w>
批 判</w>
s c
有 约</w>
开幕 词</w>
建筑 师</w>
减 半</w>
6 /200
24 6</w>
2006/07 年度</w>
腹 泻</w>
灌 输</w>
期 末</w>
D D</w>
语 气</w>
膳 食</w>
经 贸</w>
硫 化物</w>
治 疗
损 耗</w>
找 个</w>
０ ０
车 臣</w>
自 备</w>
水 流</w>
得 多</w>
壮 大</w>
匆 匆</w>
丛 林</w>
保 证
诠 释</w>
不偏 不
节 制</w>
村 子</w>
施 以</w>
布 特
24 %</w>
赚 钱</w>
深 层</w>
水 利</w>
a /
O S</w>
矿 床</w>
马格里 布</w>
转 载</w>
赶 走</w>
脚 本</w>
痹 症</w>
实 习
出 路</w>
28 0</w>
高 空</w>
签 约</w>
最 优</w>
招 收</w>
拓 宽</w>
7. 2</w>
管理 股</w>
右 边</w>
仇 视</w>
杯 子</w>
尽 职</w>
匆 忙</w>
N E
3 11</w>
玛 格
旅 途</w>
25 5</w>
木 头</w>
X L
15 ％</w>
长 足</w>
精 算
旧 金山</w>
Vol .
违 禁</w>
弄 得</w>
实 用性</w>
兵 库</w>
t e
ay a</w>
隶 属于</w>
海 岸
敦 请</w>
大 有</w>
邦 特兰</w>
支 架</w>
被 杀</w>
水 力</w>
巴 拉克</w>
就 地</w>
主 宰</w>
责 令</w>
葬 礼</w>
应 被</w>
山 顶</w>
导 性</w>
大 笑</w>
全面 性</w>
不 言
13 00</w>
成 了</w>
平 息</w>
女 朋友</w>
发 觉</w>
东 南部</w>
5 9.
23 2</w>
帝 力</w>
同 性恋者</w>
下 车</w>
o j
复 活</w>
墓 地</w>
不 为
4 6/
28 %</w>
高 额</w>
房 委会</w>
强 力</w>
传 奇</w>
o .
阿卜杜 拉</w>
肝 脏</w>
吸 纳</w>
17 00</w>
终 点</w>
正 视</w>
压 器</w>
23 1</w>
非 军事化</w>
车 道</w>
聚 合</w>
以 为
中 药</w>
足 轻重</w>
讲习 会</w>
相 似
生 素</w>
欢 呼</w>
安全 感</w>
25 6</w>
视 同仁</w>
离 散</w>
放 映</w>
如果 说</w>
兰 德</w>
不可 接受</w>
等 同</w>
核 电站</w>
明 示</w>
一 视同仁</w>
6 8.
过 敏</w>
调 制</w>
皮 特
尔 科</w>
导 员</w>
面 粉</w>
遗 传
行 进</w>
截 然不同</w>
微 量</w>
很 好地</w>
富 翁</w>
诋 毁</w>
60 ％</w>
5 /200
开 销</w>
外 在</w>
ol d
F- 16</w>
政治 性</w>
嘴 里</w>
30 2</w>
长 的</w>
这 些
氟 化</w>
念 头</w>
唯 有</w>
逐 出</w>
流 出</w>
抗 生素</w>
融 化</w>
招 待</w>
堵 塞</w>
埃 及
见 于</w>
有 线</w>
销 量</w>
趋 向</w>
警 觉</w>
褐 色</w>
查 理</w>
若 是</w>
第 46</w>
水 库</w>
er e</w>
9 8%</w>
第 V
指 纹</w>
尖 锐</w>
小 偷</w>
士 气</w>
机 体</w>
197 0</w>
精算 师</w>
眼 里</w>
测 绘</w>
欧安 组织</w>
暴 雨</w>
效 仿</w>
地 下
近 似</w>
请 求
有 效率</w>
不偏不 倚</w>
E .</w>
销售 额</w>
起 伏</w>
爱 心</w>
为 向</w>
阈 值</w>
墨西哥 城</w>
动力 源</w>
街 区</w>
联 运</w>
泳 池</w>
厨 师</w>
6 0.
监护 权</w>
并 可</w>
不 公</w>
C. 1/
金 斯</w>
试验 性</w>
有 偿</w>
无 理</w>
拥 有者</w>
基里 巴斯</w>
驳 斥</w>
加 特</w>
篮 子</w>
教 义</w>
增 值
5 00
进口 商</w>
致 残</w>
离 子
瓦 解</w>
A/6 1/2
59 /2
攀 升</w>
以 至</w>
猖 獗</w>
所 持</w>
埋 葬</w>
CR P.1</w>
5/ Add.1</w>
萨 利
对 吧</w>
5 5%</w>
接 洽</w>
l a
3 500</w>
美 属</w>
建 国</w>
不 属于</w>
说 谎</w>
敏 锐</w>
搬 运</w>
抗 拒</w>
录 像
希 伯
一 流</w>
建筑 业</w>
化 妆
一 下子</w>
W al
艺 品</w>
国 境</w>
勒 斯</w>
加班 费</w>
乏 味</w>
M at
麦 克</w>
第6 5</w>
渊 源</w>
弗兰 克</w>
如 表</w>
英 文版</w>
畅 销</w>
排除 在外</w>
错 误
气 息</w>
正 教</w>
妈 的</w>
雄 心勃勃</w>
防 守</w>
能 为</w>
日 记</w>
承包 人</w>
O R
A P
设 于</w>
直 觉</w>
监 委</w>
未 遂</w>
无 损</w>
脸 色</w>
潜 艇</w>
围 栏</w>
仿 效</w>
转 身</w>
投 降</w>
左 边</w>
卫生 署</w>
减 速</w>
维多 利亚</w>
林 肯</w>
小伙 子</w>
客 厅</w>
R os
肮 脏</w>
此 次</w>
方 方
探 究</w>
州 市</w>
假 释</w>
26 %</w>
15/ Add.
染 色
下 级</w>
I B
补 充
热 切</w>
比 喻</w>
拒 不</w>
金 矿</w>
请 愿</w>
托 ·
E L
4 00
造 就</w>
责任 者</w>
多 种
骑 士</w>
跨 学科</w>
诉 状</w>
恶 心</w>
夸 张</w>
出 生率</w>
排 队</w>
四 日</w>
讲 台</w>
il l</w>
CAT /C/
并 进</w>
布 尔
入 狱</w>
侵略 者</w>
那 人</w>
天 主
国 军</w>
王 后</w>
拘 捕</w>
入 手</w>
为 受</w>
相 邻</w>
用 力</w>
次 于</w>
开 通</w>
保留 地</w>
6 :
机 上</w>
I .
30 6</w>
19 -
背 道而
离 任</w>
检 组</w>
很 长</w>
山 羊</w>
大 笔</w>
半 导体</w>
70 ％</w>
连 结</w>
虚 弱</w>
稀 缺</w>
每 周</w>
m d
i h
肥 料</w>
y n
ic h</w>
UNEP/FA O/
O z
5 :
防 灾</w>
近 代</w>
肝 炎</w>
耕 种</w>
所 作
专 利
r i</w>
2014-201 7年</w>
腹 部</w>
病 变</w>
活 泼</w>
控 股</w>
很 可能</w>
地 基</w>
9 7.
这 边</w>
续 会</w>
紫 外线</w>
可 笑</w>
力 气</w>
所 有
微 弱</w>
专 案</w>
背道而 驰</w>
线 程</w>
应 尽</w>
大 片</w>
加 尼</w>
15 14</w>
胸 部</w>
水 生</w>
枯 竭</w>
光 辉</w>
借 给</w>
保险 人</w>
亲 身</w>
201 8年</w>
詹 姆
方方 面面</w>
S PL
Kh al
B /CO
联 机</w>
小儿麻 痹症</w>
对 口</w>
凯瑟 琳</w>
个 个</w>
p h
FCCC/SB I/200
25 7</w>
盟 国</w>
流 传</w>
比 利亚</w>
切尔 西</w>
储 量</w>
专 辑</w>
日 本人</w>
华 丽</w>
军事 区</w>
糖 果</w>
相 干</w>
相 容</w>
库尔 德
大 象</w>
问 到</w>
路 边</w>
罗伯 特·
折 旧</w>
征 性</w>
咳 嗽</w>
阐 释</w>
贫 富</w>
政治 部</w>
卡 纳
击 队</w>
内 陆
不可 侵犯</w>
A I
9 4.
200 多</w>
辛 勤</w>
K r
邮 箱</w>
熊 猫</w>
妻 制</w>
喀 什</w>
一 堂</w>
30 9</w>
数 个</w>
亲 切</w>
不 禁</w>
S ect
22 9</w>
迁 往</w>
美 学</w>
研 讨</w>
用 量</w>
振 奋</w>
24 1</w>
游 览</w>
坎 昆</w>
P S/
6 00万</w>
遣 送</w>
字 段</w>
可信 性</w>
克 利
闪 电</w>
环境 部</w>
实 施
语 义</w>
肺 炎</w>
硬 化</w>
对 准</w>
关联 性</w>
锅 炉</w>
获 得
标 示</w>
未 作</w>
抗 辩</w>
强 奸
被 毁</w>
特 里</w>
变 通</w>
风 力</w>
这 样
舌 头</w>
离 岸</w>
拥 护</w>
天 地</w>
5. 4</w>
过 错</w>
征 询</w>
剑 桥</w>
利 雅
保 释</w>
B ro
高尔 夫</w>
工 序</w>
革 命
职 业
未 获</w>
光 芒</w>
修 补</w>
万 国
羽 毛</w>
批 量</w>
分布 式</w>
背 离</w>
气 管</w>
收 率</w>
往 前</w>
原 住
六 氯
零 容忍</w>
遗 体</w>
比 勒
数 十亿</w>
巨 人</w>
冷 漠</w>
an k
7 7.
20 号</w>
14 00</w>
钱 包</w>
起 始</w>
胺 类</w>
悉 尼</w>
巴 士
为 有</w>
26 7</w>
驾 车</w>
里 斯</w>
赛 人</w>
训练 班</w>
法 者</w>
批 评
想 出</w>
域 内</w>
同 情
11 -
领事 馆</w>
雕 刻</w>
转 折
弃 权
位 移</w>
TD/ B/CO
谢 意</w>
调 停</w>
第5 4/
本 届</w>
持 有者</w>
面 具</w>
赫勒 拿</w>
多 民族</w>
劳工 部</w>
er o</w>
1 100</w>
自 立</w>
特洛 尔科</w>
新 疆</w>
客户 端</w>
咨 委会</w>
似 宜</w>
er t</w>
7 50</w>
降 雨</w>
跨 大西洋</w>
竞争 者</w>
后 天</w>
人 次</w>
ac e</w>
门 外</w>
罗 德</w>
维 权</w>
帐 单</w>
人 知</w>
or d
N PT
土 豆</w>
倒 闭</w>
体 中</w>
首 选</w>
量 子</w>
源 码</w>
涂 层</w>
官 员们</w>
好 人</w>
部 级</w>
苍 白</w>
注 射
暴 乱</w>
抗 灾</w>
2004/ 0
递 延</w>
立方 米</w>
炸 死</w>
有 系统</w>
律 法</w>
· 马
静 静</w>
背 叛</w>
位 数</w>
上 床</w>
38 %</w>
描 写</w>
尽 头</w>
奶 酪</w>
植 入</w>
在 押</w>
固 醇</w>
受 阻</w>
核 技术</w>
树 叶</w>
提 早</w>
出 价</w>
个 性化</w>
S P/
7 9.
第6 6/
畜 牧业</w>
年 来</w>
巨 头</w>
7 :
选 拔</w>
蒙 古
第24 2</w>
电影 院</w>
民 族
或 因</w>
吸 入
不 正常</w>
· 埃
:00 －
3 20</w>
陀 利亚</w>
过渡 性</w>
虫 害</w>
管 教</w>
添 加
90 ％</w>
花 旗</w>
梅 托
有 别于</w>
升 起</w>
中间 人</w>
A/ ES-10</w>
6 1/2
语 句</w>
E m
西 北部</w>
花 朵</w>
自 觉</w>
加 尔
不 具</w>
A/CN.9/ 6
辐 射
良 知</w>
接 壤</w>
会 长</w>
政 和</w>
兽 医</w>
采 样</w>
燃 料
比勒 陀利亚</w>
年 终</w>
合 同
什 叶
薄 膜</w>
确 度</w>
无 私</w>
不 通</w>
上 调</w>
7 6.
青 蛙</w>
畸 形</w>
方 人</w>
d o</w>
26 1</w>
非 正常</w>
能 值</w>
电 文</w>
举 起</w>
Ch r
访 客</w>
股 本</w>
羊 毛</w>
担保 权</w>
修订 版</w>
25 3</w>
辩 方</w>
比 索</w>
操作 性</w>
忙 碌</w>
巴马 科</w>
p d
香 味</w>
转折 点</w>
大 事</w>
多 半</w>
30 8</w>
迅 猛</w>
玛格 丽
巴 德</w>
侧 重点</w>
什叶 派</w>
E -
火 炬</w>
愈 来
循 证</w>
娃 娃</w>
傻 瓜</w>
7 1.
6 9.
赐 给</w>
税 务局</w>
惩 罚
归 档</w>
· 奥
马 诺
贺 卡</w>
毛 派</w>
学 童</w>
十 年</w>
钱 财</w>
约 瑟</w>
潜 能值</w>
域 名</w>
召 集
分 居</w>
万国 宫</w>
JI U</w>
手 下</w>
弃权 票</w>
鼠 标</w>
源 头</w>
引 诱</w>
商 务部</w>
冷 冻</w>
代 之</w>
ov a</w>
听 听</w>
首 尔</w>
错 综
感 应</w>
使用 费</w>
A/HRC/ WG.
海 区</w>
航 海</w>
实施 者</w>
可 受</w>
30 亿</w>
金 和</w>
权 时</w>
IN F
单 单</w>
为 最</w>
预 制</w>
长 长</w>
胞 胎</w>
烧 毁</w>
灰 尘</w>
患 上</w>
废 墟</w>
分 遣队</w>
内陆 国</w>
做 为</w>
不 遵守</w>
P a
CO 2</w>
过 重</w>
联 检组</w>
格 兰
执 业</w>
愈来 愈</w>
右 翼</w>
不 惜</w>
NPT /CONF.
较 早</w>
浏览 器</w>
无 助于</w>
库 克</w>
al e</w>
约 为</w>
在 座</w>
不久 前</w>
9 0.
7 .1</w>
跟 我</w>
淀 粉</w>
抚 恤金</w>
雨 量</w>
迈 克
机 枪</w>
显 微
布 达
保证 金</w>
C P
违 犯</w>
电 线</w>
搅 拌</w>
地 处</w>
3 30</w>
走 开</w>
特 质</w>
七 日</w>
e x</w>
3/ Add.1</w>
24 7</w>
裁 量</w>
惧 怕</w>
干 的</w>
寄 养</w>
漫 画</w>
滋 生</w>
按 摩</w>
预 测
进 攻
法 特</w>
授 权
基 伍
4 万</w>
错综 复杂</w>
而 来</w>
特 勒</w>
服 饰</w>
度 量</w>
矿 区</w>
得 不到</w>
大 洋</w>
别 处</w>
et t
非 裔</w>
殿 下</w>
抗 议者</w>
弄 清</w>
工 人们</w>
好 坏</w>
S/200 9/
200 0万</w>
手 提
恒 星</w>
农 夫</w>
三角 洲</w>
i e
J am
纳 德</w>
盟 军</w>
物 力</w>
最 高级</w>
显 着</w>
抨 击</w>
A/AC. 105</w>
过 滤
象 征性</w>
普 拉
从 来
S il
女 友</w>
中 心
A D
195 7年</w>
环 球</w>
基 尔</w>
先 驱</w>
不 干涉</w>
O L</w>
22 /
1 10
稳 健</w>
提 具</w>
I t</w>
3 6%</w>
24 4</w>
逐 年</w>
补充 性</w>
对 冲
不 切
9 3.
1. 0
.g ov
银 河</w>
耗 尽</w>
答 辩
德 尔
8 0年代</w>
24 00</w>
赶 快</w>
拖 延地</w>
归 根
园 艺</w>
医 学院</w>
分 级</w>
30 -
主 语</w>
J ac
2 200</w>
种 姓</w>
拷 贝</w>
孕 产</w>
复 议</w>
减 税</w>
不切 实际</w>
ST/SG B/200
发 音</w>
克 朗</w>
近 海</w>
投票 站</w>
抑 郁症</w>
总 而言之</w>
塔 拉</w>
2 1号</w>
英 勇</w>
绅 士</w>
满 怀</w>
方 和</w>
一 眼</w>
留 存</w>
活动 家</w>
施 暴</w>
斯普 斯卡</w>
当 场</w>
尖 端</w>
奥塞 梯</w>
加 载</w>
an o</w>
a in</w>
连 通</w>
发 售</w>
B u
23 9</w>
显微 镜</w>
撒 谎</w>
打 伤</w>
恶 魔</w>
举 出</w>
记 忆
约 谈</w>
管 人</w>
礼 服</w>
狐 狸</w>
特 兰
大 区</w>
咨 委</w>
向 外</w>
台 风</w>
利 性</w>
作 风</w>
结 转</w>
年 老</w>
器 械</w>
al i</w>
驯 鹿</w>
马拉 喀什</w>
逐 一</w>
波 器</w>
处理 厂</w>
会 员
H IV</w>
选 中</w>
明 斯克</w>
宇航 员</w>
埃 博拉</w>
制 成品</w>
24 9</w>
驻 在</w>
迷 惑</w>
未 予</w>
今 世</w>
并 已</w>
公 开
使 是</w>
25 8</w>
25 4</w>
枪 击</w>
视察 团</w>
布琼 布拉</w>
助 产士</w>
＿ ＿
第5 1/
私 隐</w>
治 罪</w>
l er</w>
狩 猎</w>
拼 命</w>
中 学生</w>
通 话</w>
即 使是</w>
S m
A f
饼 干</w>
透 彻</w>
最 惠国</w>
惩罚 性</w>
如 能</w>
3 10</w>
非洲 裔</w>
迎 来</w>
蒸 发</w>
伐 木</w>
p ro
精 通</w>
手 语</w>
头 衔</w>
与 人</w>
D V
5 4/2
1 12
预 留</w>
突 变</w>
化 肥</w>
动 车</w>
能 见度</w>
政府 军</w>
性 生活</w>
观 光</w>
莱 斯</w>
式 化</w>
增值 税</w>
商 谈</w>
期 盼</w>
应 聘</w>
对 地</w>
大 夫</w>
不 间断</w>
首 位</w>
近 乎</w>
挑 起</w>
冒 着</w>
能 以</w>
改 编</w>
官 们</w>
如 期</w>
B ur
过 上</w>
短 短</w>
相 差</w>
无 常</w>
中 低</w>
不 大</w>
撤 军</w>
怜 悯</w>
原 体</w>
加 德
减 刑</w>
M us
答 道</w>
杀 手</w>
顶 级</w>
石 块</w>
毛 坯</w>
来 吧</w>
投 放</w>
学 徒</w>
售 价</w>
牛 仔
死 因</w>
呈 交</w>
制 于</w>
分 配
25 0万</w>
讲 坛</w>
行政 法</w>
拼 写</w>
外 壳</w>
亚伯 拉
一 级</w>
黎 波里</w>
萨米 人</w>
苯丙 胺类</w>
联 会</w>
的 黎波里</w>
强 国</w>
奏 效</w>
复 核</w>
坦 白</w>
9 5
过 大</w>
步 入</w>
26 4</w>
滑 雪</w>
忙 于</w>
往 常</w>
冒 犯</w>
足 迹</w>
捐 赠
拉 斯
3 13</w>
19 00</w>
闯 入</w>
身 穿</w>
整 顿</w>
推 向</w>
右 手</w>
劣 势</w>
中 度</w>
N g
路 障</w>
礼 仪</w>
爱 好
热 心</w>
氯 苯</w>
晚 期</w>
招 呼</w>
官 兵</w>
互 动式</w>
网 播</w>
涉 案</w>
德 语</w>
参 赛</w>
依 次</w>
A P</w>
38 7</w>
阿 萨
讲 到</w>
挽 回</w>
受 制于</w>
主 页</w>
4 2%</w>
沙 龙</w>
大 肆</w>
向 导</w>
全 力
不 容</w>
海 边</w>
景 点</w>
想 不到</w>
开 业</w>
低 价</w>
东 正教</w>
见 性</w>
继 任</w>
广 播
场 面</w>
齐 全</w>
实习 生</w>
基因 组</w>
交互 式</w>
28 8</w>
而 论</w>
直 辖
百 计</w>
己 烷</w>
吸入 器</w>
入 账</w>
N G
菲 尔德</w>
科威特 国</w>
科 托
登 陆</w>
8 9.
飙 升</w>
说 说</w>
氧 气</w>
手 头</w>
峡 谷</w>
对冲 基金</w>
ou l
肆 意</w>
第3 4/
民 营</w>
口 服</w>
3 18</w>
显示 器</w>
无 关
原住 民</w>
加 油</w>
d i</w>
27 5</w>
诈 骗</w>
召 唤</w>
加 薪</w>
.c om</w>
塔 什
塑 性</w>
专 有</w>
马 尔</w>
签 字
教 士</w>
商 学院</w>
午 夜</w>
低 迷</w>
麦 凯恩</w>
贵 重</w>
视 线</w>
市 场
女 权</w>
围 困</w>
六 日</w>
偷 偷</w>
托马 斯</w>
尔 森</w>
小 心
同 位
做 饭</w>
26 3</w>
间 隙</w>
第 15
挫 败</w>
寄 给</w>
安全 法</w>
写 的</w>
一 性</w>
调查 组</w>
苏 珊</w>
火箭 弹</w>
流 落</w>
卡 ·
不 锈</w>
2007- 2008年</w>
高 盛</w>
装 卸</w>
花 园里</w>
普 罗
扫 除</w>
同 日</w>
u d</w>
时 装</w>
抬 起</w>
凝 聚</w>
光 彩</w>
乡 镇</w>
3 2%</w>
1时 15</w>
身 旁</w>
普 惠
文件 夹</w>
太 过</w>
副 产品</w>
中 国
· 巴
o l</w>
海岸 线</w>
人 种</w>
PO PR
K am
核 动力源</w>
寂 寞</w>
侦 测</w>
隐 含</w>
迭 代</w>
车 祸</w>
伊 比利亚</w>
煤 气</w>
各 成员国</w>
C ha
龙 头</w>
怀 有</w>
少 将</w>
子 宫</w>
复 习</w>
取 而
ou r</w>
f or</w>
会 后</w>
业 经</w>
T e
A/C.6/ 5
26 8</w>
直辖 市</w>
安 卡拉</w>
不 齐</w>
起 源于</w>
职 守</w>
维生 素</w>
氧化 物</w>
气 球</w>
急 于</w>
建 构</w>
听 讯</w>
不 至于</w>
PO PS/
麦 当
致 以</w>
猩 猩</w>
梅托 希
执 政党</w>
窒 息</w>
湾 仔</w>
楼 房</w>
性 交</w>
卡塔 尔
俱 增</w>
P e
第七 十</w>
基 桑
资 质</w>
船 队</w>
租 户</w>
困 苦</w>
乙 醇</w>
/CO P.
确 有</w>
甚 少</w>
取而 代之</w>
上 演</w>
9 6/
5 ,000</w>
霸 权</w>
程序 法</w>
无 阻</w>
十 字</w>
分 量</w>
供 词</w>
18 0
营养 不良</w>
简 报会</w>
第 17
泪 水</w>
驱 回</w>
雨 季</w>
目 下</w>
特拉 特洛尔科</w>
普通 法</w>
写 下</w>
人 命</w>
只 得</w>
1 20万</w>
笔 记</w>
正 确性</w>
栽 培</w>
平 价</w>
婴 幼儿</w>
奥 委会</w>
匀 支</w>
动 手</w>
200 9/
阿 巴斯</w>
用 人</w>
特 工</w>
泥 土</w>
忠 于</w>
将 向</w>
猎 人</w>
名 列</w>
前 言</w>
一 路</w>
25 9</w>
精 灵</w>
利雅 得</w>
C C</w>
15 0
路易 斯</w>
甲 状
察 觉</w>
去 掉</w>
en c
O T
11 :
领导 力</w>
并 无</w>
那 件</w>
磁 带</w>
矿 山</w>
直 播</w>
扎 伊</w>
忠 告</w>
增 援</w>
体育 部</w>
粉 末</w>
很 高</w>
巴 萨</w>
南 极
5. 5</w>
里 夫</w>
拆 卸</w>
前 所述</w>
光 滑</w>
不 容易</w>
18 8
给 定</w>
最 长</w>
大 雨</w>
二 百
3 7%</w>
诚 然</w>
裂 纹</w>
艾哈迈 德·
职业 病</w>
客 运</w>
剧 本</w>
15 亿</w>
钞 票</w>
果 汁</w>
很 好</w>
任 者</w>
添加 剂</w>
日 托</w>
交 替</w>
Intern ational</w>
说 明书</w>
多 彩</w>
动 向</w>
岛 民</w>
冰 川</w>
w a</w>
W P.</w>
高 大</w>
铸 造</w>
钻 井</w>
群 落</w>
按 揭</w>
总 能</w>
很 久
奇 妙</w>
基桑 加尼</w>
克 林</w>
0. 0
订 定</w>
礼 宾</w>
地方 性</w>
可 悲</w>
C /C
常 识</w>
向 来</w>
凯 特</w>
26 2</w>
眉 睫</w>
甜 蜜</w>
月 度</w>
据 信</w>
伊 科</w>
主 办
6 4/2
落 到</w>
伙 计</w>
不 好
X ML</w>
细 微</w>
白 皮书</w>
无 核
散 会</w>
即 为</w>
a u</w>
I F
评估 组</w>
广 东</w>
外 展</w>
复 发</w>
托 儿
凌 晨</w>
的 人</w>
洪 灾</w>
修订 案</w>
以 其</w>
让 他</w>
第 43</w>
日 俱增</w>
－ －</w>
迫击 炮</w>
辩护 人</w>
时 分</w>
掩 护</w>
原 件</w>
充 沛</w>
ic k
16 /
餐 桌</w>
笑 声</w>
封 面</w>
同样 地</w>
R od
Ahm ed</w>
阵 列</w>
流 利</w>
客 车</w>
198 0</w>
围 墙</w>
储 藏</w>
借 款人</w>
4 4/
食 物权</w>
缺 损</w>
粉 碎</w>
干 练</w>
在 眉睫</w>
P er
9 2.
赶 紧</w>
时 髦</w>
成 比例</w>
大 卫
北 京
保 罗·
伍 德</w>
不可 分</w>
A .</w>
7 5.
继 而</w>
法 系</w>
布达 佩斯</w>
哲 学家</w>
十 足</w>
不 带</w>
W or
G on
长 城</w>
美 术</w>
损 毁</w>
运 算</w>
较 长</w>
港 币</w>
洛 美</w>
明 治</w>
托儿 所</w>
仁 慈</w>
良 性</w>
湿 度</w>
存 取</w>
化 武</w>
判 罪</w>
再 来</w>
专 心</w>
三 年期</w>
H us
水 里</w>
塑 料
1, 0
长 们</w>
迫 在眉睫</w>
迟 缓</w>
整 修</w>
1 10.
骨 骼</w>
辨 别</w>
波 及</w>
摄像 机</w>
屁 股</w>
台 阶</w>
付 清</w>
用 心</w>
投标 人</w>
情 人节</w>
受 体</w>
一 来</w>
19 年</w>
驱 使</w>
雕 像</w>
构 思</w>
安 妮</w>
停 下</w>
丽 丝</w>
金 字
通 性</w>
筹 办</w>
现 成</w>
片 段</w>
年 长</w>
师 资</w>
iy a</w>
ar t</w>
Mich ael</w>
阿拉 法特</w>
这 份</w>
政策 性</w>
天 花
在 被</w>
回 升</w>
考 古</w>
氟 氯化</w>
来 回</w>
复 印件</w>
困 难
发言 稿</w>
优 越
之 路</w>
As s
遍 及</w>
无 能
待 审</w>
山 地</w>
国 者</w>
9 6.
8 3
翻 了</w>
精 美</w>
植 树</w>
战 役</w>
件 人</w>
个 子</w>
9 月份</w>
警 戒</w>
莎 士
胶 囊</w>
真 心</w>
或 使</w>
嫌 疑</w>
刚 好</w>
八 日</w>
光 荣</w>
26 9</w>
那 条</w>
8 00万</w>
面 板</w>
板 块</w>
想 过</w>
地 层</w>
共 振</w>
P A</w>
4 3%</w>
水 手</w>
审 咨委</w>
W T
编 织</w>
田 野</w>
现 役</w>
根 基</w>
手 无
修订 本</w>
ro s
28 6</w>
赖 以</w>
美 食</w>
环 己烷</w>
发射 器</w>
切 尔</w>
配 给</w>
脊 髓</w>
有 否</w>
并 存</w>
小 事</w>
亚历山 大</w>
in i</w>
隔离 区</w>
热 水</w>
9 3
解 救</w>
拉 姆</w>
园 区</w>
发 扬</w>
元 数据</w>
黑 夜</w>
难 忘</w>
生 机</w>
猜 想</w>
曝 光</w>
基伍 省</w>
乡 下</w>
14 -
海 豚</w>
合 用</w>
领 带</w>
莎士 比亚</w>
婚 生</w>
唤 醒</w>
南极 洲</w>
入 量</w>
8 3.
称 职</w>
电 阻</w>
博 览会</w>
使 她</w>
清 新</w>
浑 身</w>
水 晶</w>
来 函</w>
握 手</w>
台 式</w>
D A</w>
金 属
遏 止</w>
迁 离</w>
联 营</w>
游 牧</w>
提 要</w>
打 了</w>
奥斯 卡</w>
多种 多样</w>
退 款</w>
戒 烟</w>
牵 连</w>
敌 视</w>
加 工
照 亮</w>
斯 塔</w>
定 律</w>
充 电</w>
住 脚</w>
上 个</w>
S M
3 1%</w>
排 出</w>
转 播</w>
纳 ·
用 意</w>
生产 线</w>
UNEP/FAO/ R
P ol
23 00</w>
阿 什
形 容
协调 局</w>
分 公司</w>
里亚 尔</w>
棒 球</w>
如 前所述</w>
奶 油</w>
化妆 品</w>
黎 明</w>
非 军事区</w>
这 笔</w>
腾 出</w>
报 案</w>
国民 军</w>
g h
直 属</w>
独 有</w>
旅行 者</w>
形容 词</w>
严 谨</w>
A z
7 8.
1. 6</w>
学 们</w>
善 治</w>
位 居</w>
乙 方</w>
k h
那 家</w>
追 逐</w>
联 席</w>
新 来</w>
I O
C r
6 万</w>
千 百万</w>
为 零</w>
丢 弃</w>
W ind
1 2000</w>
递 给</w>
调解 员</w>
能 在</w>
爱好 者</w>
政 见</w>
家 宝</w>
写 在</w>
说 过</w>
米 亚</w>
第5 4/2
同 学们</w>
变 压器</w>
别无 选择</w>
― ―</w>
ha m</w>
A/5 9/2
8 :
肺 癌</w>
巴 比
亚伯拉 罕</w>
陆 路</w>
统计 学</w>
杜 夫</w>
性 工作者</w>
并 从</w>
出 名</w>
也 没有</w>
防 火</w>
货 人</w>
自 上</w>
比 亚人</w>
机 化</w>
本 期</w>
散 播</w>
室 外</w>
多 式</w>
古 迹</w>
雅 虎</w>
铺 设</w>
核 试</w>
染色 体</w>
关 头</w>
为 力</w>
一无所 知</w>
调 往</w>
课 税</w>
筛 查</w>
相 遇</w>
电 脑
巴 尔</w>
方 言</w>
当 下</w>
ay s
精 致</w>
整 洁</w>
总 括</w>
失 控</w>
3 12</w>
齐 兹</w>
绝 缘</w>
繁 琐</w>
河 水</w>
春 节</w>
叫 声</w>
内 务</w>
修 女</w>
休 息
东 北亚</w>
4 4%</w>
须 由</w>
逝 世</w>
装 满</w>
荒 漠</w>
并 用</w>
原 状</w>
会 场</w>
不 是吗</w>
g r
Add. 5</w>
2005- 2006年</w>
/CR P.
转 过</w>
贬 低</w>
订 明</w>
甚 么</w>
歧视 法</w>
成 败</w>
实 实
声 望</w>
ak h
195 6年</w>
要 想</w>
急 诊</w>
契 机</w>
卡塔尔 国</w>
2 :30</w>
长 寿</w>
梅 尔</w>
愈 合</w>
尼 克
卖 掉</w>
ou t
青 睐</w>
珍 视</w>
无能 为力</w>
德 国人</w>
实实 在在</w>
吊 销</w>
卢 比</w>
Abd ul
遗 漏</w>
荧 光</w>
苯 酚</w>
班 上</w>
扣 减</w>
审 查
商 量</w>
进攻 性</w>
恰 好</w>
伊 加特</w>
进 球</w>
改 写</w>
所 欠</w>
士 顿</w>
兵 们</w>
人民 军</w>
3 80</w>
备 案</w>
势 必</w>
普 尔</w>
军 民</w>
量 刑</w>
谣 言</w>
药 性</w>
沿 用</w>
普 选</w>
分 层</w>
自 制</w>
根 于</w>
岛 素</w>
后 方</w>
参 选</w>
衰 老</w>
多 功能</w>
四 氯化碳</w>
os t
8 0.
2 100</w>
梅托希 亚</w>
旷 日
得 意</w>
帮 派</w>
分 散
UN A</w>
胰 岛素</w>
理查 德</w>
海 拔</w>
开 立</w>
垃 圾
刚 果
侦 探</w>
7. 3</w>
藏 在</w>
多 长</w>
南 奥塞梯</w>
卖 出</w>
XX IX</w>
精 细</w>
知识 库</w>
柔 和</w>
文 法</w>
挨 饿</w>
当 做</w>
孟 加拉</w>
198 1</w>
逆 向</w>
皮特 凯恩</w>
保护 局</w>
il a</w>
绿 化</w>
源 代码</w>
旷日 持久</w>
所作 所为</w>
压 抑</w>
产 能</w>
u el</w>
3 14</w>
2. 6</w>
过 长</w>
装 甲
可 于</w>
乐 园</w>
o z
ir e</w>
无 尽</w>
如 上</w>
向 后</w>
2 ,000</w>
屏 障</w>
S C-
校 准</w>
景 气</w>
家 居</w>
切 换</w>
六氯 环己烷</w>
不 可以</w>
不 休</w>
雨 林</w>
身 高</w>
致 于</w>
缓 急</w>
目 表</w>
海 滨</w>
此 事</w>
款 式</w>
最 有</w>
召集 人</w>
u e</w>
2 1/
长 处</w>
逮捕 证</w>
改 装</w>
奢 侈
可 喜</w>
u p
时 会</w>
为时 过早</w>
中 用</w>
G en
默 许</w>
里 克·
续 费</w>
渡 过</w>
伤 者</w>
里 克</w>
研究 组</w>
玛丽 亚</w>
照 相机</w>
新 人</w>
打 个</w>
手 动</w>
小 狗</w>
倒 塌</w>
29 %</w>
- 235</w>
气 质</w>
时 与</w>
车 库</w>
第6 8/
合 力</w>
s .
Oz L.
In d
A/HRC/WG. 6/
螺 旋
特 朗
恳 求</w>
定 时</w>
关 掉</w>
五 溴二</w>
监 管
林 地</w>
接 近于</w>
廷 杜夫</w>
公 设</w>
音 像</w>
酬 金</w>
竞 标</w>
抽 屉</w>
应 征</w>
别 国</w>
上 衣</w>
7 3.
精 明</w>
竣 工</w>
梯 度</w>
越 界</w>
萝 卜</w>
拍 照</w>
引 信</w>
以 赴</w>
万 物</w>
oo d</w>
秒 钟</w>
档 案
拿 来</w>
心 血管</w>
征 兵</w>
布 雷</w>
下 旬</w>
ur e</w>
V al
清 点</w>
援 会</w>
ur a</w>
o -
M ad
难 于</w>
微 粒</w>
医 务
re d
en ce</w>
梅 纳</w>
合 营</w>
不 符合</w>
模 特</w>
提 琴</w>
德 克
专 门
不 同意</w>
W .
登 载</w>
水 坝</w>
水 体</w>
夺 走</w>
境 界</w>
入 籍</w>
佩 克</w>
解 脱</w>
受 惠
参 考
为 我</w>
留 言</w>
断 然</w>
推 选</w>
定 论</w>
外 币</w>
O S/
5 7/
5 3/
立 体</w>
更 长</w>
分析 员</w>
23 /
肥 沃</w>
纵 容</w>
犹 大</w>
染 料</w>
施 用</w>
斯 人</w>
好 吃</w>
T ar
蓝 线</w>
怪 物</w>
始 终
上 报</w>
一 百万</w>
en a</w>
雄 性</w>
难 点</w>
金字 塔</w>
读 取</w>
联系 人</w>
灾 祸</w>
普 雷
埃及 人</w>
南 大</w>
9 4
10 :
马诺 河</w>
苏丹 人</w>
民 工</w>
年 均</w>
委 托人</w>
大 洋
凌 辱</w>
便 捷</w>
md ash</w>
问 他</w>
迪 ·
贫 血</w>
诱 发</w>
有 意思</w>
挤 压</w>
手 续费</w>
安全 地</w>
单 调</w>
颤 抖</w>
评 为</w>
袋 子</w>
米 尔·
甲 方</w>
地 区
M er
4 5/
隆 坡</w>
复 查</w>
儿 科</w>
H al
鱼 种</w>
迈克 尔·
畏 惧</w>
正 文</w>
学习 者</w>
ou p</w>
19 世纪</w>
贝 卡</w>
洗 澡</w>
掘 业</w>
忙 着</w>
弗 吉
7 0.
6. 4</w>
3 4%</w>
出 了</w>
会 为</w>
从 属</w>
200 0/
1: 15</w>
面 包
采 掘业</w>
本 会</w>
想 家</w>
合作 部</w>
前 例</w>
倒 是</w>
保险 法</w>
侵 占</w>
轮 椅</w>
联络 人</w>
眼 神</w>
按 其</w>
招 生</w>
内 载</w>
体 操</w>
霉 素</w>
隐 蔽</w>
过滤 器</w>
相 继</w>
武 断</w>
广 东省</w>
宫 颈
基 建</w>
中 风</w>
三 日</w>
I -
移 到</w>
疲 力
将 以</w>
哈 里</w>
S A</w>
R a
18 74</w>
专 栏</w>
or e</w>
楼 上</w>
栅 栏</w>
射 入</w>
句 型</w>
亲 吻</w>
与 水</w>
阿 克
纪 录
洞 穴</w>
品 尝</w>
免 得</w>
l i</w>
S/AC. 26/
CM P.
驱 散</w>
小 屋</w>
停 在</w>
中 途</w>
2001- 2010
13 53</w>
辅 助
分析 法</w>
丰 厚</w>
T -
１ ９
莱 特</w>
比 拉</w>
将 为</w>
全力 以赴</w>
E/CN. 7/
珍 珠</w>
水 土</w>
指 着</w>
徒 步</w>
如 对</w>
自 定义</w>
发 型</w>
5 000万</w>
195 9年</w>
阵 营</w>
遇 害</w>
通 力</w>
羡 慕</w>
第6 8/2
神 父</w>
曼 联</w>
伸 展</w>
互 信</w>
野 外</w>
邮 戳</w>
血 腥</w>
自然 界</w>
犹太 主义</w>
炎 热</w>
新 华
害 于</w>
奇 特</w>
参 差
厂 房</w>
加 仑</w>
业 局</w>
29 0</w>
2004- 2007年</w>
000 亿</w>
陆 运</w>
重 演</w>
读 到</w>
布 赖
地 段</w>
双 胞胎</w>
一 千
it a</w>
200 000</w>
高 贵</w>
长 江</w>
这样 一来</w>
边 上</w>
而 作</w>
皇 后</w>
歌 声</w>
归 者</w>
Sh ar
194 7年</w>
谚 语</w>
西 区</w>
能 及</w>
波 士顿</w>
次 日</w>
核 安全</w>
对 话者</w>
圣 战</w>
不 正当</w>
估 量</w>
代表 处</w>
亚 当</w>
L. 2</w>
防 水</w>
酸 化</w>
缩 写</w>
温 家宝</w>
无家可 归者</w>
大 衣</w>
南 京</w>
人 意</w>
结 晶</w>
繁 多</w>
珍 妮</w>
犯罪 率</w>
日 程表</w>
承 租
参与 权</w>
201 2/
税 法</w>
庄 稼</w>
公 私营</w>
伪 装</w>
任 满</w>
织 在</w>
机 床</w>
拐 卖</w>
度 计</w>
奢侈 品</w>
E/CN. 15/
马 普
摩 根
待 定</w>
一 .
逃 走</w>
起 了</w>
米 勒</w>
电 离</w>
未 交</w>
曼 德拉</w>
斯 敦</w>
改 成</w>
师 范</w>
小 时候</w>
圈 子</w>
P C.
萨 姆</w>
疲 倦</w>
留 用</w>
感 恩
Rev .2</w>
F- 15</w>
7 00万</w>
1 20
纯 洁</w>
派 出
幽 灵</w>
对 照
出 入境</w>
中 外</w>
9 5.
餐 饮</w>
南 非洲</w>
伦 多</w>
K af
D T
言 辞</w>
范 式</w>
联 手</w>
失 灵</w>
保险 业</w>
伤 风</w>
m ent</w>
较 差</w>
电 费</w>
氨 酸</w>
星 系</w>
懒 惰</w>
徒 劳</w>
平 凡</w>
天花 板</w>
同位 素</w>
萨 斯</w>
瘘 管</w>
法 老</w>
标 定</w>
显 露</w>
总的 说来</w>
低 级</w>
Wind ow
触 摸</w>
提 款
主 审</w>
不 向</w>
l y</w>
Na q
达 ·
生命 力</w>
变 数</w>
华 沙</w>
创 设</w>
乘 数</w>
8 4.
规 矩</w>
爬 上</w>
派出 所</w>
掉 了</w>
堕 落</w>
在 下</w>
预测 性</w>
错误 地</w>
邮 品</w>
用 药</w>
向 往</w>
列 斯</w>
16 24</w>
吉 隆坡</w>
计 划
色 素</w>
科托 努</w>
控制 区</w>
抽 签</w>
意 为</w>
希 拉里</w>
坏 事</w>
写 出</w>
交 涉</w>
I L
27 2</w>
18 号</w>
遗 骸</w>
萨 科
联 阵</w>
点 头</w>
水 井</w>
无 从</w>
扼 杀</w>
循 序
书 目</w>
也 为</w>
不 少于</w>
A/C.2/5 7/L.
8 万</w>
灾 民</w>
鼓 动</w>
学 界</w>
内 斯</w>
代理 商</w>
23 号</w>
米 歇尔</w>
涌 现</w>
沙 姆
合 体</w>
, 7
顾 虑</w>
须 在</w>
海 伦</w>
想 念</w>
人 中</w>
ah im</w>
N y
E T
5 50</w>
3 25</w>
皮 肤
晓 得</w>
性 命</w>
上 尉</w>
E C
198 7</w>
溶 解</w>
斯 勒</w>
快 要</w>
居 住区</w>
圣 灵</w>
跟 他</w>
越 发</w>
讲 究</w>
解 剖</w>
索马里 人</w>
深 思</w>
昂 山</w>
引 领</w>
体 制性</w>
观 赏</w>
抉 择</w>
参差 不齐</w>
伤 员</w>
不 合
萨斯 州</w>
科尔 多
禁 用</w>
流 逝</w>
承 载</w>
才 华</w>
延 缓</w>
刑事 法</w>
经 理
生物 量</w>
生产 量</w>
滑 稽</w>
定 点</w>
基 亚</w>
发 交</w>
0 3
招 致</w>
年 青</w>
i z</w>
M il
2009- 2010年</w>
零 星</w>
萨 尔</w>
沙 漠化</w>
机械 化</w>
捐赠 者</w>
忘 了</w>
25 -
201 4/
金 银</w>
订 货</w>
育 龄</w>
而 下</w>
公 屋</w>
供 求</w>
九 日</w>
专 责</w>
简 言之</w>
果 树</w>
有 空</w>
暑 假</w>
方 形</w>
拉 人</w>
州 立</w>
小 鸟</w>
保护 人</w>
买 下</w>
为 数
绕 过</w>
洗 衣
弹 簧</w>
嵌 入</w>
全 然</w>
v e</w>
v a</w>
, 8
迈 阿
组 分</w>
文 艺</w>
循序 渐进</w>
天 文学</w>
君 主</w>
十字 架</w>
不得 已</w>
S y
H ass
28 1</w>
201 6-
面 对面</w>
请 将</w>
计算 机化</w>
见 表
虔 诚</w>
滑 坡</w>
港 元</w>
司法 权</w>
发 起
南 省</w>
交 还</w>
3 15</w>
这 不</w>
踏 上</w>
狱 中</w>
熟 知</w>
感恩 节</w>
D r
纪录 片</w>
技术 处</w>
反对 者</w>
专 家
不 顾</w>
w or
e i</w>
钦 佩</w>
装甲 车</w>
表 上</w>
蜂 蜜</w>
产 期</w>
还 价</w>
痛 惜</w>
略 微</w>
濒 临</w>
敬 畏</w>
拉 夫</w>
宫颈 癌</w>
18 6
静 电</w>
诸 位</w>
水 泵</w>
往 下</w>
尽 责</w>
顾 问
尼 派</w>
少 见</w>
奇 异</w>
区 议会</w>
凝 视</w>
下 定</w>
E/ICE F/
正规 化</w>
如 一</w>
分 队</w>
仓 储</w>
甄 别</w>
特 纳</w>
杀 人
施 压</w>
年 幼</w>
外 加</w>
A S</w>
200 7
追 赶</w>
路 易</w>
碰 巧</w>
片 剂</w>
方 框</w>
妇 科</w>
吃 完</w>
中 医</w>
4 7%</w>
铅 笔</w>
采 掘</w>
站 立</w>
社会 化</w>
沙 巴</w>
有 悖
捐 献</w>
审判 前</w>
车 厢</w>
萨拉 姆</w>
维 拉
纯 属</w>
四 方</w>
以 西</w>
丰 田</w>
万 维
I E</w>
4 '</w>
18 /
水 池</w>
对 峙</w>
好 些</w>
多年 期</w>
相 近</w>
标 界</w>
暗 淡</w>
外 形</w>
境 遇</w>
介 于</w>
U N</w>
6. 5</w>
12 亿</w>
还 款</w>
蹂 躏</w>
比 勒</w>
桌 上</w>
教 程</w>
提 炼</w>
脂 肪
校 舍</w>
斯 通</w>
整 齐</w>
戴 维
客 气</w>
包 机</w>
侧 面</w>
为 患</w>
oo g
Th e</w>
雷 曼</w>
达 卡</w>
王 室</w>
归根 结
均 须</w>
咨询 组</w>
克 族</w>
S/ 2011/
FCC C/C
请求 书</w>
排 在</w>
康 乐</w>
图 标</w>
傍 晚</w>
万维 网</w>
l ah</w>
, 6
狱 警</w>
斯 托</w>
恩 贾
大 桥</w>
历 次</w>
入 睡</w>
买 主</w>
3 40</w>
通 货</w>
过 了</w>
舰 队</w>
矿 工</w>
病 房</w>
时 空</w>
劝 说</w>
亲 近</w>
中 世纪</w>
E N
5 1/2
格 勒
峰 值</w>
劝 告</w>
3 '</w>
27 8</w>
蜘 蛛</w>
是 指</w>
工 时</w>
居留 证</w>
e h
M ay
集 中
胜 地</w>
好 玩</w>
勾 结</w>
主 人
I/ WP.
缓 存</w>
空 洞</w>
概 念
明 人</w>
S S</w>
DV D</w>
195 2年</w>
相 联系</w>
直 流</w>
受 雇
卸 任</w>
Dav id</w>
27 7</w>
阿 里·
观察 员国</w>
裔 人</w>
游 击队</w>
想 着</w>
女 士们</w>
大 坝</w>
o o</w>
S/ 1996</w>
Ch ar
48 %</w>
2 '</w>
雕 塑</w>
甲 板</w>
正 向</w>
有 色</w>
所 含</w>
心 肌</w>
反 之</w>
2001-2010 十年期</w>
雷 场</w>
爆 破</w>
必 备</w>
别 墅</w>
F ac
随 者</w>
逊 尼派</w>
水 位</w>
托 尼</w>
增 派</w>
第5 3/2
彩 虹</w>
并 肩</w>
唤 起</w>
助 学金</w>
一夫多 妻制</w>
ul t
J av
26 00</w>
22 -
调 至</w>
留 学</w>
引 致</w>
外 人</w>
发 自</w>
伦 ·
m on
迈阿 密</w>
著 作
汇 辑</w>
残 障</w>
有 条件</w>
如 图</w>
农 用</w>
供 养</w>
严 酷</w>
D a
频 谱</w>
金 子</w>
荷 兰
有悖 于</w>
星 座</w>
光 电</w>
与 日俱增</w>
u t</w>
it ed</w>
class 3'</w>
S D
难 受</w>
潜 水</w>
地 盘</w>
便 会</w>
j a</w>
销售 量</w>
路 程</w>
老 实</w>
比 对</w>
干 脆</w>
好 友</w>
i f</w>
8 52</w>
2 －
闪 闪</w>
门 前</w>
知 情
本 ·拉
养 活</w>
兑 换
仇 敌</w>
in o</w>
3 26</w>
法 西斯</w>
截 止
就 学</w>
举 例
d on</w>
class 4'</w>
红新 月</w>
片 刻</w>
S ol
7 4.
27 6</w>
18 -
高 棉</w>
瀑 布</w>
无 穷</w>
地下 室</w>
厌 烦</w>
全 程</w>
28 5</w>
赠 送</w>
神 情</w>
无 助</w>
承租 人</w>
弗 洛
外 衣</w>
17 -
疲 惫</w>
清 洁
暖 和</w>
受 限</w>
代 行</w>
ar y</w>
M .</w>
5 2%</w>
// www.un
米 尔
明 日</w>
并 被</w>
尽 情</w>
导 出</w>
在 任何</w>
参 赞</w>
兼 任</w>
共和 党人</w>
不 加
自 相
自 主
肾 脏</w>
窗 子</w>
期 权</w>
抽 出</w>
平 板</w>
小 的</w>
分 机</w>
写 给</w>
仍 是</w>
下 落
e z
A/AC. 96/
5 9/
5 6%</w>
送 入</w>
旅游 者</w>
CC W/
An t
1/ Add.1</w>
阿姆 斯特
答 覆</w>
时 速</w>
日 间</w>
旗 下</w>
免 疫
举例 来说</w>
题 材</w>
转 基因</w>
记 作</w>
染 色</w>
数 以</w>
心 思</w>
巴士 拉</w>
先 生们</w>
7 万</w>
顺 差</w>
维 度</w>
放 电</w>
布拉 格</w>
人 类
临 到</w>
不 舒服</w>
5 '</w>
49 7</w>
25 亿</w>
货 款</w>
网 膜</w>
结 实</w>
抵 押
宵 禁</w>
光 临</w>
A/5 8/2
骗 子</w>
罗斯 福</w>
火 力</w>
滤 波器</w>
驱 动器</w>
顶 端</w>
露 面</w>
遥 控</w>
轻 而易
轻而易 举</w>
时 钟</w>
无 前例</w>
不 住</w>
es /
8 5.
1994- 1995年</w>
标 志
明 朗</w>
攻 势</w>
恩贾 梅纳</w>
店 铺</w>
多 变</w>
下落 不明</w>
class 2'</w>
超 额</w>
课 外</w>
衰 落</w>
看 得</w>
数 和</w>
对 的</w>
兼 容性</w>
克里 斯蒂
伊 斯</w>
A K
, 0
顺 着</w>
逃 到</w>
获 奖</w>
肥 皂</w>
突 击</w>
短 片</w>
犯 了</w>
权 重</w>
扰 动</w>
封 建</w>
别 是</w>
公 安
佩 戴</w>
:00 －</w>
10 6.
衰 竭</w>
普及 率</w>
提 单</w>
后 卫</w>
分 辨</w>
P at
退 学</w>
改 革
骆 驼</w>
许 多多</w>
条 理</w>
戒 毒</w>
悬 崖</w>
彼得 ·
不 觉</w>
J o
首 府</w>
轮 机</w>
国 度</w>
亚 特兰
6/ Add.1</w>
终 审</w>
思 索</w>
商 业界</w>
加 油
从 小</w>
B -
1 '</w>
迷 失</w>
轮 船</w>
无关 紧要</w>
接 再
孟 买</w>
大 洲</w>
劳工 局</w>
再 接再
class 5'</w>
A/CN. 4/
酸 性</w>
过 得</w>
考 量</w>
立 案</w>
票 价</w>
消 逝</w>
浓 厚</w>
氟 氯烃</w>
旷 野</w>
庆 典</w>
增 无
B al
身 着</w>
贷 项</w>
许 许多多</w>
第 42</w>
由 此
更 少</w>
整 套</w>
T P
索赔 额</w>
受 托</w>
反 常</w>
功 夫</w>
体育 馆</w>
举 足轻重</w>
中 枢</w>
下 个</w>
2 12
金融 业</w>
秘 诀</w>
知 觉</w>
热 衷
热 器</w>
注册 处</w>
史 无前例</w>
发 援会</w>
业 内</w>
气 旋</w>
死 后</w>
有 增无
打 电话</w>
差 错</w>
商 业
2 1
阿 马
有 一点</w>
晚 间</w>
数 控</w>
印第 安</w>
DP/FP A/
28 7</w>
10 ,000</w>
解 开</w>
粪 便</w>
溢 出</w>
手 榴弹</w>
心 目</w>
从 这</w>
飞 速</w>
网 路</w>
玛格丽 特</w>
民 解</w>
抱 负</w>
帐 款</w>
下 方</w>
CEDAW /C
韦 斯</w>
美 化</w>
沙 伊
旋 转
多 伦多</w>
助 人</w>
加 之</w>
交 纳</w>
18 7
---- ----
摊 派</w>
摄影 师</w>
技 合</w>
所 说</w>
常 备</w>
已 获</w>
大 湖</w>
转 介</w>
装 饰
模 范</w>
斯特 拉
很久 以前</w>
以色列 国</w>
相 片</w>
泛 非</w>
文 摘</w>
找 我</w>
尼 罗</w>
完 好</w>
可 危</w>
募 集</w>
功 于</w>
G re
6 3/
南 朝鲜</w>
先 行</w>
父 母亲</w>
极 化</w>
勋 章</w>
一 连串</w>
27 3</w>
错 了</w>
费尔 南
相 关联</w>
恐 龙</w>
怀 特</w>
大洋 洲</w>
历 时</w>
i er</w>
4 6%</w>
2 1-
鲍 勃</w>
设 局</w>
科尔多 凡</w>
气 流</w>
普 敦</w>
搭 建</w>
带 宽</w>
亚马 逊</w>
乃 是</w>
· 姆
R ich
金 流</w>
肆 虐</w>
祈 求</w>
用 完</w>
炫 耀</w>
机 电</w>
散 射</w>
怂 恿</w>
市 级</w>
利 可
西 南亚</w>
缓 刑</w>
班 加
氯化 萘</w>
晚 了</w>
威 力</w>
吃 掉</w>
利可 图</w>
39 %</w>
相 位</w>
甚 微</w>
归 化</w>
克 劳
class 1'</w>
M ur
11 /
辐 照</w>
炸 毁</w>
核 燃料</w>
摇 滚</w>
争 斗</w>
3 75</w>
阿卜杜 勒</w>
紊 乱</w>
签 定</w>
改 用</w>
岌 岌
岌岌 可危</w>
尼 罗
学 家们</w>
国 名</w>
公 投</w>
i a
转 至</w>
请 问</w>
斜 坡</w>
地 里</w>
在 册</w>
先 锋</w>
ag e</w>
F a
8 2.
3 35</w>
3 19</w>
行 道</w>
荒 唐</w>
编 译</w>
热衷 于</w>
报 废</w>
带 入</w>
决策 权</w>
关系 法</w>
不 实</w>
M ed
至 上</w>
病 症</w>
伊斯兰 堡</w>
or t</w>
i al</w>
T RA
雷 尔</w>
摘 录</w>
后 才</w>
事务 厅</w>
书 本</w>
B el
8 6.
1/2 13</w>
选 为</w>
虚 伪</w>
户 口</w>
得 当</w>
卫生 局</w>
冲 洗</w>
克 拉克</w>
保障 法</w>
供应 量</w>
事 前</w>
主 妇</w>
k e</w>
A/6 2/2
新华 社</w>
报 到</w>
审计 长</w>
及 其他</w>
南 海</w>
侵 袭</w>
仪 表</w>
么 的</w>
中 西部</w>
au l</w>
al- Sha
D S</w>
3 23</w>
钢 筋</w>
职 业者</w>
检察 署</w>
吞 并</w>
伽 利
s a</w>
R S</w>
27 00</w>
隔 壁</w>
游 泳池</w>
放 开</w>
宫 殿</w>
石 蜡</w>
漫 步</w>
守 卫</w>
孙 子</w>
走 势</w>
胆 固醇</w>
稻 米</w>
宽 大</w>
i es</w>
4. 6</w>
阿 联
载 人</w>
苛 刻</w>
维 修
气 化</w>
扫 射</w>
地 貌</w>
不 均</w>
身 亡</w>
膜 炎</w>
标 本</w>
接 待
开发 商</w>
天 文</w>
告 终</w>
D j
盯 着</w>
激 怒</w>
战 线</w>
天 津</w>
保 佑</w>
美 金</w>
第 39
小 区</w>
伙伴 们</w>
东 区</w>
G o
15 59</w>
雷 特</w>
托 运</w>
打 字
困难 重重</w>
不 需要</w>
8 .1</w>
14 0
邀 请
管理 法</w>
可 变</w>
北 韩</w>
誓 言</w>
血 糖</w>
窗 帘</w>
猪 肉</w>
液 化</w>
托 儿</w>
向 性</w>
公 元</w>
全 意</w>
传 到</w>
27 4</w>
莎 拉</w>
接 轨</w>
张 力</w>
弊 端</w>
创 下</w>
二零零 六年</w>
ov ić</w>
PL C</w>
破 灭</w>
特 人</w>
款 待</w>
承 保</w>
协 约</w>
全 心
入 境
与此 相反</w>
, 9
逐 案</w>
评估 所</w>
演 进</w>
斯 岛</w>
敢 于</w>
抽 取</w>
苦 恼</w>
终 极</w>
睡 在</w>
有 能力</w>
暴 者</w>
徘 徊</w>
受 教育权</w>
何 塞
F r
0. 5%</w>
病 因</w>
期 初</w>
奢 侈</w>
多 名</w>
er m
Jab al</w>
12 年</w>
谢 尔
说 起</w>
断 层</w>
工 党</w>
大 法官</w>
了 当</w>
重 金属</w>
衣 着</w>
萨 马·
流 的</w>
残 害</w>
拿 破
发 烧</w>
一 面</w>
3 33</w>
13 亿</w>
飞 去</w>
行 文</w>
肩 上</w>
淋 巴
审计 师</w>
固 执</w>
因 在</w>
几 百万</w>
n er</w>
M o
3. 6</w>
过 往</w>
烧 伤</w>
样 板</w>
意 想不到</w>
全心 全意</w>
重 构</w>
模 样</w>
控 方</w>
找 寻</w>
坐 落</w>
加利福 尼亚州</w>
前 述</w>
乳 房</w>
In sp
7. 4</w>
诅 咒</w>
萨 米</w>
肠 道</w>
瑞 克</w>
毁 掉</w>
攻 击
扫 描
归 功</w>
会员 卡</w>
逼 供</w>
第 A</w>
满 为患</w>
指 针</w>
应 负</w>
合作 者</w>
农 产</w>
信 道</w>
中 年</w>
下 周</w>
um b
28 2</w>
队 列</w>
贫民 区</w>
贩 子</w>
石 化</w>
此 地</w>
正 确
新 郎</w>
攸关 者</w>
收 藏
但 该</w>
之 角</w>
R u
PO PS
.gov .
首 脑
慎 地</w>
前 一</w>
不 适当</w>
雅 温
进 食</w>
躲 在</w>
枪 杀</w>
无 休
好 评</w>
风 味</w>
返 国</w>
幸 存</w>
古 柯</w>
属 实</w>
军 控</w>
再 三</w>
5 7%</w>
非 本</w>
走 近</w>
无 用</w>
德 曼</w>
布 卡
es t</w>
M as
八 .
人 满为患</w>
Pet er</w>
种植 园</w>
牛仔 裤</w>
爱 因
下 而上</w>
防 火
裁 判
求 得</w>
本 金</w>
更 有</w>
悼 念</w>
忧 伤</w>
局 域网</w>
佛罗里 达</w>
体育 场</w>
M O
4 9/
违 宪</w>
英 才</w>
给 付</w>
粗 鲁</w>
看 他</w>
淡 化</w>
方 说</w>
弥 漫</w>
弗里 敦</w>
小 船</w>
宁 可</w>
孤 儿
向 她</w>
住 宅
住 了</w>
中 转</w>
P V
27 9</w>
预 见性</w>
美 容</w>
窗 外</w>
爱 国者</w>
年 薪</w>
审判 室</w>
坐 着</w>
单 项</w>
动 荡
CD/ 18
22 号</w>
存 储
口 译员</w>
公 决</w>
偷 走</w>
pd f</w>
Th om
8 8.
4 1%</w>
201 5</w>
驻 外</w>
维 系</w>
最 重要</w>
怎 麽</w>
怀 念</w>
归 功于</w>
增 量</w>
凝 胶</w>
伊斯兰 国</w>
w e</w>
el a</w>
赡 养</w>
补 偿金</w>
禁 核试</w>
活 性
无 故</w>
感 官</w>
差 点</w>
29 7</w>
愉 悦</w>
奥 斯</w>
前 去</w>
伯利 恒</w>
代 际</w>
K .
驱逐 令</w>
甲 型</w>
爱因 斯坦</w>
地 面
嘴 巴</w>
兰 ·
im a</w>
赎 金</w>
沉 降</w>
巴 克
巴 人</w>
PB C.
I N</w>
采 矿业</w>
播 种</w>
地 主</w>
商 议</w>
同情 心</w>
保 费</w>
不 见</w>
28 00</w>
马 哈
那 麽</w>
起 身</w>
特朗 普</w>
泽 东</w>
乒 乓
H a
H A
跳 跃</w>
虚 构</w>
现 值</w>
洗 衣</w>
探 望</w>
债务 国</w>
伽利 略</w>
风 能</w>
色 谱</w>
索 要</w>
开 具</w>
哥 大</w>
各 式
or r
12 :
1 19
达 累
精 子</w>
班 机</w>
满 都</w>
出 访</w>
亲 王</w>
乙 型</w>
7 5％</w>
科 尔</w>
短 文</w>
活 在</w>
堪 称</w>
区 间</w>
偏 袒</w>
H e
高 低</w>
顶 峰</w>
脚 下</w>
脊 椎</w>
约 旦
硬 盘</w>
查 尔
平 等
埃 厄</w>
听 闻</w>
吉 他</w>
分 明</w>
伸 手</w>
伊 图</w>
不 只是</w>
u k</w>
In c
近 距离</w>
让 你</w>
耗 时</w>
本 港</w>
录 用</w>
大 赛</w>
士 兵们</w>
在 下列</w>
传 承</w>
非 人道</w>
里 亚人</w>
迎 合</w>
请 假</w>
各式 各样</w>
sk i</w>
T R
费 力</w>
毛 利</w>
园 林</w>
受 苦</w>
入 住</w>
不 完全</w>
I br
Gon z
追 随者</w>
走 吧</w>
草 莓</w>
茶 叶</w>
美 分</w>
离 心
毛 泽东</w>
心 智</w>
头 等</w>
同 化</w>
加德 满都</w>
分 行</w>
5 1%</w>
问 答</w>
达累 斯
赛 跑</w>
议 员们</w>
自主 性</w>
编 辑
滋 病</w>
妨 害</w>
去 做</w>
N O
M in
3 37</w>
难 免</w>
赡 养费</w>
无 礼</w>
山 坡</w>
反 正</w>
利 弊</w>
class 6
class6 '</w>
3 36</w>
25 号</w>
车 轮</w>
虫 病</w>
电 信
H an
24 号</w>
阴 道</w>
能 源部</w>
教 益</w>
提款 权</w>
巨 型</w>
实 情</w>
合同 法</w>
反 感</w>
马 库
部 和</w>
权 责</w>
图 画</w>
卡尔 扎伊</w>
华 人</w>
功 课</w>
创 性</w>
分 在</w>
以 备</w>
人 也</w>
OzL. Pro
6 4/
5 3%</w>
阿联 酋</w>
资料 袋</w>
缺 水</w>
沼 泽</w>
奖 赏</w>
夫 斯基</w>
w h
洗 手</w>
油 井</w>
正 由</w>
暂 缓</w>
录 制</w>
寂 静</w>
加 在</w>
刊 载</w>
公 诉人</w>
互 换</w>
Y ou
S ant
29 5</w>
高尔 夫
西 南部</w>
拉 巴特</w>
s ch
T .
M A</w>
重 塑</w>
遗 迹</w>
留 物</w>
炎 症</w>
东道 主</w>
D ar
A/C.3/6 2/L.
耐 用</w>
真 菌</w>
留 有</w>
打 工</w>
安 达</w>
塔 ·
切 性</w>
出 行</w>
做 个</w>
6 00
预 后</w>
页 数</w>
递 增</w>
病 的</w>
小 子</w>
公 交
自 来
纸 上</w>
滑 动</w>
流 浪
总 长</w>
即 刻</w>
二 维</w>
上 帝
9 9%</w>
高 山</w>
记 账</w>
耗 资</w>
清 晰
卡 特</w>
占 了</w>
qu e</w>
ation s</w>
25 /
跑 去</w>
横 跨</w>
决 算</w>
再接再 厉</w>
49 %</w>
顽 强</w>
短 的</w>
直 观</w>
爱 滋病</w>
拿破 仑</w>
他 妈的</w>
事 员</w>
事 事</w>
l and</w>
U m
A/CN.9/ 7
3 17</w>
萨马· 本·拉
禁 区</w>
片 面</w>
棵 树</w>
施 暴者</w>
探 矿</w>
悬 浮</w>
好 战</w>
长 期性</w>
路 里</w>
海 床</w>
归根结 底</w>
婚 姻
取 证</w>
化 疗</w>
副 总裁</w>
2008/0 9
航 道</w>
简 而言之</w>
意 见
强 势</w>
受 托人</w>
入 门</w>
以 该</w>
s e</w>
6 5/
远 东</w>
赫 斯
订 婚</w>
移 除</w>
水 上</w>
教 学
巴 库</w>
地 道</w>
列 述</w>
F- 14</w>
50 7</w>
魁北 克</w>
重 现</w>
动 人</w>
偏 僻</w>
Ma j
Ahm ad</w>
送 来</w>
词 组</w>
第6 9</w>
最 爱</w>
２ ００
预 想</w>
超 重</w>
禁 忌</w>
熟 虑</w>
小 节</w>
如 你</w>
内 有</w>
义 词</w>
g .
CE R</w>
7. 5</w>
非 农业</w>
S an
7 2.
苏 尔</w>
教育 者</w>
息 息
品 味</w>
发 来</w>
辞 去</w>
称 道</w>
海 龟</w>
查 谟</w>
思 念</w>
密 不可分</w>
ev a</w>
7 0年代</w>
认 明</w>
盗 版</w>
法 希尔</w>
忧 郁</w>
忍 耐</w>
下 于</w>
一 万</w>
26 号</w>
/200 0</w>
鸽 子</w>
金 边</w>
进 制</w>
大 理
反 向</w>
协 联</w>
从 业者</w>
ac k
音乐 家</w>
震 荡</w>
说 完</w>
莫 过于</w>
纪念 品</w>
母 国</w>
无 证</w>
想 去</w>
卷 宗</w>
七 十</w>
E r
马 克·
集 邮</w>
阿 特
追 捕</w>
表 层</w>
欢 喜</w>
才 智</w>
手 势</w>
开放 性</w>
偏 爱</w>
互 为</w>
不好 意思</w>
上 届</w>
4 32</w>
200 2/2
16 0
雅温 得</w>
稳 妥</w>
无 限制</w>
屡 次</w>
复 活
埋 设</w>
令人 鼓舞</w>
200 3/2
运 兵
警 力</w>
皂 白</w>
取 用</w>
保 密性</w>
传 闻</w>
A C
7 月份</w>
40 亿</w>
销 员</w>
督 导</w>
波 浪</w>
成 语</w>
平 权</w>
安 的
土 机</w>
以 利</w>
金 币</w>
通 报会</w>
特 委会</w>
抓 获</w>
定 出</w>
听 觉</w>
判 分</w>
遗 属</w>
过 头</w>
尘 埃</w>
听 我</w>
协 委会</w>
俘 虏</w>
Moh amm
00 1</w>
运兵 车</w>
指 甲</w>
如 不</w>
其 上</w>
深 厚</w>
尘 土</w>
增 速</w>
商 品
卡 萨
决 定
公 有</w>
it t
ac h</w>
CRP. 2</w>
196 0年代</w>
谈 起</w>
袭 击者</w>
著 称</w>
收 成</w>
小 儿</w>
再 者</w>
请愿 书</w>
诊 治</w>
背 部</w>
沙 田</w>
易 卜拉
教育 局</w>
拮 据</w>
弱 者</w>
巴 伦
减 为</w>
27 1</w>
马 尔·
马 吕
改 派</w>
布 尼亚</w>
a a</w>
Sect .</w>
E v
19 1
顺 从</w>
赫 尔</w>
比 我</w>
挤 出</w>
巴 厘
分 立</w>
ad d
XX I</w>
追 随</w>
输 出国</w>
蚊 子</w>
胡 锦
相 爱</w>
溶 性</w>
本 年度</w>
斯 马
小心 翼
审 评委</w>
历 届</w>
加 于</w>
/200 7</w>
高 职</w>
表 征</w>
蚂 蚁</w>
纠 缠</w>
理 财</w>
最 易</w>
教 区</w>
慈 爱</w>
帕 克</w>
失 散</w>
地区 性</w>
口 音</w>
北 极
减 让</w>
公 证</w>
id a</w>
28 9</w>
须 要</w>
镇 静</w>
营养 素</w>
看 望</w>
无 可</w>
害 者</w>
可靠 地</w>
受 力</w>
勘 查</w>
元 前</w>
了 结</w>
不 堪
l es</w>
Com p
29 8</w>
200 5/2
附 于</w>
闭 幕
渗 入</w>
挣 钱</w>
可 耻</w>
关 门</w>
4/ Add.1</w>
门 票</w>
谋杀 罪</w>
致 词</w>
等 值</w>
润 滑</w>
波 哥大</w>
无 能</w>
安的 列斯</w>
大 叫</w>
办 事员</w>
出 人
中间 商</w>
B ou
3 28</w>
转 诊</w>
稀 有</w>
犹 豫
冶 金</w>
B er
28 4</w>
联 萨</w>
第62/ 208</w>
牢 牢</w>
手 持</w>
公交 车</w>
保险 金</w>
主 流化</w>
G C</w>
8 1.
赢 了</w>
给 与</w>
班 子</w>
照 护</w>
污 泥</w>
掌 权</w>
并 发</w>
富 含</w>
四 .
周 刊</w>
受 援</w>
力 所
is h</w>
. 1-
野 兽</w>
赞 助者</w>
氨 基
基督 教徒</w>
24 /
高尔夫 球</w>
超 声波</w>
胡锦 涛</w>
美 女</w>
更 广</w>
小 费</w>
夺 去</w>
失 常</w>
I V
F or
经济 学家</w>
神经 元</w>
收 紧</w>
托 斯</w>
小心翼 翼</w>
婚姻 法</w>
合作 署</w>
令人 不安</w>
Muh ammad</w>
A/64/ 6
6 7%</w>
5 8%</w>
29 2</w>
袜 子</w>
渗 透
欺 诈
抢 救</w>
布 伦</w>
b e</w>
跌 倒</w>
虽 说</w>
油 脂</w>
幽 默
不 全</w>
M y
8. 2</w>
5 4%</w>
隐 形</w>
逃 亡</w>
辩 说</w>
篇 章</w>
林 达
可 言</w>
原子 弹</w>
丝 绸</w>
不 详</w>
食 堂</w>
童 话</w>
甲状 腺</w>
无 动
接 头</w>
拉 特</w>
孤儿 院</w>
复 国</w>
塔 赫</w>
印刷 品</w>
利 者</w>
ou d</w>
S erv
POPS/ POPR
I A</w>
C an
12 /
落 下</w>
药 剂</w>
息息 相关</w>
急 速</w>
到 访</w>
事 由</w>
eb ook</w>
4 500</w>
谋杀 案</w>
荷 尔
犯罪 法</w>
牺 牲
特 遣</w>
旗 国</w>
害 羞</w>
喊 道</w>
充 裕</w>
辅助 性</w>
轻 罪</w>
省 略</w>
巴 克</w>
吸 烟
北 基伍</w>
下 台</w>
A/6 3/2
� ��</w>
马吕 斯</w>
标 赛</w>
塔 那
动 身</w>
划 一</w>
依 循</w>
乌 萨马·本·拉
15 72</w>
韧 性</w>
透 社</w>
米 特
港 岛</w>
无动 于
学 问</w>
受益 国</w>
人类 学</w>
不言 而
语 言
自相 矛盾</w>
沙伊 赫</w>
氢 化</w>
无动于 衷</w>
客 房</w>
增 建</w>
叫 人</w>
上 载</w>
s en</w>
and a</w>
3 27</w>
细 心</w>
售 出</w>
出 错</w>
G oog
15 00万</w>
迷 信</w>
用 餐</w>
智 能
无 声</w>
敌 国</w>
收 割</w>
床 位</w>
布 满</w>
处 死</w>
做 梦</w>
XXV I</w>
重 启</w>
逃 往</w>
这 就是说</w>
男 孩子</w>
池 塘</w>
明 知</w>
抚 养费</w>
传 票</w>
an i
50 ,000</w>
17 0
100 ,000</w>
摩 根</w>
头 顶</w>
ic k</w>
E/ 2010</w>
送 进</w>
独 特性</w>
核 军备</w>
壮 观</w>
冰 冷</w>
停 泊</w>
交 火</w>
麦当 劳</w>
采 行</w>
贝 基</w>
而 生</w>
拉 尔
执 勤</w>
功 能性</w>
何 况</w>
五 .
7/ SR.
30 00万</w>
1 30万</w>
萨 格勒
用 手</w>
当 家</w>
增 高</w>
专利 权</w>
60 亿</w>
10 0.
锦 标赛</w>
透明 性</w>
男 友</w>
现 率</w>
呼 唤</w>
名 片</w>
名 下</w>
人 时</w>
之 以</w>
WT O</w>
辖 下</w>
沙姆 沙伊赫</w>
早 点</w>
效 地</w>
惊 恐</w>
心 意</w>
巴厘 岛</w>
呈 件</w>
听 了</w>
取 自</w>
使用 量</w>
暴 动</w>
携 带
失 明</w>
剪 切</w>
不 决</w>
a .
R o
驱 动力</w>
过 夜</w>
购 物
血 症</w>
暗 中</w>
居 于</w>
尼 察</w>
对 不</w>
大 专</w>
士 人</w>
优 缺点</w>
从 没有</w>
M P
议 请</w>
著作 权</w>
萨格勒 布</w>
知情 权</w>
显 出</w>
喜 好</w>
去 了</w>
/200 8</w>
黄 油</w>
表 团</w>
更 易</w>
导 入</w>
刹 车</w>
再 说</w>
代 顿</w>
V II</w>
P/ L.
5 00000</w>
29 1</w>
进 了</w>
良 机</w>
杭 州</w>
期 期</w>
新 版</w>
放 大
拜 托</w>
戏 剧性</w>
大理 石</w>
哮 喘</w>
去 吧</w>
加 盟</w>
则 为</w>
借 助于</w>
6 3%</w>
这 时候</w>
路 透社</w>
罗姆 族</w>
物 色</w>
滤 波</w>
夹 克</w>
国 是</w>
回 信</w>
以 对</w>
五 年期</w>
ur i</w>
预 支</w>
辩 论会</w>
调 派</w>
祸 患</w>
帕 特里
复活 节</w>
二十 世纪</w>
HR I/
Ban k</w>
美 人</w>
糊 涂</w>
生 存
特 此</w>
恶 人</w>
密 钥</w>
定 理</w>
同 伙</w>
兴 旺</w>
6 50</w>
高 档</w>
音 响</w>
辨 识</w>
背 上</w>
电 能</w>
捏 造</w>
妇女 节</w>
因 人</w>
喉 咙</w>
周 到</w>
充 资</w>
何 人</w>
ó n</w>
N d
M ak
A R</w>
自 下而上</w>
歌 剧</w>
架 子</w>
普惠 制</w>
公平 性</w>
不 合</w>
Sh e
C O</w>
路 由</w>
由 衷</w>
特 大</w>
欧 佩克</w>
拖 拉
姆 斯
基 辅</w>
作 主</w>
传 导</w>
价 款</w>
w it
, 5
过 低</w>
走 来</w>
网 络
环 发</w>
安全 带</w>
孕 期</w>
A F
黑 客</w>
闭 上</w>
达累斯 萨拉姆</w>
美 洲
第 X
站 不
烈 士</w>
核 弹头</w>
拟 出</w>
和 尚</w>
发 货</w>
付 钱</w>
中 会</w>
29 6</w>
尤 指</w>
假 冒</w>
202 5年</w>
远 方</w>
站不 住脚</w>
称 号</w>
福 德</w>
派 人</w>
正 本</w>
回 事</w>
见 证人</w>
摇 摇
推 进
左 翼</w>
制 冷
不言而 喻</w>
Wil li
B ak
6 B</w>
4 1/213</w>
黑塞 哥</w>
速 器</w>
精 华</w>
矢 量</w>
沙 拉</w>
强 盗</w>
E/200 6/
D I</w>
7/ Add.1</w>
4 0000</w>
2. 7</w>
0. 7％</w>
配 量</w>
段 时间</w>
有 区别</w>
换 算</w>
序 号</w>
工具 箱</w>
塞 建</w>
受雇 于</w>
i b</w>
3 70</w>
赖 斯</w>
绵 羊</w>
没 能</w>
水 污染</w>
毛 巾</w>
五 千</w>
上 风</w>
L in
6 2%</w>
3 52</w>
爱 丽丝</w>
格 伦</w>
无 益</w>
分 校</w>
贴 上</w>
营 救</w>
着 想</w>
病 院</w>
拇 指</w>
乌萨马·本·拉 丹</w>
一 俟</w>
oc k</w>
K al
11 7
马 萨
适 量</w>
还 可</w>
液 相</w>
未 使用</w>
日 落</w>
剖 析</w>
保 住</w>
上 期</w>
上 台</w>
B as
3 34</w>
金 正
花 了</w>
联 尼</w>
民 有</w>
松 散</w>
失 了</w>
S U
Fran c
4. 7</w>
3 22</w>
2006- 2010年</w>
非 军事</w>
转 子</w>
荷 载</w>
美 观</w>
竞 技</w>
电 车</w>
揭 开</w>
工 艺品</w>
奔 跑</w>
兵 营</w>
亦 然</w>
之 用</w>
P al
3 24</w>
译 为</w>
埃 德
3 31</w>
3 21</w>
15 03</w>
空 缺率</w>
曲 面</w>
尼亚 拉</w>
寄 生
好 啊</w>
公 元前</w>
a z</w>
23 -
装 上</w>
磁 性</w>
沉 思</w>
机 动车</w>
本 分</w>
总 务
得 益</w>
卫生 部长</w>
加 丹
光 灯</w>
非 核</w>
血 管
监管 者</w>
柔 性</w>
富 于</w>
威士 忌</w>
n d
逐 个</w>
自来 水</w>
收 听</w>
尖 叫</w>
害 虫</w>
后 继</w>
内 衣</w>
伙伴 国</w>
M -
A/6 2</w>
项 链</w>
震 撼</w>
迟 早</w>
罪 孽</w>
看 好</w>
相 一致</w>
监督 员</w>
玫 瑰
比利 斯</w>
推 论</w>
怨 恨</w>
分 裂
光 泽</w>
互 通</w>
H T
38 1</w>
.ht m</w>
镇 定</w>
西 尔
猎 物</w>
消 化
波 长</w>
工程 学</w>
女 神</w>
办 商</w>
净 增</w>
健 身
D L
CRC/C/ 15/Add.
B S</w>
落 成</w>
斯 卡
憎 恶</w>
出 在</w>
POPS/POPR C.
O m
赛 车</w>
残 割</w>
感 恩</w>
宾 语</w>
孤 单</w>
卡 洛斯</w>
努 美
先 令</w>
U r
雌 性</w>
语 境</w>
艾哈迈 德</w>
河 边</w>
断 绝</w>
录像 带</w>
失 败
人民 党</w>
中 场</w>
不见 了</w>
A/C.1/6 1/L.
5. 6</w>
38 6</w>
13 90</w>
鲜 艳</w>
西 西
维 亚人</w>
无 一
技 经</w>
废 气</w>
工 件</w>
审判 权</w>
前 行</w>
伊 利
世 行</w>
不 尽
上 加
ti on
A sh
离子 体</w>
牛 排</w>
溃 疡</w>
来 得</w>
是 要</w>
排 挤</w>
入 口
丙 烯</w>
S ab
默 示</w>
钟 头</w>
还 好</w>
联 危</w>
老 太太</w>
第 比利斯</w>
稀 释</w>
最 低
小 规模</w>
响 起</w>
出生 日期</w>
军 舰</w>
A/5 7/2
走 动</w>
毅 力</w>
收 受</w>
安全 套</w>
内 乱</w>
也 好</w>
三 明治</w>
E/C ONF.
风 气</w>
炼 油
幽默 感</w>
婚 前</w>
坚 硬</w>
协调 性</w>
T a
A/62/ 7
深 夜</w>
栏 目</w>
战 事</w>
我 从</w>
微 分</w>
庸 置疑</w>
卑 鄙</w>
保 有权</w>
九 十年代</w>
48 7</w>
3 :00－
3 32</w>
100 ％</w>
防火 墙</w>
生 的</w>
消耗 量</w>
格 雷
抓 紧</w>
希 米</w>
复 印</w>
公 司法</w>
ad e</w>
Kh an</w>
A/65/ L.
48 00</w>
高 新</w>
连 通性</w>
莫 斯</w>
穆 巴拉克</w>
显 微</w>
孕 育</w>
台 上</w>
前 身</w>
列 在</w>
其 反</w>
代 管</w>
上帝 军</w>
2010- 2013年</w>
确 诊</w>
犯 法</w>
特 设局</w>
法 塔赫</w>
掀 起</w>
商 家</w>
原 地</w>
偏 高</w>
便 可</w>
h i</w>
S C</w>
H u
Car l
70 亿</w>
骑 马</w>
马普 托</w>
闪 光</w>
赛 义
警 署</w>
背 诵</w>
粗 略</w>
不 说</w>
· 萨
3 54</w>
29 4</w>
维 拉</w>
收 件人</w>
挑 剔</w>
售 货
即 是</w>
不可 抗力</w>
3 39</w>
2008- 2013年</w>
罪 责</w>
混 沌</w>
法兰 西</w>
没 关系</w>
条 纹</w>
抗 旱</w>
打 字</w>
引 出</w>
年 数</w>
平 线</w>
州 政府</w>
向 着</w>
做 得</w>
交 叉
不 解</w>
u z
8/ Add.1</w>
3 45</w>
香 气</w>
这些 年来</w>
评论 家</w>
职 场</w>
旋 律</w>
推 到</w>
想 方
巴 巴</w>
宏 大</w>
威 尼斯</w>
商 贸</w>
凭 单</w>
公 河</w>
E A-
3 46</w>
29 9</w>
落 后于</w>
毯 子</w>
服务 局</w>
暴 跌</w>
就 象</w>
周 密</w>
前 锋</w>
财务 处</w>
想方 设法</w>
弗 莱
居 室</w>
奶 粉</w>
塔什 干</w>
固 化</w>
3 66</w>
高 端</w>
金 刚
采 伐</w>
那 不
推 销员</w>
或 少</w>
得 对</w>
不 服</w>
一 辈子</w>
A/6 4/2
50 9</w>
西 蒙</w>
能 对</w>
瑜 伽</w>
正确 地</w>
折 算</w>
客 气
墨 水</w>
受 人</w>
冷 水</w>
g an</w>
38 9</w>
订 本</w>
灵 敏
来 访者</w>
引 渡
发 疯</w>
4 20</w>
转 口</w>
装 船</w>
站 式</w>
人 与</w>
五 百</w>
st r
N ot
营 化</w>
现 为</w>
扔 掉</w>
截 面</w>
征 集</w>
并 列</w>
增 益</w>
出 面</w>
候 任</w>
二十 六</w>
I r
4 1/
14 0万</w>
而 行</w>
粮 食
畜 牧</w>
早 饭</w>
指示 性</w>
技 师</w>
下 水道</w>
3 74</w>
若 有</w>
而 使</w>
短 时</w>
塔吉 克</w>
G N
预 备
计 画</w>
湄 公河</w>
正 要</w>
兑换 率</w>
从 速</w>
香 水</w>
疑 似</w>
燃 烧
梦 中</w>
本 案</w>
本 区</w>
平 和</w>
少 校</w>
夺 得</w>
办公 楼</w>
写 成</w>
POPS /COP.
Abd el
40 6</w>
阿萨 德</w>
行 时</w>
约瑟 夫·
案 卷</w>
僵 硬</w>
一 站式</w>
A/57/ L.
紧 接着</w>
空间 局</w>
田 地</w>
游 艇</w>
普 勒</w>
捆 绑</w>
填 妥</w>
占 地</w>
其 三</w>
候 审</w>
交易 商</w>
· 恩
资 源部</w>
置 身</w>
纽约 州</w>
复 仇</w>
喷 射</w>
哈里 里</w>
腐 烂</w>
状 语</w>
热 闹</w>
根 据
权 者</w>
改 观</w>
廉 署</w>
已 久</w>
大 军</w>
何 地</w>
Fac ebook</w>
15 /200
越 狱</w>
贸易 部</w>
获 物</w>
自 律</w>
狭 义</w>
异 构
名 牌</w>
受 难者</w>
义 务
13 /
证 券
能 干</w>
支 派</w>
对 账</w>
历 经</w>
P o
29 00</w>
越 是</w>
赛 特</w>
芳 香</w>
界 别</w>
染 上</w>
拉 德</w>
发 器</w>
为数 不多</w>
P aul</w>
蒸 气</w>
线 条</w>
穿 梭</w>
活 化</w>
新 车</w>
文 具</w>
建筑 群</w>
平 坦</w>
干 了</w>
加 里</w>
付诸 实施</w>
产 阶级</w>
上 传</w>
50 年代</w>
继 任者</w>
空 闲</w>
礼 堂</w>
犹太 教</w>
灯 泡</w>
湿 润</w>
救济 金</w>
平 壤</w>
合作 区</w>
刀 具</w>
不 和</w>
e .
Ibr ahim</w>
A/66/ 7
锥 体</w>
蒙 特</w>
无 歧视</w>
受 影响</w>
从来 没有</w>
29 3</w>
1. 8</w>
风 筝</w>
陆 续</w>
远 大</w>
花 瓶</w>
登记 簿</w>
忌 惮</w>
埃 米尔</w>
叙 利亚人</w>
亚 尔</w>
通 则</w>
证 言</w>
蒂 斯</w>
果 是</w>
有增无 减</w>
慢 性病</w>
囊 括</w>
吉 利</w>
受 邀</w>
北京 市</w>
共 谋</w>
乱 伦</w>
专家 组</w>
3 29</w>
镇 上</w>
第 S-
灭 亡</w>
新 泽
文 号</w>
孤 身</w>
国 和</w>
利 润
H .</w>
迪 斯
获得 者</w>
看 管</w>
校 内</w>
改 名</w>
抢 走</w>
德 鲁
巴比 伦</w>
小 队</w>
养 殖
死 人</w>
最 小
圣 母</w>
各 省</w>
决定 权</w>
不 关心</w>
0 /2
隐 性</w>
都 灵</w>
西 雅
考 古
等 效</w>
特 拉</w>
没 了</w>
探 险</w>
手 提</w>
双 眼</w>
友 情</w>
区域 化</w>
克里 斯</w>
O P</w>
G /
送 上</w>
还 押</w>
聚 集
新 法</w>
加油 站</w>
内 置</w>
人 解</w>
黄 昏</w>
视 而不
藏 匿</w>
端 口</w>
汉 姆</w>
有 多</w>
喷 洒</w>
利 伯
低 地</w>
ou n</w>
A/C.1/ 60</w>
9 73</w>
38 00</w>
软 禁</w>
积 聚</w>
盘 点</w>
用 词</w>
活 动者</w>
汉 普</w>
杂 交</w>
投 机
微 克</w>
布卡 武</w>
兰 经</w>
先 天性</w>
一 谈</w>
Gr oup</w>
非 官方</w>
间 内</w>
逃 税</w>
毕业 后</w>
斯坦 福</w>
提 振</w>
心 跳</w>
字 面</w>
南 基伍</w>
下 巴</w>
转 售</w>
玛丽 ·
涉 足</w>
欺 凌</w>
接 生</w>
工 业部</w>
叙 事</w>
出版 商</w>
全 年</w>
e ed</w>
S/ 2012</w>
那 座</w>
道 院</w>
逼 近</w>
罗 德里
看 重</w>
淋 巴</w>
河 里</w>
氏 度</w>
欧 统
欠 佳</w>
机 队</w>
方 省</w>
拖 车</w>
彰 显</w>
开 工</w>
12 8.
黑 洞</w>
骨 髓</w>
第 77</w>
末 期</w>
旁 观</w>
改 叙</w>
尔 人</w>
将 此</w>
人 听闻</w>
中 继
O s
降 水</w>
胜 者</w>
管理 费</w>
第 45</w>
废 旧</w>
委员 们</w>
哈 姆
吉 卜
勇 士</w>
假 的</w>
伦 坡</w>
不足 为
非 常规</w>
赌 场</w>
纳 库</w>
模 块
如 其
回 收率</w>
到 时</w>
偷 渡</w>
T P</w>
O b
1. 7</w>
近 亲</w>
诱 拐</w>
电脑 化</w>
手 腕</w>
借 钱</w>
亚 伦</w>
17 0万</w>
/200 1</w>
野 餐</w>
遇 难</w>
脑 部</w>
看 书</w>
海 浪</w>
极 少数</w>
开 普敦</w>
呈 文</w>
互 助
乐 团</w>
o k</w>
Ge or
管 治</w>
离 家</w>
琳 ·
N 1</w>
Mohamm ed</w>
高 处</w>
飞 来</w>
重 置</w>
装 入</w>
而 为</w>
烟 囱</w>
母 亲
无 上</w>
天 啊</w>
卫 士</w>
r ah</w>
远 未</w>
欣 然</w>
基 调</w>
各 类</w>
亚美 尼亚人</w>
乒乓 球</w>
0 7年</w>
颈 部</w>
攻 读</w>
宇 航</w>
史 上</w>
40 8</w>
2011- 2012年</w>
赢 利</w>
民 生</w>
收 录</w>
当 值</w>
希 特勒</w>
可 按</w>
光 是</w>
3 57</w>
10 6
背 面</w>
照 相</w>
所有 制</w>
努美 阿</w>
初 始
e /
T y
I m
A A</w>
.ht ml</w>
重 庆</w>
机 车</w>
摇 摆</w>
当 心</w>
上 诉人</w>
M R
E/CN.4/ 1999</w>
编 队</w>
混 蛋</w>
原 产地</w>
不 分</w>
Window s</w>
30 0
飞 翔</w>
障 碍
所 有人</w>
尊 贵</w>
安 放</w>
即 在</w>
副 司长</w>
公 路网</w>
会 把</w>
i ii</w>
a c</w>
27 /
198 2</w>
香 料</w>
虚 会</w>
稀 土</w>
点 火</w>
汉 字</w>
比 利</w>
有 利可图</w>
数 组</w>
务 虚会</w>
分离 主义</w>
L O
A v
A H
能 耗</w>
第 49/2
矿 井</w>
流 泪</w>
打 仗</w>
幕 后</w>
多 层</w>
交 界</w>
下 图</w>
in s</w>
Insp ira</w>
3 41</w>
视而不 见</w>
节 第</w>
纹 理</w>
智 囊
扎 实</w>
巧 合</w>
可 被</w>
发 基金</w>
农 发基金</w>
郑 重</w>
温 馨</w>
底 线</w>
咖啡 馆</w>
力所 能及</w>
18 20</w>
阿 布</w>
迟 钝</w>
疯 了</w>
演 唱</w>
消 亡</w>
求 婚</w>
姚 明</w>
书 上</w>
长 远
那不 勒斯</w>
达尔 文</w>
林达 巴</w>
急 忙</w>
俄 罗斯
3 49</w>
重 审</w>
财务 科</w>
投 诉人</w>
同 谋</w>
到 场</w>
公 理</w>
佩 林达巴</w>
35 0万</w>
3 48</w>
本 系统</w>
席 卷</w>
ill a</w>
D ev
逼 迫</w>
还 愿</w>
米 洛
用 了</w>
沙 子</w>
攻 击者</w>
援 署</w>
3 47</w>
3 1-
那 时候</w>
轮 到</w>
每 一</w>
智囊 团</w>
成 交</w>
姊 妹</w>
凯 恩斯</w>
人 寿</w>
Hass an</w>
缓 减</w>
抓 到</w>
布 干
将 从</w>
债权 国</w>
伊 ·
丢 掉</w>
oc i
k er</w>
K O
15 91</w>
隐 患</w>
讲 演</w>
第3 38</w>
水 事</w>
插 件</w>
截 获</w>
得 去</w>
尼罗 河</w>
复 原力</w>
向 南</w>
可 获</w>
切 地</w>
Al ma</w>
A/C.4/ 5
达 赖</w>
贷 方</w>
病 原体</w>
电 动机</w>
炼油 厂</w>
房 屋
总统 府</w>
履 历</w>
复 合
class 7
class7 '</w>
6/ Rev.1</w>
4 60</w>
38 5</w>
2000 －
读 写</w>
维 克
科 伦坡</w>
本 杰
拉 开</w>
或 许是</w>
多 党</w>
多 么的</w>
冷 淡</w>
倒 霉</w>
核 生化</w>
得 主</w>
堡 垒</w>
发 运</w>
发 抖</w>
上 门</w>
M ac
E/CN.4/200 5/
闪 耀</w>
议 论</w>
脱 贫</w>
肆 无
第七 十六</w>
看 过</w>
派 任</w>
数以 百计</w>
关 乎</w>
作 过</w>
2. 5%</w>
毛 衣</w>
伴 有</w>
5 500</w>
摆 放</w>
摄 取</w>
拉 伸</w>
打 着</w>
店 员</w>
对 数</w>
天 哪</w>
w e
M ag
25 万</w>
14 :
觉 察</w>
罹 患</w>
盘 问</w>
栖 息
接受 者</w>
托马 斯·
打 来</w>
守 法</w>
后 台</w>
值 班</w>
人 年</w>
之 列</w>
世 间</w>
P i
Goog le</w>
9 7%</w>
记忆 力</w>
算 出</w>
祖 父母</w>
打 赌</w>
开发 者</w>
上 千</w>
16 号</w>
皱 纹</w>
油 轮</w>
正 轨</w>
模块 化</w>
易 事</w>
抗 性</w>
或 用</w>
奇 心</w>
佛罗里 达州</w>
ol a</w>
高 位</w>
过 份</w>
萨 ·
库尔德 人</w>
导 管</w>
大 通</w>
多元 性</w>
可 口
制 卡</w>
关 於</w>
兰 特</w>
H .
25 00万</w>
贵 宾</w>
火 山
混 合
新 兵</w>
悬 殊</w>
属 地</w>
发 指</w>
' s</w>
迪 克</w>
贝 蒂</w>
肆无 忌惮</w>
矩 形</w>
盐 类</w>
曲 折</w>
征 兆</w>
广 度</w>
分 局</w>
其 事</w>
保护 令</w>
ber g</w>
20 /
0 4年</w>
臭 名
渗 漏</w>
江 省</w>
客气 话</w>
同 级</w>
停 了</w>
与 之</w>
1 月份</w>
非 婚生</w>
诱 人</w>
法律 界</w>
气 动</w>
机 密性</w>
普 斯</w>
复 方</w>
印度 人</w>
保 姆</w>
39 00</w>
阿 森
致 癌</w>
羞 愧</w>
混 杂</w>
教 唆</w>
所 生</w>
性 和</w>
古 巴人</w>
丑 陋</w>
SA T</w>
IB M</w>
齐 心协力</w>
霍 尔</w>
迟 延</w>
未 受</w>
奥 会</w>
堆 积</w>
可口 可乐</w>
写 明</w>
A/63/ L.
4 －
2008/09 年度</w>
轻 度</w>
呈 报</w>
制 动</w>
利比 里亚人</w>
at i</w>
4 40</w>
38 2</w>
2000 /2
阿姆斯特 丹</w>
逆 差</w>
盛 大</w>
品 格</w>
丝 网</w>
i p</w>
M os
3 56</w>
艰 辛</w>
第57/2 70</w>
智 商</w>
搭 乘</w>
总 则</w>
威尔 逊</w>
十 五日</w>
信 使</w>
25 0
14 /
编 造</w>
统 一性</w>
真 主</w>
看 的</w>
林 迪
整 数</w>
托 雷斯</w>
手 们</w>
含 糊不清</w>
加拿 大人</w>
公 交</w>
举 报
Cor p
Com m
4 80</w>
200 8
附 属于</w>
走 得</w>
申 领</w>
灵敏 度</w>
核 电</w>
晚 宴</w>
无 机</w>
操作 员</w>
携带 者</w>
巴勒 莫</w>
对照 组</w>
副 手</w>
出 场</w>
军 团</w>
v an</w>
ac t
A/C.2/ 60</w>
48 8</w>
错 失</w>
钓 鱼</w>
近 些</w>
请 向</w>
评 议</w>
西雅 图</w>
自 已</w>
结 壳</w>
童 兵</w>
憎 恨</w>
干 吗</w>
嫁 妆</w>
图 纸</w>
受 惠</w>
停 靠</w>
B O
3 44</w>
贴 在</w>
自 卫
硬 度</w>
往 后</w>
安德 烈</w>
头 巾</w>
冷 酷</w>
二 烯</w>
T E
E/CN.4/200 6/
3 64</w>
1. 5%</w>
轻 视</w>
请 洽</w>
流 层</w>
公 牛</w>
保护 者</w>
· 德
id e</w>
N o.
Add. 6</w>
辱 骂</w>
血 病</w>
第一 〇
稠 密</w>
点 心</w>
模 糊不清</w>
整 治</w>
接 手</w>
分配 数</w>
公 债</w>
不得 在</w>
gu ez</w>
8 7.
辅 导员</w>
生 于</w>
枕 头</w>
所 选</w>
大 腿</w>
哺 乳
行 贿</w>
灯 塔</w>
油 墨</w>
土 木</w>
公 义</w>
停 产</w>
aw a</w>
3 51</w>
特别 法</w>
收 敛</w>
折 叠</w>
已 于</w>
工 资
就 像</w>
哈 顿</w>
卡 斯
二 百</w>
6 6%</w>
田 间</w>
澳 元</w>
数 派</w>
勘 测</w>
光 束</w>
住宅 区</w>
S/ PV.
D el
A/C.1/6 5/L.
3 53</w>
私 营化</w>
特 雷
热 能</w>
拓 扑</w>
忘 掉</w>
基 尼</w>
减 慢</w>
iv ers
M ir
En g
A/5 5/2
陪审 员</w>
重 整</w>
违 法者</w>
运 抵</w>
费 时</w>
规 范
罗 安达</w>
瓦 利</w>
字 眼</w>
初始 化</w>
促进 者</w>
16 0万</w>
都 柏林</w>
起 草
调查 处</w>
玷 污</w>
火 花</w>
渔 具</w>
找 不到</w>
定 式</w>
如 是</w>
发 行
化 妆</w>
制 衡</w>
其 人</w>
R um
Kaf r</w>
I E
A/6 6/2
霍 华
这 部</w>
法 学会</w>
应 按照</w>
如 需</w>
D on</w>
B us
马丁 内斯</w>
饭 菜</w>
通 缉</w>
迪 亚</w>
立 宪</w>
科 罗
磋 商会</w>
听 审</w>
关 节
伦 斯</w>
三十 日</w>
2 10
顶 点</w>
电子 版</w>
无休 止</w>
大 炮</w>
份 量</w>
一般 说来</w>
C ap
3 55</w>
20 19年</w>
误 会</w>
计 时</w>
纷 争</w>
示 范
疏 远</w>
独 裁
点 半</w>
消 遣</w>
定 语</w>
卜拉 希米</w>
习惯 于</w>
不 太
e ar
L /
E/CN. 15/200
驱 赶</w>
进 取</w>
草 率</w>
法 尔</w>
时 而</w>
常 数</w>
商 船</w>
刚果 人</w>
冲 击
内 核</w>
体 格</w>
专 业性</w>
sk y</w>
R ad
E/CN. 3/
B ri
5/ Add.2</w>
2 号</w>
面 纱</w>
阿勒 颇</w>
裁 武</w>
波 斯</w>
沉 淀</w>
核 计划</w>
林迪 西</w>
新 式</w>
待 决</w>
前 次</w>
会 被</w>
M S</w>
D 节</w>
A/C.2/6 6/L.
霍 姆斯</w>
钢 板</w>
重 负</w>
适 龄</w>
技 艺</w>
应 否</w>
如 实</w>
喷 雾</w>
十 分之一</w>
制 作
作 弊</w>
M et
鲸 鱼</w>
路易 斯·
规范 化</w>
极 高</w>
弄 清楚</w>
克 雷
中 东欧</w>
S ay
A/C.5/ 52</w>
辅 以</w>
订 出</w>
昔 日</w>
吸烟 者</w>
助 产</w>
an -
4 10</w>
3/ SR.
阿 让</w>
车 票</w>
经 商</w>
看 清</w>
温 哥
波 罗</w>
歌 词</w>
杂 质</w>
效 忠</w>
护 卫</w>
意见 书</w>
惨 重</w>
微 风</w>
头 盔</w>
剧 场</w>
供 需</w>
低 落</w>
不太 可能</w>
P D</w>
A/65/ 7
表 态</w>
药 用</w>
而 知</w>
登 机</w>
渔 获物</w>
横 滨</w>
快 餐</w>
印 本</w>
停 职</w>
il e</w>
I A
18 0万</w>
钢 笔</w>
越 大</w>
记 号</w>
坏 了</w>
刻 意</w>
SPL OS/
隐 喻</w>
队 友</w>
财 团</w>
至 终</w>
疑 惑</w>
温哥 华</w>
冗 余</w>
p e</w>
13 :
问 她</w>
记 下</w>
源 性</w>
正 交</w>
接 通</w>
接 连</w>
军 费</w>
再 现</w>
G A</w>
6 4%</w>
非 员额</w>
阿拉 斯加</w>
钢 管</w>
课 文</w>
荷尔 蒙</w>
织 为</w>
着 装</w>
百 货</w>
疆 界</w>
用 电</w>
比 他</w>
摄 氏度</w>
房 东</w>
变 了</w>
二十 二</w>
二 A</w>
3 ,000</w>
附 在</w>
阿 族</w>
越 多</w>
言 不
约瑟 夫</w>
性 状</w>
奶 牛</w>
台 北</w>
分 界线</w>
内 尔</w>
光 度</w>
信 条</w>
亚特兰 大</w>
6 0000</w>
马拉 松</w>
靠 着</w>
脱 落</w>
租 借</w>
安大 略
后 被</w>
冥 想</w>
不知 所
一 旁</w>
6 1/
6 1%</w>
迁 至</w>
跳 动</w>
突 袭</w>
火 鸡</w>
拷 打</w>
拉 法</w>
发 明
XXV II</w>
EA- 6B</w>
39 7</w>
39 2</w>
默 默</w>
说 家</w>
百分之 百</w>
改 划</w>
师 生</w>
反 种族</w>
单 车</w>
光 子</w>
也 不
东 斯</w>
上 瘾</w>
__ __
Man s
15 21</w>
除此 以外</w>
还 得</w>
贝 拉</w>
词 义</w>
自 学</w>
波 利
文 斯</w>
得 来</w>
发 怒</w>
38 8</w>
12 :00</w>
随 处</w>
阿 方
迪斯 尼</w>
赔偿 额</w>
第 87</w>
移 至</w>
it e</w>
UN CT
C P.</w>
重 担</w>
边 界线</w>
转 会</w>
综合 征</w>
照 灯</w>
波 段</w>
普 ·
寸 铁</w>
国家 队</w>
各 部</w>
供 货</w>
优越 性</w>
I .</w>
And re
齐 下</w>
遗传 学</w>
财 经</w>
第3 3/
灌 注</w>
开 阔</w>
婚 约</w>
双 亲</w>
去 向</w>
E/CN. 7/200
身 在</w>
罐 头</w>
笼 子</w>
最 快</w>
打 听</w>
手无 寸铁</w>
同 工
书 架</w>
201 3/
飞 到</w>
视 化</w>
西 红
节 食</w>
考 察
索 尼</w>
病 患</w>
水 器</w>
查 清</w>
明 尼
斯特拉 斯堡</w>
庄 园</w>
孔 径</w>
夜 班</w>
动 因</w>
· ·
G er
轻 率</w>
衰 减</w>
破 损</w>
炮 火</w>
最 先进</w>
3 90</w>
透 了</w>
西 方人</w>
离 婚
欣 喜</w>
旋转 翼</w>
收 货人</w>
拳 击</w>
恳 请</w>
帆 船</w>
失 学</w>
在 我
前 文</w>
光 亮</w>
ri s</w>
N ational</w>
2004/0 5年</w>
照 样</w>
民 粹</w>
所 见</w>
成 文法</w>
始终 如一</w>
圣 赫勒拿</w>
不 平</w>
A/C.3/ 60</w>
59 00</w>
阿 片</w>
赔 款</w>
苦 苦</w>
斯 图
已 在</w>
外 派</w>
地面 站</w>
到 下</w>
二十 三</w>
ec t</w>
调查 者</w>
衬 衣</w>
苍 蝇</w>
电 荷</w>
油 机</w>
此 信</w>
格 言</w>
好 比</w>
奥 利
入 式</w>
临 界
E ur
驾 驭</w>
造 影</w>
色 调</w>
是 以</w>
平 滑</w>
她 的</w>
夏 日</w>
叹 息</w>
切 削</w>
酝 酿</w>
选择 权</w>
用 者</w>
埋 在</w>
军 阀</w>
乞 讨</w>
鸡 肉</w>
生命 线</w>
独裁 者</w>
清 扫</w>
昭 著</w>
政 司</w>
年 头</w>
察 看</w>
处 女</w>
在 说</w>
向 量</w>
双 手</w>
养 分</w>
八 十</w>
or a</w>
3 72</w>
阴 暗</w>
重 度</w>
第七 十一</w>
流 露</w>
没 用</w>
款 者</w>
普 森</w>
无 几</w>
强 加于</w>
南 盟</w>
二 日</w>
D O
A/67/ 7
达 西</w>
詹姆 斯·
见 识</w>
脱 节</w>
瑕 疵</w>
理 论
王 朝</w>
汇 兑</w>
分 处</w>
T al
Mah m
6 8%</w>
3 42</w>
14 亿</w>
预算 司</w>
隔 开</w>
贴 现率</w>
昆 士
打 碎</w>
塔 尼亚
在 位</w>
亨 特</w>
不 合法</w>
ur ah</w>
谦 虚</w>
调查 队</w>
目 击</w>
生 物体</w>
氨基 酸</w>
散 居</w>
把 门</w>
利 纳</w>
为 你</w>
不 在
N as
A/5 3/2
11 5
马 达</w>
马 德
领导 权</w>
贸易 商</w>
胜 诉</w>
格 拉</w>
木 炭</w>
抱 着</w>
店 主</w>
布莱 克</w>
实验 性</w>
办 学</w>
克里 米亚</w>
供 暖</w>
· 穆
3 59</w>
201 7</w>
糊 口</w>
浙 江</w>
沉 没</w>
或 多
为 时</w>
个 人
V III</w>
G al
谱 法</w>
紧 凑</w>
沐 浴</w>
杜 马</w>
扶 助</w>
布 卢
基 质</w>
坚 守</w>
压 缩
分 给</w>
交 错</w>
ang a</w>
A/C.3/5 7/L.
8. 3</w>
11 8
记 在</w>
科 比</w>
查尔 斯·
庇护 国</w>
布 设</w>
妇女 们</w>
减 债</w>
八 溴二</w>
入口 处</w>
何 等</w>
丰 度</w>
L -
E/ 2013</w>
青 红
狠 狠</w>
总 产值</w>
图 示</w>
受 限制</w>
创 新型</w>
分 子
体 贴</w>
会 所</w>
不 准</w>
p er
Ad ob
40 5</w>
马 铃
遇 上</w>
警 示</w>
西红 柿</w>
眼 球</w>
洽 谈</w>
毒 物</w>
实 事
取 暖</w>
俄 亥
3 43</w>
1 10万</w>
马铃 薯</w>
见 惯</w>
穷 困</w>
当 它</w>
国 与
国与 国</w>
召 回</w>
受 虐待</w>
不 经
7 500</w>
4. 8</w>
199 2-
青红 皂白</w>
曼 哈顿</w>
拉 马拉</w>
或多 或少</w>
家 畜</w>
客观 地</w>
大 有
向 北</w>
印度 教</w>
体 质</w>
S k
3 68</w>
15 :
金 发</w>
通讯 社</w>
药 剂
破 旧</w>
数 月</w>
并 给</w>
已 为</w>
左 手</w>
审 阅</w>
代 之以</w>
上 海
一 氧化
S i
4 56</w>
3 58</w>
邮 报</w>
质 询</w>
葡萄 糖</w>
普 拉</w>
报 称</w>
实事 求
娱 乐
7 2%</w>
菲利 普</w>
苏 呼
统计 处</w>
操 控</w>
报 盘</w>
常 住</w>
图 谋</w>
号 和第</w>
人权 日</w>
IS B
6 －
33 号</w>
2. 8</w>
阿鲁 巴</w>
重 债</w>
较 短</w>
耽 误</w>
简 编</w>
碳 酸
生 来</w>
拉 迪
愚 昧</w>
恶 毒</w>
布 瓦
工业 区</w>
宽 阔</w>
公 关</w>
从 头
ic t
食 者</w>
金刚 石</w>
转 弯</w>
试 剂</w>
译 本</w>
蒙古 国</w>
英 亩</w>
粉 红色</w>
相 识</w>
歉 意</w>
木 板</w>
录 音
帕 斯</w>
希腊 人</w>
官 僚
安 纳
场 主</w>
云 南</w>
上 天</w>
上 为</w>
10 月份</w>
问 你</w>
重 开</w>
败 坏</w>
调 出</w>
说 是</w>
纬 度</w>
管 齐下</w>
穿 透</w>
死 伤</w>
出生 地</w>
像 素</w>
丹 利</w>
4 30</w>
18 5
颜 料</w>
胜 于</w>
沉 浸</w>
拍 卖
战 火</w>
归 为</w>
W F
M T
A/C.3/5 8/L.
A/C.2/6 5/L.
里 程</w>
配 制</w>
轮 子</w>
请 他</w>
草 药</w>
英 俊</w>
环 形</w>
深 渊</w>
有 点儿</w>
攀 登</w>
担 保人</w>
尔 本</w>
吵 架</w>
免 责</w>
不知 不觉</w>
an ce</w>
W h
3. 7</w>
鲍 尔</w>
领 馆</w>
钻 探</w>
赫斯 渥</w>
赞 许</w>
裸 体</w>
聚 类</w>
林 区</w>
智 者</w>
时 宜</w>
当 着</w>
弘 扬</w>
将 有</w>
存储 器</w>
刚 度</w>
停 用</w>
亿 万</w>
E/ AC.
热 忱</w>
政策 局</w>
市 内</w>
就 医</w>
劝 阻</w>
买 进</w>
al d</w>
C al
9/ SR.
霍华 德</w>
钉 子</w>
还 会</w>
血 浆</w>
红 树林</w>
税 额</w>
积 蓄</w>
来 电</w>
时 能</w>
山 姆</w>
大 方</w>
反 响</w>
北 省</w>
不 入</w>
UNCT A
M un
H el
7 1%</w>
4 75</w>
2007/0 8
评 选</w>
置 换</w>
罪 案</w>
很 低</w>
妓 院</w>
复 数</w>
反 面</w>
到 新</w>
创 业者</w>
入 选</w>
亚 利
E X
4 70</w>
35 分</w>
赢 家</w>
说 着</w>
讨 价</w>
联 军</w>
美 景</w>
摇 晃</w>
当 地人</w>
复 印机</w>
以 待</w>
17 47</w>
自 此</w>
自 大</w>
答 卷</w>
生 死</w>
牵 引</w>
氟 烃</w>
屏 蔽</w>
团 结
保 单</w>
NG O</w>
A/C.3/6 3/L.
11 60</w>
金 星</w>
通 胀率</w>
联络 员</w>
神 学</w>
生态 学</w>
栖息 地</w>
枯 燥</w>
客 机</w>
优 待</w>
u a</w>
40 4</w>
3 2
瘟 疫</w>
疯 子</w>
游 戏
找 回</w>
吞 噬</w>
反 犹太主义</w>
半 夜</w>
击 手</w>
共 事</w>
SR .</w>
8 50</w>
臀 部</w>
河 道</w>
末 日</w>
有 条
掌 声</w>
布 料</w>
依 托</w>
Par t
M az
A/C.1/5 8/L.
飞 快</w>
民主 党人</w>
正 统</w>
标 语</w>
末 端</w>
推 土机</w>
挡 住</w>
寄 予</w>
存 续</w>
变 质</w>
共 鸣</w>
一 惊</w>
en s</w>
al-Sha '
A C</w>
趋 同</w>
羊 群</w>
程序 员</w>
油 画</w>
工作 室</w>
伤 势</w>
40 2</w>
达 标</w>
萃 取</w>
着 迷</w>
盾 牌</w>
白 雪</w>
爱 护</w>
点 名</w>
正 对</w>
杂 货
接 地</w>
按 下</w>
戴 维</w>
字 节</w>
8 3%</w>
6 2/2
10 :00－</w>
/200 2</w>
送 去</w>
武 术</w>
打 乱</w>
帕 尔
基 多</w>
V I</w>
Inc .</w>
8 00
路 段</w>
诺 ·
经理 人</w>
式 样</w>
太 空
交 接</w>
不得 对</w>
A/C.2/6 8/L.
6 2/
4 13</w>
须 向</w>
社 发</w>
碱 性</w>
皮 带</w>
小 提琴</w>
对 上</w>
国 库</w>
固 态</w>
噩 梦</w>
仓 促</w>
书 信</w>
N ab
5 40</w>
试 者</w>
觉 悟</w>
法 官们</w>
无 缝</w>
广 岛</w>
信息 学</w>
不 及
O l
顶 尖</w>
累 了</w>
数据 源</w>
拖 到</w>
同 业</w>
受 聘</w>
ind ex
24 -
2010 号</w>
10 9.
魔 力</w>
重 任</w>
苏呼 米</w>
精 品</w>
直 截
生物 圈</w>
无 处
威 德</w>
套 房</w>
奖 牌</w>
天 真</w>
可 作</w>
剔 除</w>
再 造</w>
之 举</w>
im ana</w>
4 28</w>
3 73</w>
高 手</w>
舱 位</w>
纵 火</w>
算 了</w>
枢 密
弱 小</w>
富 兰
孩 们</w>
半 径</w>
书 院</w>
38 3</w>
行 吗</w>
约旦 河</w>
病 了</w>
滋 味</w>
查 到</w>
数 年</w>
撞 到</w>
接 见</w>
受 损害</w>
也不 例外</w>
is a</w>
K ab
DE -
8 2%</w>
199 5/
行 情</w>
索 尔</w>
监督 团</w>
永 生</w>
柠 檬
文 第</w>
宾 夕
取 胜</w>
净 值</w>
冠 状</w>
雄 厚</w>
西 装</w>
病 媒</w>
残 留物</w>
开 明</w>
库 存
常 年</w>
勘 察</w>
凝 固</w>
先 于</w>
n e
b o
39 5</w>
1 200万</w>
鼓 起</w>
逾 越</w>
言 行</w>
观测 站</w>
火 炮</w>
得 克
往 上</w>
买 入</w>
一 段时间</w>
OzL.Pro .
4 11</w>
11 亿</w>
适 当性</w>
语 种</w>
诀 窍</w>
葡 语</w>
肺 部</w>
空 虚</w>
熄 灭</w>
烹 调</w>
旺 盛</w>
投 向</w>
头 疼</w>
风 度</w>
预 设</w>
辣 椒</w>
荒 凉</w>
稍 有</w>
着 急</w>
平 衡
墨 尔本</w>
反 省</w>
南 瓜</w>
分类 账</w>
会 法</w>
R af
ICCD /CR
陈 述
要 地</w>
臭名 昭著</w>
纳尔 逊</w>
深 造</w>
摆 动</w>
拖 网</w>
总 线</w>
异 于</w>
并 按</w>
布 加勒
大 不</w>
全 氟
伦 理学</w>
付 息</w>
人居 二</w>
39 1</w>
阿 里</w>
转 帐</w>
艺 人</w>
狡 猾</w>
照 着</w>
时 日</w>
排 污</w>
往 事</w>
巴西 利亚</w>
工作 天</w>
外交 界</w>
倾 弃</w>
不 作</w>
三角 形</w>
b l
an y</w>
ICCD/CR IC</w>
骨 干</w>
非 物质</w>
设计 者</w>
苔 丝</w>
纤维 素</w>
斯蒂 德</w>
宾夕 法
子 宫
士 丹利</w>
填 料</w>
坠 毁</w>
乞 丐</w>
ac k</w>
细 小</w>
牟 利</w>
法 证</w>
故 乡</w>
摩根 士丹利</w>
并 没</w>
帮 他</w>
可 与</w>
位 子</w>
乎 其
re z</w>
in e
S af
OE WG
B or
除 术</w>
阿尔巴 尼亚
防 护
邮 袋</w>
辜 负</w>
被 保险人</w>
相 传</w>
泉 水</w>
把 戏</w>
彼得 堡</w>
布加勒 斯特</w>
启 蒙</w>
可 贵</w>
L ar
20 ,000</w>
铁 路网</w>
釜 山</w>
量 级</w>
里 拉</w>
那 间</w>
软 件
觉 醒</w>
监 会</w>
皇 室</w>
据 悉</w>
异构 体</w>
开发 区</w>
ub e</w>
d oc
R A</w>
Naq urah</w>
L T
E/CN.4/200 3/
4 16</w>
3 71</w>
3 69</w>
项 目表</w>
重 机</w>
蒙 上</w>
生 子</w>
枢密 院</w>
村 里</w>
换 器</w>
愤 慨</w>
心 头</w>
反应 器</w>
关 照</w>
S er
198 3</w>
/200 9</w>
波 利斯</w>
无 耻</w>
体 型</w>
似 可</w>
下 半
风 机</w>
追 寻</w>
要 紧</w>
联 塔</w>
海 法</w>
构 筑</w>
幼 年</w>
巴伦 西亚</w>
体 能</w>
er y</w>
I G
能 用</w>
耶 鲁</w>
林 斯</w>
应 聘
威 斯
同 感</w>
务 署</w>
到 此</w>
伯 尔
从 那时</w>
不可 靠</w>
丁 二烯</w>
3 79</w>
18 :
16 -
首 饰</w>
查 封</w>
彩 票</w>
an t</w>
K B</w>
9 6%</w>
9 1.
4 3/
补 偿
最 高层</w>
放 学</w>
手 铐</w>
幻 觉</w>
大 奖</w>
品 德</w>
单 元
上 车</w>
万 多</w>
t h</w>
ol l
R aj
D C</w>
195 3年</w>
/200 3</w>
铁 矿石</w>
谨 慎地</w>
花 儿</w>
脱 水</w>
缴 获</w>
矿 物质</w>
环保 署</w>
派 发</w>
梅 德
极 低</w>
投 保人</w>
奖 者</w>
太阳 系</w>
在我 看来</w>
可 口</w>
以 致于</w>
不 规则</w>
N i
7 3%</w>
苯丙 胺</w>
美 术
无处 不在</w>
散 文</w>
塔尼亚 胡</w>
可 谓</w>
伤 痕</w>
代 数</w>
仍 需</w>
乘 以</w>
S/ 1997</w>
3 200</w>
警 队</w>
硬 性</w>
犯 错</w>
残 骸</w>
撕 裂</w>
投 影</w>
孩 儿</w>
大 吃
吸 血
后 退</w>
反 射
卡 斯</w>
不 稳定性</w>
A/64/ L.
阿方 索</w>
菲 特</w>
网 友</w>
科技 署</w>
愈 加</w>
工作 团</w>
划 线</w>
农 民工</w>
世界 观</w>
7 8%</w>
高 效地</w>
量 表</w>
警察 署</w>
蚀 性</w>
老 百姓</w>
第9 86</w>
无 愧</w>
惯 性</w>
微 微</w>
广 西</w>
居留 权</w>
卡 路里</w>
修 剪</w>
体 温</w>
7 7%</w>
11 月份</w>
阳 台</w>
说 明
腰 带</w>
液 晶</w>
挥 霍</w>
怪 异</w>
德 州</w>
强奸 罪</w>
店 里</w>
外 向</w>
十 日</w>
北 区</w>
修 道院</w>
ust af
40 7</w>
19 29</w>
* *
雇 工</w>
谦 卑</w>
汉 城</w>
打 动</w>
小 平</w>
内 塔尼亚胡</w>
休 战</w>
亚 湾</w>
上 场</w>
v .
2003/ 04年</w>
2003- 2004年</w>
2000 多</w>
示 意</w>
液 态</w>
抽 查</w>
内 分泌</w>
倍 增</w>
man n</w>
ir o</w>
J u
E/CN.4/200 4/
8/ SR.
5 60</w>
40 9</w>
16 :
10 /
预 知</w>
预 售</w>
相 联</w>
斯科 特</w>
放 了</w>
房 客</w>
吉 拉
克 省</w>
读 完</w>
穆 尔</w>
嵌 入式</w>
卡纳 克</w>
R ep
L U
A/6 7/2
200 4/2
17 7
硫 酸</w>
留 心</w>
检 视</w>
格 拉斯</w>
布鲁 斯</w>
巴 希尔</w>
回 落</w>
卡 斯特
储 蓄
e a</w>
al-Sha' b</w>
8 6%</w>
12 2.
难 堪</w>
维生素 A</w>
相 反
犹豫 不决</w>
然 间</w>
浮 现</w>
洋 葱</w>
持 平</w>
抗 争</w>
宗 派</w>
吸血 鬼</w>
克 森</w>
住 家</w>
鸭 子</w>
阿斯 马拉</w>
那 段</w>
通 奸</w>
较 多</w>
角 膜</w>
表 单</w>
第5 5</w>
欧 文</w>
惟 有</w>
归 来</w>
奋 力</w>
口 感</w>
又 是</w>
中 之
一 席
K y
C ent
A/C.2/5 8/L.
3 62</w>
3 61</w>
默 默
魔 术</w>
篡 改</w>
外 貌</w>
卫生 间</w>
人 性化</w>
不 道德</w>
en ko</w>
N or
CRP. 3</w>
9 50</w>
199 0-
1 ：
黑 白</w>
首 当
贫 乏</w>
畅 通</w>
炸 伤</w>
摧 残</w>
打 架</w>
廉 洁</w>
地 壳</w>
合 剂</w>
以 多</w>
乎其 微</w>
世界 级</w>
Rich ard</w>
9 .1</w>
39 8</w>
18 4
语言 学</w>
血 性</w>
自杀 式</w>
美 的</w>
破 伤风</w>
派 生</w>
替 补</w>
执行 者</w>
戴 维斯</w>
定 下</w>
安大 略</w>
始 至终</w>
加 太</w>
则 应</w>
于 众</w>
两 难</w>
un d</w>
A p
50 1</w>
首当 其
首当其 冲</w>
退 缩</w>
督 促</w>
氯 氟烃</w>
微 乎其微</w>
得 性</w>
城 墙</w>
切 除术</w>
关节 炎</w>
也 会</w>
on d
A/62/ 5
5/ SR.
诺 维奇</w>
累 累</w>
无 端</w>
戴 尔</w>
属 人</w>
下 限</w>
3 63</w>
2 5年</w>
默 克尔</w>
非 选择性</w>
零售 业</w>
蕴 含</w>
节 俭</w>
纸 质</w>
柱 子</w>
实事求 是</w>
坏 人</w>
土地 换</w>
哈 德</w>
ad o</w>
E/ 2012</w>
49 00</w>
自 以为</w>
电子 化</w>
材 质</w>
效 性</w>
坎 大
参 赛
主 耶稣</w>
2006/ 07年</w>
闻 到</w>
要 务</w>
腐 化</w>
绑 定</w>
极 地</w>
振 荡</w>
折 中</w>
开 花</w>
在 哪</w>
呕 吐</w>
单 方</w>
利 未</w>
何塞 ·
下 有</w>
一 看</w>
问 世</w>
谢 赫</w>
老 式</w>
结 石</w>
科 纳</w>
牺牲 品</w>
敲 门</w>
数 十万</w>
思 想家</w>
寄生 虫</w>
围 巾</w>
周 转
君 子</w>
亚 语</w>
A/C.2/6 9/L.
A G
高 价</w>
适 得
适得 其反</w>
罗 拉</w>
绳 索</w>
电视 剧</w>
标志 性</w>
戒 备</w>
器 皿</w>
同 前</w>
剪 辑</w>
为 整</w>
黎巴 嫩
购买 者</w>
由 於</w>
渺 茫</w>
涨 幅</w>
污 辱</w>
摄 入量</w>
搜 救</w>
抗 震</w>
战 地</w>
应 许</w>
工 匠</w>
增 殖</w>
分 节</w>
冷 却
决策 层</w>
何 塞</w>
伯 利亚</w>
伊 -
亲 友</w>
M C
L L</w>
38 4</w>
/200 4</w>
西 蒙
莉 莉</w>
确 证</w>
本杰 明</w>
房 地
司法 所</w>
六 点</w>
y an</w>
E/ 1999</w>
D on
8 '</w>
16 亿</w>
面 料</w>
阻 断</w>
远 期</w>
脑 筋</w>
果 然</w>
有 鉴于</w>
展 期</w>
封 闭
各 处</w>
利伯 维尔</w>
代 号</w>
B P</w>
9. 2</w>
非 加太</w>
抗 原</w>
寺 庙</w>
区 块</w>
包 装
F in
B DE-
酵 母</w>
跳 过</w>
足 球赛</w>
调 频</w>
花 生</w>
联络 组</w>
羞 耻</w>
核 战争</w>
救 治</w>
微 薄</w>
很 高兴</w>
弗 里</w>
布干 维尔</w>
小 贩</w>
古 斯
仅 为</w>
乌兹别 克</w>
不 成比例</w>
f re
S P
M el
L t
A/C.1/6 4/L.
飞 过</w>
预 处理</w>
联 预</w>
线 圈</w>
番 茄</w>
毒 气</w>
暑 期</w>
扩 张
塑料 袋</w>
7 4%</w>
驱 虫</w>
评估 团</w>
计 为</w>
装 在</w>
粘 土</w>
真 好</w>
白 血病</w>
瓦 德</w>
海 鲜</w>
注 资</w>
来 年</w>
本 意</w>
战 区</w>
意大 利
情 境</w>
对 现</w>
大 部份</w>
反 坦克</w>
分 词</w>
冷 藏</w>
书 法</w>
ST/ A
K an
Joh n
6 0年代</w>
3 67</w>
面 条</w>
维 的
第 98</w>
河 岸</w>
医 生们</w>
乌 龟</w>
D .</w>
9 2%</w>
10 5.
/ c
骑 车</w>
限 值</w>
较 小</w>
牛 顿</w>
杂 草</w>
明 晰</w>
压 低</w>
农 地</w>
A/59/ 5
2005- 2015年</w>
老 爸</w>
白 痴</w>
旗 舰</w>
按 期</w>
拘 束</w>
带 进</w>
家 门</w>
唱 名</w>
催 生</w>
亚 于</w>
严 禁</w>
Z h
高 峰
里 海</w>
谢 赫·
莱 尔</w>
急 切</w>
德 文</w>
定 购</w>
你 好</w>
交 代</w>
CA C/CO
3 77</w>
非 但</w>
途 经</w>
蒙 得
营 区</w>
用 上</w>
政治 学</w>
投 下</w>
射 程</w>
安 抚</w>
可 恶</w>
可 得性</w>
厚 厚</w>
出 走</w>
住 址</w>
之 日</w>
为 难</w>
中 环</w>
class 8'</w>
H en
A/C.3/6 8/L.
金正 日</w>
跨 过</w>
起 重机</w>
署 于</w>
空 的</w>
碳 氢化</w>
痛 心</w>
料 到</w>
拉 动</w>
地 平线</w>
国 应</w>
到 家</w>
丰 收</w>
b y</w>
颠 倒</w>
里 根</w>
诚 恳</w>
裁 缝</w>
胃 口</w>
欧统 局</w>
吸 食</w>
介 词</w>
乙 烷</w>
丽 莎</w>
T el
CN -235</w>
9 3%</w>
肾 上
相 悖</w>
留 学生</w>
深 水</w>
按 此</w>
情 侣</w>
婴 儿
好 奇心</w>
关 塔那
亮 点</w>
M ik
A/C.1/5 7/L.
A/59/ 7
4 77</w>
13 8.
12 84</w>
10 4.
金 戈</w>
讨 好</w>
认 清</w>
被 困</w>
童 子
空 地</w>
敏感 度</w>
成 都</w>
怀 里</w>
何 在</w>
中 层</w>
A/C.1/5 9/L.
须 有</w>
说 不定</w>
螺 栓</w>
筹 委会</w>
活 塞</w>
检察 厅</w>
奢 华</w>
天文 学家</w>
制冷 剂</w>
利润 率</w>
不足为 奇</w>
XX X</w>
11 :30</w>
杰 里
本 领</w>
星 际</w>
旧 约</w>
尾 声</w>
分析 家</w>
出人 意料</w>
储 存
二十 多</w>
E/CN.4/ 1998</w>
A/C.1/6 3/L.
A/59/ L.
7 6%</w>
4 18</w>
阿卜杜 拉·
邓 小平</w>
计 值</w>
蒙 巴萨</w>
维的 亚</w>
求 你</w>
毒 药</w>
攻击 性</w>
撤 走</w>
搭 档</w>
弃 置</w>
应 付款</w>
如 意</w>
大 增</w>
凉 爽</w>
串 通</w>
M ut
4 14</w>
4 12</w>
顾 性</w>
融 洽</w>
查 获</w>
暴 发</w>
援助 国</w>
安 置
光 器</w>
僵 化</w>
三 点</w>
A/57/ 7
60 5</w>
4 45</w>
预 选</w>
重 写</w>
艾 德</w>
脸 部</w>
置 之不
简 陋</w>
恩 岛</w>
必 行</w>
德 勒</w>
开发 部</w>
安大略 省</w>
嘲 弄</w>
切 勿</w>
40 3</w>
高 超</w>
橡 皮</w>
楼 下</w>
无 奈</w>
挂 图</w>
抵 减</w>
征 召</w>
干 线</w>
共 犯</w>
伤 痛</w>
et h</w>
50 多</w>
阻 燃</w>
计 价</w>
职 级</w>
灵 敏</w>
正 当性</w>
文 科</w>
南 半球</w>
储 层</w>
倒 数</w>
am i</w>
O DP</w>
E/ 1998</w>
驱逐 者</w>
自 有</w>
漠 不关心</w>
武 汉</w>
模 态</w>
慈 悲</w>
很 容易</w>
奇 科</w>
品 位</w>
名 言</w>
力 行</w>
出 产</w>
亚利 桑
举报 人</w>
不 去</w>
om b
ma il</w>
m it
T all</w>
配 对</w>
脂肪 酸</w>
等 国</w>
社 署</w>
疲力 尽</w>
比 方说</w>
斯蒂 芬</w>
属 事</w>
哈 桑
出租 人</w>
党 内</w>
健身 房</w>
东 耶路撒冷</w>
上 以</w>
ig h
es c
R -
A pp
4 15</w>
39 3</w>
迷 恋</w>
短 链</w>
消耗 品</w>
法 罗
昏 迷</w>
批 发
打 量</w>
年 报</w>
善 后</w>
信 片</w>
as t</w>
St r
50 3</w>
该 死的</w>
纯 度</w>
约 法</w>
突 破
灭 火</w>
漂 浮</w>
更 好地</w>
拖拉 机</w>
打 入</w>
幻 灯
并 重</w>
平方 英尺</w>
圣 洁</w>
前 哨</w>
中 大</w>
与 此</w>
一 月份</w>
as p
A/C.1/6 2/L.
8 7%</w>
10 8
黑 板</w>
高 点</w>
耐 烦</w>
瓦 尔
特 快</w>
泰 米尔</w>
救 了</w>
手 脚</w>
战 祸</w>
国 队</w>
博 弈</w>
与会 者们</w>
不 景气</w>
u z</w>
le z</w>
R C-
100 亿</w>
辽 阔</w>
西 安</w>
痊 愈</w>
王 储</w>
流 氓</w>
洋 洋</w>
核 发</w>
本 处</w>
有 两</w>
月 光</w>
为 的</w>
上 扬</w>
一 行</w>
j i</w>
B ut
A L</w>
1 －
/200 7/
罪 人</w>
罗 维</w>
柠 檬</w>
果 子</w>
弗 雷</w>
已 有</w>
富 足</w>
失 眠</w>
参 观者</w>
低 声</w>
不 愉快</w>
ard o</w>
Mor gan</w>
D om
A/58/ L.
鲁 莽</w>
须 知</w>
轻 女</w>
谈判 者</w>
诱 因</w>
诱 使</w>
致 富</w>
留 守</w>
犯罪 学</w>
格 勒</w>
日 光</w>
同 心协力</w>
为 国际</w>
万 象</w>
ir i</w>
A/CN.9/ 5
4 17</w>
武 士</w>
推 展</w>
影 视</w>
坚 果</w>
同工 同酬</w>
n et</w>
Un ivers
Rob ert</w>
L a</w>
9 万</w>
4/ SR.
靴 子</w>
至 高
膀 胱</w>
猜 疑</w>
狂 欢</w>
杰 宁</w>
本 体</w>
斑 点</w>
搞 定</w>
愈 演
心 爱</w>
小 溪</w>
发 热</w>
凌 驾</w>
RE S/
50 2</w>
5 20</w>
48 5</w>
14 000</w>
量 度</w>
重 男
重男 轻女</w>
身 影</w>
起 誓</w>
童子 军</w>
沃 斯</w>
死 刑
有 一次</w>
季 刊</w>
光 源</w>
牛 仔</w>
润滑 剂</w>
愈演 愈
下 行</w>
Vol. II</w>
S S
除 掉</w>
降 雨量</w>
闲 置</w>
联 社</w>
终 将</w>
篱 笆</w>
特 例</w>
法 权</w>
新 手</w>
愈演愈 烈</w>
建 于</w>
展 品</w>
印 章</w>
印 有</w>
函 作</w>
克 洛
on y</w>
as e</w>
H as
蒙得 维的亚</w>
缺 血</w>
献 上</w>
狂 风</w>
易 燃</w>
振 作</w>
拉 赫
慷 慨
年 复
巫 术</w>
封 装</w>
基 点</w>
向 东</w>
CE O</w>
3 76</w>
辩 驳</w>
衍 生物</w>
胡 萝卜</w>
科罗 拉
星 人</w>
拳 头</w>
年复 一年</w>
填 埋
台 湾
公 益
不 包括</w>
一席 之地</w>
P L</w>
骨 质</w>
调 任</w>
称 性</w>
电影 节</w>
深 知</w>
注射 液</w>
气象 学</w>
明 信片</w>
报 答</w>
应 负责</w>
售货 员</w>
4 7/2
4 51</w>
难 怪</w>
自 满</w>
神 职</w>
研 拟</w>
画 像</w>
派 到</w>
来 文
易 懂</w>
新 婚</w>
徽 章</w>
建 局</w>
山 东</w>
喇 叭</w>
军 政府</w>
伊 始</w>
产 儿</w>
一 人</w>
Ph il
B ern
门 上</w>
福 尔</w>
相 抵</w>
牌 子</w>
未 婚
抑 或</w>
市 议会</w>
卡 特
勋 爵</w>
出口 量</w>
丰 盛</w>
ak a</w>
_ _</w>
S/201 4/
IS 3.
4 00多</w>
防 雷</w>
萨达 姆</w>
药剂 师</w>
科 夫</w>
石 墨</w>
理 发
整 体性</w>
支 离
排 球</w>
婚 后</w>
围 着</w>
30 0000</w>
郊 野</w>
车 里</w>
管 线</w>
流行 性</w>
波斯 湾</w>
支离 破碎</w>
怒 气</w>
帐 务</w>
刷 新</w>
不 易</w>
ell a</w>
E/CN.4/ 1997</w>
39 9</w>
22 :
跟 在</w>
贷 款人</w>
蒙 德</w>
菲 尔
第4 9/
甜 美</w>
污 名</w>
德 利</w>
宝 座</w>
增 减</w>
制 片
出生 证</w>
H F
G PS</w>
9 00万</w>
39 6</w>
/200 6/
阿 齐兹</w>
罗 斯·
福 尔
玛 利亚</w>
温 度计</w>
旁 观者</w>
探 寻</w>
ol d</w>
S ec
迷 路</w>
较 弱</w>
肥 胖
第48/2 18</w>
放大 器</w>
底 薪</w>
岸 上</w>
复 制
圣 何塞</w>
发 泄</w>
为 什麽</w>
is c
XX III</w>
飞 地</w>
限 量</w>
阿特 拉斯</w>
里 人</w>
诊 断
营业 额</w>
考 查</w>
羊 羔</w>
第 XV</w>
球 菌</w>
沉 闷</w>
求 学</w>
比 尔·
国 及</w>
兆 瓦</w>
做 起</w>
不 合适</w>
o ch
is e</w>
高峰 期</w>
那 州</w>
维 纳</w>
电 离
校 外</w>
未 曾</w>
救 生
放 款</w>
带 子</w>
受 贿</w>
em ent</w>
48 6</w>
酸 奶</w>
赛 场</w>
打 猎</w>
委 托
别 名</w>
作 响</w>
亮 度</w>
S an</w>
6 9%</w>
4 90</w>
西 伯利亚</w>
营 利性</w>
相 伴</w>
燃 气</w>
潜 水
水 性</w>
村 落</w>
副 院长</w>
入 世</w>
光 照</w>
不 为</w>
s d
12 4.
逃 出</w>
资 源
要 说</w>
要 约</w>
苏 克
联邦 区</w>
纳 赛
性 情</w>
前 款</w>
伦 堡</w>
不 超过</w>
u p</w>
S ah
A/56/ 8
28 /
露 西</w>
缩 水</w>
粮 价</w>
甘 蔗</w>
潜 意识</w>
流 畅</w>
标 注</w>
标 出</w>
命 题</w>
命 中</w>
匪 浅</w>
动荡 不安</w>
写 上</w>
六 溴
倒 性</w>
万 分</w>
丁 堡</w>
银 子</w>
请 在</w>
螺 纹</w>
维 加斯</w>
牧 羊
早 孕</w>
座 椅</w>
实 践
听 询</w>
参 半</w>
压 倒性</w>
人 行道</w>
中继 器</w>
不知所 措</w>
三 百</w>
CM /
跟 前</w>
贝 利</w>
艾 尔
缉 毒</w>
绝 食</w>
游 离</w>
有 待
无 忧</w>
岸 边</w>
就 业部</w>
审判 庭</w>
印 记</w>
北 基伍省</w>
克里 斯托
偷 盗</w>
为 您</w>
K at
El -
4 26</w>
退 税</w>
试 样</w>
绝 佳</w>
精 确度</w>
租 房</w>
校 友</w>
有待 于</w>
技术 部</w>
扔 到</w>
张 开</w>
填 报</w>
土地 法</w>
伦 比</w>
C P</w>
骗 局</w>
载 在</w>
该 款</w>
椭 圆</w>
有机 物</w>
早 起</w>
日 语</w>
扑 灭</w>
大卫 ·
F S</w>
49 2</w>
1, 6
育 种</w>
美 貌</w>
泊 车</w>
无 记名</w>
无 政府</w>
布 托</w>
安 息
圣 彼得堡</w>
受 挫</w>
五 点</w>
50 5</w>
4 号</w>
30 年代</w>
2008- 2010年</w>
鄙 视</w>
编 成</w>
法 院的</w>
毋 庸置疑</w>
正 被</w>
感 性</w>
学 派</w>
几内 亚湾</w>
伏 击</w>
中 生</w>
b e
A/6 5/2
高 估</w>
缠 绕</w>
管理 器</w>
盲 文</w>
澳大 利亚人</w>
法 理</w>
有 碍</w>
手 工艺</w>
想 把</w>
寄 来</w>
保守 党</w>
am s</w>
V an</w>
4 36</w>
39 4</w>
逆 境</w>
至高 无上</w>
摸 索</w>
接收 器</w>
幻灯 片</w>
卡 比拉</w>
办 案</w>
初 衷</w>
S ing
2. 5
面 目</w>
通 路</w>
表 水</w>
致 命
美洲 狮</w>
编辑 器</w>
维修 费</w>
真 想</w>
涂 抹</w>
污染 源</w>
某 国</w>
卡 尔·
全 港</w>
倾 销
丹 尼
中 区</w>
ou g
S L
F re
风 光</w>
象 牙</w>
词 汇
管制 法</w>
漠 视</w>
洋 溢</w>
排 行
均 匀
哈 尔</w>
司 空
传 出</w>
休 养</w>
R om
F at
A/C.2/6 4/L.
199 6/
18 03</w>
附 着</w>
轮 社</w>
相似 性</w>
法罗 群岛</w>
有 理</w>
巴 解</w>
就 诊</w>
喜 马拉
农 场主</w>
假 想</w>
不 对称</w>
下 月</w>
en g</w>
c c
ES CA
Al ex
50 6</w>
5/ 2</w>
11 8.
色 谱法</w>
纸 币</w>
管 子</w>
果 园</w>
教 官</w>
当 晚</w>
尼 黑</w>
宽 敞</w>
垄 断
司空 见惯</w>
值 此</w>
XX V</w>
餐 具</w>
阿布 扎
轻 蔑</w>
足 球队</w>
谓 语</w>
解 职</w>
看 一下</w>
演讲 者</w>
海 豹</w>
洗 涤</w>
放 出</w>
抢 劫
批 出</w>
打 出</w>
手 术
恋 人</w>
分 流</w>
公安 部</w>
作 曲
S/ 2013</w>
1- 3</w>
长 篇</w>
赐 予</w>
规划 部</w>
自 负</w>
职 称</w>
棕 榈
折 断</w>
庆 幸</w>
妇 联</w>
二 手
中 校</w>
m ar
l ad
G IS</w>
59 %</w>
2. 2
要 好</w>
至 此</w>
而 然</w>
米 德</w>
比 的</w>
树 干</w>
排行 榜</w>
扶 轮社</w>
地 表水</w>
喇 嘛</w>
受 命</w>
乌 姆
东 方省</w>
不容 忽视</w>
不为 过</w>
不 高</w>
60 3</w>
49 8</w>
高 高</w>
食 谱</w>
重 中之
重中之 重</w>
越 高</w>
走 下</w>
译 者</w>
经 销</w>
灭 失</w>
淋 浴</w>
洗 手
比 特</w>
枪 手</w>
木 制</w>
方 法
救 护</w>
慕 尼黑</w>
失败 者</w>
S w
H ab
C ast
A/63/ 7
200 7/2
黄 河</w>
马 利
还 本</w>
趣 味</w>
赌 注</w>
萨 克</w>
盐 酸</w>
波 音</w>
沙 拉夫</w>
小 路</w>
关 连</w>
倒 下</w>
不 绝</w>
音 量</w>
降 价</w>
长 出</w>
迷 们</w>
素 材</w>
漆 黑</w>
暂 时性</w>
晴 朗</w>
性 强</w>
变 化
单 体</w>
共 进</w>
公 文</w>
乔 布斯</w>
不 含</w>
S .</w>
RE P/200
难 关</w>
缴 交</w>
矿 场</w>
演 者</w>
残 废</w>
本 周</w>
控 罪</w>
抗 药性</w>
戈 登</w>
射 出</w>
嗓 子</w>
商 机</w>
双 层</w>
凋 亡</w>
不 仅
UNEP/CH W/
UNEP/ GC.
频 频</w>
腺 炎</w>
第48/ 162</w>
社会 性</w>
相似 之处</w>
珍 妮
测 算</w>
揭 发</w>
南 桑
佩 德
二零零 四年</w>
Gar c
55 分</w>
4 65</w>
3. 5%</w>
阻 抗</w>
闭 路</w>
迫 感</w>
血 流</w>
水 印</w>
棺 材</w>
总 有</w>
幼 稚</w>
后 院</w>
原 判</w>
列 宁</w>
下 层</w>
us h</w>
Un ited</w>
S S.
K im</w>
Chr ist
CT O
3 78</w>
197 9</w>
面 值</w>
非 同</w>
通 量</w>
花 粉</w>
背 包</w>
气 愤</w>
每 项</w>
母 鸡</w>
有 机会</w>
昼 夜</w>
房屋 署</w>
幌 子</w>
学 好</w>
化 身</w>
倒 在</w>
P M
预 谋</w>
附 则</w>
通 俗</w>
蒂 娜</w>
艾 伯
组织 科</w>
炉 子</w>
比 什
母 体</w>
樱 桃</w>
捷 径</w>
弗 ·
安息 日</w>
制 人</w>
事务 署</w>
不 紊</w>
198 6</w>
17 9
酰 胺</w>
菲 尔</w>
花 卉</w>
真 爱</w>
点 子</w>
民 俗</w>
毒 打</w>
核 电厂</w>
有 如</w>
新 陈
拉 登</w>
拉 尔</w>
弄 到</w>
夜 总会</w>
国 法</w>
合 会</w>
冰 山</w>
农 历</w>
先 发
做 爱</w>
不 喜欢</w>
P H
8 4%</w>
青 岛</w>
诉 说</w>
而 过</w>
汇 丰</w>
柴 维尔</w>
有条 不紊</w>
收 复</w>
撒 下</w>
探 险
怀 抱</w>
尔 巴
大 麻
医疗 队</w>
医 保</w>
凌 虐</w>
FCCC/ K
维多 利亚
算 术</w>
现 年</w>
浮 游</w>
或 大</w>
布拉 柴维尔</w>
尘 器</w>
塞 雷
售 卖</w>
可 不是</w>
危 难</w>
凯 克</w>
兵 队</w>
两 国
不 用
不 正确</w>
2 30
阶 梯</w>
运输 科</w>
网 关</w>
粘 度</w>
病 床</w>
水 解</w>
氰 胺</w>
气 压</w>
插 图</w>
圣多 明
出 院</w>
出 处</w>
保守 派</w>
d er</w>
ak i</w>
8 1%</w>
3:00－ 6:00</w>
// www.un.org/
路 人</w>
船 运</w>
美 联社</w>
演 练</w>
女 性化</w>
伺 服</w>
二 恶
4 000万</w>
马库 锡</w>
转 速</w>
耳 机</w>
琳 达</w>
梳 理</w>
得 力</w>
属 下</w>
多 用途</w>
多 德</w>
和 谈</w>
制 药
制 导</w>
不 胜</w>
en e</w>
ang e</w>
T ur
背 心</w>
罗 列</w>
素 养</w>
狭 小</w>
清 查</w>
最 适</w>
接 吻</w>
挤 满</w>
拉 拉</w>
情 理</w>
恼 火</w>
性 爱</w>
徒 劳
压缩 机</w>
任 由</w>
亟 待</w>
上 部</w>
14 83</w>
11 6
１９ ９
邮 递</w>
贴 近</w>
海 图</w>
普遍 化</w>
开 着</w>
开 户</w>
射 频</w>
安德 鲁</w>
吉 斯</w>
双 臂</w>
克莱 斯勒</w>
信 箱</w>
in f
70 多</w>
4. 5%</w>
零 年</w>
阿布扎 比</w>
转 拨</w>
膳 宿</w>
税 制</w>
禁 闭</w>
木 工</w>
手 写</w>
将 会</w>
壁 炉</w>
击 退</w>
冲 浪</w>
乐 曲</w>
中 子</w>
丛 书</w>
· 莫
s t</w>
ou b
6 6/
马哈 茂
防 洪</w>
迟 疑</w>
躲 藏</w>
苏丹 国</w>
脸 颊</w>
等 我</w>
玩 弄</w>
梗 死</w>
查 证</w>
未 及</w>
有 种</w>
最 穷</w>
推 崇</w>
技 工</w>
打字 机</w>
总 算</w>
尽 其
ou t</w>
ik h</w>
5 57</w>
4 78</w>
27 号</w>
0. 5</w>
神 气</w>
氯 丁二烯</w>
於 是</w>
总 要</w>
得 体</w>
工 夫</w>
回 顾性</w>
博 士
剧 增</w>
先发 制人</w>
二恶 英</w>
中 尉</w>
不得 有</w>
Je an</w>
雇佣 兵</w>
阿里 斯蒂德</w>
防 线</w>
那 块</w>
自 如</w>
特 曼</w>
淡 淡</w>
梅 斯</w>
审 结</w>
塞尔 维亚人</w>
在此 之后</w>
圣 节</w>
圣 者</w>
售 后</w>
刺 激
一 步
ol e</w>
26 0
谐 波</w>
谋 取</w>
自 家</w>
美 林</w>
沃 尔</w>
汹 涌</w>
新 奇</w>
捐 给</w>
强 权</w>
好 久</w>
失 落</w>
听 懂</w>
刚 性</w>
允 诺</w>
不 定期</w>
b ur
C A</w>
阿 盟</w>
西 州</w>
第4 5/
画 廊</w>
曲 直</w>
惰 性</w>
商 号</w>
哈拉 雷</w>
受 难</w>
协 办</w>
众 议员</w>
上加 霜</w>
V i
E C/
48 9</w>
雪 上加霜</w>
附 庸</w>
电 容</w>
特 意</w>
更 低</w>
密 歇
宗 教
多 普勒</w>
外 伤</w>
喷 气
咖啡 因</w>
同 声</w>
反 倾销
准 确度</w>
于 人</w>
P O</w>
48 3</w>
降 级</w>
里 德</w>
苏 人解</w>
科学 部</w>
环 礁</w>
法 属</w>
市 政
制 法</w>
A BC</w>
4 59</w>
革命 性</w>
降 温</w>
联 结</w>
缺 勤</w>
细 化</w>
甜 点</w>
日 出</w>
捐 款额</w>
抗 菌</w>
执 委会</w>
巴 菲特</w>
对 法</w>
上 表</w>
er i</w>
M b
马萨 诸
转 折</w>
请 到</w>
访问 者</w>
真 话</w>
橄 榄</w>
植 根于</w>
垮 台</w>
囤 积</w>
内 含</w>
N et
I M</w>
4 72</w>
35 亿</w>
2008- 2012年</w>
言 词</w>
观察 者</w>
罗 尔</w>
私 生活</w>
监 狱
电离 层</w>
授 标</w>
庭 院</w>
左 侧</w>
商 法</w>
副 渔获物</w>
交 所</w>
不仅 如此</w>
A/61/ 5
1 ．
进 军</w>
置之不 理</w>
皮 质</w>
旧 的</w>
报告 书</w>
业 权</w>
Pro g.
IP BE
4 2
10 1.
阿 拉</w>
警 长</w>
藉 由</w>
纳 森</w>
精 良</w>
独 资</w>
松 弛</w>
抬 高</w>
套 装</w>
均 由</w>
代 人</w>
不 能够</w>
T S</w>
4 47</w>
20 :
食 宿</w>
酸 酯</w>
贩 运
脱 下</w>
禁 飞
看 病</w>
甚 高频</w>
比 值</w>
平 地</w>
出 手</w>
为 从</w>
不 了解</w>
一 生
ep h
An g
4 33</w>
高 龄</w>
重 创</w>
遮 盖</w>
星 级</w>
散 装</w>
放 行</w>
搬 家</w>
成 百
当 面</w>
居 家</w>
地 质
南 区</w>
保险 单</w>
伤 病</w>
了 吧</w>
45 0万</w>
4 53</w>
198 4</w>
18 亿</w>
适 中</w>
路 过</w>
莱 曼</w>
爱 他</w>
汽 车
格 尔·
机 智</w>
新陈 代谢</w>
戈 ·
年 增长率</w>
天 鹅</w>
响 声</w>
哈 希
副 词</w>
l ic
N ew
49 9</w>
4 54</w>
19 :
鬼 魂</w>
该 段</w>
自 始至终</w>
管理 权</w>
清晰 度</w>
梯 子</w>
曼 ·
更 名</w>
操 场</w>
巫 师</w>
孤 独
多 糖</w>
块 儿</w>
为 名</w>
上 世纪</w>
4 :30</w>
4 69</w>
4 58</w>
1/ 3</w>
鳄 鱼</w>
高 雅</w>
超 时</w>
行政 官</w>
耐 力</w>
纯 净</w>
粉 丝</w>
筷 子</w>
福 于</w>
田 径</w>
烧 结</w>
搬 进</w>
带 去</w>
希 奇</w>
女 婴</w>
在 地</w>
回 旋</w>
出 入
俄罗斯 人</w>
亲 善</w>
下 发</w>
er d
ab i</w>
8 8%</w>
2 1:
记 者
衡 算</w>
维 他
第34/ 401</w>
物 项</w>
火 柴</w>
激 光器</w>
流 水</w>
几 年</w>
传 入</w>
中 立性</w>
不可 行</w>
a o</w>
G O
能 把</w>
联合 国军</w>
水 箱</w>
步 调</w>
林 丹</w>
权 势</w>
急 救
并 论</w>
女 郎</w>
吉 米</w>
卢 布</w>
公 道</w>
万 圣节</w>
im e</w>
200 2－
200 1/2
13 ％</w>
12 ％</w>
/200 5</w>
随 行</w>
随 地</w>
跨 文化</w>
海 绵</w>
活 期</w>
景 区</w>
放 贷</w>
尽 最大</w>
各 级</w>
古 董</w>
八 十年代</w>
u h
UNEP/FAO/R C/CO
40 多</w>
零 散</w>
阿 美</w>
阿 扎
荷 属</w>
瓷 器</w>
比什 凯克</w>
异 步</w>
在 逃</w>
博 爱</w>
使 最</w>
上 岸</w>
a in
铸 铁</w>
萨科 齐</w>
腔 镜</w>
股 息</w>
特 异性</w>
波 尔</w>
替代 物</w>
寄 生</w>
大吃 一惊</w>
在 发言</w>
君 王</w>
另 有</w>
便 衣</w>
N ik
4 43</w>
10 多</w>
随 信</w>
陈 列</w>
袖 手
睡 得</w>
电 解</w>
波 形</w>
油 污</w>
期 终</w>
师 傅</w>
大 得</w>
基 准
右 侧</w>
出口 额</w>
冲 进</w>
保 温</w>
t e</w>
B BC</w>
骇 人听闻</w>
闹 钟</w>
贫 铀</w>
论 处</w>
稳 态</w>
福 克</w>
硫 磷</w>
毒 剂</w>
橙 色</w>
朱 利
掏 出</w>
居住 者</w>
国 为</w>
供 餐</w>
传 译</w>
仰 望</w>
不 在乎</w>
os s
le t</w>
Res .
B i
A w
A ri
35 000</w>
15 万</w>
飞 跃</w>
长 着</w>
请 教</w>
职 系</w>
缓 缓</w>
绑 架
第 99</w>
片 机</w>
比 拟</w>
未 就</w>
普 里</w>
技术 科</w>
大 堂</w>
因 被</w>
修 课</w>
不 上</w>
o p</w>
4 66</w>
2001- 2010年</w>
连 续不断</w>
药 店</w>
紧 随</w>
浓 郁</w>
活 儿</w>
本 部</w>
无 所谓</w>
恶 作
心 上</w>
库存 品</w>
守 护</w>
势 在
内 科</w>
供 职</w>
交换 所</w>
与此 相关</w>
A WG
4 19</w>
2006- 2009年</w>
12 7
间 歇</w>
铁 矿</w>
赔 额</w>
质 地</w>
要 对</w>
而 受</w>
维 察</w>
社 论</w>
犯 错误</w>
灵 顿</w>
橄榄 球</w>
核 素</w>
服务 社</w>
成 功率</w>
开 往</w>
市场 化</w>
实 绩</w>
声 响</w>
善 待</w>
咀 嚼</w>
呋 喃</w>
叫 作</w>
am e</w>
af f
H y
4 57</w>
青 年
酒 类</w>
踢 球</w>
经济 性</w>
禁 止
满 足于</w>
新闻 社</w>
务 省</w>
冉 阿让</w>
以 解决</w>
三 百
in c
B R
2. 0
馅 饼</w>
湖 南</w>
断 力</w>
播 放
山 丘</w>
参 照
加 工业</w>
先 天</w>
传 教士</w>
交 回</w>
er al</w>
80 亿</w>
领 会</w>
跌 至</w>
禁飞 区</w>
着 火</w>
杂货 店</w>
摇 篮</w>
成 文</w>
尼克 松</w>
安全 权</w>
女 们</w>
基 斯马
依 附</w>
人权 部</w>
不 由
不 同
6. 6</w>
49 1</w>
4 22</w>
3 600</w>
, 000多</w>
麻 痹</w>
雪 花</w>
闭 症</w>
袖手 旁观</w>
考察 团</w>
紧 迫感</w>
然 无
泛 亚</w>
氯 乙烯</w>
忙 忙</w>
弗吉 尼亚</w>
帐 号</w>
市 价</w>
好 意</w>
天主 教徒</w>
南 克</w>
准 将</w>
传 言</w>
亿 多</w>
m e
id i</w>
A/61/ L.
4 34</w>
1, 7
马 蒂
音 调</w>
路 德</w>
衰 弱</w>
芬 芳</w>
耶 利
瓦 利
永 不</w>
拿 去</w>
场 馆</w>
另 类</w>
光 碟</w>
体 法</w>
代 言
and er</w>
4 39</w>
4 23</w>
35 ％</w>
17 亿</w>
西 省</w>
蝙 蝠</w>
莫 尔</w>
物 中</w>
爬 到</w>
斯 雷
教育 网</w>
导 言
危 害性</w>
人 行</w>
些 许</w>
主 们</w>
í a</w>
Mart in</w>
Am er
48 4</w>
4 35</w>
15 0000</w>
鹦 鹉</w>
造 福于</w>
薪 级</w>
脚 踏
科 室</w>
热 潮</w>
火 炉</w>
渲 染</w>
新 高</w>
损 益</w>
展 览
势在 必行</w>
U B</w>
S W
赎 罪</w>
责任 心</w>
笨 蛋</w>
矿 藏</w>
电 击</w>
献 出</w>
河 内</w>
欺 负</w>
时 事</w>
强 暴</w>
奖 章</w>
哈 桑</w>
何 方</w>
不 朽</w>
9 4%</w>
4 37</w>
黯 淡</w>
间 或</w>
王 星</w>
清 白</w>
梦 境</w>
放 过</w>
抵 挡</w>
扎 根</w>
恶作 剧</w>
常 态</w>
哺乳 期</w>
各 部门</w>
冒 出</w>
克里 斯
作 案</w>
二零零 五年</w>
两国 间</w>
三十 一日</w>
a f</w>
M ic
L im
12 月份</w>
鲜 血</w>
考 评</w>
统 法</w>
生 境
来 时</w>
无所 作为</w>
无 酬</w>
报 关</w>
开 到</w>
哈 特</w>
努 尔</w>
作曲 家</w>
D E</w>
4 46</w>
4 200</w>
软 骨</w>
跨 度</w>
薯 条</w>
药 房</w>
病 菌</w>
法 拉
武 器
定 单</w>
喊 叫</w>
原 发性</w>
勇 于</w>
儿 们</w>
储 藏
乘 车</w>
万 事
R ah
N BA</w>
/200 6</w>
那 张</w>
避孕 药</w>
迁 到</w>
责 怪</w>
藉 以</w>
脱 钩</w>
终 究</w>
盗 用</w>
盖 子</w>
照 明
演 绎</w>
沾 染</w>
形 色
形 形色
巴 尼</w>
修 好</w>
低 调</w>
也 可</w>
不 允许</w>
G ab
1998- 2001年</w>
饭 馆</w>
腐 败
第63/2 50</w>
教 条</w>
掩 埋</w>
必 将</w>
哈姆 雷特</w>
只 占</w>
项 和</w>
迁 出</w>
跑 了</w>
语 调</w>
自 闭症</w>
看 了</w>
环 经</w>
格拉 尔</w>
放 任</w>
打 上</w>
应 享</w>
完 成
大 阪</w>
备 好</w>
回 路</w>
响 了</w>
参赛 者</w>
傀 儡</w>
使 更</w>
以 利亚</w>
不 透明</w>
· 斯
S/AC.26/ Dec.
DL DD</w>
A/C.2/6 7/L.
4 48</w>
3 月份</w>
马哈茂 德</w>
银 色</w>
远 洋</w>
爬 行</w>
有 限
扔 在</w>
市 建局</w>
堵 住</w>
博 会</w>
公 事</w>
供 述</w>
专门 化</w>
不 胜
J al
6 61</w>
2007- 2009年</w>
10 2.
饿 死</w>
阿克 萨</w>
观察 家</w>
皮 埃尔</w>
弗拉 基
发展 观</w>
双 轨</w>
印 花</w>
全 能</w>
企 鹅</w>
以 示</w>
E B.
3. 8</w>
2004- 2006年</w>
14 9
顾 者</w>
非 要</w>
行 不通</w>
者 是</w>
第58/ 316</w>
焕 发</w>
演 唱
斯 市</w>
投 标书</w>
小 镇</w>
安 然</w>
坐 到</w>
号 令</w>
克鲁 斯</w>
k s</w>
K or
50 4</w>
4 44</w>
领 到</w>
用 金</w>
气 泡</w>
族 长</w>
敲 诈</w>
接 任</w>
排 外</w>
当 期</w>
二零零 七年</w>
不 履行</w>
不 准确</w>
In f
H ay
5 00亿</w>
3 5年</w>
紫 外</w>
方 向
径 庭</w>
居住 权</w>
塑 胶</w>
共 性</w>
修 筑</w>
伊 朗
伊 德</w>
ht ml</w>
S ul
C. 3/
B ay
4 49</w>
13 8
龙 卷
龙卷 风</w>
通讯 员</w>
运 业</w>
解 密</w>
等 你</w>
第46/ 182</w>
相 径庭</w>
电 场</w>
消 减</w>
浸 泡</w>
水 电站</w>
无 异议</w>
惊 吓</w>
尚 早</w>
大 相径庭</w>
位 於</w>
优 惠
代 词</w>
O p
Mar c
E/ ESCA
CTO C/CO
50 8</w>
高 产</w>
阵 容</w>
金 斯敦</w>
谈判 桌</w>
西 岛</w>
表 内</w>
股 和</w>
立法 权</w>
由此 可见</w>
由 来</w>
消 退</w>
时 不</w>
房 门</w>
忏 悔</w>
史蒂 夫</w>
公开 性</w>
伊 夫</w>
二零零 三年</w>
4 29</w>
29 号</w>
1 ，
钢 材</w>
菌 株</w>
简 略</w>
竭 尽
福 克斯</w>
瑞 德</w>
玛 雅</w>
木 质</w>
曲 子</w>
拆 解</w>
巴 拉</w>
口 供</w>
为时 尚早</w>
Wor l
I d
E 节</w>
11 5.
随 附</w>
达 不到</w>
纳 西</w>
男 人们</w>
沃 尼亚</w>
来 宾</w>
收 效</w>
撞 上</w>
推 算</w>
引 向</w>
保 安
A/5 4/2
4 5-
那 双</w>
蒸 馏</w>
红 海</w>
福 岛</w>
男 爵</w>
洗衣 机</w>
无 名</w>
截 肢</w>
成 熟
可 憎</w>
切 入</w>
v e
M ul
A/C.5/ 60</w>
49 5</w>
201 1号</w>
联 莫</w>
老 公</w>
深 重</w>
楼 花</w>
有 钱
普 世</w>
承 诺
圣多明 各</w>
哪 一</w>
使 劲</w>
书 桌</w>
不容 置疑</w>
P P</w>
4 ,000</w>
3 300</w>
11 :00</w>
起 动</w>
调 味
船 主</w>
登 入</w>
现 货</w>
照 耀</w>
涨 价</w>
水 龙头</w>
氧化 剂</w>
序 列
少 许</w>
寄 出</w>
宽 广</w>
孔 子</w>
场 上</w>
即 从</w>
化 验
凯 蒂</w>
二○○ 八年</w>
一 模
一 个
el le</w>
Ant on
2007/08 年度</w>
马丁 ·
躯 体</w>
课 上</w>
莱 州</w>
相 提
相提 并论</w>
理 睬</w>
淹 死</w>
波 尔
法 医学</w>
敬 业</w>
在 任</w>
危险 品</w>
内 疚</w>
代表 制</w>
代 尔</w>
s -
o a</w>
Not es</w>
AI G</w>
5 13</w>
13 -
茨 欣
水 区</w>
模 拟
最小 化</w>
惠 普</w>
归 结</w>
囚 室</w>
听 他</w>
加丹 加</w>
前 门</w>
仅 供</w>
二零零 一年</w>
s i</w>
E/CN.4/ 1996</w>
马 萨</w>
防 腐
避 税</w>
起 作用</w>
紧 缺</w>
礼 拜
猛 增</w>
沃尔 玛</w>
时 时</w>
强 的</w>
哈 哈</w>
卡 通</w>
北 海</w>
列 祖</w>
出 动</w>
代言 人</w>
亚 州</w>
专 递</w>
m ent
il i</w>
麻 木</w>
自 首</w>
白 白</w>
王 位</w>
母 牛</w>
投资 额</w>
养 院</w>
从 新</w>
仅 占</w>
云 层</w>
18 000</w>
要 到</w>
窃 取</w>
电 磁
献 者</w>
毗 连</w>
更 远</w>
地 热</w>
反 之
判 给</w>
减 到</w>
代 下</w>
产 业化</w>
不 顾
不 发达</w>
一模 一样</w>
T om
J an
19 60</w>
& #
输 血</w>
跌 幅</w>
编 印</w>
用 例</w>
现 将</w>
支持 率</w>
心 病</w>
外 援</w>
卡 梅
兄弟 会</w>
供 货
举 手</w>
万 国</w>
M D
A/C.3/6 6/L.
49 6</w>
4 42</w>
车 型</w>
踊 跃</w>
第55/ 2</w>
离 乡</w>
示范 法</w>
深 圳
无 辜
旅 店</w>
巴 托</w>
塞 进</w>
写 到</w>
佣 人</w>
临 时
业务 费</w>
and o</w>
28 -
2007- 2010年</w>
顺 畅</w>
走 走</w>
货 柜</w>
胜 出</w>
聚 氨
耀 眼</w>
电 量</w>
民 航
安 心</w>
孩 童</w>
夺 回</w>
图 西
再 婚</w>
主人 翁</w>
49 4</w>
3 5-
10 7
1 12.
边 防
讲 课</w>
留 待</w>
毛 发</w>
期 前</w>
射 杀</w>
发射 场</w>
东 海</w>
z i</w>
L 1</w>
题 的</w>
请 见</w>
蘑 菇</w>
自治 权</w>
站 着</w>
直截 了当</w>
机 率</w>
整 形</w>
支 用</w>
打 包</w>
安 息</w>
受 惠国</w>
停 电</w>
侍 者</w>
中 西</w>
F O
COP. 8</w>
5 1/200
述 性</w>
输 电</w>
调查 科</w>
答辩 权</w>
矿 者</w>
收 看</w>
弗朗 西斯</w>
尔 曼</w>
小 山</w>
反倾销 税</w>
印 巴</w>
制造 者</w>
供应 者</w>
二○○ 七年</w>
L. 3</w>
G old
9. 3</w>
2. 3
2 23
贫 瘠</w>
花 样</w>
聆 讯</w>
维 克</w>
穿 戴</w>
积 雪</w>
电 讯
点 缀</w>
杰 作</w>
悲 剧性</w>
小 丑</w>
古 希腊</w>
卵 巢</w>
体 地</w>
上 型</w>
en /
H ad
马 恩岛</w>
非 全日制</w>
集 思</w>
运输 业</w>
运 用于</w>
货 船</w>
罗马 人</w>
罐 子</w>
特 制</w>
照 顾者</w>
格 迪
晚 于</w>
日 封</w>
收 发</w>
摔 倒</w>
战 者</w>
感 化</w>
切 片</w>
分 形</w>
人 都</w>
不 清楚</w>
el op
T s
S H
4 27</w>
3 8/
200 亿</w>
, 500</w>
阿卜杜 勒·
蜗 牛</w>
英 美</w>
扫描 仪</w>
情 书</w>
威 奇</w>
基 底</w>
二零零 八年</w>
一 心</w>
aw i</w>
1, 8
非 利
非 会员国</w>
集 市</w>
跻 身</w>
老 兄</w>
理 顺</w>
杜 尚
早 年</w>
应 承担</w>
大 连</w>
四 川
含 铅</w>
变 动
减 退</w>
况 且</w>
公 积金</w>
伦 萨</w>
会 堂</w>
M BA</w>
J ul
Add. 7</w>
19 0万</w>
首 日封</w>
英 汉</w>
皮 埃尔·
瓦 希
毕业 于</w>
晚 年</w>
打 折</w>
战 队</w>
底 特
官 邸</w>
卸 载</w>
印 证</w>
募 捐</w>
上 看</w>
s o</w>
al es</w>
UNEP/FAO/RC/CO P.
C am
骨 架</w>
闲 暇</w>
链 条</w>
达 致</w>
精 选</w>
签字 国</w>
磷 酸</w>
登 山</w>
犯 者</w>
死 神</w>
楼 层</w>
查 处</w>
未 加</w>
执 着</w>
心 想</w>
心 事</w>
干 杯</w>
寄 送</w>
大 屠杀</w>
光 栅</w>
仲裁 法</w>
乡 间</w>
主 修</w>
r on</w>
COP. 9</w>
A/62/ L.
25 0000</w>
黎巴嫩 人</w>
非 农</w>
雅 克</w>
鉴 定
虚 拟
茨欣 瓦利</w>
稍 稍</w>
朝 鲜
报 应</w>
打 的</w>
手 工业</w>
惊 叹</w>
总务 科</w>
头 晕</w>
哭 了</w>
反之 亦然</w>
交通 部</w>
一 成
se in</w>
k i</w>
T ri
G R
A U
8 9%</w>
6 500</w>
4 71</w>
201 1/2
越 好</w>
走 私
视 像</w>
莫 里
花 瓣</w>
终 点
笨 拙</w>
海 地人</w>
惊 慌</w>
大 地震</w>
供 认</w>
y s
t hat</w>
K u
H er
8. 4</w>
17 8
高 官</w>
跳 到</w>
路 由
诉 权</w>
菜 肴</w>
网 点</w>
检查 官</w>
本 局</w>
普林 斯顿</w>
方 能</w>
忘 却</w>
就 近</w>
官僚 主义</w>
写 信
俚 语</w>
便 士</w>
二十 七</w>
不 具备</w>
Ch ina</w>
马 约
那 辆</w>
适 宜
貌 似</w>
聚氨 酯</w>
棍 子</w>
收 留</w>
心 愿</w>
屈 从</w>
尚 存</w>
女 巫</w>
外 逃</w>
唆 使</w>
会 籍</w>
UNEP/CH W.
Gonz á
C E</w>
3 2-
/ 1</w>
馆 长</w>
纳 德·
电 池
核 大国</w>
无核 区</w>
执行 长</w>
导言 .1-
大 赦
即 期</w>
卫 兵</w>
单 片机</w>
24 0万</w>
违 例</w>
表 皮</w>
米 奇</w>
第 41</w>
甘 地</w>
温 泉</w>
海 关
梦 见</w>
最 先</w>
无辜 者</w>
文 娱</w>
对 接</w>
失 事</w>
外 边</w>
向 型</w>
医 用</w>
剥 离</w>
兰 州</w>
停 机
乌 鸦</w>
乌 兰
v ar
C S</w>
C /CR
2. 4
谦 逊</w>
获 发</w>
网 民</w>
纸 板</w>
看 守
理 科</w>
沸 腾</w>
正 经</w>
桑 托斯</w>
有 害于</w>
文 体</w>
摩 天</w>
开 垦</w>
回 馈</w>
台 词</w>
供 作</w>
严 惩</w>
上 半
ul a</w>
of f
ak e</w>
Sm ith</w>
24 :
防 范性</w>
进 城</w>
脚 趾</w>
相 配</w>
电 容器</w>
甚 为</w>
握 住</w>
所 欲</w>
戴维 ·
开 朗</w>
平 淡</w>
实 实</w>
圣诞 树</w>
仰 光</w>
丰 硕</w>
R iv
6 5/2
雪 莉</w>
较 之</w>
谈 了</w>
突 然间</w>
相 撞</w>
现 职</w>
没 什么</w>
殷 勤</w>
有 道理</w>
效 劳</w>
持 械</w>
声 器</w>
喷 发</w>
刀 子</w>
全 过程</w>
C .</w>
龄 人</w>
难 看</w>
阿 尔</w>
迁 入</w>
趋 向于</w>
腾 格拉尔</w>
生境 二</w>
消 失了</w>
浮 标</w>
新 军</w>
托 付</w>
但 当</w>
代 代</w>
丢 了</w>
St an
M it
Ab b
A/CN. 10</w>
非 盈利</w>
阴 极</w>
腐 蚀性</w>
罢 免</w>
第一百 一
监 理</w>
电话 线</w>
涂 上</w>
洗 劫</w>
污 秽</w>
杜尚 别</w>
有 失</w>
无 与
年 金</w>
好 笑</w>
国民 党</w>
单 张</w>
升 降
关 进</w>
克 福</w>
休 克</w>
书 亚</w>
乔 丹</w>
不 接受</w>
ha r</w>
K on
F ern
CP. 16</w>
镶 嵌</w>
迷 于</w>
路由 器</w>
走 着</w>
胶 片</w>
纪 事</w>
管 家</w>
画 的</w>
电 位</w>
朗 读</w>
无与 伦比</w>
斯 大
忧 愁</w>
录 音机</w>
引渡 法</w>
安 顿</w>
奥 马尔·
失 职</w>
制造 厂</w>
Mar ia</w>
11 4.
驻 守</w>
香 草</w>
透 视</w>
退 职</w>
瓦 ·
爵 士
有 余</w>
早 早</w>
救 命</w>
扔 进</w>
币 值</w>
屯 门</w>
头 目</w>
大 主教</w>
坠 落</w>
上 而下</w>
LA U</w>
Gonzá lez</w>
A/C.2/5 4/L.
5 30</w>
鲑 鱼</w>
锋 利</w>
贴 身</w>
贝 格</w>
诸 于</w>
请 勿</w>
西班牙 人</w>
第 10
盖 上</w>
梵 蒂
方法 论</w>
指 导性</w>
拨 打</w>
扩 增</w>
凯 文</w>
于 事</w>
不得 将</w>
et h
6 3/2
龙 虾</w>
部 下</w>
选 修</w>
视 网膜</w>
荒 野</w>
纪 元</w>
电 工</w>
法兰 克福</w>
明尼 苏
政策 部</w>
拖 累</w>
打 球</w>
宿 主</w>
女 方</w>
刻 不容
刻不容 缓</w>
4 79</w>
4 74</w>
198 5</w>
闪 亮</w>
部 会</w>
西 印度</w>
萨 拉</w>
罗 宾
生 下</w>
探 亲</w>
批 次</w>
意大 利人</w>
动 量</w>
上 路</w>
七 八
A/C.3/6 7/L.
8 64</w>
高 兴
雪 橇</w>
转 换成</w>
诚 布
色 泽</w>
缝 纫</w>
第 97</w>
第 16
穆 沙拉夫</w>
相 距</w>
江 苏</w>
拉 罗
开 诚布
应聘 者</w>
在 行</w>
哥 们</w>
咆 哮</w>
出口 品</w>
出 乎
减 压</w>
代 为</w>
不 良
Lu is</w>
7 15</w>
48 2</w>
4 21</w>
1. 2
轻 松
米 格尔·
救 生</w>
复 燃</w>
咸 海</w>
切 成</w>
俄亥 俄
他 所</w>
不 合格</w>
st at
M uk
L o
ISB A/
4 52</w>
钻 孔</w>
贝 尼
补 足</w>
落 空</w>
特 斯</w>
时间 段</w>
投 射</w>
幼 虫</w>
工 人
巡 航</w>
对 该</w>
基 期</w>
利 地</w>
低 头</w>
低 压</w>
优 选</w>
两 分钟</w>
h an</w>
8 月份</w>
6 40</w>
3 700</w>
1, 500</w>
葡萄 园</w>
独 角
档案 馆</w>
基 尔
古 兰经</w>
做 工</w>
事 业
UNCTA D/
9 11</w>
5 年度</w>
， 000</w>
赞 誉</w>
财务 司</w>
说明 性</w>
触 动</w>
衣 裙</w>
背 负</w>
羽 毛
第 RC-
盐 水</w>
痉 挛</w>
混 为
测 井</w>
巡逻 艇</w>
居 者</w>
安 居</w>
多年 以来</w>
填 满</w>
吉尔吉斯 斯坦
冰 雪</w>
et a</w>
e ch
48 1</w>
197 7</w>
萌 芽</w>
联 塞建</w>
烟 气</w>
更 早</w>
时 或</w>
对 阵</w>
克 利</w>
不 一样</w>
r es
1. 5亿</w>
解 冻</w>
渴 求</w>
斯拉 沃尼亚</w>
很 晚</w>
娴 熟</w>
多 得多</w>
可 见度</w>
内 皮</w>
使 对</w>
传 热</w>
件 数</w>
事 无
中 核</w>
1 1000</w>
集 权</w>
阵 子</w>
金 库</w>
道 夫</w>
诽 谤
脱 掉</w>
第3 5/
热 诚</w>
源 源
治 国</w>
欢 笑</w>
未 收</w>
挥 舞</w>
所 做</w>
应 答</w>
同 龄人</w>
卡斯特 罗</w>
卡 西
公 款</w>
丙 烯
不 愿</w>
O n
E/ 199
跋 涉</w>
维 夫</w>
牧 人</w>
焦 急</w>
梅德 韦</w>
木 柴</w>
探 索
指 在</w>
心 存</w>
小 说家</w>
实 惠</w>
头 寸</w>
多 谢</w>
嗅 觉</w>
同 义词</w>
取 水</w>
凡 事</w>
光 合</w>
伊朗 人</w>
O P
I l
4 55</w>
4 0-
轴 心</w>
粒 度</w>
特 惠</w>
爱 丁堡</w>
水 文学</w>
放 火</w>
恩 赐</w>
就 会</w>
套 管</w>
大会 党</w>
四十 五</w>
响 亮</w>
加拉 加斯</w>
判 断力</w>
九 十</w>
不 妥</w>
上 作</w>
9 '</w>
食 物
钟 声</w>
试 卷</w>
评 析</w>
要 去</w>
箭 头</w>
相 符合</w>
深 陷</w>
洗手 间</w>
检 举</w>
核 能力</w>
径 向</w>
干 得</w>
安东 尼奥</w>
填 海</w>
农 民们</w>
亚 斯</w>
4 24</w>
10 00
马 桶</w>
雅 各
薪 给</w>
自 尊
清 澈</w>
恩 典</w>
巨 星</w>
小 幅</w>
地 震
传 记</w>
class 9'</w>
27 0万</w>
预算 额</w>
轰 动</w>
维他 命</w>
点 数</w>
混为 一谈</w>
斯大 林</w>
教学 法</w>
排 他
挥 发性</w>
性 好</w>
得 好</w>
大 城市</w>
合 算</w>
劳 拉</w>
内 需</w>
a w</w>
成 就
开 拓
叫 醒</w>
刺 杀</w>
健 壮</w>
亮 相</w>
il d
W P</w>
R P
P F
C. 2/
59 1</w>
2 C</w>
10 9
自卫 权</w>
罗德里 格斯</w>
结构 图</w>
指 头</w>
压 在</w>
内 障</w>
五 角
ag a</w>
4 5/2
24 亿</w>
阵 阵</w>
造 价</w>
透 镜</w>
身 于</w>
蓝 天</w>
红 外线</w>
类 比</w>
溶 胶</w>
望 去</w>
提 纲</w>
抚 摸</w>
怎么 说</w>
心 肠</w>
好 于</w>
均 有</w>
可 查</w>
反 垄断</w>
ays h</w>
FCCC/C P/
7 9%</w>
5 11</w>
13 1.
风 扇</w>
请 来</w>
记 述</w>
荣 获</w>
草 图</w>
联邦 制</w>
站 的</w>
皈 依</w>
新 老</w>
意 象</w>
心 声</w>
尽 其</w>
宝 藏</w>
大 好</w>
击 落</w>
僧 侣</w>
下 了</w>
et t</w>
er -
Y ou</w>
A h
4 67</w>
马 特</w>
还 能</w>
该 法第</w>
获 选</w>
留 着</w>
文 稿</w>
承 付款</w>
哈 马</w>
军 区</w>
之 三</w>
不 使</w>
u f</w>
os h
int /
d el</w>
W e</w>
Mon t
5 37</w>
过 热</w>
绝 地</w>
祸 首</w>
监察 局</w>
橱 窗</w>
来 使</w>
有 所
工程 科</w>
奶 制品</w>
南桑 威奇</w>
副 局长</w>
出入 证</w>
传 真
亟 须</w>
re p
in k
ep h</w>
XX X
Thom as</w>
Moh ammad</w>
E/CN. 6/200
D C-
预 应力</w>
虫 子</w>
第 73</w>
涡 轮</w>
惋 惜</w>
四川 省</w>
喝 水</w>
内 蒙古</w>
使 受</w>
亨 利·
j e</w>
ad er</w>
S us
S Q
5 32</w>
200 9/2
12 8
资本 化</w>
质 问</w>
质 子</w>
衰 期</w>
第 72</w>
洞 察
残 杀</w>
接 过</w>
投 行</w>
房 主</w>
共 生</w>
ber t</w>
as c
M I</w>
A/C.3/5 9/L.
A/ ES-
70 1</w>
风 吹</w>
读 物</w>
视 乎</w>
莫 罗</w>
消费 国</w>
有限 元</w>
干 掉</w>
合 器</w>
关 贸</w>
从 头</w>
亲 子</w>
交 配</w>
5 12</w>
26 0万</w>
辩护 权</w>
载 运</w>
玉 米
犯 规</w>
民 调</w>
排他 性</w>
批 判
强 健</w>
底特 律</w>
宪 兵队</w>
好 客</w>
回 购</w>
回 籍</w>
凝 结</w>
H um
A N</w>
0. 2%</w>
顿 时</w>
阻 尼</w>
郊 外</w>
邮 资</w>
连 线</w>
腹 腔镜</w>
第 22
电 图</w>
燃 煤</w>
没 完
没完 没了</w>
汉 堡
有 朝
有 时限</w>
搏 斗</w>
将 是</w>
地 政局</w>
在 给</w>
嗓 音</w>
北 角</w>
光 顾</w>
伤 疤</w>
下 院</w>
e b</w>
P C/
DP/FP A</w>
A/C.2/6 1/L.
9 1%</w>
7 00
4 68</w>
2001- 2002年</w>
2. 6
起 居室</w>
荃 湾</w>
私 家
法律 系</w>
法 兰</w>
来 得
曙 光</w>
明 证</w>
异 地</w>
布雷 尼察</w>
孔 隙</w>
塞 州</w>
基督 山</w>
受 精</w>
倒 入</w>
不及 待</w>
IP O</w>
26 亿</w>
15 8
12 1.
顿 ·
遍 地</w>
近 视</w>
超 人</w>
藻 类</w>
研究 者们</w>
极 权</w>
有 兴趣</w>
斯 利</w>
托 盘</w>
惨 遭</w>
恐 惧
巡 视</w>
安 迪</w>
头 来</w>
大 蒜</w>
卡 洛
动 不动</w>
剧 作家</w>
俄亥俄 州</w>
ou d
e en</w>
SA P</w>
E s
4 76</w>
阿 贝
费 尔</w>
训练 营</w>
行 动
绿 茶</w>
离心 机</w>
洞察 力</w>
最大 限度</w>
得 救</w>
异 化</w>
完 了</w>
单 人</w>
凯 利</w>
凭 着</w>
佛罗 伦萨</w>
交易 法</w>
一生 中</w>
7. 5%</w>
4 31</w>
12 9.
0. 00
露 营</w>
链 路</w>
贮 藏</w>
裁 处</w>
街 市</w>
电 传</w>
浙 江省</w>
来 过</w>
患 难</w>
增 生</w>
变动 表</w>
受 访</w>
劳工 处</w>
停机 坪</w>
2009- 2011年</w>
18 88</w>
递 减</w>
车 身</w>
给 了</w>
细 细</w>
的 呢</w>
生 生</w>
援助 者</w>
推 介</w>
承 接</w>
库 拉
和 易</w>
呼 应</w>
启 迪</w>
各 派</w>
g l
5 :00</w>
2011- 2013年</w>
阴 茎</w>
费 城</w>
观察 国</w>
花 岗
船 东</w>
水 陆</w>
成 衣</w>
引 人</w>
布瓦 凯</w>
埃 斯
咨询 人</w>
冰 冻</w>
亚 瑟</w>
V er
N t
Jos eph</w>
70 6</w>
随 同</w>
防腐 剂</w>
问 询</w>
缅 怀</w>
结 账</w>
热 液</w>
求 偿</w>
旨 意</w>
开 学</w>
市 面</w>
对 流</w>
好 啦</w>
国 语</w>
前 台</w>
储 金</w>
不得 以</w>
c t
Gl ob
除 以</w>
足 联</w>
皮 特</w>
玛 伊</w>
江 河</w>
殆 尽</w>
拜 多
律 师
威廉 ·
各 区</w>
变 态</w>
乌兰 巴托</w>
不 渝</w>
ic s</w>
CP. 17</w>
49 3</w>
4 61</w>
高 能</w>
统 称</w>
秋 节</w>
甚 远</w>
环保 局</w>
流 放</w>
柴 油机</w>
无 薪</w>
援 救</w>
实 体法</w>
增 产</w>
劳 作</w>
再 分配</w>
仅 在</w>
交易 者</w>
与此 有关</w>
ot o</w>
U S</w>
14 7
香 港
附加 费</w>
铁 丝网</w>
迫 不及待</w>
质 炎</w>
计 有</w>
自 信心</w>
脑 膜炎</w>
经 第</w>
稍 等</w>
班 车</w>
概念 性</w>
屋 宇</w>
富兰 克林</w>
子 系统</w>
填 埋</w>
和 我</w>
吉普 赛</w>
军 装</w>
亲 手</w>
三十 五</w>
W eb
Bro w
A/C.3/6 5/L.
9 17</w>
4 63</w>
脱 硫</w>
特拉 维夫</w>
比 作</w>
无核 化</w>
无所 事事</w>
斥 责</w>
放 纵</w>
布莱 恩</w>
密 尔顿</w>
8. 5</w>
190 7</w>
1. 9</w>
麻 风
韦 尔</w>
陆 战队</w>
金 砖</w>
遇 有</w>
而 于</w>
来 做</w>
探 照灯</w>
广 益</w>
场 外</w>
和平 区</w>
发 回</w>
剖 面</w>
刻 苦</w>
切 口</w>
儒 家</w>
之 力</w>
下 雪</w>
一 团
wit ter</w>
6 0-
17 :
17 0.
领 头</w>
质 性</w>
视 窗</w>
要 害</w>
行 将</w>
营 房</w>
绕 着</w>
睡 衣</w>
栖 息</w>
月 经</w>
应 激</w>
岩 体</w>
小 康</w>
安德 森</w>
地 势</w>
便 将</w>
之 家</w>
En erg
E/200 7/
A/C.2/5 9/L.
A/66/ 6
8 5％</w>
5 29</w>
迷 宫</w>
脊 柱</w>
美 援署</w>
纳 布卢
用 期</w>
生 日
流 程
治 安
桑 给
成 群</w>
形形色 色</w>
市政 厅</w>
尽 最</w>
妇 产科</w>
勤 劳</w>
一九九 九年</w>
7. 6</w>
5 45</w>
2/ 3</w>
额 头</w>
谢 里夫</w>
绿 洲</w>
等 式</w>
第一百零 一</w>
私家 车</w>
清 关</w>
摄像 头</w>
成 真</w>
得 票</w>
工 事</w>
地 化</w>
前 列
佐 夫</w>
低 得</w>
伟 人</w>
乳 液</w>
食物 链</w>
钻 进</w>
配 送</w>
配 器</w>
邻 里</w>
豆 腐</w>
要 从</w>
补 习</w>
疲 弱</w>
滑 冰</w>
涵 义</w>
植 株</w>
极 管</w>
有朝 一日</w>
无 异于</w>
招 牌</w>
手 掌</w>
屋 宇
小 汽车</w>
导 线</w>
导 电</w>
好 感</w>
含 意</w>
向 这</w>
侵 略性</w>
S- 29
Rum aysh</w>
8 0000</w>
/ 5</w>
香 肠</w>
顶 上</w>
集 体地</w>
选 址</w>
评 核</w>
胸 前</w>
继承 法</w>
结 识</w>
琐 事</w>
熔 化</w>
消 磨</w>
格 罗
树 种</w>
架 设</w>
摩 苏尔</w>
摘 自</w>
推 开</w>
喜 乐</w>
善 用</w>
单 程</w>
减 价</w>
乳 腺</w>
f i
V ict
Te ch
4 64</w>
4 62</w>
3 1/
/ Q/
酰 氟</w>
遮 住</w>
连 在</w>
达 利</w>
自由 度</w>
瓦 特</w>
潜 入</w>
栏 杆</w>
智 障</w>
抛 开</w>
所 言</w>
意 性</w>
急 迫</w>
划 出</w>
书 状</w>
与会 国</w>
上海 市</w>
au t</w>
D e</w>
配 电</w>
遇 难者</w>
编 目</w>
精 髓</w>
盎 司</w>
早 于</w>
无 非</w>
摄 氏</w>
折 射</w>
失 为</w>
吃 午饭</w>
反 歧视法</w>
前 端</w>
制 订
击 球</w>
养 家
共和 军</w>
专 横</w>
o th
L. 4</w>
K l
B on
5 200</w>
3 3-
麦克 风</w>
阿 斯塔
近 身</w>
辞 退</w>
贸易 额</w>
装 扮</w>
矿 产品</w>
白 费</w>
电 气化</w>
然 性</w>
灰 质炎</w>
潮 汐</w>
欢 快</w>
明 媚</w>
既 得</w>
心 怀</w>
安 插</w>
单 向</w>
催 促</w>
ri g
a j</w>
T A</w>
L i
H SP/
5 10</w>
首脑 级</w>
误 用</w>
观察 所</w>
致 信</w>
脚 踝</w>
纸 面</w>
科 多</w>
球 形</w>
灯 笼</w>
满 脸</w>
居民 点</w>
字 幕</w>
受 了</w>
发 生
兄 们</w>
亚 洲人</w>
W H
B ag
13 33</w>
领 受</w>
陡 峭</w>
限 制
软 体</w>
调 节
融 为</w>
经 委</w>
系 在</w>
粘 贴</w>
碰 上</w>
沉 睡</w>
斯塔 尔</w>
敬 请</w>
扬 ·
应 作</w>
布特 罗斯·
头 条</w>
合 一</w>
受 伤害</w>
世 博会</w>
不 出</w>
下 岗</w>
nd ez</w>
XV I</w>
E/CN. 3/200
7 20</w>
2011- 2015年</w>
魔 术
颗 粒
苏 黎
花 上</w>
膝 上型</w>
结 存</w>
竞 相</w>
秉 持</w>
毛 细
打 消</w>
建 房</w>
填埋 场</w>
合 署</w>
发 亮</w>
优 劣</w>
不 对的</w>
E S</w>
6 7/
2 30万</w>
19 30年</w>
非 工作</w>
自尊 心</w>
特 赦</w>
法 上</w>
汞 化</w>
时 刻
无 意识</w>
插 座</w>
挑 衅
如 前</w>
好 让</w>
壁 画</w>
坚 韧</w>
呼 喊</w>
同 比</w>
划 入</w>
乔 纳森</w>
不 小心</w>
f a
e in</w>
J on
5 0-
200 8/2
门 人</w>
艾 米</w>
罪 过</w>
简 况</w>
笑 了</w>
社 工</w>
百分 率</w>
痴 呆
溢 价</w>
油 管</w>
拉 姆
手提 包</w>
开 脱</w>
定 会</w>
伎 俩</w>
不 振</w>
G or
5 21</w>
27 亿</w>
23 :
西 尔·
致命 性</w>
自 适应</w>
祖 传</w>
电 灯</w>
甘 油</w>
狮 子
治 外
推进 剂</w>
按 月</w>
报告 会</w>
抛 售</w>
待 人</w>
地 块</w>
叠 加</w>
到 时候</w>
决 意</w>
上 楼</w>
CP. 4</w>
A/C.3/6 4/L.
45 亿</w>
13 97</w>
1 3000</w>
麻 省</w>
韦 尼</w>
阿尔 卑
重 来</w>
调查 官</w>
词 句</w>
论 断</w>
计 及</w>
角 逐</w>
监测 站</w>
温 床</w>
录音 带</w>
尘 暴</w>
对 空</w>
够 了</w>
出乎 意料</w>
A G</w>
80 9</w>
59 8</w>
2. 1
饮 品</w>
酸 钠</w>
自 明</w>
聋 人</w>
维拉 卡</w>
紧 跟</w>
温 带</w>
料 理</w>
挑衅 性</w>
弟 兄们</w>
已 将</w>
山 峰</w>
国 有化</w>
凶 杀</w>
凯 西</w>
一九九 八年</w>
W ar
A/C.3/6 9/L.
26 -
15 33</w>
迫 切性</w>
远 古</w>
起 计</w>
论 调</w>
视 其</w>
肠 癌</w>
民 党</w>
橡 树</w>
栓 塞</w>
暴 徒</w>
放 矢</w>
打 到</w>
客户 机</w>
奔 驰</w>
天 黑</w>
墨西哥 湾</w>
南 联盟</w>
加工 区</w>
净 水</w>
军 力</w>
克里 姆
三 .
RE DD</w>
O t
27 -
1. 5
面 子</w>
输 入
赞 助
贯 注</w>
购 单</w>
立 国</w>
禁 产</w>
滋 润</w>
流程 图</w>
教 给</w>
工作 会</w>
屋宇 署</w>
启 程</w>
吉普 赛人</w>
只 在</w>
不 端</w>
不 快</w>
om e</w>
LE D</w>
K as
2016- 2017年</w>
莫 里斯</w>
药 材</w>
结 交</w>
科 生</w>
相 形
熟 人</w>
操 作者</w>
患 病率</w>
地质 学</w>
半 衰期</w>
会 否</w>
价 比</w>
乌 尔
W at
O .
E 款</w>
A/C.2/6 2/L.
4 73</w>
16 000</w>
过 着</w>
转 告</w>
警 局</w>
眼 科</w>
灵 性</w>
每 况
每况 愈
每况愈 下</w>
服务 法</w>
救 赎</w>
惊 醒</w>
大 使
基斯马 尤</w>
培 拉</w>
供应 品</w>
于 世</w>
一九 八
S um
N ations</w>
F ed</w>
59 2</w>
2010- 2012年</w>
长远 来看</w>
长 子</w>
造 纸</w>
瓦 人</w>
理 想
玫瑰 花</w>
渎 职</w>
洲 际</w>
水 厂</w>
手 稿</w>
性 价比</w>
单 靠</w>
低 效</w>
of t</w>
St ev
4. 1.
2005- 2007年</w>
黑 猩猩</w>
跟 鞋</w>
译 器</w>
药 草</w>
电 镜</w>
洛 特</w>
本 批</w>
普雷 维拉卡</w>
无 序</w>
插 手</w>
拉 尼</w>
平 安
安 委</w>
增加 值</w>
叫 喊</w>
卸 下</w>
化验 室</w>
制作 人</w>
y l
um ent
S/201 2/
K ur
G G
E/200 9/
DC P/
越 野</w>
西 西</w>
能 将</w>
聘 任</w>
第XV II</w>
看 做</w>
然 大
来得 及</w>
平 整</w>
布 里</w>
客 体</w>
声 学</w>
农 林</w>
兹 ·
全 神
俗 语</w>
FCCC/SB I/
A/68/ 7
60 1</w>
4 300</w>
4 1-
10 7.
销 路</w>
血 缘</w>
第 75</w>
第 74</w>
泥 浆</w>
案 头</w>
最 能</w>
救 世
放 手</w>
意 向
带 出</w>
对 调</w>
夕 阳</w>
塞浦路 斯人</w>
入 院</w>
b er</w>
Pat ric
P- 1</w>
Le e</w>
E X</w>
CF SP</w>
A/57/ 6
3 400</w>
15 9
阿 德
请 您</w>
自 上而下</w>
第58/2 69</w>
窃 听</w>
石 灰
沃尔 特</w>
工人 党</w>
娅 ·
发 薪</w>
军 法</w>
使 徒</w>
五角 大楼</w>
争 战</w>
三 峡</w>
T ran
E/CN. 6/
DT IE</w>
7 200</w>
3 号</w>
骚 动</w>
驻 军</w>
马 利亚</w>
陶 醉</w>
运 出</w>
苏 莱曼</w>
统计 员</w>
理 法</w>
猥 亵</w>
漫 游</w>
浴 缸</w>
氯 酮</w>
桑给 巴尔</w>
格 莱</w>
既 要</w>
掉 在</w>
投票 率</w>
床 单</w>
夏 令
单 是</w>
升 到</w>
到 自</w>
从 那</w>
人权 者</w>
Jav a</w>
A/C.1/6 6/L.
3 4/
迪 生</w>
结 肠</w>
纳赛 尔</w>
监 视
治外 法权</w>
治 好</w>
数 万</w>
截 至
心 底</w>
工 兵</w>
原 产</w>
切 开</w>
内 应</w>
专 款</w>
上 下
T ay
B ab
黑 市</w>
远 非</w>
英 特尔</w>
芭 蕾
罪 魁
罗 维察</w>
着 落</w>
目 标
沉 沉</w>
永 逸</w>
斯 克
敲 响</w>
幸 福
客 座</w>
团 圆</w>
发 证</w>
公 证人</w>
休息 室</w>
企业 主</w>
乌兹别克斯坦 的</w>
不 因</w>
UNEP/FAO/R C/CR
9/ Add.1</w>
4 400</w>
4 38</w>
过 半数</w>
裁 决书</w>
衍 射</w>
罪魁 祸首</w>
礼 节</w>
碎 石</w>
相 结合</w>
现 金流</w>
毒 瘾</w>
核 反应堆</w>
微 波
就 在</w>
安纳 波利斯</w>
头 儿</w>
哨 兵</w>
哥伦 比亚人</w>
同 住</w>
分 光</w>
供货 商</w>
s ha
Y us
S in
N et</w>
I R</w>
A B/
5 18</w>
1 19.
迷 你</w>
试 探</w>
落 地</w>
米 饭</w>
第 2.
摆 着</w>
推 力</w>
掠 过</w>
拜多 阿</w>
布特 罗斯</w>
工作 坊</w>
小 朋友</w>
囊 肿</w>
刻 画</w>
切 身</w>
主 编</w>
一 审</w>
w ay
v i
Ma c</w>
G U
A/63/ 6
A/61/ 8
5 25</w>
靠 在</w>
随 心
豆 类</w>
螺 钉</w>
花 的</w>
申 根</w>
独角 兽</w>
深 色</w>
殖民 者</w>
旅游 局</w>
捣 毁</w>
报 社</w>
戴 安娜</w>
患 儿</w>
妄 想</w>
多 付</w>
四 分
哈桑 ·
加 工厂</w>
利 特</w>
与 生
S T</w>
E/C. 12
A/CN.9/WG. II/
5 000
3 4-
辱 性</w>
访 查</w>
记 念</w>
约 书亚</w>
第 80</w>
生 前</w>
更 佳</w>
摄影 机</w>
援 手</w>
崇 尚</w>
大 山</w>
吉 塞</w>
发 火</w>
交易 员</w>
与生 俱
W adi</w>
D u
A T</w>
30 ,000</w>
10 0年</w>
露 丝</w>
记 分
肝 癌</w>
炼 油</w>
林 木</w>
度 假
已 然</w>
坎大 哈</w>
吗 啡</w>
后 再</w>
叙 级</w>
出 兵</w>
假 肢</w>
供 方</w>
义 人</w>
一九九 七年</w>
S and
Abd ul</w>
1992- 1993</w>
骑 兵</w>
铃 声</w>
账 面</w>
蝗 虫</w>
致 病</w>
维 吾
渔 夫</w>
施 展</w>
教 资</w>
富 集</w>
宣 讲</w>
双 腿</w>
务 处</w>
前 额</w>
伸 张</w>
之不 易</w>
on a</w>
ist a</w>
RE P/
5 55</w>
重 获</w>
重 用</w>
选 人</w>
评论 员</w>
西 半球</w>
行政 上</w>
背 井
第 70</w>
看 完</w>
毛 利
梵蒂 冈</w>
斯雷 布雷尼察</w>
排 气</w>
广 域网</w>
工 种</w>
安东 尼
大 埔</w>
复 盖</w>
圣 人</w>
发电 站</w>
分 送</w>
何 为</w>
st it
N at
K a
G C/2
C IR
A/58/ 7
45 000</w>
费 解</w>
记 帐</w>
观 望</w>
血 栓</w>
肿 胀</w>
聚集 一堂</w>
痴呆 症</w>
有钱 人</w>
扶 轮</w>
开 创性</w>
布尔 奇科</w>
安全 处</w>
埃 里
告 示</w>
写 字</w>
东 西方</w>
下 沉</w>
B en</w>
10. 2</w>
1 ----</w>
鲜 有</w>
风 速</w>
零 钱</w>
间 距</w>
键 入</w>
适 配器</w>
请 愿者</w>
解 说</w>
行 李
脚 石</w>
磺 酰氟</w>
石 膏</w>
片 子</w>
渔 场</w>
淫 秽</w>
死刑 犯</w>
曼 努
搞 得</w>
折 不
批评 家</w>
好 心</w>
失 所
全氟 辛基</w>
全 员</w>
二○○ 六年</w>
一 劳
ou s</w>
m e</w>
I V/
B ir
A/6 8/2
7 80</w>
鲁 滨
非 得</w>
诺 基亚</w>
自 筹</w>
腿 部</w>
算 起</w>
瓶 装</w>
波 动性</w>
梅 林</w>
抓 捕</w>
安东 尼</w>
大 写</w>
外 邦
名 副
名副 其实</w>
同 僚</w>
吃 到</w>
写 法</w>
一劳 永逸</w>
i Ph
T O
2, 0
阳 极</w>
远 比</w>
躺 着</w>
象 棋</w>
诉讼 案</w>
蕴 藏</w>
法 性</w>
检 验
木 星</w>
时 节</w>
所 欲
感 人</w>
怒 火</w>
并 作</w>
安 乐
大 小
夜 空</w>
吉 ·
克 曼</w>
亡 者</w>
不可 否认</w>
igh t</w>
ch r
高 中生</w>
风 雨</w>
闭 嘴</w>
送 至</w>
进 党</w>
楷 模</w>
授权 书</w>
抑 制剂</w>
倍 受</w>
义 工</w>
为 所</w>
it h
d in</w>
a q</w>
T witter</w>
Sil va</w>
A/65/ 6
5. 7</w>
4 41</w>
3 100</w>
22 ％</w>
14 ％</w>
13 6.
集中 营</w>
这 一点</w>
计算 器</w>
聪 明人</w>
而 起</w>
老 头</w>
罐 体</w>
生 词</w>
演唱 会</w>
深 沉</w>
检 修</w>
核 威胁</w>
来 者</w>
时 不时</w>
意向 书</w>
恼 怒</w>
幸 免</w>
受 性</w>
公 鸡</w>
元 朗</w>
修 辞</w>
保 值</w>
不用 说</w>
不得 而知</w>
下 场</w>
60 4</w>
5 65</w>
4. 9</w>
12 6
阴 性</w>
转 来</w>
赫 特</w>
背井 离乡</w>
科 ·
清 水</w>
流 星</w>
母亲 节</w>
拉斯 维加斯</w>
托 尔
打 过</w>
恋 童
可 调</w>
口 试</w>
变 相</w>
其 妙</w>
会 计
el d</w>
SA I
K .</w>
45 ％</w>
28 号</w>
长 级</w>
通 缩</w>
第25 号</w>
操 练</w>
使 您</w>
住 地</w>
中 选</w>
中 山</w>
or s</w>
D es
阿 片剂</w>
谢尔 盖
营 里</w>
节 水</w>
纽 伦堡</w>
现 阶段</w>
玩 意</w>
爵士 乐</w>
治疗 性</w>
歹 徒</w>
林 宫</w>
曲 解</w>
方 程式</w>
拖 动</w>
得 逞</w>
小 姑娘</w>
室 友</w>
和 好</w>
博 尔
动 脉
停 业</w>
二 极管</w>
三十 二</w>
一 味</w>
on i</w>
an s</w>
领 悟</w>
软 化</w>
窃 贼</w>
税 费</w>
石 英</w>
玩 意
玩意 儿</w>
热 水器</w>
渔 获量</w>
彗 星</w>
国际 上</w>
击 毙</w>
击 打</w>
共 度</w>
兰 语</w>
停 放</w>
不 计
上 皮</w>
ac c
a ev</w>
O ff
污染 者</w>
毒 害</w>
新 教</w>
思 绪</w>
弊 病</w>
工 况</w>
封闭 式</w>
容 貌</w>
喷 嘴</w>
功 用</w>
前 不久</w>
创造 者</w>
其 害</w>
全 书</w>
人 子</w>
ar es</w>
M .2</w>
8 60</w>
8 500</w>
59 4</w>
5 56</w>
- 2</w>
非 成员国</w>
障碍 物</w>
里 尔</w>
精 湛</w>
神 色</w>
物 理学家</w>
游 荡</w>
有 人
教 书</w>
推 卸</w>
挥 手</w>
批判 性</w>
律 性</w>
废 话</w>
年 华</w>
学 系</w>
天 主</w>
基础 性</w>
固 定
只 用</w>
乌 云</w>
l o
e c</w>
K w
H aj
15 ,000</w>
零 碎</w>
阿斯塔 纳</w>
造 访</w>
诡 计</w>
藉 此</w>
耳 边</w>
绑架 者</w>
睾 丸</w>
活 率</w>
有 数</w>
层 层</w>
奥尔 良</w>
多 孔</w>
埃尔 多
坏 死</w>
D ani
2007 年度</w>
10 .1</w>
高 水平</w>
防 腐</w>
见 图</w>
缄 默</w>
索赔 者</w>
第7 51</w>
积 存</w>
相 隔</w>
焊 缝</w>
消 散</w>
既 成</w>
摆 布</w>
探 员</w>
工 们</w>
化 器</w>
丹 尼斯</w>
中 秋节</w>
is t</w>
Z ah
Carl os</w>
B at
201 5-
食 欲</w>
雷 诺</w>
长 发</w>
这 话</w>
规 制</w>
自 毁</w>
经 文</w>
红 酒</w>
米 拉</w>
确 是</w>
看 不到</w>
相反 地</w>
涉 事</w>
浆 果</w>
汗 水</w>
死 囚</w>
时 态</w>
工程 部</w>
多 瑙
团 团</w>
吹 嘘</w>
反 贪污</w>
买 来</w>
黄 瓜</w>
雷 拉</w>
阿 族人</w>
起 算</w>
莉 亚</w>
自 问</w>
胡 须</w>
结 束
组 和</w>
直 立</w>
病 态</w>
理 赔</w>
海 事处</w>
法 师</w>
沿 途</w>
河 口</w>
没 人</w>
服 贸</w>
押 金</w>
总 司令</w>
快 活</w>
小 男孩</w>
均 可</w>
哈 龙</w>
其 二</w>
主 食</w>
m in
R ash
P an
N O</w>
预 发</w>
都 行</w>
编 译器</w>
等 他</w>
第 II</w>
椭 圆形</w>
果 真</w>
明 明</w>
新 政</w>
效 法</w>
收 买</w>
快 递</w>
催 眠</w>
依 存
会 合</w>
一 万
T ah
H ol
CRC/C/ O
6. 4.
2. 7
鲁滨 逊</w>
胶 带</w>
纯 化</w>
盛 开</w>
更 深</w>
打 水</w>
戏 院</w>
恋童 癖</w>
得 的</w>
开 个</w>
平等 性</w>
实 弹</w>
大 风</w>
剪 刀</w>
价 位</w>
互助 会</w>
N ic
A/C.3/6 1/L.
5 51</w>
2005- 2009年</w>
1- 2</w>
1 300万</w>
调 处</w>
覆 核</w>
装 设</w>
节 假日</w>
缩 略
繁 衍</w>
有 礼</w>
报 仇</w>
意 指</w>
农 耕</w>
伯 恩</w>
亚 穆
丹 麦
不 育</w>
SA S</w>
紧 接</w>
省 会</w>
癫 痫</w>
数 位</w>
承 载
憧 憬</w>
孤 立
哥伦 布</w>
原 样</w>
交易 会</w>
á n</w>
m m</w>
70 7</w>
6 00多</w>
2 20万</w>
13 5.
11 1.
10 8.
过 敏
轻 便</w>
超 速</w>
贝 多
谊 会</w>
禁 试</w>
社会 党</w>
暴 躁</w>
战 车</w>
情 合理</w>
富 豪</w>
多瑙 河</w>
合 情合理</w>
分 泌
冤 情</w>
共 达</w>
但 如</w>
雪 茄</w>
苗 条</w>
粉 尘</w>
籍 地</w>
油 藏</w>
比 萨</w>
橡 皮
无 功</w>
当 上</w>
土 星</w>
印 花
减 产</w>
供 款</w>
众 们</w>
从头 到
亚 丁
主 教练</w>
与 世
不 着</w>
b o</w>
S NA</w>
K ha
9 5％</w>
7 0000</w>
1, 9
须 按</w>
降 为</w>
运 量</w>
肥胖 症</w>
粮食 署</w>
管 署</w>
私 利</w>
涉 外</w>
沼 泽
政 务
抛 光</w>
托 福</w>
形 体</w>
引 言</w>
幸 好</w>
年 内</w>
布赖 恩</w>
奈 纳</w>
夏令 营</w>
吞 下</w>
吓 人</w>
加 速度</w>
划 船</w>
乱 七八
不得 因</w>
一夫多 妻</w>
e o</w>
T 恤</w>
Pa ul
B R</w>
23 亿</w>
马萨诸 塞州</w>
面 性</w>
道 德
警 车</w>
第V III</w>
磨 难</w>
时 器</w>
日 夜</w>
无 济
提 了</w>
拉 大</w>
您 的</w>
平 日</w>
宣 战</w>
官 司</w>
姨 妈</w>
回 转</w>
古 屋</w>
公 车</w>
不可 及</w>
ik a</w>
er man</w>
ed a</w>
E/200 5/
降 幅</w>
调 器</w>
讲 习</w>
药 片</w>
自由 基</w>
联 通</w>
罗 森</w>
编 外</w>
结 冰</w>
纳布卢 斯</w>
生 物质</w>
汉 密尔顿</w>
水 电费</w>
承 办商</w>
打 倒</w>
宫 廷</w>
塔 克</w>
基本 面</w>
喧 闹</w>
压 电</w>
出 纳</w>
入 场</w>
举 目
不加 区别</w>
XXV III</w>
M ill
E li
5 67</w>
22 亿</w>
辐射 源</w>
跌 落</w>
蜿 蜒</w>
算 作</w>
第 17/
盛 会</w>
皮 瓣</w>
申 购</w>
烧 烤</w>
温 石棉</w>
止 境</w>
有 违</w>
撰 文</w>
心 力</w>
将 给</w>
外邦 人</w>
复 制品</w>
军 机</w>
内 联</w>
停 工</w>
之 计</w>
之 意</w>
与生俱 来</w>
不 定式</w>
ol o</w>
UN -
E R</w>
CAC/CO SP/
5 8/2
28 亿</w>
12 7.
/200 1/
麻风 病</w>
预 兆</w>
面 额</w>
铁 站</w>
遗 孀</w>
管 处</w>
灰 复燃</w>
沙 丘</w>
死 灰复燃</w>
明 确性</w>
成 矿</w>
展 会</w>
小 板</w>
完 结</w>
奉 命</w>
失 窃</w>
外 星人</w>
在 世</w>
分类 法</w>
凯 尔</w>
全神 贯注</w>
亮 光</w>
30 00多</w>
预 估</w>
雅 思</w>
阿森 纳</w>
阿尔 马萨</w>
软件 包</w>
车 牌</w>
牢 骚</w>
标 有</w>
来 的人</w>
本 该</w>
本 科生</w>
无济 于事</w>
无一 例外</w>
彻 斯特</w>
开 场</w>
宾 客</w>
奖 品</w>
多 维</w>
回 声</w>
哈里 斯</w>
包 里</w>
代 用品</w>
ig a</w>
Jam es</w>
A/CN.9/WG. III</w>
A/C.5/5 4/L.
高 分子</w>
非利 士人</w>
陋 习</w>
长 相</w>
运动 场</w>
调 低</w>
要 走</w>
老 兵</w>
精 炼</w>
牙 膏</w>
火 线</w>
杜 洛
有 帮助</w>
月 刊</w>
无 缺</w>
攫 取</w>
批 货</w>
山 西</w>
十二 日</w>
令 状</w>
亚 行</w>
t i</w>
il le</w>
ig n
Mar k
CRP. 4</w>
197 5</w>
高 明</w>
陆 港</w>
车 手</w>
越 长</w>
蜜 月</w>
聚 糖</w>
美术 馆</w>
置 评</w>
第27 58</w>
电 镀</w>
灰 烬</w>
旁 遮
斯 基
提 款</w>
战 备</w>
惊 异</w>
尽 速</w>
寺 院</w>
家 长
实 测</w>
大 额</w>
大 同</w>
可 就</w>
刘 易
克 斯·
事 迹</w>
c r
B I</w>
A A
阿尔巴尼亚 族</w>
银 河
详 列</w>
让 ·
腺 素</w>
联 谊会</w>
维尔 福</w>
枚 举</w>
昏 暗</w>
搬 走</w>
探 雷</w>
拥 护者</w>
抢 夺</w>
延 后</w>
大 大地</w>
声 说</w>
品 行</w>
口 香
办公 桌</w>
中 介
c .
D R
B 号</w>
6 25</w>
随 从</w>
长 效</w>
重 症</w>
道 格拉斯</w>
记 起</w>
西 奥
纳 维
第 IX</w>
硬 拷贝</w>
知识 型</w>
猛 地</w>
浓 密</w>
法 科</w>
标 识
无 穷
折 合</w>
幸福 感</w>
山 东省</w>
对 子</w>
对 一</w>
奥 秘</w>
培训 者</w>
城 内</w>
口香 糖</w>
发 芽</w>
做 人</w>
假 使</w>
产 卵</w>
不 息</w>
ST/SG B/
Add. 8</w>
A/CONF. 2
12 9
酒 杯</w>
老 家</w>
破坏 力</w>
甲 醇</w>
数 化</w>
接 续</w>
抗 氧化</w>
回 流</w>
吓 得</w>
可 达</w>
互 访</w>
乌 托
主 动性</w>
for d</w>
a g</w>
Univers ity</w>
J ar
II .
6. 5%</w>
59 6</w>
100 多万</w>
高 斯</w>
邮 联</w>
管 用</w>
第 76</w>
硅 谷</w>
相对 论</w>
特 地</w>
照明 弹</w>
照 常</w>
炼 厂</w>
炮 轰</w>
期 日</w>
月 薪</w>
月 底</w>
拉 尼
得 悉</w>
很 差</w>
外 墙</w>
卡拉 奇</w>
协调 处</w>
临时 工</w>
下 水</w>
SAI CM/
F 3</w>
5. 5%</w>
5 80</w>
2 24
1. 7
风 貌</w>
鞭 打</w>
陶 器</w>
里 士
转 换器</w>
诸 项</w>
肤 浅</w>
网络 化</w>
缘 由</w>
综 上所述</w>
社 保</w>
百 度</w>
有 何</w>
最低 点</w>
控制 下</w>
截止 到</w>
弗拉基 米尔·
小 鸡</w>
另 请</w>
制订 者</w>
删 掉</w>
停 住</w>
估 计值</w>
仍 将</w>
交 流
y ah</w>
B ah
60 8</w>
赫 拉特</w>
资 产阶级</w>
米 ·
狱 政</w>
海 鸟</w>
晶 体
摩 斯</w>
持 枪</w>
房 顶</w>
开 战</w>
好 听</w>
多 亏</w>
在 拉</w>
商 行</w>
不 想</w>
er n</w>
R NA</w>
5 70</w>
5 48</w>
3- 4</w>
2004/0 5年度</w>
0 ％</w>
雨 伞</w>
轻 柔</w>
计 们</w>
瑞 典
爱 迪生</w>
流 过</w>
正 比</w>
平 庸</w>
埋 藏</w>
均 属</w>
养殖 业</w>
介 乎</w>
交换 机</w>
一 刀
or y</w>
P E</w>
H g/
E/200 2/
28 0万</w>
2007- 2011年</w>
随心 所欲</w>
进口 量</w>
路 要走</w>
调 阅</w>
誉 为</w>
良 多</w>
眉 头</w>
用 时</w>
活 产</w>
本 位</w>
木 屋</w>
显 眼</w>
无 亲</w>
扶 手</w>
慷慨 地</w>
恩 惠</w>
微 机</w>
得 罪</w>
巴 沙
天 安
基 体</w>
圆 柱</w>
图 中</w>
咒 骂</w>
单元 格</w>
分裂 症</w>
伤 感</w>
人 本</w>
亲 生</w>
un t
i v</w>
WF P/
H S</w>
阻 拦</w>
贱 民</w>
蟾 蜍</w>
美 式</w>
空 格</w>
种 的</w>
看 在</w>
申 索</w>
法 团</w>
格 格
慢 跑</w>
恢 复
小 道</w>
女 佣</w>
均 为</w>
喷 气</w>
喷 嚏</w>
原则 性</w>
制片 人</w>
写信 给</w>
之 人</w>
东 斯拉沃尼亚</w>
不尽 相同</w>
M ig
A/C.3/ 52</w>
A/5 3</w>
隆 重</w>
轰 炸
续 设</w>
绝 非</w>
用 车</w>
爪 子</w>
洛 夫</w>
果 酱</w>
星 光</w>
开 源</w>
建 材</w>
尿 液</w>
尾 部</w>
向 西</w>
伯尔 尼</w>
举目 无亲</w>
下 流</w>
上 月</w>
is on</w>
5 7/2
4. 1
2 10万</w>
非 技术</w>
都 可以</w>
研究 会</w>
知 会</w>
睁 开</w>
申 报表</w>
来 之不易</w>
新 约</w>
教育 界</w>
教 团</w>
排 减</w>
形 态
弗朗 索
床 垫</w>
国 罪</w>
告 人</w>
可 要求</w>
取 性</w>
劳 役</w>
公 尺</w>
u j
B h
5 68</w>
18 ％</w>
18 3
/ 3</w>
魔术 师</w>
防 疫</w>
逝 去</w>
远 的</w>
萨 纳
给 金</w>
纸 条</w>
电 力
汇 合</w>
概 数</w>
松 懈</w>
星 体</w>
抢 掠</w>
威廉 斯</w>
多 加</w>
名 胜</w>
名 古屋</w>
即 由</w>
即 对</w>
卡 里
创 建
出 勤</w>
再 出口</w>
供应 科</w>
五 万</w>
主 力</w>
y n</w>
ur y</w>
er ing</w>
S/2000/ 9
J S
2: 45</w>
较 量</w>
解 剖
给 以</w>
结 为</w>
竭尽 所能</w>
污 蔑</w>
母 公司</w>
来 着</w>
最 喜爱</w>
将 同</w>
外 侧</w>
后 世</w>
可 归</w>
医 管局</w>
分 批</w>
之 主</w>
不 是
D o
A .1</w>
200 6/2
频 发</w>
长 在</w>
还 算</w>
起 首</w>
言 说</w>
西 瓜</w>
落 叶</w>
舰 船</w>
航 程</w>
肖 像</w>
白 领</w>
白 兰
略 为</w>
男 的</w>
满 满</w>
村 长</w>
普 顿</w>
时 任</w>
播放 器</w>
掉 进</w>
差 分</w>
娘 们</w>
备 抵</w>
售 票
加 西亚</w>
到 期日</w>
充 气</w>
K N
A/CN.9/WG.II/ WP.</w>
A/C.2/6 3/L.
60 9</w>
/200 2/
错 乱</w>
配 料</w>
贾 德</w>
要 命</w>
莫 测</w>
脚 上</w>
联 几</w>
矮 小</w>
瞧 瞧</w>
格 尔
架 上</w>
有 氧</w>
摆 出</w>
握 着</w>
插 在</w>
战 舰</w>
布特罗斯· 布特罗斯</w>
威 望</w>
奈 尔</w>
S ur
P ow
2. 0</w>
199 8
11月 24日</w>
1. 6
领 袖
面 团</w>
舍 维奇</w>
缺 省</w>
第 78</w>
空 隙</w>
相 貌</w>
法 术</w>
树 丛</w>
救 出</w>
投 寄</w>
尾 处</w>
小 块</w>
后 遗
兴 高
低 频</w>
伙 计们</w>
丝 ·
all ah</w>
E/CN.4/Sub .2</w>
199 8/
绿 灯</w>
第 88</w>
治安 官</w>
核 酸</w>
枪 械</w>
方 差</w>
撒哈 拉人</w>
当 她</w>
并 联</w>
因 我</w>
力 强</w>
凹 陷</w>
专 营</w>
不 稳</w>
不 失为</w>
一团 糟</w>
5 26</w>
高 楼</w>
针 刺</w>
踪 迹</w>
货 单</w>
论 题</w>
要 多</w>
行 政权</w>
而 去</w>
穿 刺</w>
源源 不断</w>
海 鸥</w>
洗 礼</w>
民 阵</w>
拉 图</w>
所 付</w>
小 吃</w>
复制 件</w>
南 面</w>
全 天
克 伦</w>
但 却</w>
M AR
领袖 们</w>
酬 劳</w>
获得 性</w>
联 普</w>
美 满</w>
绑 在</w>
租 赁
源 自于</w>
波利 尼西亚</w>
捕 鲸</w>
战 乱</w>
家 事</w>
圣 所</w>
合 议
厄 运</w>
卡拉 季</w>
制度 性</w>
免 职</w>
便 能</w>
例 会</w>
伸 缩</w>
书 房</w>
业务 处</w>
L ot
5 38</w>
2012- 2015年</w>
2 时</w>
17 ％</w>
阿尔 法</w>
阿 雷
长 成</w>
辨 明</w>
赛 马</w>
贸易 量</w>
调 来</w>
舰 艇</w>
自 新</w>
移 开</w>
着 眼
皮 涅
爱 意</w>
演 奏
温 和
极 佳</w>
数以 万
接 力</w>
手 帕</w>
户 籍</w>
思 潮</w>
封 存</w>
字 数</w>
头 人</w>
天 国</w>
后遗 症</w>
低 劣</w>
ti s</w>
a p</w>
G .</w>
FCCC/C P/200
F ed
CCW/ GG
5 －
2000- 2003年</w>
院 所</w>
调 速</w>
补 选</w>
补 给
藏 族</w>
萨 那</w>
致 谢</w>
自 给</w>
纳 州</w>
空 心</w>
理查 德·
无 能力</w>
无 畏</w>
无 法
撤 除</w>
持 股</w>
德 斯
反 演</w>
原 生</w>
初 学者</w>
切 斯特</w>
儿 时</w>
不 容许</w>
P R</w>
B UR
Al l
9. 4</w>
70 4</w>
10 年</w>
间 里</w>
长 崎</w>
错 觉</w>
跑 得</w>
计 分</w>
老 年
群 集</w>
眨 眼</w>
泥 沙</w>
数以万 计</w>
天主 教会</w>
外 务省</w>
可 资</w>
可 可
卖 主</w>
区 划</w>
匹 林</w>
修 读</w>
介绍 所</w>
乔治 亚</w>
丢 在</w>
p ol
om a</w>
h d
eg a</w>
C it
190 7年</w>
颠 簸</w>
院 里</w>
越 少</w>
装饰 品</w>
荆 棘</w>
聚 物</w>
素 食</w>
矮 人</w>
油 箱</w>
条 约法</w>
惬 意</w>
弱 化</w>
大 肠</w>
原 位</w>
协调 厅</w>
勾 勒</w>
内 幕</w>
其 量</w>
入 点</w>
入 息</w>
假 说</w>
倾 诉</w>
久 化</w>
Y ah
K ir
D ep
D 1</w>
9 00
4 700</w>
19 亿</w>
高 声</w>
飞 向</w>
遮 蔽</w>
迪 士
费 利
莫 名
维 生</w>
离 心</w>
电 波</w>
渔 农</w>
海 南</w>
流 器</w>
晋 级</w>
无 谓</w>
改革 法</w>
摊 位</w>
成就 感</w>
惠 给金</w>
开 裂</w>
坏 的</w>
单 数</w>
仪 表
临 终</w>
不 被</w>
u x</w>
op h
o y</w>
ab le</w>
M r
2. 9</w>
11 ％</w>
0. 1%</w>
长 满</w>
这 次</w>
轰炸 机</w>
署 理</w>
突破 性</w>
恒 定</w>
寥 寥
大 王</w>
多 夫</w>
周 全</w>
伯 南克</w>
亚 裔</w>
二零零 零年</w>
不 提</w>
T om</w>
6 50万</w>
28 0
阁 楼</w>
销售 商</w>
醒 目</w>
醉 酒</w>
签 了</w>
游 击</w>
活 到</w>
泰 米尔
沼 气</w>
梅 毒</w>
标 价</w>
有 酬</w>
敬 佩</w>
惨 痛</w>
建 商</w>
已 对</w>
尼 龙</w>
室 里</w>
十 四日</w>
北 面</w>
佩 雷斯</w>
何 以</w>
传 讯</w>
书 记
专门 性</w>
s k</w>
od e</w>
Sha h
INF CIR
Comp any</w>
17 6
餐 会</w>
里 奇</w>
资 金流</w>
米 歇
石 灰</w>
疤 痕</w>
特 加</w>
毁 损</w>
欺 骗
开 动</w>
卡罗 来
加 了</w>
分散 化</w>
克里姆 林宫</w>
亚 齐</w>
严 寒</w>
es h</w>
er son</w>
b i</w>
O li
CO N
高 分</w>
雷 克
重 复性</w>
避 难者</w>
迪 尔</w>
账 务</w>
肋 骨</w>
版 面</w>
损 及</w>
感染 性</w>
必 有</w>
必 修</w>
德 森</w>
尼亚 语</w>
审 校</w>
失 真</w>
哈希 姆</w>
叛 国罪</w>
原 是</w>
出 没</w>
主 题
L ab
L C
A M</w>
13 43</w>
11 6.
阿尔 贝
还 用</w>
要 人</w>
莫名 其妙</w>
英 明</w>
至 於</w>
自 本</w>
签字 人</w>
秉 承</w>
泰 晤
污 点</w>
橄榄 油</w>
梦 幻</w>
朦 胧</w>
暴 政</w>
斗 士</w>
教育 家</w>
愿 为</w>
心 境</w>
得克 萨斯州</w>
帕 特
射 流</w>
大 面积</w>
外 溢</w>
壮 丽</w>
后 门</w>
叫 着</w>
全 家</w>
乌托 邦</w>
不 分
不 以</w>
下 议院</w>
万 军</w>
一 块儿</w>
g ar
XV II</w>
M ot
5 16</w>
197 4</w>
黑 莓</w>
饿 了</w>
轻 声</w>
袋 鼠</w>
螺 丝</w>
自 费</w>
结 业</w>
种植 者</w>
物 证</w>
昆士 兰</w>
无 天</w>
承 建商</w>
宣 示</w>
奥 克兰</w>
哈 拉</w>
吨 位</w>
卢 卡</w>
出 众</w>
出 事</w>
入 侵
倚 靠</w>
侦 破</w>
中 时</w>
re g
p ub
T u
L uc
2. 8
13 6
12 3.
马 修</w>
面 容</w>
轨 道
规划 者</w>
老 的</w>
羽毛 球</w>
猎 犬</w>
火 药</w>
榜 首</w>
提 拔</w>
抵押 品</w>
归 宿</w>
布 丁</w>
孢 子</w>
出 海</w>
中 英文</w>
不 免</w>
T ube</w>
S el
M /
C. 1</w>
5 36</w>
4 :00</w>
风 化</w>
领 有</w>
非 人</w>
采 烈</w>
进 会</w>
还 债</w>
返 乡</w>
运 入</w>
赞助 商</w>
贝 壳</w>
纳 特</w>
简 表</w>
申 办</w>
珠 江</w>
洛 ·
汉堡 包</w>
残 奥会</w>
止 于</w>
朴 素</w>
无法 无天</w>
拨 号</w>
找 他</w>
就 此
安 倍</w>
孵 化</w>
刘易 斯</w>
分 拨</w>
具 体化</w>
体 和</w>
休 斯顿</w>
二零零 二年</w>
an ov</w>
M C</w>
14 8
/C P.
高 技术</w>
饰 品</w>
身 躯</w>
联 同</w>
精 打
病 害</w>
毒 理学</w>
本 题</w>
旅游 部</w>
施 舍</w>
故 此</w>
摘 取</w>
库尔德 斯坦</w>
工 薪</w>
委托 书</w>
境 内外</w>
塔 省</w>
基尔 库克</w>
型 式</w>
友 爱</w>
冠 心病</w>
兴高 采烈</w>
丝 绸
i x</w>
59 9</w>
重 生</w>
苏 州</w>
自 认为</w>
穿 孔</w>
河 州</w>
沙 尘暴</w>
毛 毯</w>
是 次</w>
拉 各
思 嘉</w>
安全 科</w>
大 屿
力 场</w>
剧 团</w>
到 过</w>
克莱 尔</w>
人 名</w>
与世 隔绝</w>
一 路上</w>
b in</w>
V A</w>
A/CN.9/WG. V/
解 运</w>
要 的</w>
第 90</w>
生 平</w>
现 出</w>
段 性</w>
核 禁试</w>
日 复
日复 一日</w>
施 肥</w>
执行 第</w>
怎么 回事</w>
变 体</w>
劲 儿</w>
保 管人</w>
会 用</w>
亚丁 湾</w>
一 新</w>
ing s</w>
et s</w>
T am
ON UB</w>
A/4 7/
194 4年</w>
风 中</w>
颤 动</w>
集 聚</w>
运动 鞋</w>
解放 党</w>
胡 同</w>
程 度
独 处</w>
爱德 华
流 网</w>
洗 净</w>
比 分</w>
有 制</w>
我 家</w>
忍 不住</w>
形态 学</w>
形 貌</w>
工 务</w>
小 猫</w>
学习 班</w>
喷 泉</w>
同 龄</w>
卡 莱
今 早</w>
事 发</w>
乱七八 糟</w>
之 大</w>
丧 气</w>
下 手</w>
el e</w>
G i
E/CN. 17/
A/56/ L.
5 46</w>
3/ 4</w>
17 000</w>
马 歇尔</w>
间 盘</w>
间 歇
针 灸</w>
要 向</w>
福利 法</w>
烛 光</w>
潜 伏</w>
希 德</w>
增加 数</w>
听 器</w>
升 迁</w>
十 溴二</w>
写 了</w>
供 热</w>
主 场</w>
麻 黄
谷 类</w>
让 位</w>
胡 乱</w>
糖 浆</w>
穷 苦</w>
格格 不入</w>
柏 拉图</w>
枯 萎</w>
服务 所</w>
探 求</w>
报 的</w>
慈 善
意 念</w>
愈 发</w>
快 到</w>
寄 托</w>
太 长</w>
口 述</w>
分 心</w>
先 遣队</w>
你 说</w>
传 教</w>
亚 当
与 时
不 乏</w>
UNEP/FAO/RC/CR C.
6 30</w>
5 ，
5 31</w>
零 食</w>
试 题</w>
票 房</w>
烟 花</w>
海 藻</w>
梅 洛</w>
未 向</w>
暴风 雪</w>
悠 闲</w>
微 调</w>
宙 斯</w>
安 逸</w>
多 克</w>
取 物</w>
双 管齐下</w>
[...]
