the 33741762
of 21580193
, 21523439
. 19271810
and 16661165
to 13810187
in 9916169
a 6617745
for 5285231
@-@ 4724243
on 4571796
that 4487002
The 3981084
) 3634321
( 3605574
is 3365394
with 3031421
by 2870862
as 2668024
be 2550367
/ 2243406
was 1915649
are 1817736
&quot; 1770864
its 1736920
at 1693616
; 1676732
&apos;s 1670887
or 1584755
from 1574291
: 1517889
it 1501024
an 1403259
have 1395549
United 1384644
not 1349314
I 1272030
has 1234408
which 1219845
their 1208082
Nations 1165522
this 1152573
In 1105490
all 1080496
will 1041571
had 987488
been 966914
also 938345
Committee 937834
you 932628
were 920263
General 867629
States 864511
international 859396
other 825915
A 791305
should 785953
development 779359
would 762887
countries 728026
It 698182
rights 687884
- 641341
Council 625386
his 621830
report 621031
such 620472
women 602491
including 600444
more 596518
can 592602
under 586612
work 586432
human 569095
one 565356
support 556071
national 543927
information 537838
they 535312
resolution 533470
1 533213
into 522450
he 520830
out 509049
State 498985
but 492835
up 486859
made 486810
we 482880
? 473119
new 468455
Government 461732
Assembly 458089
implementation 456107
through 451079
system 450689
between 443715
time 443462
well 437065
activities 436778
those 425422
2 424530
against 421085
per 420710
Convention 415792
This 414817
people 413017
Commission 412882
Secretary 412474
country 406066
any 404129
who 398649
there 397336
session 394747
law 392321
about 385273
no 379371
International 376628
two 374533
than 373120
some 373099
may 372747
these 370256
$ 364519
3 363625
could 363165
so 358758
them 357775
measures 356903
security 355952
children 354734
use 354571
our 353383
only 348516
economic 347308
We 346389
your 343451
organizations 341085
He 338501
number 338022
level 337646
efforts 336432
cooperation 335303
meeting 334749
resources 332220
cent 330385
programme 329306
my 328223
process 327151
need 324848
first 322323
&apos; 317260
said 315949
do 313456
her 312346
regional 312023
provide 311134
order 310239
financial 308733
non 307607
right 307348
must 306918
year 306180
years 305692
if 304736
over 304273
social 303959
services 302350
issues 300533
when 300430
Conference 300276
Development 300084
draft 299551
take 299098
4 294267
ensure 294229
Security 292644
management 291061
assistance 290616
public 290249
Republic 287587
5 283266
further 281547
Rights 281414
Mr. 281318
provided 279937
based 279883
Group 278841
within 276639
most 276427
during 275573
members 275145
being 274536
health 272909
areas 271956
paragraph 268696
developing 268157
article 267062
10 266931
As 265904
programmes 265083
&apos;t 264099
related 263003
make 262589
period 262463
me 260811
education 260641
party 259797
Office 258588
world 258558
important 255853
many 254280
Special 253018
staff 252131
decision 252019
particular 251009
shall 250587
like 247937
relevant 246992
held 245142
Human 244942
political 242709
At 242213
training 242105
policy 241594
To 240872
6 240850
part 237968
persons 237748
b 235235
action 232642
see 231835
both 231743
legal 230532
before 229470
review 228810
where 226304
community 225475
protection 224870
adopted 224209
capacity 222763
regard 218886
what 218505
effective 217971
among 217867
taken 217157
three 215005
following 214619
situation 214434
access 214273
continue 213060
after 213008
high 212782
peace 212521
used 211834
parties 210629
7 210516
same 209333
President 208197
role 207029
very 206900
December 206743
global 206599
him 204512
special 204467
established 201970
set 201883
way 200278
working 199113
respect 199035
15 197951
progress 197326
recommendations 196955
data 196920
now 196870
China 196520
view 196214
12 194253
Organization 193973
Programme 192038
Member 191715
reports 191676
without 191540
she 191301
accordance 191100
technical 190589
violence 189646
present 189404
gender 188523
2005 188299
8 187415
They 187376
million 186928
2008 185915
how 185874
each 184893
case 183552
cases 183406
On 183331
life 183069
basis 182870
local 182776
There 182543
good 182534
30 181747
National 181723
while 181427
Africa 181200
full 180626
2006 180195
nuclear 180048
necessary 179705
since 179662
budget 178786
end 177915
groups 177749
area 177613
place 177583
institutions 177220
11 176487
possible 175143
long 174937
For 174481
9 174148
needs 173606
policies 173139
2009 172976
Board 172851
20 172355
increase 172010
2010 171528
us 171100
World 171004
building 170420
2007 170224
general 170101
trade 169476
appropriate 169136
agenda 169025
June 168789
2004 167525
i 167325
But 166465
14 166334
Parties 166315
group 165518
African 165053
include 164926
c 164768
developed 164694
because 164589
specific 164508
control 164388
You 163863
region 163297
proposed 163171
society 162274
did 162242
project 161372
field 160773
available 160447
If 159741
issue 159436
just 158635
e 157987
meetings 157485
current 157176
-- 156757
South 156454
noted 156304
upon 156050
13 155907
sector 155547
account 155337
d 155298
framework 155290
provisions 155285
2011 153416
Economic 152759
water 152482
July 152427
plan 152218
European 151767
military 151648
un@@ 151556
Social 151541
term 151490
particularly 151437
child 151404
concerned 151240
day 150631
various 150432
still 150426
future 150389
considered 150273
However 149997
change 149997
consideration 149776
address 149767
levels 149572
18 149103
&#91; 149044
required 148896
2003 148877
16 148764
conflict 148757
promote 148372
2000 148108
And 147755
continued 147272
sustainable 147072
Women 147051
! 146616
item 146370
different 146314
government 145846
importance 145509
2002 145461
addition 145260
New 144984
delegation 144091
second 143911
requirements 143833
Court 143606
Working 143503
Department 143217
&#93; 141973
participation 141846
Fund 141840
given 141107
civil 140908
technology 140752
projects 140684
even 140623
operations 140070
know 139607
help 139283
poverty 138880
above 138710
re@@ 138692
major 138437
humanitarian 138154
authorities 137517
population 137251
2012 137159
bodies 136637
May 136361
much 136188
2001 136138
service 135950
own 135863
means 135360
approach 135174
conditions 135007
family 134898
private 134806
impact 134737
results 134001
agencies 133575
She 133390
17 133233
result 132959
Union 132805
additional 132705
police 132704
Secretariat 132531
small 132478
submitted 131088
towards 130889
Article 130773
total 130730
Action 130650
19 130634
S@@ 129988
31 129340
September 129248
attention 129100
21 129074
making 128644
men 128582
systems 128499
Governments 127872
does 127719
then 127714
last 127497
weapons 127361
context 127120
Law 126690
document 126126
agreed 125963
care 125877
October 125304
discrimination 125000
whether 124768
key 124448
That 124386
personnel 124306
November 124026
Mission 123716
food 123653
environment 123275
especially 123089
business 123088
increased 123031
establishment 122990
requested 122917
These 122897
able 122840
25 122318
With 122149
man 122075
note 122011
force 121793
1999 121670
March 121553
better 121414
member 121324
go 121223
risk 121165
status 120895
organization 120852
concern 120671
get 120389
improve 120265
market 120139
mandate 119867
monitoring 119755
research 119590
cost 118822
domestic 118815
reporting 118732
resolutions 118717
costs 118322
received 118276
existing 118141
might 117686
person 117413
All 117193
24 117164
22 117092
representatives 116663
s 116415
several 116238
growth 116133
land 115806
legislation 115768
therefore 115704
application 115575
request 115312
contained 115234
23 115127
fully 115099
2013 115032
problems 115026
study 114944
comprehensive 114873
question 114821
Rapporteur 114679
best 114270
called 114091
E 113936
terms 113936
down 113915
age 113308
third 113190
consider 113066
High 112976
January 112835
quality 112820
main 112354
1998 112305
provision 112216
give 112079
representative 112064
April 111839
expressed 111797
justice 111494
fact 111218
standards 111107
coordination 111087
example 110856
Protocol 110835
included 110819
every 110616
strengthen 110191
S 110009
rules 109977
Affairs 109931
mechanisms 109749
free 109717
concerning 109520
responsibility 109461
taking 109116
procedures 108977
environmental 108814
post 108756
governmental 108615
P@@ 108569
five 108548
implement 108485
relating 108423
rate 108068
become 107970
response 107935
A@@ 107933
common 107472
Act 107469
practices 107423
four 107167
treatment 107121
recent 106974
statement 106941
large 106894
amount 106826
production 106600
Ministry 105928
least 105849
provides 105710
subject 105665
funds 105656
challenges 105650
Declaration 105504
next 105460
great 105327
principles 105298
G@@ 105239
found 105105
B@@ 104923
another 104910
criminal 104692
due 104609
often 104441
already 104302
back 104300
agreement 104269
put 104169
armed 104051
reported 103616
off 103516
What 103072
providing 102798
No. 102417
develop 102213
energy 102122
together 102064
significant 101995
problem 101937
UNDP 101849
regarding 101731
analysis 101365
Executive 101180
in@@ 101080
assessment 101005
form 100996
addressed 100489
space 100206
entitled 99984
strategy 99919
II 99906
took 99760
D@@ 99689
26 99551
performance 98936
mission 98874
% 98775
T@@ 98622
income 98602
o 98491
planning 98358
indigenous 98273
foreign 98233
line 98230
however 98047
America 97895
While 97774
school 97662
27 97372
One 97358
come 97356
lack 97018
less 96978
practice 96789
obligations 96759
Advisory 96658
rule 96351
adoption 96157
follow 96125
decided 96055
investment 96052
28 95795
victims 95644
inter 95540
past 95465
Palestinian 95431
strengthening 95405
paper 95280
When 95155
decisions 95070
employment 95065
days 94987
reform 94835
L@@ 94529
light 94405
needed 94102
contributions 93969
meet 93836
position 93686
initiatives 93395
focus 93183
commitment 93087
early 92978
terrorism 92818
Report 92536
His 92520
establish 92458
office 92455
Arab 92388
power 92335
state 92307
Service 92299
too 92286
matter 92244
effect 92075
actions 92013
think 91902
cultural 91722
equipment 91310
secretariat 91141
equality 91077
value 90787
forces 90652
knowledge 90300
administrative 90145
para 89806
certain 89755
F@@ 89541
prevention 89513
am 89454
August 89348
interest 89174
around 88918
Chinese 88866
February 88719
want 88649
point 88363
K@@ 88121
East 88103
Israel 88027
P 87952
regular 87924
body 87739
funding 87695
self 87645
missions 87604
dialogue 87299
29 87285
trafficking 87278
basic 87210
living 87093
others 86806
always 86718
M@@ 86705
clear 86667
economy 86153
peacekeeping 86107
organized 86065
HIV 86055
priority 85765
supported 85501
Centre 85448
individual 85401
Asia 85371
laws 85279
annual 85181
consultations 85025
property 84908
t 84849
using 84814
partners 84766
serious 84719
disarmament 84643
sexual 84512
prevent 84444
achieve 84419
crime 84367
don 84338
plans 84185
annex 84032
responsible 83977
Representative 83961
recommended 83904
section 83743
reduction 83707
experience 83582
An 83443
old 83425
expected 83380
low 83349
50 83304
operational 83281
behalf 83231
open 83126
Information 83049
joint 83040
arms 83039
H@@ 83012
involved 82981
peoples 82818
potential 82633
here 82342
strategies 82327
documents 82305
promotion 82290
N@@ 82268
biennium 82248
date 82214
Iraq 82198
young 82192
awareness 82144
far 82075
few 82039
little 82015
yet 81904
greater 81851
violations 81733
affected 81720
Some 81704
carried 81600
girls 81561
During 81517
principle 81403
acts 81280
strategic 81239
evaluation 81030
course 80851
author 80830
B 80825
crisis 80790
E@@ 80697
again 80374
months 80329
60 80270
previous 80233
natural 80126
R@@ 80102
1997 79981
workers 79954
forms 79580
mechanism 79388
promoting 79329
Director 79219
implemented 79136
notes 79122
say 79059
led 79021
agreements 79014
approved 78985
changes 78949
nature 78923
requests 78912
purpose 78901
steps 78768
aimed 78735
5@@ 78649
implementing 78617
essential 78357
home 78353
communities 78324
committed 78305
C 78243
communication 78219
offices 78143
company 78065
Central 77956
cannot 77949
enhance 77652
1996 77580
objectives 77504
forward 77476
treaty 77415
C@@ 77325
procedure 77319
rural 77243
having 77073
opportunities 76991
never 76855
higher 76812
exchange 76735
until 76719
understanding 76537
discussion 76495
climate 76478
limited 76340
matters 76326
money 76307
Bank 76181
done 76172
posts 76102
increasing 75943
official 75825
facilitate 75603
6@@ 75553
instruments 75548
k@@ 75527
facilities 75416
s@@ 75390
es 75335
find 75150
today 75145
Division 75141
officials 75015
call 74907
AIDS 74825
stated 74692
six 74495
American 74443
No 74435
issued 74339
&apos;m 74223
informed 74071
presented 74055
experts 73893
list 73829
al 73762
7@@ 73629
processes 73611
benefits 73368
adequate 73366
table 73301
er 73262
thus 73027
prepared 73012
Minister 72851
1994 72657
goals 72524
.@@ 72505
currently 72409
products 72363
40 72355
operation 72186
2014 72173
opportunity 72157
war 72051
ing 72030
protect 71864
arrangements 71815
ensuring 71772
statements 71636
Millennium 71605
Commissioner 71589
People 71584
proposals 71566
Panel 71444
whole 71387
assist 71368
ate 71328
financing 71227
overall 71153
play 71121
functions 71101
independent 71095
1995 71084
&apos;re 71083
recommendation 70977
Management 70926
equal 70827
Tribunal 70823
guidelines 70628
Europe 70565
conduct 70553
evidence 70464
undertaken 70324
labour 70312
hours 70264
Global 70199
below 70192
media 70044
y@@ 70030
conducted 70024
strong 70002
individuals 69941
material 69932
hand 69893
medical 69659
Plan 69622
My 69591
proposal 69169
going 69093
remains 69064
according 68997
Ms. 68992
Chairman 68923
reduce 68912
W@@ 68808
contribute 68768
team 68748
Covenant 68734
Treaty 68719
transfer 68708
Democratic 68669
aspects 68559
air 68531
court 68454
Other 68452
safety 68367
pay 68338
face 68212
design 68151
wish 68093
ways 67893
remain 67846
concerns 67698
recognized 67672
effects 67619
positive 67606
negotiations 67519
manner 67516
authority 67508
US 67507
integrated 67492
primary 67281
bring 67181
exercise 66881
resource 66725
method 66702
direct 66634
close 66611
dated 66572
freedom 66551
wide 66283
reference 66119
lead 66061
structure 65993
poor 65943
8@@ 65672
act 65577
connection 65570
compliance 65445
internal 65423
Support 65343
return 65334
identified 65223
infrastructure 65163
rates 65146
contribution 64880
t@@ 64863
death 64737
Trade 64721
real 64714
Since 64605
de 64567
Under 64475
capital 64439
articles 64342
away 64275
fundamental 64250
e@@ 64151
Permanent 64069
students 63998
crimes 63931
dis@@ 63865
delegations 63856
active 63830
administration 63824
once 63731
Israeli 63726
look 63711
Criminal 63707
Agency 63705
final 63701
share 63588
ability 63575
regions 63539
commitments 63489
Japan 63472
methods 63442
drug 63379
recommends 63377
introduced 63307
preparation 63288
difficult 63275
model 63267
conference 63263
communications 63207
Russian 63108
range 63056
materials 63000
y 62975
former 62963
ed 62823
itself 62774
text 62731
g 62668
refugees 62573
UNICEF 62552
o@@ 62476
Code 62415
Review 62151
Justice 62130
So 62117
items 62095
&apos;ll 62008
allow 61971
achieved 61954
rather 61954
By 61937
effectively 61595
questions 61494
referred 61486
critical 61462
1993 61459
language 61440
entities 61373
Geneva 61352
Forum 61307
integration 61199
benefit 61171
UN 61164
institutional 61144
enforcement 61136
views 61127
activity 60989
pursuant 60961
indicated 60921
d@@ 60676
kind 60545
families 60510
g@@ 60484
effort 60429
detention 60373
i@@ 60151
governance 60135
Health 60105
judicial 60089
throughout 60020
believe 59987
Sudan 59911
multilateral 59846
Meeting 59823
Charter 59589
Unit 59321
Public 59303
industry 59130
things 59125
Cooperation 59109
letter 58980
objective 58950
officers 58936
outcome 58927
ongoing 58923
III 58921
improving 58885
York 58879
love 58736
claims 58676
elements 58650
Federation 58637
Agreement 58610
How 58609
across 58567
sessions 58536
After 58446
schools 58357
&apos;@@ 58345
According 58295
goods 58211
create 58163
regulations 58089
n@@ 58062
times 57992
territory 57942
Regional 57911
57 57900
asked 57896
p@@ 57880
hope 57877
submit 57804
effectiveness 57773
side 57761
themselves 57759
centres 57729
disabilities 57667
job 57621
enable 57606
O@@ 57599
words 57594
debt 57494
D 57439
outside 57285
leave 57279
scale 57252
participate 57210
Such 57197
companies 57196
left 57186
purposes 57182
require 57156
Implementation 57083
Summit 57022
ts 56991
58 56987
live 56943
construction 56864
Pacific 56806
an@@ 56793
35 56758
keep 56643
55 56604
welcomed 56579
sectors 56510
circumstances 56428
UNCTAD 56419
whose 56345
Constitution 56315
estimated 56297
includes 56232
traditional 56154
alia 56095
Institute 56081
short 56031
ting 56015
9@@ 55918
informal 55909
came 55865
substantive 55861
mentioned 55855
assets 55844
Kingdom 55785
f 55767
brought 55724
factors 55697
house 55572
met 55570
stakeholders 55548
applied 55510
discussions 55486
let 55460
Protection 55392
participants 55384
vote 55372
guidance 55352
revised 55349
half 55329
Services 55310
central 55229
relations 55208
culture 55199
balance 55177
initiative 55136
similar 55110
demand 55088
travel 55053
interests 55041
network 54977
English 54965
directly 54932
sources 54924
build 54851
59 54836
improved 54834
civilian 54674
name 54523
mind 54512
situations 54457
core 54394
expert 54373
points 54284
combat 54230
65 54223
paragraphs 54158
parts 54157
supply 54045
maintenance 53891
collaboration 53853
standard 53826
61 53758
events 53703
continues 53558
month 53486
fourth 53448
got 53439
indicators 53438
technologies 53381
physical 53287
along 53284
delivery 53237
priorities 53204
62 53120
Hong 53119
h@@ 53100
show 53100
associated 53093
paid 53068
deal 53060
a@@ 53032
32 53024
scope 53009
transport 52969
contract 52895
stability 52871
m@@ 52852
53 52803
apply 52795
en@@ 52688
soon 52632
discussed 52627
2015 52534
Kong 52523
aid 52518
known 52506
either 52497
fifty 52482
efficiency 52462
relation 52379
de@@ 52361
Goals 52275
52 52254
oil 52079
64 52063
abuse 52057
week 52055
J@@ 51952
Furthermore 51898
54 51889
proceedings 51885
33 51805
India 51787
step 51782
complete 51726
distribution 51661
63 51473
seen 51454
Section 51442
Non 51405
universal 51347
UNEP 51338
b@@ 51329
developments 51321
border 51310
ation 51248
positions 51237
later 51235
source 51229
vulnerable 51136
achieving 51126
prior 51107
Although 51049
responsibilities 50987
Children 50976
UNHCR 50955
Canada 50943
identify 50929
fund 50928
elections 50922
claim 50837
urban 50800
why 50732
34 50722
intergovernmental 50690
really 50671
type 50665
citizens 50583
legislative 50583
leaders 50510
V@@ 50450
First 50431
ated 50427
addressing 50425
m 50390
Also 50353
city 50352
single 50343
relationship 50292
ground 50227
56 50226
Force 50177
supporting 50132
price 50058
anti 50032
something 49875
practical 49844
Crime 49843
transition 49814
receive 49730
extent 49728
Education 49727
designed 49712
cause 49698
completed 49684
* 49670
ating 49659
average 49511
investigation 49481
f@@ 49475
al@@ 49459
University 49428
markets 49428
encourage 49396
studies 49369
48 49295
Foreign 49233
head 49228
36 49172
peaceful 49161
45 49096
room 49084
carry 49046
continuing 48910
ers 48902
start 48838
lower 48825
housing 48821
establishing 48727
longer 48620
goal 48607
loss 48577
Party 48548
Korea 48545
Many 48440
torture 48423
comments 48389
calls 48386
ever 48357
growing 48314
100 48260
Political 48216
success 48205
billion 48175
hold 48158
creation 48013
religious 47974
Re@@ 47958
emergency 47931
partnership 47920
economies 47796
successful 47725
reached 47704
I@@ 47698
task 47592
n 47581
Civil 47497
Afghanistan 47429
beyond 47405
co 47382
solution 47344
function 47314
likely 47304
encouraged 47253
66 47243
stage 47235
threat 47211
ethnic 47187
states 47179
remained 47102
agency 47008
scientific 46967
thought 46825
Environment 46802
&apos;ve 46785
external 46742
advice 46741
terrorist 46740
39 46725
consensus 46709
37 46676
cover 46597
reasons 46551
West 46520
says 46509
... 46481
ch@@ 46479
recovery 46457
initial 46415
maintain 46413
went 46351
specialized 46345
Peace 46313
periodic 46305
voluntary 46295
makes 46269
raised 46201
Congo 46036
personal 46036
w@@ 46028
although 45911
k 45908
female 45899
units 45895
consultation 45859
recently 45859
adopt 45844
compensation 45834
ar@@ 45828
c@@ 45782
Caribbean 45720
Joint 45718
hard 45683
youth 45665
phase 45638
serve 45638
created 45637
requires 45584
challenge 45576
educational 45558
displaced 45497
visit 45423
opinion 45386
2@@ 45380
determination 45302
u@@ 45281
woman 45260
51 45259
Z@@ 45222
permanent 45218
majority 45182
re 45136
signed 45134
reason 45046
Moreover 45004
Please 44989
u 44988
skills 44953
almost 44949
debate 44883
leadership 44813
event 44788
violation 44733
Islamic 44692
twenty 44689
seek 44676
obligation 44662
focused 44638
enough 44544
l@@ 44515
appreciation 44506
proliferation 44469
sharing 44410
h 44389
compared 44382
detailed 44376
covered 44336
Headquarters 44313
test 44255
actors 44200
reflected 44199
ted 44134
Child 44096
jurisdiction 44080
art 43984
67 43983
courts 43874
z@@ 43853
38 43848
suggested 43798
North 43705
net 43668
bilateral 43646
regime 43609
Administrative 43607
3@@ 43600
49 43595
41 43593
concluded 43447
on@@ 43389
accountability 43375
applicable 43330
treaties 43296
Administration 43273
road 43198
clearly 43142
fifth 43072
follows 43010
caused 42964
mainly 42889
procurement 42862
professional 42851
In@@ 42816
Cuba 42799
l 42776
invited 42665
night 42650
commercial 42644
44 42620
sufficient 42547
disaster 42537
Iran 42529
feel 42526
tools 42515
resulting 42494
expenditure 42476
doing 42456
settlement 42455
trial 42444
aim 42374
improvement 42371
Latin 42341
export 42332
achievement 42331
statistics 42327
lives 42325
destruction 42320
47 42283
Disarmament 42261
France 42241
thing 42240
Annex 42239
concept 42232
sixty 42191
offer 42175
respective 42125
site 42107
Sustainable 42104
reach 42041
monitor 42020
movement 42014
Chair 42009
4@@ 41982
UNFPA 41982
presence 41957
A. 41904
operating 41879
Syrian 41796
move 41794
agricultural 41782
illegal 41781
target 41719
beginning 41708
U@@ 41653
duty 41582
class 41554
ad 41440
read 41370
consistent 41362
Persons 41358
1992 41351
judges 41346
takes 41320
sent 41300
Federal 41282
42 41280
temporary 41246
raising 41226
46 41169
avoid 41167
approaches 41142
criteria 41138
implications 41106
heart 41079
prices 41073
System 41068
applications 41067
partnerships 41058
history 41038
French 41007
efficient 40992
Do 40943
leading 40936
turn 40911
F 40888
son 40866
series 40783
run 40758
measure 40754
mother 40725
product 40700
provisional 40697
cross 40681
Optional 40672
Discrimination 40654
Countries 40577
Second 40561
Our 40503
involving 40449
conferences 40410
launched 40312
j@@ 40283
43 40231
plenary 40213
sea 40133
useful 40121
parents 40111
though 40094
science 40088
submission 40087
68 40021
approval 40007
capacities 40001
closely 39987
mass 39981
formal 39897
Police 39858
negative 39858
er@@ 39852
heard 39850
payment 39799
Prevention 39792
described 39783
finance 39780
types 39777
broad 39693
host 39664
1@@ 39656
conflicts 39653
confidence 39635
instrument 39634
ended 39623
added 39503
fight 39502
is@@ 39500
consequences 39469
Agenda 39441
es@@ 39420
stressed 39415
weapon 39407
generally 39367
reduced 39360
committee 39313
began 39278
audit 39273
defined 39273
entry 39264
sound 39232
content 39230
Beijing 39217
sanctions 39195
complex 39147
Middle 39127
timely 39117
Internet 39109
big 39063
p 39020
Australia 39016
credit 38978
sex 38925
NGOs 38891
written 38888
reflect 38860
IV 38844
exploitation 38827
shown 38827
election 38807
en 38776
ates 38696
Vienna 38683
safe 38675
B. 38652
learning 38570
Y@@ 38564
forest 38555
over@@ 38544
Mexico 38541
damage 38510
tell 38493
appeal 38406
insurance 38394
transparency 38381
independence 38367
Germany 38285
or@@ 38205
concrete 38203
conclusion 38080
minimum 37997
Coordination 37989
senior 37983
base 37912
From 37804
trust 37783
planned 37777
deployment 37769
Labour 37725
difficulties 37660
collection 37656
observations 37652
followed 37641
ar 37632
ago 37591
risks 37584
illicit 37565
recognition 37544
subregional 37536
v@@ 37464
red 37361
contributing 37360
corruption 37338
prepare 37319
seven 37314
causes 37279
Authority 37254
intended 37216
Association 37210
donors 37183
bank 37174
owing 37146
enterprises 37120
round 37117
Operations 37055
Community 37022
workshops 37008
industrial 36986
UNIDO 36958
Those 36942
placed 36941
electronic 36908
Lebanon 36895
determine 36813
cash 36794
ro@@ 36792
democratic 36728
Somalia 36715
near 36714
component 36691
despite 36689
competition 36675
70 36661
Asian 36652
God 36625
late 36596
tax 36595
told 36584
Technology 36490
1990 36461
77 36456
urgent 36441
shared 36345
civilians 36330
possibility 36327
THE 36286
ic 36268
sub 36256
increasingly 36246
pressure 36222
king 36212
welcome 36201
absence 36175
actual 36167
enhancing 36166
gave 36162
try 36148
actively 36134
relief 36104
Chief 36084
lot 36081
Recalling 36040
nothing 35986
understand 35950
attacks 35949
determined 35949
Pakistan 35912
elected 35871
involvement 35859
Bureau 35837
di@@ 35828
extended 35819
unit 35807
Legal 35778
alternative 35773
island 35772
Further 35724
definition 35721
it@@ 35710
respond 35700
rise 35687
Now 35670
assessments 35663
reviewed 35661
ations 35649
enhanced 35623
top 35620
im@@ 35602
medium 35599
word 35591
please 35589
reducing 35580
waste 35570
coming 35569
Policy 35556
immediate 35496
raise 35476
survey 35468
expertise 35402
Then 35398
keeping 35398
mandates 35384
discuss 35361
advance 35346
migration 35322
Requests 35299
sub@@ 35296
Brazil 35293
am@@ 35230
solutions 35224
fire 35207
aircraft 35134
forced 35126
80 35125
sixth 35091
Of 35049
shows 35003
fair 34990
centre 34980
Nuclear 34938
prison 34902
fields 34836
Its 34817
Research 34815
recruitment 34779
M 34769
true 34751
Strategy 34742
th@@ 34735
workshop 34720
published 34695
rehabilitation 34643
allowed 34596
p.m. 34528
membership 34513
welcomes 34489
setting 34395
participated 34334
summary 34260
sense 34247
accounts 34216
contact 34214
options 34187
T 34182
record 34181
Officer 34179
1991 34164
Members 34132
Western 34096
engaged 34072
produced 34046
OF 34018
urged 34016
registration 33978
emphasized 33930
idea 33920
emerging 33850
Al 33836
works 33829
strengthened 33820
coordinated 33796
Elimination 33783
deep 33747
represented 33739
ant 33677
father 33666
values 33666
undertake 33661
occupied 33653
nor 33641
multi 33640
Technical 33621
lost 33610
mean 33603
sure 33601
consumption 33557
at@@ 33545
highest 33503
gas 33499
approximately 33491
resulted 33484
failure 33483
Most 33434
marriage 33421
express 33402
remaining 33359
conclusions 33345
10@@ 33339
st@@ 33332
democracy 33314
crucial 33242
Gender 33230
expression 33227
occupation 33226
accepted 33211
languages 33186
size 33141
entire 33118
rest 33075
donor 33058
defence 33047
ii 33038
pre 33022
Training 33017
representation 33010
computer 33004
racial 32980
Assistance 32974
mutual 32972
immediately 32929
Therefore 32928
Kosovo 32927
modern 32907
car 32884
processing 32884
saw 32864
Rules 32860
18@@ 32818
inclusion 32778
counter 32770
honour 32754
charge 32735
dealing 32728
targets 32712
Rwanda 32690
Financial 32688
book 32663
looking 32596
headquarters 32578
refugee 32572
origin 32512
seventh 32486
estimates 32466
networks 32461
co@@ 32444
started 32438
mine 32400
R 32390
OHCHR 32368
imposed 32303
conventions 32298
learned 32258
usually 32258
direction 32252
places 32243
assess 32180
&apos;d 32173
guarantee 32173
as@@ 32163
1.@@ 32150
respectively 32133
ag@@ 32105
ti@@ 32088
separate 32069
structures 32057
ly 32054
dollars 32050
chemical 31960
Objective 31951
Governing 31905
Let 31854
press 31840
perspective 31815
offences 31814
affect 31804
Egypt 31799
uses 31796
highly 31793
ad@@ 31788
Experts 31783
alone 31779
V 31762
combating 31725
became 31701
contributed 31676
namely 31615
banks 31578
governments 31544
components 31531
ter 31460
holding 31453
requirement 31442
documentation 31435
se@@ 31430
findings 31409
tool 31402
Kuwait 31344
ready 31333
fall 31316
G 31287
enterprise 31253
emphasis 31179
90 31134
x 31127
eight 31123
affairs 31112
Draft 31110
Framework 31018
reforms 31014
Field 30999
influence 30998
threats 30952
highlighted 30944
contains 30940
speaking 30918
courses 30903
Another 30894
cooperate 30883
r@@ 30818
earlier 30806
grounds 30787
C. 30784
specifically 30779
collective 30769
appointed 30758
Space 30726
tasks 30705
accounting 30698
69 30692
produce 30637
campaign 30596
worked 30576
category 30560
Cultural 30558
ill 30525
Is 30524
faced 30512
creating 30505
ac@@ 30465
0@@ 30460
Peacekeeping 30372
spirit 30369
Thus 30352
constitute 30275
Territory 30246
internationally 30208
contracts 30201
departments 30170
users 30161
disease 30148
funded 30147
secondary 30146
listed 30117
el@@ 30106
sh@@ 30098
ask 30094
O 30054
Two 30040
participating 30011
agriculture 30005
Their 29986
encourages 29980
outcomes 29964
integrity 29949
stop 29922
chapter 29914
board 29903
observed 29896
Guinea 29880
Palestine 29880
fuel 29859
behind 29832
13@@ 29817
Al@@ 29800
degree 29791
Weapons 29770
subsequent 29738
pre@@ 29726
offered 29706
Finally 29675
declaration 29624
Add.1 29614
sought 29594
significantly 29593
Turkey 29569
friends 29558
records 29551
75 29549
executive 29544
responses 29543
whom 29477
cut 29466
himself 29455
authorized 29366
Liberia 29332
interpretation 29317
statistical 29316
factor 29315
organizational 29314
EU 29260
Mr 29260
COP 29247
existence 29239
forum 29196
ninth 29188
easy 29161
outstanding 29138
trends 29131
giving 29118
eighth 29117
engage 29108
morning 29099
ra@@ 29064
eliminate 29053
forty 29044
played 29044
website 29018
experiences 29009
ine 29000
candidates 28976
girl 28969
weeks 28959
2.@@ 28940
freedoms 28924
felt 28923
identification 28917
categories 28894
Third 28877
drugs 28861
Food 28860
Ministers 28856
enjoy 28853
completion 28837
secure 28837
interested 28829
indicate 28791
Control 28776
widely 28757
entered 28751
inform 28747
migrants 28716
floor 28711
ri@@ 28704
investigations 28693
zone 28691
vehicles 28672
con@@ 28670
extend 28665
diseases 28643
lessons 28627
opening 28600
om@@ 28596
flow 28576
nations 28576
database 28572
sites 28564
Following 28547
spoke 28540
inclusive 28496
punishment 28487
wife 28482
Her 28478
Indonesia 28433
ratification 28423
alleged 28414
substantial 28410
minorities 28392
institution 28391
registered 28385
gross 28381
&amp; 28373
element 28359
advisory 28352
More 28337
Gaza 28296
observers 28250
Inter 28204
condition 28168
employees 28159
Vice 28147
Parliament 28139
territories 28137
agree 28120
availability 28104
organs 28097
daily 28093
marine 28072
won 28066
visits 28063
vital 28062
quite 28059
cycle 28029
Great 28028
seeking 27981
eyes 27974
topic 27959
mental 27952
trying 27951
release 27935
ic@@ 27898
Despite 27873
reproductive 27840
recognize 27827
Several 27799
ous 27746
Where 27727
failed 27723
Table 27684
century 27683
allegations 27637
didn 27635
seems 27622
ten 27621
norms 27614
etc 27594
populations 27592
Sierra 27582
rapid 27556
granted 27547
Deputy 27533
examination 27527
urges 27526
obtain 27503
facing 27488
religion 27487
N 27482
software 27452
Islands 27433
limit 27419
looked 27405
closed 27398
15@@ 27396
supports 27335
recorded 27321
teams 27310
proper 27309
electoral 27302
aware 27297
accept 27293
linked 27259
pro@@ 27232
pointed 27227
considerable 27222
ab@@ 27205
owned 27170
bad 27169
learn 27137
functioning 27133
considers 27117
attack 27108
thematic 27089
teaching 27085
Letter 27066
Well 27061
considering 27058
selected 27051
percentage 27046
delay 27042
consent 27030
emissions 27005
preventing 26980
Con@@ 26962
expenditures 26961
comes 26942
speak 26926
strength 26913
stand 26900
details 26892
code 26883
reintegration 26878
complaints 26850
Staff 26841
Bosnia 26821
competent 26815
killed 26789
Darfur 26745
teachers 26740
inter@@ 26730
moment 26729
engagement 26711
14@@ 26691
exist 26688
paras 26688
IAEA 26637
instance 26630
decrease 26598
expansion 26595
endorsed 26552
19@@ 26536
Why 26534
le@@ 26529
L 26489
sometimes 26477
strongly 26464
stay 26436
numbers 26417
De@@ 26390
trend 26387
theme 26384
begin 26367
payments 26364
regulation 26338
hands 26331
targeted 26319
maintained 26318
front 26312
original 26309
sovereignty 26288
amounts 26284
unless 26264
anything 26251
containing 26239
ha@@ 26238
appointment 26228
Yugoslavia 26179
jobs 26148
carrying 26142
coverage 26141
obtained 26119
identity 26114
flows 26108
everyone 26105
traffic 26101
Even 26097
hear 26090
Zealand 26064
Habitat 26058
Internal 26055
L.@@ 26041
regulatory 26020
writing 26016
Humanitarian 26008
victim 25997
introduction 25995
Leone 25986
Italy 25980
minority 25963
reconciliation 25950
ol@@ 25948
Ireland 25936
disability 25935
et 25925
Year 25922
cities 25916
nation 25911
formulation 25910
be@@ 25895
Population 25887
Congress 25878
enter 25868
presentation 25862
differences 25844
UNODC 25836
Your 25827
draw 25827
offence 25802
simple 25799
actually 25760
previously 25752
decide 25729
mortality 25675
Spain 25630
aims 25613
Haiti 25585
unable 25575
dissemination 25494
thank 25491
largest 25490
characteristics 25452
diplomatic 25437
ap@@ 25413
located 25383
confirmed 25380
theory 25372
realization 25363
internally 25348
supplies 25341
news 25337
Prime 25334
primarily 25319
Fifth 25311
elimination 25311
announced 25305
opened 25298
restrictions 25295
stock 25295
troops 25260
showed 25257
losses 25251
op@@ 25244
percent 25223
Day 25218
territorial 25202
talk 25177
Room 25165
advantage 25146
Switzerland 25127
frameworks 25105
built 25103
initiated 25072
Cyprus 25050
bl@@ 25046
oversight 25038
sensitive 25030
convention 25027
updated 25023
Monitoring 25017
ship 25017
Herzegovina 25013
Note 24980
stations 24975
amendments 24970
Ch@@ 24963
assessed 24959
guide 24957
Indigenous 24951
sustained 24947
link 24939
birth 24906
ownership 24906
ILO 24901
lines 24881
Prosecutor 24878
Financing 24877
constitutional 24877
enabling 24872
ideas 24833
nationality 24826
fulfil 24814
Trust 24812
door 24809
sentence 24793
ator 24787
Sea 24780
Norway 24774
Any 24772
Supreme 24757
investments 24753
comply 24751
Argentina 24746
amended 24744
search 24741
numerous 24739
except 24727
latter 24694
ia 24693
older 24692
advanced 24667
ratified 24667
productive 24657
arising 24632
specified 24629
firm 24628
governing 24615
Netherlands 24593
British 24585
commissions 24572
te 24561
worldwide 24534
otherwise 24512
disasters 24499
Mar@@ 24498
sale 24474
Status 24471
station 24462
Terrorism 24456
Because 24454
concluding 24454
preparing 24450
Burundi 24437
equitable 24423
generation 24397
standing 24392
UNESCO 24389
attended 24376
subprogramme 24375
Chairperson 24354
inside 24350
Don 24344
Based 24343
appear 24245
ding 24244
empowerment 24239
li@@ 24222
satisfaction 24190
mainstreaming 24179
00 24173
surface 24167
encouraging 24165
instead 24161
72 24147
diversity 24145
ones 24144
Initiative 24132
maximum 24127
Assistant 24120
heavy 24103
systematic 24074
Family 24040
delivered 24028
expenses 24020
Project 24012
choice 24011
reservations 24009
accused 23982
per@@ 23960
everything 23955
investigate 23949
reasonable 23932
maintaining 23928
location 23924
An@@ 23916
globalization 23906
Decade 23901
heads 23899
latest 23892
Chamber 23885
simply 23835
online 23819
Each 23790
pe@@ 23765
allocation 23763
Lebanese 23759
someone 23755
ex@@ 23749
thereby 23740
thirty 23733
penalty 23703
background 23695
protected 23681
receiving 23657
Resources 23644
enjoyment 23630
Fourth 23627
ul@@ 23619
character 23603
mis@@ 23592
occurred 23555
rich 23549
middle 23537
to@@ 23531
Principles 23527
changing 23525
selection 23515
resolve 23511
16@@ 23500
believes 23500
nine 23498
Part 23496
formed 23494
sign 23493
ICT 23488
impacts 23482
le 23481
prosecution 23477
sustainability 23443
duties 23441
binding 23439
drafting 23425
race 23410
technological 23409
17@@ 23397
forth 23389
commission 23366
Can 23361
achievements 23351
FAO 23329
program 23318
Ukraine 23309
changed 23302
incidents 23300
version 23298
cold 23285
unemployment 23278
gap 23269
a.m. 23262
facilitating 23262
unique 23246
transparent 23188
tried 23184
hoped 23174
variety 23163
73 23146
stress 23137
IN@@ 23133
ans 23119
der 23073
protecting 23066
budgetary 23058
Colombia 23056
= 23044
eradication 23022
partner 23009
he@@ 23008
Decides 22992
r 22965
corporate 22953
asylum 22941
difference 22939
helped 22938
Ambassador 22934
drawn 22912
favour 22905
adaptation 22901
entity 22899
em@@ 22895
object 22891
subsidiary 22878
represent 22875
3.@@ 22858
examine 22829
e.g. 22819
proportion 22808
publication 22808
green 22792
wanted 22788
judge 22787
becoming 22782
pursue 22778
VI 22759
allocated 22759
quickly 22758
vision 22758
kept 22757
regularly 22757
obstacles 22756
designated 22742
verification 22734
structural 22731
Energy 22708
combined 22699
z 22698
normal 22688
wishes 22661
contain 22658
intention 22637
friend 22634
als 22633
preliminary 22633
ds 22625
socio 22612
user 22610
recalled 22600
&apos;Ivoire 22590
figure 22583
coordinate 22567
born 22561
multiple 22560
white 22553
reviews 22543
seem 22541
Territories 22540
innovative 22535
clean 22533
principal 22515
nearly 22498
Nigeria 22462
blood 22450
racism 22441
manage 22436
join 22434
geographical 22429
Developing 22421
arrest 22421
po@@ 22414
refer 22408
getting 22362
Regulations 22348
improvements 22345
spread 22339
Ethiopia 22325
identifying 22323
ity 22311
v 22279
managers 22278
reconstruction 22277
dispute 22268
affecting 22264
reiterated 22251
se 22247
Northern 22243
gives 22239
increases 22237
71 22229
returned 22227
believed 22221
controls 22210
id@@ 22198
option 22193
outer 22187
relatively 22185
WHO 22158
burden 22149
committees 22113
buy 22103
ch 22102
pilot 22072
fish 22060
transit 22057
speed 22051
um 22042
patients 22036
il@@ 22015
finding 22012
amendment 21997
publications 21993
happy 21981
exports 21976
jointly 21968
Scientific 21963
Iraqi 21958
fine 21949
released 21949
si@@ 21941
pending 21924
boys 21920
suffering 21901
est 21894
passed 21864
Morocco 21857
transactions 21848
examples 21840
76 21833
te@@ 21827
sets 21819
sanitation 21809
Côte 21808
Network 21794
preparatory 21793
testing 21792
acting 21786
ies 21778
fixed 21777
charges 21770
legitimate 21742
stable 21719
extensive 21712
answer 21710
th 21693
74 21688
Given 21678
trading 21672
expanded 21668
attempt 21640
_ 21631
turned 21619
OIOS 21618
sides 21615
employed 21604
discriminatory 21587
Accordingly 21586
declared 21577
town 21577
200 21574
tourism 21573
Drugs 21566
expand 21563
D. 21558
attached 21538
Chapter 21533
ons 21531
lo@@ 21526
constraints 21525
links 21524
Eastern 21507
vehicle 21502
minutes 21501
Questions 21490
chemicals 21460
prisoners 21453
Subcommittee 21451
Task 21445
message 21436
fear 21433
Yes 21411
liability 21399
capabilities 21389
tion 21388
Britain 21377
focal 21366
hour 21364
Forces 21358
cl@@ 21356
severe 21353
par@@ 21351
covering 21349
saying 21344
advocacy 21341
bringing 21328
Not 21318
extension 21305
85 21302
add 21302
Ex@@ 21297
leaving 21293
boy 21281
conformity 21247
department 21245
scheduled 21237
interim 21233
Jerusalem 21187
trained 21183
Use 21180
ec@@ 21167
Partnership 21166
figures 21164
voice 21162
City 21153
served 21153
H 21135
examined 21110
roles 21080
soldiers 21071
Strategic 21060
game 21056
migrant 21053
preventive 21050
Through 21047
Spanish 21046
map 21045
send 21040
AND 21022
perform 20997
web 20989
Forms 20988
explained 20977
substances 20974
names 20965
radio 20963
ist 20954
Professional 20949
largely 20945
la@@ 20940
Lord 20931
bed 20928
tions 20914
us@@ 20912
transportation 20907
grant 20905
managed 20898
sales 20897
grave 20880
res 20875
Myanmar 20827
plant 20827
image 20809
Movement 20801
guarantees 20801
staffing 20798
constructive 20797
Uganda 20771
disputes 20764
perpetrators 20757
Timor 20754
Expert 20733
Planning 20730
bi@@ 20728
reaching 20712
savings 20709
mines 20702
ent 20697
troop 20693
wall 20690
locations 20672
meaning 20664
78 20646
treated 20638
campaigns 20634
represents 20617
arrested 20611
valuable 20594
male 20585
Azerbaijan 20575
En@@ 20566
Paris 20564
abroad 20564
yourself 20562
Statistics 20547
satellite 20542
reservation 20541
ism 20538
ta@@ 20535
extremely 20533
convened 20526
joined 20506
reality 20502
Sweden 20462
NPT 20451
appears 20442
el 20428
facts 20423
judiciary 20422
Both 20407
extreme 20401
programming 20393
innovation 20390
safeguards 20390
welfare 20389
explore 20383
WTO 20380
thinking 20364
Thailand 20362
Coordinator 20358
Refugees 20357
scheme 20351
master 20335
asset 20332
south 20330
mandated 20318
Kenya 20313
decade 20310
20@@ 20303
adjustment 20273
ment 20263
Safety 20255
Today 20253
ge@@ 20237
train 20218
iii 20210
ness 20196
C.2 20154
experienced 20141
powers 20139
customs 20117
weight 20111
Only 20106
fell 20106
broader 20081
outlined 20058
dignity 20053
demands 20048
seminars 20047
ing@@ 20038
UN@@ 20027
settlements 19998
Ar@@ 19982
bit 19976
launch 19962
indeed 19957
methodology 19955
hoc 19951
pollution 19951
reflects 19926
humanity 19922
ors 19922
See 19910
Small 19902
overcome 19894
consultative 19874
Independent 19866
Over 19866
demonstrated 19862
pl@@ 19856
gaps 19851
remedies 19838
north 19832
books 19807
Mechanism 19805
Power 19804
distributed 19780
ir@@ 19773
update 19761
Georgia 19752
6.@@ 19748
out@@ 19741
focusing 19727
write 19727
Comprehensive 19700
fast 19682
associations 19681
teacher 19678
sections 19677
98 19675
El 19664
husband 19664
assigned 19655
oriented 19654
remote 19637
Un@@ 19635
81 19631
aged 19628
easily 19626
spent 19625
x@@ 19623
decades 19619
CD 19614
Earth 19600
imprisonment 19599
observer 19599
association 19595
Science 19594
noting 19590
95 19586
no@@ 19584
ahead 19569
Chile 19550
worth 19541
indicates 19524
choose 19523
goes 19523
coordinating 19522
transmitted 19513
introduce 19512
break 19511
reaffirmed 19508
panel 19496
decline 19494
depth 19488
features 19486
Southern 19482
ling 19476
larger 19473
moving 19457
79 19453
letters 19453
Violence 19452
ren@@ 19446
performed 19434
Nairobi 19433
academic 19425
Noting 19420
ph@@ 19409
permit 19387
seriously 19384
volume 19382
utilization 19374
helping 19373
periods 19366
monthly 19353
violated 19351
mail 19334
looks 19332
impunity 19325
directed 19323
suffered 19318
ah 19309
belief 19283
currency 19280
involve 19267
U 19266
Preparatory 19263
inspection 19262
truth 19256
techniques 19254
assisting 19252
equity 19212
fiscal 19204
i.e. 19201
beautiful 19196
vulnerability 19181
thousands 19168
bearing 19162
running 19151
biological 19146
acquisition 19138
offers 19121
operate 19121
notice 19119
bear 19114
track 19106
ma@@ 19087
ter@@ 19084
Sh@@ 19067
platform 19061
83 19051
LDCs 19030
topics 19029
limits 19025
posed 19025
page 19011
dangerous 19010
deployed 19007
ve@@ 19003
Climate 18999
sp@@ 18999
Equality 18992
check 18985
me@@ 18964
Q@@ 18959
Ad 18952
machine 18949
speakers 18948
black 18942
reading 18933
ks 18913
under@@ 18905
4.@@ 18901
bound 18901
controlled 18899
officer 18887
authors 18872
functional 18871
studied 18871
Statute 18852
Russia 18846
bo@@ 18839
London 18836
82 18821
Philippines 18816
wrong 18815
story 18809
file 18804
contrary 18792
subsequently 18791
transferred 18791
+ 18789
southern 18781
recommend 18773
acceptance 18757
modalities 18757
cutting 18748
orders 18748
comment 18744
tic 18744
starting 18737
fighting 18736
pleased 18736
serving 18734
village 18730
composition 18725
Algeria 18704
continuous 18704
mid 18704
Promotion 18695
Indeed 18682
ou@@ 18680
relevance 18670
television 18664
probably 18657
budgets 18656
relative 18655
balanced 18647
ot@@ 18644
deliberations 18639
carbon 18628
Local 18626
district 18618
earth 18612
prostitution 18612
mobilization 18608
doesn 18597
friendly 18596
solidarity 18589
storage 18587
Oh 18584
arbitrary 18581
salary 18580
CEDAW 18576
music 18575
ance 18563
recognizes 18560
legally 18554
ur@@ 18550
import 18537
fishing 18524
ded 18512
neither 18498
Di@@ 18484
IC@@ 18483
foundation 18479
coherence 18463
competitive 18462
popular 18451
Platform 18446
detained 18433
tive 18433
models 18432
widespread 18412
Malaysia 18409
seemed 18408
ne@@ 18405
UNOPS 18404
warning 18401
career 18400
I. 18363
Work 18363
Integrated 18361
Change 18350
federal 18347
trans@@ 18343
Red 18330
car@@ 18322
eat 18322
97 18321
X@@ 18306
greatly 18302
87 18301
Jordan 18300
su@@ 18287
papers 18273
complainant 18269
man@@ 18263
societies 18263
ages 18259
99 18258
intervention 18255
allows 18254
chance 18253
CN.4 18252
UNRWA 18250
Universal 18247
Turkish 18246
ings 18242
ters 18239
card 18237
ally 18229
84 18226
.1 18225
mining 18221
charged 18211
Foundation 18204
evaluate 18196
double 18188
dealt 18185
engineering 18182
subjected 18181
witnesses 18181
da 18164
attend 18161
Ministerial 18158
lasting 18156
interventions 18153
anniversary 18150
Additional 18135
regards 18132
deliver 18131
wished 18130
buildings 18118
nationals 18114
C.3 18109
pension 18101
reply 18098
conservation 18084
Model 18079
Inter@@ 18075
Saudi 18070
talks 18064
successfully 18060
camps 18057
Croatia 18045
envisaged 18018
ves 18018
Society 18008
opposition 18004
army 18002
historical 18002
insufficient 17999
Measures 17997
Water 17990
mobile 17989
foster 17971
competence 17968
.2 17963
NGO 17962
maternal 17931
1,@@ 17920
output 17910
qu@@ 17909
Number 17907
Taking 17902
Increased 17888
resident 17883
Finance 17880
else 17878
Torture 17874
93 17864
premises 17857
Having 17823
rape 17799
96 17774
non@@ 17752
suitable 17737
Belarus 17736
John 17734
corresponding 17723
promoted 17719
Activities 17717
purchase 17710
Operation 17709
ian 17702
ve 17701
gold 17698
quarter 17696
prohibited 17695
ob@@ 17692
acknowledged 17663
Bangladesh 17660
household 17660
IS@@ 17654
path 17641
Open 17633
input 17618
representing 17616
completely 17603
temperature 17596
for@@ 17594
hospital 17583
soil 17581
86 17575
homes 17574
investors 17567
covers 17557
resumed 17544
Eritrea 17542
Nevertheless 17537
embargo 17537
died 17536
invitation 17534
Among 17531
fl@@ 17527
Se@@ 17513
barriers 17513
conventional 17512
Building 17505
newly 17505
Yet 17503
88 17494
conducting 17476
um@@ 17471
disabled 17466
Austria 17463
sponsors 17453
street 17447
Th@@ 17436
--@@ 17431
knew 17431
500 17425
substance 17422
GDP 17421
Are 17407
os 17406
Total 17405
Military 17404
crises 17404
commodity 17389
university 17389
dynamic 17388
productivity 17387
dedicated 17383
schedule 17371
ak@@ 17362
hot 17357
reliable 17343
Pro@@ 17327
Co 17320
gain 17312
greatest 17311
Business 17308
Cambodia 17308
seminar 17307
Calls 17302
Monday 17298
Once 17297
X 17285
weather 17285
qualified 17272
via 17265
execution 17253
ty 17249
grow 17243
Peoples 17236
dead 17228
properly 17225
doubt 17222
digital 17215
94 17210
patterns 17206
phone 17202
disposal 17200
ministerial 17198
organize 17180
wider 17162
ed@@ 17154
visited 17150
harm 17143
rising 17133
unilateral 17130
pattern 17129
oral 17121
&gt; 17120
incorporated 17108
degradation 17107
accessible 17100
gone 17094
ig@@ 17094
ton 17079
inventory 17078
constitutes 17069
president 17063
Budgetary 17059
intellectual 17058
stages 17050
ative 17048
facility 17048
stocks 17033
Strengthening 17030
alization 17030
Hoc 17022
forums 17021
slow 17021
farmers 17004
industries 16988
300 16985
ite 16968
phenomenon 16966
undertaking 16962
Friday 16958
92 16955
preparations 16955
becomes 16937
Y 16934
Serbia 16922
Representatives 16910
ver@@ 16902
integrate 16895
rapidly 16894
picture 16892
adopting 16887
ker 16886
Just 16885
finally 16878
allowing 16862
Sub 16861
claimed 16852
package 16824
ators 16821
bill 16813
objects 16807
Afghan 16804
wind 16804
faith 16795
spending 16786
pass 16785
inadequate 16782
vocational 16756
healthy 16752
danger 16741
91 16739
adverse 16720
Agriculture 16718
flexible 16707
appeared 16706
residence 16704
laid 16698
complaint 16694
appeals 16693
speech 16673
realize 16667
detail 16664
movements 16656
Observer 16654
German 16647
ical 16616
ten@@ 16616
Recognizing 16595
5.@@ 16590
student 16586
kinds 16585
relationships 16582
hit 16564
Gu@@ 16561
hearing 16560
os@@ 16559
drew 16554
transnational 16548
Team 16545
Every 16543
formation 16528
households 16518
War 16516
assisted 16500
format 16499
cluster 16492
Three 16473
Palestinians 16467
presents 16465
deeply 16453
interaction 16446
borders 16435
drawing 16421
Japanese 16416
Peacebuilding 16407
conclude 16405
-@@ 16387
89 16383
explain 16383
box 16365
outreach 16363
advancement 16361
significance 16361
enemy 16354
moved 16353
Before 16352
exception 16350
film 16347
withdrawal 16347
financed 16336
ministries 16328
firms 16320
remember 16306
Right 16305
considerations 16298
ology 16295
ged 16291
perhaps 16290
integral 16288
allowance 16285
flexibility 16278
ships 16277
we@@ 16276
agents 16271
behaviour 16271
contingent 16268
species 16260
occur 16259
ge 16245
length 16240
negotiation 16238
Nepal 16233
liberty 16233
anyone 16231
understood 16223
Kyoto 16220
Peru 16219
playing 16218
Armed 16212
sc@@ 16206
equally 16194
devoted 16149
Guidelines 16120
frequently 16120
Process 16113
Budget 16111
replace 16108
devices 16106
mo@@ 16091
School 16090
Guatemala 16079
supervision 16064
demonstrate 16051
Le@@ 16045
urge 16036
explanation 16034
suggestions 16033
Oversight 16030
professionals 16025
loans 16024
calling 16016
Angola 16009
port 16008
gains 16007
equivalent 15992
0.@@ 15976
Defence 15968
projected 15956
save 15931
Assessment 15924
summer 15922
Finland 15910
Environmental 15898
guaranteed 15895
deaths 15883
drive 15876
businesses 15856
proved 15856
Employment 15852
Sri 15846
chief 15846
airspace 15843
formulated 15836
moral 15833
ice 15820
begun 15818
style 15796
Treatment 15761
mitigation 15759
revenue 15751
ry 15751
commended 15747
C.5 15746
huge 15733
weak 15731
St@@ 15722
video 15717
lay 15708
suggest 15702
northern 15701
Pursuant 15686
inflation 15681
Intergovernmental 15679
ie 15674
zones 15674
psychological 15670
dependent 15667
acceptable 15655
C.1 15650
toward 15638
Roma 15634
refers 15632
Youth 15624
Auditors 15618
peacebuilding 15610
plants 15609
Excellency 15603
Island 15588
Take 15568
segment 15559
forests 15556
ses 15550
arrangement 15548
vi@@ 15548
programs 15543
res@@ 15543
married 15542
District 15538
presidential 15521
adequately 15519
Have 15509
determining 15495
VII 15493
ary 15480
reiterates 15472
SBI 15461
myself 15452
desire 15440
walk 15438
wage 15431
Here 15425
copy 15423
W 15421
ked 15419
leader 15419
expect 15409
seeks 15402
Trafficking 15391
violent 15379
belonging 15376
rejected 15373
ke 15371
Paragraph 15358
so@@ 15352
mercury 15350
reserve 15347
fees 15339
stood 15338
estimate 15335
carefully 15332
sports 15328
expresses 15326
revision 15322
K 15312
id 15291
Poland 15286
requesting 15284
manufacturing 15283
Similarly 15270
HRC 15256
Rome 15247
flight 15247
ban 15244
sectoral 15244
requiring 15243
occasion 15235
aggression 15234
RE@@ 15223
ties 15217
la 15215
duration 15214
eastern 15208
cell 15203
Mo@@ 15201
protocol 15199
lies 15195
tu@@ 15193
Dis@@ 15186
ex 15175
outputs 15174
applying 15169
CRC 15167
aspect 15163
machinery 15158
ists 15150
AN@@ 15148
intelligence 15148
ordinary 15143
ps 15137
composed 15136
ong 15135
die 15112
sing 15092
prohibition 15089
micro@@ 15080
signing 15080
command 15077
marked 15074
generated 15071
Singapore 15066
telephone 15063
reviewing 15059
ality 15056
dollar 15054
certainly 15053
demobilization 15053
injury 15052
counsel 15051
transfers 15038
powerful 15034
Within 15016
mostly 15013
Czech 15009
Ad@@ 15008
displacement 14990
Good 14984
tolerance 14984
ending 14981
U.S. 14978
detainees 14974
consumer 14966
Reduction 14953
lands 14947
impossible 14945
capable 14943
Issues 14942
profit 14941
proceed 14938
v. 14938
translation 14933
frame 14928
root 14927
ratio 14919
conjunction 14915
remedy 14910
properties 14897
willing 14895
laundering 14894
com@@ 14888
commit 14886
tests 14878
fill 14875
incident 14873
heat 14871
GEF 14870
customers 14868
define 14868
Indian 14865
ence 14859
missing 14858
coastal 14857
managing 14856
happened 14855
Su@@ 14854
solid 14843
tree 14835
1989 14831
eye 14825
cancer 14822
ble 14817
consolidated 14814
SBSTA 14813
thanks 14810
generate 14808
extradition 14806
biodiversity 14794
reportedly 14789
expanding 14779
residents 14779
producing 14778
win 14777
wealth 14775
ard 14771
sovereign 14766
transmission 14763
Rio 14760
Provision 14746
intolerance 14746
schemes 14746
strict 14735
skin 14730
separation 14717
tomorrow 14717
lawyers 14715
Conventions 14713
relate 14709
w 14702
Ecuador 14693
collected 14673
House 14672
é@@ 14668
Land 14666
.4 14661
Notes 14658
accurate 14655
League 14648
Procedure 14647
custody 14626
yesterday 14626
denied 14621
cells 14613
feeling 14613
1,000 14611
memory 14607
Self 14598
2,@@ 14596
Study 14590
procedural 14584
TV 14583
combination 14582
Co@@ 14580
Man@@ 14580
constituted 14579
surveys 14579
Venezuela 14556
Lanka 14554
finds 14535
Acting 14534
excellent 14531
tor 14531
Costa 14529
Communications 14524
oc@@ 14522
les 14519
piece 14516
UNCITRAL 14504
do@@ 14497
ber@@ 14485
mon@@ 14484
lists 14483
window 14478
arts 14477
Standing 14474
fisheries 14470
Region 14468
customary 14466
consolidation 14461
lose 14458
transmit 14446
Investment 14443
ish 14442
recognizing 14440
Doha 14437
Tuesday 14436
adjustments 14390
Decision 14389
title 14386
wants 14370
overview 14363
Greece 14359
amounted 14346
Counter 14342
derived 14341
shift 14341
ments 14334
facilitated 14331
drop 14329
doctor 14322
removal 14309
Head 14303
gu@@ 14302
hair 14302
anticipated 14290
evaluations 14287
instances 14285
neighbouring 14282
accountable 14281
sun 14281
correct 14279
dy 14279
Heads 14266
driven 14263
remove 14257
ud@@ 14254
ma 14250
attributable 14246
WFP 14237
SR.@@ 14236
repatriation 14233
lived 14230
Racial 14227
regardless 14212
transitional 14208
delays 14186
comprising 14181
Data 14179
manager 14170
journalists 14166
subjects 14161
closer 14153
tenth 14153
renewed 14148
Item 14147
Thursday 14145
MDGs 14136
ful 14136
submissions 14131
briefing 14125
12@@ 14122
chain 14121
Car@@ 14113
harassment 14088
award 14084
Adviser 14081
Belgium 14074
spend 14072
Tanzania 14069
hunger 14066
Be@@ 14056
120 14041
capability 14035
exists 14024
Evaluation 14021
millions 14019
grants 14016
watch 14001
responded 13998
Regarding 13995
rose 13991
Proliferation 13989
resolved 13988
ars 13980
reflecting 13971
der@@ 13969
ying 13968
destroyed 13960
distance 13958
employers 13957
Cross 13951
brother 13951
explosive 13949
linkages 13948
.. 13947
meant 13939
vacancy 13927
continent 13920
hundred 13913
replaced 13899
assessing 13898
Resolution 13896
ins 13894
coherent 13891
stronger 13890
transmitting 13888
allegedly 13880
tra@@ 13880
depend 13877
mark 13870
arrived 13861
attempts 13861
Kazakhstan 13858
Armenia 13856
bus 13855
mothers 13853
color 13851
wait 13850
Rev.1 13849
nutrition 13846
Me@@ 13845
invite 13844
pertaining 13839
Anti 13820
ically 13814
sell 13801
depends 13797
municipal 13794
realized 13791
annually 13786
observation 13785
recalls 13784
s.@@ 13766
cooperative 13764
houses 13754
E. 13752
analytical 13735
distinction 13735
convinced 13730
wh@@ 13725
gonna 13724
square 13724
Constitutional 13720
electricity 13714
applies 13712
j 13710
ir 13707
Progress 13705
concepts 13705
ise 13704
sed 13704
Welcomes 13701
Procurement 13694
frequency 13692
Who 13691
constant 13689
none 13686
universities 13683
ging 13679
Poverty 13678
pain 13675
Denmark 13673
biennial 13671
inputs 13669
arbitration 13660
proof 13657
consists 13649
parameters 13648
incentives 13643
medicine 13642
CO@@ 13636
alternatives 13630
hazardous 13630
dimensions 13629
1988 13625
providers 13625
offering 13621
enforced 13618
Guide 13616
Transitional 13616
struggle 13616
union 13592
instructions 13591
connected 13581
organizing 13580
harmful 13576
Analysis 13561
accession 13559
summit 13550
consultants 13547
maritime 13545
sleep 13541
du@@ 13536
28@@ 13530
atmosphere 13525
regarded 13525
filed 13513
bottom 13512
Follow 13508
bar@@ 13508
suffer 13506
assembly 13498
valid 13498
ru@@ 13495
plays 13487
Transport 13478
suggests 13477
Shanghai 13469
incurred 13469
Occupied 13468
solve 13467
Washington 13466
terrorists 13464
circulated 13462
negotiating 13462
ESCAP 13448
Encourages 13448
Bill 13443
extrabudgetary 13442
eligible 13440
reserves 13436
accompanied 13434
environmentally 13434
ously 13425
handling 13421
up@@ 13420
Statement 13416
ba@@ 13416
dimension 13413
prospects 13412
grateful 13402
hopes 13402
secret 13399
Mali 13398
index 13395
division 13394
dark 13369
OECD 13364
brief 13354
pursued 13336
balances 13334
filled 13322
notably 13321
IT 13316
camp 13315
defenders 13315
stone 13311
witness 13310
device 13305
ammunition 13304
accordingly 13296
drinking 13294
transaction 13283
store 13280
des 13265
wood 13261
dog 13260
genuine 13255
Par@@ 13250
headed 13248
advantages 13237
Annual 13233
vast 13232
ep@@ 13230
IPSAS 13227
restructuring 13223
marketing 13219
parallel 13213
CA@@ 13211
inequality 13207
Drug 13206
injured 13206
ass@@ 13202
Ab@@ 13197
waiting 13187
renewable 13186
divided 13185
Army 13180
underlying 13178
relates 13176
facilitation 13174
collect 13171
ring 13166
Uruguay 13151
ang 13150
Olympic 13135
limitations 13130
river 13130
introducing 13108
tables 13100
banking 13094
anti@@ 13082
Rica 13075
tri@@ 13066
pen@@ 13064
shape 13064
Arabia 13062
makers 13058
grade 13057
expectations 13035
Wednesday 13032
heading 13026
branch 13025
ra 13024
Committees 13017
provinces 13007
ized 13003
agent 13001
feet 13000
EN@@ 12995
responding 12989
mobilize 12988
college 12983
incorporate 12983
exclusion 12982
talking 12981
holders 12972
tend 12970
Greek 12968
east 12965
Developed 12964
merely 12956
Be 12952
comparison 12940
Consequently 12937
FDI 12923
Chad 12916
investigated 12897
season 12895
contractual 12888
Bar@@ 12885
gradually 12884
Penal 12883
Mrs. 12875
difficulty 12875
Sixth 12870
baby 12869
sky 12869
Country 12868
necessity 12866
Summary 12854
exposure 12853
smaller 12852
mandatory 12845
wastes 12842
pregnancy 12837
steel 12824
ka 12812
Ombudsman 12804
entering 12801
prove 12798
respected 12795
accommodation 12786
voting 12785
decides 12783
pace 12781
era 12778
involves 12777
sis 12768
0 12760
ER@@ 12755
Ghana 12755
V. 12754
fresh 12754
monetary 12750
ver 12747
compulsory 12737
iz@@ 12727
harmonization 12722
the@@ 12722
acquired 12719
quick 12717
transformation 12716
restricted 12711
Application 12702
Official 12702
beings 12694
Portugal 12691
judgement 12690
operative 12685
killing 12684
bridge 12677
meaningful 12668
Tunisia 12663
contacts 12662
emphasize 12659
gained 12659
Air 12655
western 12652
accelerate 12649
Har@@ 12648
Emergency 12647
Inspection 12640
desertification 12635
Libyan 12619
advances 12615
province 12615
Audit 12612
removed 12607
themes 12604
Document 12595
3,@@ 12592
literacy 12592
dream 12590
tor@@ 12586
sponsored 12585
pa@@ 12568
Decree 12567
refused 12565
CH@@ 12563
Senegal 12563
brain 12560
Urges 12555
ratify 12553
deemed 12540
liabilities 12537
driving 12533
stresses 12529
adults 12528
scientists 12527
Bissau 12524
29@@ 12520
liaison 12520
invasion 12518
detection 12517
Organized 12508
Corr.1 12507
mention 12505
receipt 12503
IN 12487
rain 12484
dry 12476
Obama 12474
Bolivia 12470
09 12467
Corruption 12449
az@@ 12449
animals 12446
PA@@ 12444
elderly 12444
clearance 12443
fit 12443
feature 12437
Bo@@ 12431
heritage 12430
Upon 12429
secured 12423
bar 12417
150 12414
trees 12414
researchers 12409
Senior 12405
daughter 12405
servicing 12405
occupying 12403
ion 12395
match 12394
ders 12384
27@@ 12380
accident 12372
mutually 12372
organ 12371
IT@@ 12367
issuance 12362
resistance 12355
Appeals 12354
commodities 12349
ke@@ 12347
xenophobia 12344
can@@ 12339
pose 12339
citizen 12337
shot 12332
genocide 12328
pregnant 12323
register 12322
thousand 12316
Center 12303
customer 12303
ely 12300
Educational 12299
Rule 12296
arise 12295
west 12295
Disabilities 12292
falling 12283
wear 12281
lie 12269
unto 12267
interference 12256
happen 12255
broken 12246
mobility 12243
ization 12235
blue 12232
formulate 12232
exploration 12231
mode 12225
putting 12223
Lastly 12220
abuses 12219
cor@@ 12219
Basic 12216
signature 12211
notification 12206
Between 12204
truly 12203
measurement 12201
famous 12200
ent@@ 12197
ize 12196
Area 12193
excessive 12192
whatever 12191
provincial 12182
Ordinance 12179
possession 12172
assume 12170
diverse 12168
freely 12167
helps 12166
isn 12163
twice 12162
wing 12162
Protocols 12161
ics 12158
evening 12157
necessarily 12157
citizenship 12149
villages 12146
propose 12139
hospitals 12138
Statements 12136
fraud 12123
focuses 12113
ES 12111
Arms 12109
ordered 12104
bu@@ 12096
Euro@@ 12091
deprived 12086
Legislative 12084
UNIFIL 12082
Mon@@ 12074
hosted 12069
reductions 12061
ba 12055
warm 12052
Montreal 12051
waters 12046
sur@@ 12041
01 12040
sum 12039
closing 12036
1st 12033
ale 12030
perfect 12029
tr@@ 12029
replacement 12022
decreased 12019
interactive 12018
spring 12018
conducive 12017
shares 12014
orientation 12013
Basel 12006
Romania 12005
ms 12005
offset 12003
declarations 12000
orally 11998
List 11995
consequence 11993
min@@ 11991
combatants 11990
continuation 11990
Company 11987
disseminate 11987
normally 11985
guided 11983
observe 11977
permitted 11977
ster 11975
05 11974
motion 11969
dec@@ 11968
rec@@ 11966
ran 11961
Main 11958
ci@@ 11958
hi@@ 11955
beneficiaries 11952
As@@ 11948
Road 11947
ati@@ 11947
sold 11946
logistics 11928
convening 11924
IMF 11921
Am@@ 11919
immigration 11919
cultures 11918
logistical 11912
Taiwan 11911
clothes 11908
technique 11903
Industrial 11897
Without 11892
Directorate 11880
prisons 11877
Invites 11875
client 11875
5,000 11866
biggest 11865
all@@ 11857
lawyer 11856
Province 11855
elaboration 11845
supplementary 11842
consistently 11838
Ensure 11837
targeting 11837
discharge 11835
Life 11833
Migration 11817
ges 11816
é 11814
showing 11808
couple 11804
Outer 11803
Nam 11798
alized 11793
2nd 11790
juvenile 11789
description 11788
persistent 11787
Salvador 11785
iv 11777
exchanges 11776
signs 11773
ODA 11768
assumed 11768
ay 11768
clients 11768
UNIFEM 11767
attitudes 11762
ina 11761
S. 11759
breach 11758
intensive 11756
landlocked 11756
electric 11754
war@@ 11754
sort 11750
au@@ 11747
TO 11746
Qatar 11744
speaker 11742
center 11734
Post 11733
politics 11728
analyses 11722
afternoon 11720
suspected 11719
seats 11716
Informal 11708
1990s 11703
ants 11703
careful 11702
opinions 11702
Customs 11695
Takes 11689
ay@@ 11689
commerce 11685
ak 11684
complement 11684
ore 11679
Session 11676
aw@@ 11671
competitiveness 11668
Provisional 11667
animal 11664
ger 11661
San 11658
minor 11649
MONUC 11642
Leste 11621
col@@ 11618
SA@@ 11611
preserve 11609
Relations 11608
parliamentary 11602
unity 11601
loan 11599
revealed 11591
extra 11588
Yemen 11584
certificate 11584
Access 11583
Resource 11580
unions 11568
causing 11567
glass 11565
attitude 11559
fulfilment 11553
drought 11551
Meanwhile 11549
Reports 11547
trials 11547
replies 11545
Web 11544
Montenegro 11541
sentenced 11530
quantity 11523
400 11519
Viet 11514
counselling 11513
conviction 11512
texts 11509
clarify 11507
08 11497
prejudice 11494
macroeconomic 11493
signal 11491
manufacture 11490
chap 11484
RA@@ 11482
Adoption 11479
paying 11469
liberalization 11467
Li@@ 11458
tons 11457
seat 11456
mediation 11454
Standards 11450
votes 11444
candidate 11440
enabled 11439
fail 11436
ational 11431
ving 11431
rely 11427
dates 11426
SE@@ 11420
massive 11416
ang@@ 11414
ta 11412
subparagraph 11406
River 11403
obvious 11401
regimes 11400
Capacity 11387
ourselves 11385
Statistical 11377
ancient 11369
Strip 11365
sion 11363
sight 11361
ocean 11359
addresses 11357
credibility 11355
indicator 11354
thy 11353
entirely 11352
consumers 11350
Per@@ 11346
appreciate 11346
knows 11345
Nicaragua 11344
ball 11333
eliminating 11330
鈥 11327
uc@@ 11319
servants 11317
Ban 11309
Qu@@ 11296
ya 11292
Consideration 11284
Uzbekistan 11275
chosen 11273
Sector 11268
air@@ 11263
ping 11261
proceeds 11261
7.@@ 11258
Facility 11249
contractors 11238
gets 11236
behavior 11235
airport 11232
Will 11229
IA@@ 11228
Combat 11225
holds 11224
contrast 11219
objection 11216
fe@@ 11209
favourable 11208
disaggregated 11205
shelter 11205
4,@@ 11201
Least 11201
eventually 11197
vis 11190
sorry 11186
NEPAD 11180
ines 11178
afraid 11176
Dialogue 11172
sentences 11172
trouble 11170
absolute 11168
Korean 11165
forthcoming 11162
USD 11160
interesting 11160
underlined 11160
threatened 11158
EC 11151
patient 11150
salaries 11150
prosperity 11149
chaired 11145
elsewhere 11142
ys 11135
repeated 11129
complexity 11121
leaves 11116
employee 11113
radiation 11113
memorandum 11111
channels 11106
Survey 11104
integrating 11099
suggestion 11095
pages 11092
adolescents 11091
Ba@@ 11088
stands 11084
Chemical 11083
ze 11083
remarks 11077
Would 11076
Ma@@ 11073
Conclusion 11072
Mauritius 11071
prosecutors 11071
manual 11070
thereof 11066
seekers 11063
roads 11061
sufficiently 11059
accomplishments 11058
Americans 11057
105 11056
Sha@@ 11049
emphasizes 11048
treat 11048
go@@ 11044
imports 11044
mouth 11034
strictly 11034
Dr. 11031
av@@ 11030
ner 11030
Interior 11029
expulsion 11028
survival 11024
Efforts 11023
06 11019
www.@@ 11019
ou 11017
clinical 11013
delayed 11006
hotel 11006
measured 11006
cur@@ 11002
Medical 10995
vessels 10994
impose 10982
historic 10981
reiterate 10981
ES@@ 10977
drink 10974
Syria 10971
den@@ 10969
recall 10965
Industry 10961
generations 10961
undermine 10959
adult 10956
disadvantaged 10951
Alliance 10949
reinforce 10949
Studies 10945
grown 10945
contents 10944
declined 10941
sect 10941
Pe@@ 10935
leads 10929
handle 10926
clarification 10921
kill 10919
occasions 10917
characterized 10916
AT@@ 10915
sw@@ 10911
firmly 10908
named 10907
enhancement 10906
600 10903
Settlements 10902
wages 10897
Interim 10895
thereto 10883
architecture 10881
employer 10879
pool 10876
budgeting 10874
Goal 10871
Hungary 10871
David 10869
Mu@@ 10869
systematically 10863
invites 10861
profile 10861
subsidies 10861
methodologies 10857
un 10850
ped 10847
tangible 10847
intensify 10844
24@@ 10838
sit 10836
approve 10833
Transnational 10832
surveillance 10830
Officers 10827
metal 10822
Cameroon 10819
ching 10819
momentum 10803
penalties 10801
mainstream 10797
rent 10795
willingness 10795
cruel 10794
thereon 10789
AR@@ 10787
exposed 10772
Durban 10768
argument 10768
reaction 10766
emergencies 10764
restore 10763
obtaining 10761
labor 10760
tin@@ 10759
protocols 10757
convene 10746
malaria 10746
od@@ 10733
repair 10731
Pre@@ 10730
facto 10729
convicted 10727
For@@ 10718
Mongolia 10718
Recommendation 10714
hundreds 10714
fired 10713
ung 10708
complementary 10705
Housing 10703
&#124; 10697
mountain 10692
ministers 10689
Mor@@ 10687
prevented 10684
Like 10683
error 10680
CN.9 10675
classes 10675
ana 10673
director 10672
ade 10670
ation@@ 10669
seized 10666
recruited 10662
Reaffirming 10657
decent 10651
monitored 10647
UNAMID 10646
101 10644
retirement 10642
insecurity 10638
subregion 10638
tribunal 10628
Consultative 10626
analyse 10622
Biological 10619
calculated 10618
Participation 10617
Electoral 10612
Establishment 10609
UNMIK 10608
indicating 10607
spare 10598
5,@@ 10596
catch 10591
imperative 10590
Add.@@ 10589
Organizations 10589
Branch 10587
comparative 10585
twentieth 10577
Participants 10574
Jamaica 10572
players 10566
EC@@ 10560
ven@@ 10554
enshrined 10553
emerged 10552
auspices 10548
foot 10544
He@@ 10542
soft 10540
therein 10540
easier 10526
arm 10521
af@@ 10515
contemporary 10511
analyzed 10507
forget 10507
DP 10499
Regulation 10499
prompt 10499
Conduct 10493
accounted 10492
1967 10489
acquire 10489
closure 10489
faces 10486
Ocean 10482
progressive 10482
Former 10479
Cuban 10478
8.@@ 10477
potentially 10476
inquiry 10468
Last 10466
ce@@ 10464
classification 10462
boat 10455
Instead 10453
generating 10450
library 10449
Property 10447
durable 10447
har@@ 10443
We@@ 10440
suppliers 10437
highlight 10434
concerted 10432
describe 10431
ess 10430
Mal@@ 10428
ches 10427
inhuman 10425
ved 10424
unlawful 10422
cards 10418
feasible 10418
evolution 10416
saving 10416
enormous 10412
minute 10411
organic 10411
files 10408
taxes 10406
algorithm 10403
fruit 10402
og@@ 10401
consolidate 10397
Commonwealth 10396
trip 10395
tackle 10393
layer 10392
ash 10385
stopped 10385
brings 10384
strike 10379
et@@ 10376
07 10369
110 10368
ST@@ 10360
250 10358
granting 10354
whereas 10351
Test 10349
happiness 10347
earthquake 10343
br@@ 10339
entrusted 10339
shop 10338
viable 10337
mar@@ 10331
block 10321
Logistics 10319
Fe@@ 10313
consult 10309
102 10303
Slovenia 10299
Q 10298
ecosystems 10297
Tajikistan 10291
administering 10291
immunity 10289
ning 10289
serves 10286
ASEAN 10285
Lu@@ 10285
ca@@ 10281
claimant 10279
appoint 10278
restoration 10278
scene 10278
participatory 10270
wave 10268
infection 10265
gh@@ 10263
ON 10258
overseas 10256
briefings 10254
exceptional 10254
No@@ 10252
credible 10249
curriculum 10247
ultimately 10246
sister 10245
ho@@ 10242
certification 10237
heavily 10237
ched 10236
eradicate 10234
corporations 10230
authorization 10227
outline 10224
safeguard 10221
Hu@@ 10219
ecosystem 10219
9.@@ 10216
substantially 10216
depending 10210
cease 10207
ID 10204
il 10199
# 10198
end@@ 10197
messages 10196
chair 10192
Bulgaria 10176
prevalence 10176
degrading 10173
intends 10172
modified 10171
coal 10167
ment@@ 10164
Order 10150
ill@@ 10149
engaging 10147
disclosure 10145
stipulated 10143
consisting 10140
concentration 10136
satisfied 10133
nice 10127
Com@@ 10125
Burkina 10118
severely 10118
fi@@ 10117
26@@ 10114
appropriation 10114
establishes 10113
whereby 10113
Faso 10112
parent 10111
possibilities 10111
count 10110
ky 10102
destination 10096
coordinator 10095
mixed 10094
herself 10093
existed 10084
tensions 10080
ites 10075
SecretaryGeneral 10073
Australian 10069
Equal 10066
excluded 10066
slightly 10063
Saharan 10062
PR@@ 10056
greenhouse 10054
MO@@ 10053
A.@@ 10047
emission 10046
Common 10045
CP@@ 10044
reaffirm 10040
termination 10038
alize 10037
perspectives 10035
plane 10034
RC 10033
confirm 10033
pursuit 10033
Somali 10032
encountered 10031
Aligned 10030
Articles 10030
zero 10025
suspended 10021
Saint 10019
possibly 10019
promptly 10014
College 10010
questionnaire 10010
ran@@ 10008
sized 10008
retain 10006
initiate 9997
load 9996
worst 9996
explicitly 9995
Free 9994
attract 9990
work@@ 9990
benefited 9989
contracting 9983
murder 9981
cre@@ 9980
Reform 9971
Did 9969
partly 9967
finalized 9965
Disaster 9958
Pension 9958
duplication 9952
workload 9946
3rd 9945
VIII 9943
Prohibition 9940
statute 9936
copies 9929
Target 9926
aries 9925
Atomic 9923
promise 9911
Ne@@ 9910
drafted 9910
prosecute 9910
false 9907
comprises 9906
Libya 9904
tion@@ 9897
multi@@ 9896
Macedonia 9895
ial 9895
Advancement 9894
interview 9894
Against 9888
SO@@ 9888
grass 9888
opposed 9885
satisfactory 9878
ler 9877
Min@@ 9874
inhabitants 9874
wrote 9873
dropped 9871
portion 9871
reimbursement 9867
exactly 9866
merits 9866
exceed 9863
retained 9859
bs 9858
ats 9855
deals 9850
sole 9850
Zambia 9849
winter 9848
gathering 9824
gratitude 9824
IF@@ 9823
spite 9821
maternity 9813
viewed 9811
mitigate 9807
disciplinary 9804
maintains 9803
enjoyed 9797
engine 9794
Muslim 9791
prevailing 9785
Canadian 9784
Sahara 9779
feasibility 9779
indirect 9779
111 9775
feedback 9770
images 9770
tracking 9770
ley 9769
plus 9766
workplace 9766
ECA 9765
NA@@ 9763
tly 9756
103 9746
tension 9741
exercises 9736
ls 9732
ming 9731
repeatedly 9727
cast 9726
genetic 9726
negotiated 9726
caught 9725
pursuing 9725
ultimate 9725
sat 9721
ai@@ 9717
adjusted 9716
star 9715
conversion 9713
if@@ 9713
fewer 9711
deadline 9709
marginalized 9709
defining 9705
Recommendations 9704
Voluntary 9704
calendar 9703
listen 9703
urgently 9703
deprivation 9699
Unfortunately 9697
affects 9696
smooth 9694
owners 9693
CE@@ 9690
aside 9685
acid 9684
performing 9683
6,@@ 9678
adding 9677
ME@@ 9671
Stockholm 9670
assignment 9670
Workers 9666
ye 9666
Albania 9662
mu@@ 9662
King 9661
ly@@ 9661
ably 9660
ethics 9658
UNMIL 9657
mat@@ 9656
estate 9655
ranging 9655
alism 9653
Mozambique 9650
returns 9649
reaffirms 9648
awarded 9629
roll 9628
acute 9626
adapt 9624
LA@@ 9623
handed 9622
Cor@@ 9621
utilized 9620
measuring 9614
presentations 9611
touch 9610
Thank 9609
Bush 9608
discipline 9605
thorough 9595
Welcoming 9592
prescribed 9586
Bi@@ 9585
seeing 9585
appointments 9584
sport 9583
translated 9582
experiment 9575
den 9574
Time 9568
permits 9568
pleasure 9565
initially 9562
SC 9561
Related 9558
eg@@ 9557
readiness 9556
La@@ 9553
rock 9550
000 9548
urgency 9544
disappearance 9541
constitution 9540
1980 9529
IS 9529
appreciated 9529
ological 9527
communicate 9521
formally 9517
ach@@ 9511
ff@@ 9511
hydro@@ 9511
injuries 9508
uniform 9508
sample 9506
fashion 9503
appearance 9498
summarized 9498
worker 9497
UNDCP 9496
considerably 9496
ste@@ 9496
Jo@@ 9494
El@@ 9491
incidence 9491
worse 9490
Scheme 9481
Sir 9479
falls 9476
occupational 9476
ECOWAS 9473
surrounding 9463
enforce 9462
evident 9460
ut@@ 9455
display 9449
1.2 9447
expensive 9442
compromise 9441
UNOCI 9440
Street 9437
tested 9436
ensured 9432
districts 9429
sick 9429
Envoy 9427
channel 9423
accessibility 9421
MI@@ 9418
continuity 9413
enrolment 9412
administered 9408
che@@ 9407
ned 9405
asking 9404
ends 9404
Arabic 9402
30@@ 9401
assurances 9398
104 9395
pretty 9393
synergies 9393
sions 9392
Monetary 9381
regrets 9380
Punishment 9379
ber 9379
preparedness 9378
Ac@@ 9376
confident 9374
dinner 9362
MA@@ 9361
UK 9361
PO@@ 9359
applicant 9358
producers 9358
apparent 9350
Conflict 9346
whenever 9344
affordable 9342
Welfare 9339
hostilities 9338
fee 9337
Should 9336
ens 9336
200@@ 9335
gathered 9332
promotes 9329
sl@@ 9327
OSCE 9324
noise 9324
e.@@ 9323
beneficial 9320
guilty 9320
delegates 9318
mer@@ 9318
Iranian 9315
remuneration 9315
exclusive 9312
Professor 9311
computers 9311
subsistence 9311
consistency 9310
F. 9308
launching 9308
guiding 9307
CO 9304
crops 9304
fo@@ 9303
ish@@ 9303
ur 9303
gr@@ 9302
afford 9301
Yugoslav 9300
tics 9300
2,000 9299
rental 9298
regret 9296
resume 9296
municipalities 9292
ceasefire 9291
distinct 9288
frequent 9286
atory 9285
Source 9284
accuracy 9284
dual 9284
studying 9284
Standard 9280
branches 9280
minors 9277
Sa@@ 9276
cited 9276
assurance 9275
11@@ 9269
referendum 9269
discovered 9264
tors 9253
contributes 9251
finished 9245
factory 9241
submits 9240
Sal@@ 9239
03 9238
munitions 9238
firearms 9236
Communication 9235
limitation 9231
foundations 9227
UR@@ 9226
sa@@ 9224
creative 9223
instability 9213
External 9210
gen@@ 9210
Governmental 9209
Lithuania 9209
U. 9207
fostering 9201
sal@@ 9200
FCCC 9196
enacted 9194
precise 9191
upper 9190
acted 9186
turning 9185
presidency 9177
108 9173
Introduction 9164
coffee 9163
couldn 9161
profits 9160
1986 9157
exclusively 9157
impartial 9156
moon 9155
Institutions 9154
realistic 9153
Trial 9151
cu@@ 9149
poorest 9143
cars 9134
partial 9134
106 9131
suspension 9129
Culture 9126
extraordinary 9125
Concerning 9124
spot 9117
colleagues 9113
ID@@ 9112
Production 9111
ess@@ 9108
02 9103
minimize 9103
diagnosis 9102
innocent 9098
flowers 9095
steady 9088
sustain 9084
tic@@ 9084
obliged 9081
publicly 9077
updating 9076
Currently 9068
unprecedented 9068
usual 9066
Moldova 9064
Four 9057
milk 9056
constantly 9051
ow@@ 9050
Volunteers 9049
04 9044
gate 9043
IC 9041
aviation 9039
redress 9038
bought 9036
sen@@ 9032
Which 9031
q@@ 9030
sitting 9029
pro 9028
formulating 9023
Panama 9022
expressing 9020
Zimbabwe 9019
Her@@ 9013
23@@ 9011
capita 9011
replied 9009
ruling 9008
references 9006
Relief 9005
00@@ 9002
indispensable 9002
ov 9002
assumption 9001
ideal 9001
calculation 8999
Personal 8998
Tom 8997
Workshop 8996
Could 8994
doctors 8989
gra@@ 8989
107 8988
games 8986
prohibit 8983
130 8981
AP@@ 8979
pillars 8979
sts 8978
operated 8977
Games 8975
pressing 8975
deposit 8973
ecological 8973
ery 8972
abortion 8971
ju@@ 8971
800 8970
virus 8966
argued 8964
normative 8964
7,@@ 8960
Ben@@ 8960
haven 8959
rice 8956
definitions 8954
extending 8954
organisations 8952
鈥@@ 8952
beauty 8951
els 8951
preservation 8950
Ro@@ 8949
Taliban 8949
Contracting 8947
thou 8947
England 8946
advancing 8945
guard 8944
stakeholder 8943
proposes 8940
Continue 8939
owner 8938
perceived 8938
.3 8936
Domestic 8933
compilation 8933
legitimacy 8933
smuggling 8933
cargo 8930
fulfilling 8929
Atlantic 8928
Effective 8926
st 8926
iron 8922
refrain 8921
equipped 8917
Five 8914
excess 8914
print 8914
instruction 8913
condemned 8912
guy 8910
Hague 8909
telecommunications 8906
1.1 8902
tea 8896
budgeted 8895
grew 8895
observance 8895
Rec@@ 8894
driver 8892
codes 8890
printing 8887
screen 8886
helpful 8879
and@@ 8877
separately 8877
endeavour 8873
ture 8872
White 8864
automatic 8864
UNCCD 8862
justified 8860
literature 8860
characteristic 8848
fissile 8848
ret@@ 8847
installation 8846
back@@ 8845
fate 8835
executed 8829
TA@@ 8826
amend 8824
revenues 8822
115 8821
indication 8820
Look 8819
shipment 8814
withdraw 8813
men@@ 8811
rendered 8811
Final 8810
dly 8810
submitting 8807
pick 8801
Capital 8799
liquid 8799
resort 8799
securities 8791
Kuwaiti 8784
Administrator 8781
ST 8780
suit 8780
buyer 8778
solely 8778
dress 8776
robust 8776
referring 8774
Promoting 8766
settled 8766
Secondly 8760
regulated 8760
admissibility 8753
borne 8750
advise 8748
Italian 8745
ageing 8740
Emirates 8738
sive 8736
flying 8730
slowly 8725
phases 8718
elaborate 8716
J 8713
invest 8711
upgrading 8710
interface 8708
pieces 8706
fly 8704
9,@@ 8703
Supplement 8702
Benin 8700
super@@ 8697
112 8691
Major 8690
Col@@ 8689
efficiently 8683
Round 8679
predictable 8678
livelihoods 8675
Sam@@ 8670
returning 8669
appraisal 8666
describes 8666
ip@@ 8666
regulate 8666
policymakers 8662
pledges 8660
Base 8655
arrival 8652
10.@@ 8647
Im@@ 8646
bright 8646
autonomy 8644
complicated 8642
uncertainty 8642
feed 8641
childhood 8632
25@@ 8629
executions 8626
selling 8623
visiting 8621
stories 8617
bra@@ 8615
missile 8614
faster 8613
ING 8611
resolving 8609
passing 8608
Appeal 8607
Slovakia 8607
Parliamentary 8601
1985 8597
advisers 8597
ai 8596
ances 8593
soul 8591
ist@@ 8589
ozone 8588
designing 8587
IP@@ 8580
cra@@ 8580
http 8580
Sunday 8578
adherence 8577
1987 8575
relatives 8575
Does 8573
100,000 8568
wine 8567
assure 8566
environments 8566
Mediterranean 8564
Case 8560
CC@@ 8556
demographic 8556
sharp 8554
validity 8553
ast@@ 8552
recipient 8551
8,@@ 8548
movie 8548
pornography 8547
nevertheless 8546
Malta 8539
separated 8538
raw 8537
ban@@ 8531
Construction 8528
curricula 8527
damaged 8518
boss 8512
profound 8510
Ber@@ 8508
roots 8507
registry 8506
116 8505
allocate 8504
Methods 8502
Yeah 8502
sphere 8501
Na@@ 8496
straight 8495
OR@@ 8494
Level 8491
rooms 8490
gi@@ 8486
Cypriot 8485
newspaper 8482
edge 8480
epidemic 8479
succeed 8476
1.5 8473
audience 8472
desirable 8471
islands 8470
aff@@ 8469
geographic 8469
damages 8468
Judge 8467
inherent 8466
documented 8458
governed 8458
114 8451
Bu@@ 8447
unknown 8444
automatically 8443
supportive 8440
row 8438
originally 8437
Christmas 8433
utmost 8431
databases 8429
surplus 8428
Swiss 8427
ha 8427
FA@@ 8425
Mine 8425
busy 8419
pan@@ 8418
Election 8417
offenders 8416
Commercial 8414
slavery 8414
visible 8414
Long 8411
bro@@ 8408
ensures 8408
attendance 8407
CONF.@@ 8396
PA 8393
tw@@ 8392
aging 8391
unemployed 8391
Contributions 8390
2.1 8385
Jesus 8384
ns 8383
accidents 8382
deficit 8382
economically 8381
statutory 8381
pledged 8378
insolvency 8371
continuously 8370
mm 8370
ER 8369
highlights 8367
ths 8365
departure 8360
forestry 8359
networking 8359
Aid 8357
sons 8346
Make 8345
collaborative 8345
essentially 8343
ease 8341
outset 8339
ev@@ 8338
preceding 8334
Namibia 8332
comparable 8331
Rural 8326
chronic 8326
narrow 8325
AL@@ 8321
gs 8320
securing 8317
brand 8314
responsive 8314
Monterrey 8310
Provide 8309
om 8307
settings 8307
formula 8306
Academy 8305
therapy 8305
eating 8302
head@@ 8302
Come 8297
fun 8294
phrase 8294
challenging 8292
ports 8290
yield 8288
atic 8286
Question 8284
miles 8283
choices 8280
Congolese 8279
hand@@ 8277
listing 8273
welcoming 8272
visitors 8271
minister 8266
1982 8265
About 8262
towns 8257
aspirations 8255
dic@@ 8255
farm 8254
residential 8254
acknowledge 8252
admitted 8252
debates 8252
verify 8250
redeployment 8249
supposed 8249
declare 8248
verbale 8247
advised 8245
Results 8242
Latvia 8239
ari@@ 8234
Or 8233
wasn 8229
stereotypes 8224
founded 8223
113 8221
laboratory 8221
classified 8218
cultivation 8218
inequalities 8213
planet 8213
qualifications 8209
Jamahiriya 8205
212 8200
select 8200
tradition 8200
ESCWA 8199
Judicial 8198
proven 8198
ceremony 8196
contractor 8195
0,000 8194
Sexual 8194
wise 8194
feelings 8193
Men 8191
partially 8191
,0@@ 8190
proceeding 8190
Reaffirms 8189
colour 8187
undertook 8184
5th 8183
SMEs 8182
hom@@ 8178
sixtieth 8175
Though 8174
oceans 8174
109 8171
flag 8159
escape 8157
Responsible 8156
SA 8156
des@@ 8155
diversification 8152
realities 8150
battle 8149
investigating 8145
broke 8143
desk 8139
im 8136
apart 8135
earnings 8133
ie@@ 8131
seas 8129
ethical 8128
Proposed 8127
hurt 8120
ours 8118
Private 8114
elaborated 8114
ECE 8108
Green 8104
amounting 8099
confidential 8097
reflection 8097
defend 8096
skill 8093
analysed 8091
attributed 8091
fallen 8088
sha@@ 8088
CAT 8087
boundary 8087
retention 8084
examining 8080
typically 8080
4th 8079
Em@@ 8078
del@@ 8070
notion 8068
DC 8064
electrical 8062
duly 8061
Dominican 8059
illness 8057
Library 8055
visual 8054
commonly 8052
her@@ 8052
thesis 8052
route 8050
totally 8050
licence 8048
ann@@ 8040
processed 8039
lift 8037
collecting 8035
Accounting 8028
of@@ 8026
reinforcing 8021
solar 8021
vo@@ 8021
Using 8018
ws 8018
hole 8011
Consensus 8005
judgment 8003
hate 8001
garden 7998
ol 7996
Overall 7994
arguments 7992
placement 7989
Li 7986
Maybe 7981
occurs 7980
obstacle 7979
nongovernmental 7978
lu@@ 7977
killings 7974
forming 7973
negotiate 7973
Dec@@ 7972
0,@@ 7971
specify 7971
micro 7970
Haitian 7967
rare 7967
bio@@ 7960
answered 7958
mere 7958
sending 7958
Bangkok 7957
locally 7957
prefer 7955
Forests 7954
Freedom 7954
Additionally 7948
controlling 7948
ians 7948
loved 7948
reverse 7946
vary 7946
pol@@ 7942
water@@ 7940
Outcome 7939
autonomous 7939
traditions 7939
baseline 7934
valuation 7934
Systems 7933
IDB.@@ 7932
Increase 7932
push 7932
clause 7929
infant 7928
Diversity 7927
clothing 7927
optional 7926
Presidents 7923
plastic 7923
2.5 7922
Urban 7921
summits 7916
fault 7913
skilled 7909
Gulf 7906
HR 7904
Sub@@ 7902
ire 7902
privacy 7901
concentrated 7900
1373 7899
Twenty 7893
dance 7890
attempted 7887
harmony 7886
are@@ 7885
runs 7885
hatred 7879
Unity 7877
interpreted 7877
ell@@ 7876
certificates 7875
Or@@ 7872
delivering 7872
divisions 7871
maybe 7869
ear@@ 7868
thoughts 7868
interviews 7867
700 7862
Program 7862
unacceptable 7859
tribunals 7857
Illicit 7853
ine@@ 7851
unified 7850
deterioration 7849
descent 7848
pupils 7848
GM 7847
inspections 7845
Desertification 7842
Figure 7839
divorce 7839
izing 7838
tur@@ 7834
.5 7826
meat 7826
118 7822
admission 7821
shipping 7820
thanked 7817
CS@@ 7814
IX 7813
Victims 7813
IM@@ 7810
TS 7810
117 7808
bases 7808
worry 7807
hardly 7803
post@@ 7801
smile 7801
LORD 7799
3,000 7798
Programmes 7796
OAU 7795
domain 7795
DE@@ 7794
fa@@ 7787
tenure 7784
Matters 7781
lowest 7779
fulfilled 7778
lots 7778
harmonized 7776
simulation 7773
Body 7770
fragile 7769
imp@@ 7766
mobilizing 7766
suddenly 7765
logical 7762
finish 7756
meets 7753
10,000 7752
stipulates 7749
122 7748
yuan 7747
Ge@@ 7745
arrive 7744
weekly 7744
alizing 7743
mal@@ 7743
opposite 7741
recording 7740
2.2 7735
congratulate 7735
band 7734
Perhaps 7732
Delegations 7731
ised 7726
Tribunals 7725
justify 7725
160 7724
dri@@ 7723
cul@@ 7721
Practice 7717
globally 7717
evaluated 7715
religions 7712
ani 7710
medicines 7709
60@@ 7708
Sometimes 7706
census 7705
Marine 7703
Maritime 7700
down@@ 7699
decentralization 7697
Narcotic 7693
thirds 7693
piracy 7692
seller 7691
discussing 7689
wouldn 7688
gift 7686
ama 7685
boost 7681
kilometres 7681
exercised 7676
IR@@ 7671
ratifying 7670
jurisprudence 7668
reinforced 7666
han@@ 7665
owed 7664
portfolio 7664
12.@@ 7661
Conferences 7660
evaluating 7658
payable 7653
Michael 7650
Golan 7648
holiday 7643
player 7643
unlikely 7643
gro@@ 7641
practitioners 7640
Po@@ 7638
plate 7632
2020 7626
PC 7624
threshold 7624
allocations 7618
Sch@@ 7616
attending 7611
Estonia 7607
permission 7607
foreigners 7605
11.@@ 7598
familiar 7593
protective 7593
NATO 7592
zed 7588
fat 7587
140 7586
Royal 7586
structured 7586
introduces 7585
accorded 7580
evolving 7580
explicit 7580
JIU 7579
motor 7578
stri@@ 7578
RO@@ 7574
ne 7574
installed 7573
cuts 7571
puts 7570
Agricultural 7568
Commerce 7565
UNMIS 7565
thee 7565
crossing 7564
Investigation 7563
furniture 7561
CC 7560
125 7557
expense 7557
marks 7555
oo@@ 7555
refusal 7555
witnessed 7553
decolonization 7550
Response 7549
iti@@ 7546
ce 7544
wording 7543
fiftieth 7541
onto 7541
typical 7535
awards 7531
aforementioned 7529
Kyrgyzstan 7528
hor@@ 7528
boards 7527
appropriately 7525
coast 7524
Iceland 7521
officially 7520
destroy 7516
mer 7515
lending 7513
reliance 7512
Certain 7511
horse 7508
sk@@ 7508
Brussels 7506
Subsequently 7506
Account 7505
ought 7502
prime 7501
Manual 7500
Natural 7495
park 7495
wonder 7495
metres 7492
placing 7492
managerial 7490
struck 7484
Mary 7482
manifestations 7482
carrier 7481
ot 7481
crop 7477
ye@@ 7476
settle 7474
experimental 7472
Records 7469
decree 7467
module 7466
ao 7465
maximize 7465
mankind 7463
assured 7459
bird 7456
preferred 7456
ier 7454
oring 7454
1978 7448
sheet 7447
ash@@ 7445
Care 7440
underscored 7440
Honduras 7436
CN@@ 7433
bag 7433
CON@@ 7431
operators 7428
sy 7428
ther@@ 7424
wa@@ 7423
advocate 7421
cal@@ 7421
debris 7421
justification 7417
Madrid 7410
advertising 7407
benchmarks 7407
creditors 7406
George 7405
Johannesburg 7405
Djibouti 7402
ibid 7401
Press 7400
enti@@ 7398
50@@ 7396
desired 7396
kids 7393
poly@@ 7393
Ta@@ 7392
Insurance 7390
dra@@ 7390
peer 7390
ple 7388
Design 7386
hy@@ 7383
walked 7383
Situation 7372
119 7369
Besides 7367
specialists 7363
corner 7361
Kar@@ 7358
transboundary 7358
allowances 7357
sincere 7356
column 7355
degrees 7354
resilience 7354
reliability 7353
tering 7351
Registry 7346
testimony 7346
flights 7345
Suppression 7344
Multilateral 7339
workforce 7339
rel@@ 7338
Lao 7336
passage 7336
holistic 7335
denial 7334
SS 7333
contingency 7329
ray 7327
somewhat 7327
proud 7325
TH@@ 7324
church 7322
ile 7321
pillar 7321
parliament 7318
ple@@ 7316
smoke 7316
liable 7312
Gra@@ 7310
motivated 7309
Mc@@ 7303
Paraguay 7303
rescue 7301
shortage 7301
associate 7299
fairly 7299
radioactive 7297
valued 7296
Woods 7295
ering 7295
fin@@ 7289
bul@@ 7283
disparities 7283
Soviet 7281
aligned 7280
nominated 7280
wild 7280
breaking 7279
bid 7278
unpaid 7277
directors 7276
UNAIDS 7275
exceptions 7273
possess 7270
IL@@ 7269
istic 7269
vessel 7269
Register 7268
genital 7267
Develop 7266
MINUSTAH 7266
decisive 7264
Immigration 7262
tan@@ 7261
Expresses 7259
herewith 7259
releases 7258
stick 7257
Prosecution 7256
streets 7255
jurisdictions 7254
cha@@ 7251
Turkmenistan 7250
ities 7250
1,0@@ 7247
malnutrition 7241
kin@@ 7239
1.3 7238
quantitative 7238
distinguished 7234
imposition 7234
hosting 7231
str@@ 7231
Due 7224
walking 7222
births 7217
que 7217
accommodate 7216
football 7215
happens 7214
taught 7214
adjust 7213
breakdown 7213
samples 7213
ide 7208
C.@@ 7207
IA 7207
briefed 7207
exercising 7203
ni@@ 7199
fer@@ 7198
abolition 7197
Fiji 7196
audits 7189
AMISOM 7188
Coordinating 7187
ium 7187
punish 7187
Cha@@ 7186
capture 7186
spoken 7186
sweet 7186
LE@@ 7184
ff 7184
Love 7183
Others 7182
resettlement 7182
FOR 7181
eleventh 7180
thin 7178
revolution 7174
beat 7170
wisdom 7170
IP 7169
theoretical 7166
180 7165
Bahrain 7165
M. 7165
\ 7165
incorporating 7164
Violations 7161
alien 7160
Light 7157
arranged 7156
stabilization 7156
vacancies 7155
Hall 7154
vice 7152
Corporation 7150
ast 7150
excluding 7147
Tra@@ 7145
jo@@ 7144
enables 7143
accomplished 7141
avoiding 7141
friendship 7139
applicants 7138
123 7136
telling 7135
Recent 7134
inadmissible 7133
teach 7133
clarified 7131
ily 7130
ined 7130
med 7130
mechanical 7128
tendency 7127
So@@ 7126
comprise 7125
ant@@ 7124
appealed 7119
everywhere 7119
participant 7119
tribute 7118
violate 7109
our@@ 7107
ECLAC 7106
presenting 7106
Niger 7104
demonstration 7104
punished 7100
intensified 7099
ited 7099
Ru@@ 7098
ain 7098
calm 7098
server 7097
joy 7096
IG@@ 7095
CR@@ 7093
ach 7093
irrespective 7090
tonight 7090
Ha@@ 7083
Young 7082
countering 7080
Market 7079
tired 7078
tional 7077
usage 7077
Copenhagen 7075
strive 7074
da@@ 7072
cope 7071
optimal 7071
creates 7070
utility 7070
Steering 7069
dont 7065
birds 7064
counterparts 7063
char@@ 7060
club 7056
Home 7053
threaten 7053
consist 7048
Mer@@ 7047
bis 7047
Lo@@ 7044
commentary 7044
mor@@ 7044
sti@@ 7039
Cairo 7036
supplement 7036
patrol 7035
navigation 7033
shortcomings 7033
bonds 7032
disseminated 7032
mistake 7032
satisfy 7031
screening 7028
Key 7025
toxic 7021
gun 7020
personality 7019
silence 7019
stating 7018
watching 7013
2016 7011
recurrent 7011
wake 7005
Personnel 7002
immigrants 7001
arbitral 6998
upcoming 6996
evil 6995
survivors 6995
mineral 6992
Promote 6990
pres@@ 6990
supplied 6989
Tax 6988
posted 6988
sm@@ 6987
Amendment 6985
attacked 6985
solving 6984
alcohol 6980
song 6980
Sudanese 6979
inner 6976
Works 6975
UNU 6974
121 6973
remind 6972
AM@@ 6971
simultaneously 6969
withdrawn 6966
attainment 6965
flat 6965
receives 6959
resumption 6959
utilize 6958
impartiality 6956
Te@@ 6955
timetable 6951
Integration 6949
empty 6949
poses 6949
Serious 6948
freeze 6947
Date 6946
Governance 6945
novel 6945
deposits 6942
intimidation 6942
answers 6940
journey 6939
Improved 6936
coordinates 6936
till 6936
Stresses 6935
circulation 6934
configuration 6933
P.@@ 6932
county 6930
emergence 6928
PS 6925
sun@@ 6920
Exchange 6919
secretariats 6919
Christian 6918
virtue 6918
au 6917
Ra@@ 6910
voters 6905
cy@@ 6903
6th 6901
missiles 6901
Racism 6895
imported 6894
153 6891
Electronic 6891
militia 6890
succession 6890
accelerated 6885
gather 6885
ening 6883
younger 6883
Port 6880
modernization 6880
Can@@ 6879
investigative 6879
shoes 6879
forever 6876
Bolivarian 6875
Registrar 6871
q 6871
bur@@ 6869
50,000 6868
deleted 6868
penal 6868
ads 6866
refuse 6863
adapted 6861
coordinators 6857
ently 6856
yes 6856
Recognizes 6855
incorporation 6855
guaranteeing 6853
km 6853
H.E. 6851
Meetings 6851
Performance 6851
intent 6850
orbit 6850
Liechtenstein 6849
alive 6848
pu@@ 6846
unnecessary 6845
attain 6838
Bretton 6837
writer 6837
circled 6836
va 6832
economics 6830
nationally 6829
900 6828
criticism 6828
tures 6824
voted 6824
detect 6822
storm 6822
spouse 6820
Views 6817
dem@@ 6814
rotation 6814
abstentions 6812
Powers 6810
Tokyo 6810
Park 6809
ric@@ 6808
Puerto 6805
Wall 6804
commenced 6804
Cabinet 6803
angle 6802
compound 6800
routine 6800
commencement 6798
1973 6796
ement 6796
isolation 6796
broadly 6795
AC 6794
indirectly 6794
tobacco 6793
Du@@ 6791
casualties 6791
volunteers 6791
Paul 6790
acceded 6790
1981 6787
Peter 6786
radi@@ 6786
Tr@@ 6784
Registration 6780
debtor 6780
guideline 6779
preambular 6778
restaurant 6778
Arbitration 6777
G. 6776
diplomacy 6776
Qaida 6775
Hence 6773
regulating 6772
Malawi 6770
crowd 6765
tes 6761
155 6760
Mag@@ 6759
Moscow 6758
ster@@ 6758
1949 6751
institutes 6746
kes 6737
kg 6737
prosecuted 6737
attractive 6735
mutilation 6735
shortly 6734
smoking 6734
taste 6734
emotional 6733
ICRC 6732
convey 6732
prominent 6732
passengers 6730
politically 6728
abilities 6727
CDM 6724
squ@@ 6721
Current 6719
att@@ 6718
quiet 6718
belong 6716
fellow 6716
Specific 6714
marry 6709
val@@ 6707
venture 6706
sad 6698
clarity 6697
rou@@ 6696
Early 6695
entrepreneurs 6691
fertility 6691
render 6690
weaknesses 6690
sponsoring 6689
miss 6688
sted 6688
Rwandan 6687
ambitious 6685
wherever 6685
2.3 6684
Independence 6682
snow 6681
elect 6677
em 6677
intersessional 6674
disappeared 6673
124 6672
spectrum 6672
neighbours 6671
UNFCCC 6668
wondered 6658
Operational 6657
prohibits 6657
characters 6651
cap@@ 6647
dr@@ 6645
concludes 6642
limiting 6642
3.1 6641
surprise 6640
constructed 6639
divide 6637
Zone 6635
quantities 6634
ga@@ 6633
Z 6632
Thanks 6631
1540 6630
infected 6629
drivers 6628
itation 6628
explored 6627
sugar 6627
rough 6624
Baghdad 6620
wearing 6620
proactive 6615
Lakes 6613
kers 6612
Whether 6611
annexes 6611
euro 6611
spheres 6610
vis@@ 6610
exact 6609
hearings 6609
Ca@@ 6607
begins 6605
Saturday 6604
buying 6604
remarkable 6604
standardized 6603
Rem@@ 6602
Go@@ 6599
holder 6595
parental 6591
briefly 6589
independently 6588
females 6586
extrajudicial 6585
cool 6583
Opportunities 6581
off@@ 6580
Addis 6579
hence 6576
Ver@@ 6575
prosecutor 6574
monitors 6573
sexually 6573
recover 6571
updates 6571
ane 6570
blind 6568
reputation 6567
broadcast 6566
pair 6565
creditor 6561
Attorney 6560
Luxembourg 6560
sir 6560
fied 6559
courage 6558
Quality 6557
linking 6556
Ste@@ 6551
ey 6550
programmatic 6550
1984 6546
council 6544
zing 6544
182 6543
neutral 6542
Resident 6541
timing 6537
losing 6535
marking 6533
profession 6533
intend 6532
138 6530
9th 6530
Samoa 6530
entrepreneurship 6529
Ababa 6527
Togo 6527
cooperating 6525
sees 6521
traditionally 6521
Cs 6520
tariff 6519
hel@@ 6518
XI 6517
issuing 6514
Regular 6513
fil@@ 6512
pat@@ 6512
developmental 6509
ll 6506
carries 6504
spouses 6504
defense 6501
ious 6501
lying 6501
modules 6499
virtually 6498
affirmed 6497
dismissed 6497
Tourism 6496
diamonds 6494
star@@ 6494
Add.2 6492
draws 6488
ef@@ 6488
magnitude 6488
directions 6485
earmarked 6485
sign@@ 6485
Consider 6483
St. 6483
mapping 6482
Je@@ 6479
absolutely 6479
Democracy 6478
incompatible 6478
beliefs 6474
lacking 6471
Pa@@ 6470
pertinent 6465
consulted 6464
enquiry 6464
Chairs 6462
Commander 6460
reserved 6460
stream 6459
assault 6458
colonial 6458
visa 6458
livelihood 6457
CEB 6455
128 6454
tour 6454
consequently 6453
glad 6452
3.2 6451
Prince 6451
Wang 6451
discretion 6445
Aviation 6444
pri@@ 6442
bing 6439
IMO 6438
GA 6437
analysing 6436
isolated 6436
scenario 6436
adversely 6434
promised 6431
Engineering 6430
farming 6430
substitute 6428
.6 6427
Higher 6426
Competition 6425
ty@@ 6424
announcement 6420
promulgated 6416
Barbados 6415
hardware 6414
AS@@ 6413
diamond 6413
ron@@ 6413
ure 6413
modest 6411
reminded 6411
132 6409
Bearing 6409
humans 6408
cry 6407
hu@@ 6407
default 6406
Jack 6405
shopping 6404
quota 6403
honest 6402
dust 6401
marriages 6401
universality 6401
Reporting 6398
Enhanced 6396
argues 6395
Governor 6392
por@@ 6392
prohibiting 6392
politicians 6391
wonderful 6390
virtual 6389
7th 6388
ished 6385
eng@@ 6384
prolonged 6383
MS 6382
varied 6381
Families 6379
6,000 6375
suicide 6374
pensions 6373
questioned 6371
lock 6370
misconduct 6370
spokesman 6369
stored 6368
134 6364
Holy 6364
strange 6362
Master 6361
Address 6357
static 6357
Miss 6356
salt 6354
tank 6354
diet 6353
ingly 6351
upgrade 6348
Inhuman 6347
Degrading 6345
arrears 6344
perpetrated 6343
wounded 6343
gradual 6341
tim@@ 6339
mix 6338
unanimously 6338
pal@@ 6337
rarely 6337
4,000 6336
yed 6334
Botswana 6328
compatible 6328
machines 6327
stimulate 6327
landscape 6326
semi 6326
licensing 6324
preference 6322
stars 6322
lan@@ 6320
^ 6318
Improving 6314
recession 6314
2017 6313
dro@@ 6312
.The 6311
satellites 6307
Radio 6305
assumptions 6303
returnees 6301
stuff 6301
Role 6300
endeavours 6300
everybody 6300
sensing 6300
guess 6299
essence 6294
warrant 6292
silver 6290
circuit 6289
Liberian 6287
Much 6286
sand 6285
Cape 6283
ace@@ 6283
expedite 6283
incumbent 6283
thereafter 6282
mid@@ 6280
Transfer 6279
Man 6278
ces 6278
TO@@ 6277
Fi@@ 6276
qualitative 6273
ei@@ 6268
supplier 6266
perception 6262
defines 6261
expects 6260
126 6259
burning 6257
confirmation 6257
discusses 6257
tended 6257
uphold 6257
bel@@ 6256
commend 6256
feels 6254
printed 6254
conversation 6252
Blue 6251
dependence 6251
turns 6250
At@@ 6249
pers 6249
ser@@ 6249
landmines 6247
proceeded 6241
bond 6236
agrees 6235
counter@@ 6235
expressly 6235
irregular 6233
victory 6233
dered 6227
earliest 6225
disappearances 6224
intensity 6222
incentive 6221
criterion 6220
CT@@ 6219
HK@@ 6219
threatening 6217
Ham@@ 6216
claimants 6211
ong@@ 6208
revisions 6208
Considering 6207
precisely 6206
patrols 6204
8th 6202
convenient 6198
ole 6198
tical 6197
vel@@ 6197
examinations 6195
ining 6195
racist 6189
CARICOM 6183
din@@ 6183
sol@@ 6183
Rel@@ 6180
punishable 6180
equ@@ 6175
panels 6175
UNFICYP 6173
sudden 6173
hill 6171
qualification 6171
walls 6170
135 6169
oms 6169
Go 6168
cleaning 6168
boundaries 6166
sta@@ 6166
gl@@ 6164
pull 6164
native 6163
til@@ 6161
terror 6160
alleviation 6159
prospect 6159
socially 6159
avoided 6158
CERD 6154
terrible 6154
hal@@ 6153
tonnes 6153
exceeding 6152
restrict 6151
segments 6151
tered 6149
conscience 6148
rapporteurs 6148
collapse 6147
objections 6147
WA@@ 6146
spiritual 6146
apparently 6143
cessation 6143
acy 6142
incitement 6142
recourse 6142
TE@@ 6140
UNITAR 6140
systemic 6137
Pol@@ 6136
experiments 6135
installations 6134
obviously 6133
ward 6132
dangers 6131
Is@@ 6129
inconsistent 6128
exploring 6127
lights 6127
Mil@@ 6126
alleviate 6125
operates 6124
chairs 6123
weekend 6123
painting 6120
Maintenance 6119
Accounts 6118
aliens 6118
halt 6117
clearing 6116
ow 6115
127 6113
OP 6111
exit 6111
ened 6109
tied 6109
Trans@@ 6108
ham 6106
infections 6106
corporal 6105
EM@@ 6103
positively 6103
1979 6102
Liberation 6100
lady 6098
ED 6094
chairman 6094
ox@@ 6094
tears 6094
talent 6092
linguistic 6091
abandoned 6089
dramatic 6086
receivable 6086
collectively 6085
169 6083
Hey 6083
breast 6082
feeding 6081
CP.@@ 6080
cat 6080
exhausted 6079
DA@@ 6077
birthday 6076
inf@@ 6075
communicated 6072
bone 6071
incomes 6068
fore@@ 6066
PRO@@ 6064
accede 6063
earned 6063
Money 6060
liquidation 6059
restriction 6059
Organisation 6057
routes 6056
recalling 6055
Line 6054
declining 6053
peak 6053
Goods 6052
continental 6052
Os 6050
Seminar 6050
Tokelau 6049
succeeded 6047
I.@@ 6044
centred 6042
ys@@ 6040
explosives 6039
meal 6039
angry 6037
Cruel 6035
reveal 6033
influenced 6031
ris@@ 6031
Media 6030
AD@@ 6029
dynamics 6026
relocation 6024
concentrate 6020
alignment 6019
individually 6016
TD 6014
handled 6014
deny 6013
moves 6013
Acts 6011
foods 6009
CT 6004
aiming 6003
yellow 6003
Limited 6000
gravity 5998
40@@ 5997
translate 5995
CA 5994
checks 5994
Mother 5993
fac@@ 5992
yl@@ 5992
certified 5989
2. 5987
Ser@@ 5986
urbanization 5986
Senate 5985
Bra@@ 5982
van@@ 5979
oning 5977
promising 5977
reparation 5975
revise 5973
platforms 5969
failing 5967
chart 5965
saved 5965
exceeded 5962
wishing 5962
ell 5961
chains 5958
Wh@@ 5953
matrix 5953
freight 5951
pi@@ 5946
Future 5944
adhere 5944
Cal@@ 5943
Istanbul 5940
completing 5940
filling 5939
forecast 5939
accreditation 5937
129 5936
Eradication 5933
prerequisite 5933
Strengthen 5927
ass 5927
respecting 5923
sake 5923
Black 5921
loc@@ 5919
CMP 5918
ko 5918
annexed 5916
inability 5916
ata 5915
renewal 5914
twelfth 5913
133 5912
Bur@@ 5912
ro 5912
rational 5910
Maldives 5907
tie 5907
defendant 5906
logic 5905
entail 5904
LO@@ 5902
fails 5902
transform 5901
projections 5900
ICC 5899
sponsor 5897
AI 5896
comprised 5896
conceptual 5895
inalienable 5892
Reference 5891
fu@@ 5891
deploy 5890
3.3 5889
temporarily 5888
Reserve 5887
disseminating 5887
acknowledges 5886
Get 5882
141 5881
guys 5878
SH@@ 5877
thoroughly 5877
Americas 5875
chapters 5875
renew 5873
span 5873
bulk 5872
graduate 5872
ITC 5871
attaches 5870
shoulder 5870
adds 5868
comfortable 5868
Genocide 5865
pressures 5865
dreams 5864
empower 5863
symbol 5863
density 5862
earn 5862
Bas@@ 5861
Por@@ 5861
steadily 5861
Likewise 5860
investing 5860
lifting 5860
purchasing 5860
raises 5859
Ban@@ 5858
IO@@ 5858
councils 5858
Still 5857
smart 5854
consultant 5853
nationwide 5853
synthesis 5853
custom 5852
authorize 5851
OP@@ 5849
sor@@ 5849
respects 5847
persistence 5844
pictures 5844
pul@@ 5844
realizing 5844
Prevent 5843
eliminated 5843
red@@ 5842
rid 5842
sensitivity 5836
ace 5834
vi 5834
wn 5834
arrange 5832
exc@@ 5832
Tri@@ 5829
intense 5829
surgery 5828
waves 5828
array 5827
ides 5827
ignored 5826
suspects 5826
tragic 5825
Danish 5824
Income 5824
Conventional 5823
Treasury 5822
Ethics 5820
ut 5819
demonstrates 5818
Ms 5815
Risk 5813
Ag@@ 5811
errors 5811
Jean 5809
circle 5809
shelters 5809
San@@ 5808
ov@@ 5807
Mogadishu 5806
aren 5806
visibility 5806
appropriations 5803
confidentiality 5803
seed 5802
Owing 5800
Reconciliation 5800
Rotterdam 5800
commence 5800
shut 5800
instalment 5797
anger 5796
ica 5795
illiteracy 5795
pure 5793
hi 5792
newspapers 5792
Si@@ 5790
philosophy 5788
bread 5781
hazard 5778
Advice 5775
Guyana 5774
Liaison 5773
confiscation 5771
magazine 5769
removing 5768
secretary 5767
harmonize 5766
nineteenth 5765
respondents 5765
induced 5763
invoked 5763
meantime 5763
emphasizing 5762
ans@@ 5761
ency 5760
popul@@ 5759
2.4 5758
bigger 5754
inventories 5749
SR@@ 5748
wet 5747
hazards 5745
corporation 5744
suspect 5743
accord 5740
occurring 5740
gases 5739
workplan 5739
ja 5738
.org 5737
noticed 5737
1.4 5735
adolescent 5735
， 5735
emb@@ 5733
contexts 5731
EA 5727
specialist 5727
ue 5727
MINURSO 5726
rac@@ 5726
1970 5725
Wal@@ 5725
Chemicals 5722
lunch 5722
policymaking 5722
NLB 5721
EL@@ 5720
vertical 5720
clock 5715
Migrant 5713
mountains 5711
lease 5710
produces 5710
silent 5710
abide 5708
inheritance 5708
Hel@@ 5705
162 5704
joining 5704
sec@@ 5702
exemption 5701
Providing 5700
privileges 5700
Border 5699
ink 5699
notified 5696
bills 5695
ticket 5695
Nothing 5694
Umoja 5693
Islam 5687
Presidential 5686
modification 5685
likes 5684
corrections 5682
.8 5681
Effects 5680
TR@@ 5680
barrier 5679
coat 5679
Nor@@ 5676
thermal 5673
berg 5672
committing 5672
highlighting 5672
tro@@ 5672
invested 5671
NE@@ 5670
lesson 5670
wrongful 5670
Conservation 5667
wedding 5665
Mainland 5658
recovered 5657
1980s 5656
starts 5656
implies 5655
mi@@ 5655
H. 5654
IMIS 5654
Gar@@ 5652
alist 5651
Brazilian 5648
alike 5648
io 5648
consolidating 5645
GS 5644
Six 5644
rocket 5644
Che@@ 5643
roster 5643
Everyone 5642
Swedish 5641
Aspects 5640
Language 5639
deferred 5639
3.5 5638
.7 5636
publish 5636
California 5635
brothers 5635
lam@@ 5635
disclosed 5633
vers 5633
dumping 5632
solved 5632
tight 5631
235 5629
cup 5629
industrialized 5629
accumulation 5624
Mandate 5620
mate 5619
Centres 5618
Under@@ 5618
quarterly 5618
ruled 5618
SP@@ 5617
deficiencies 5617
145 5616
Plenary 5616
ular 5616
commends 5613
imagine 5613
trainers 5610
Applications 5609
bal@@ 5609
filing 5609
tongue 5607
readily 5605
verified 5605
Ivorian 5604
rank 5604
.I 5601
coalition 5600
generous 5599
aggregate 5598
sn@@ 5598
clinics 5597
mil@@ 5597
indicative 5594
Groups 5593
accurately 5593
violating 5593
devastating 5592
teeth 5592
hostile 5589
Ali 5586
keeps 5585
marital 5583
131 5582
form@@ 5582
Until 5581
IV@@ 5580
tal 5580
united 5580
锛 5580
align 5579
currencies 5579
sessional 5577
worthy 5577
moratorium 5576
Presidency 5575
notwithstanding 5575
Gibraltar 5574
exclude 5573
Pan@@ 5571
grain 5571
ick 5567
Peaceful 5566
Mauritania 5564
ick@@ 5564
sounds 5561
Together 5560
tively 5560
rations 5558
mistakes 5557
accredited 5555
packages 5554
amending 5551
kin 5551
Coalition 5550
eligibility 5543
restrictive 5543
1974 5542
blow 5542
decentralized 5541
wars 5541
Impact 5539
argue 5539
hardship 5539
C.4 5538
Smith 5538
leg 5538
phenomena 5537
Policies 5536
za 5535
thinks 5533
occurrence 5532
throw 5528
ase 5526
taxation 5526
ancy 5523
bling 5523
bri@@ 5523
136 5522
J. 5522
warned 5522
CIS 5521
fication 5521
rejection 5521
tically 5519
4.1 5517
hidden 5517
leg@@ 5517
lin@@ 5516
notify 5516
UNITA 5515
Counsel 5513
stem 5513
variance 5512
interdependence 5510
tremendous 5510
shadow 5509
inception 5508
hall 5507
und@@ 5504
onic 5501
camera 5498
pr@@ 5498
tender 5498
tough 5498
dle 5497
modify 5496
News 5495
Combating 5493
vacant 5493
COM@@ 5490
Res@@ 5490
everyday 5490
precision 5490
shock 5490
civilization 5489
parliamentarians 5488
deliberate 5487
height 5486
revitalization 5483
phased 5482
Agreements 5479
consulting 5478
1983 5476
fathers 5475
unusual 5474
Church 5473
CD@@ 5472
websites 5470
internet 5467
contingents 5465
varying 5465
Rather 5464
demonstrations 5464
Chambers 5463
Friends 5463
bles 5463
vendors 5462
warming 5459
hon@@ 5458
san@@ 5458
correctly 5457
Minorities 5456
Ps 5453
postponed 5453
Compliance 5451
Madagascar 5450
attach 5450
cat@@ 5450
139 5449
designate 5449
UNCDF 5448
publishing 5448
AL 5447
ification 5447
sin 5445
chan@@ 5444
tuberculosis 5442
flower 5441
Ensuring 5440
bi 5438
residual 5438
ala 5435
periodically 5435
cycles 5433
differential 5433
surprised 5433
diversion 5432
Enterprise 5431
males 5431
Establish 5427
INF 5424
protein 5424
expendable 5423
impression 5421
Ku@@ 5420
ae 5416
impetus 5415
thirteenth 5415
4.2 5413
Civilian 5413
Supply 5413
pping 5413
ben@@ 5412
Do@@ 5411
Next 5410
WP.@@ 5410
Percentage 5409
challenged 5409
claiming 5406
risen 5406
listening 5405
heating 5404
ory 5403
She@@ 5400
Various 5399
gar@@ 5399
Committed 5398
UNDAF 5398
dominant 5398
NO@@ 5397
awaiting 5397
uranium 5396
157 5395
Bel@@ 5395
arrests 5394
Vi@@ 5392
maps 5390
Provisions 5388
audio 5388
neck 5387
cancellation 5386
cotton 5386
137 5383
abolished 5381
The@@ 5379
sul@@ 5379
finalize 5377
dear 5375
gaining 5375
Bonn 5372
PRST 5372
preserving 5372
142 5370
yard 5364
enactment 5363
tragedy 5363
Being 5361
methodological 5359
Fer@@ 5358
ceiling 5358
ride 5358
Harry 5356
contributors 5355
ils 5355
peacekeepers 5355
recosting 5355
undermined 5353
int 5351
lawful 5351
helicopters 5350
compare 5349
ug@@ 5348
imposing 5347
que@@ 5347
comm@@ 5345
communicable 5345
143 5344
Char@@ 5342
Journal 5341
Portuguese 5341
successor 5341
kitchen 5337
cement 5335
gran@@ 5335
ination 5335
variable 5333
wire 5333
totalling 5330
debts 5329
Jewish 5328
Trinidad 5328
railway 5326
knowing 5325
pur@@ 5325
tail 5325
don@@ 5322
recipients 5322
CST 5318
Cy@@ 5318
dent 5318
ishing 5318
switch 5318
GE@@ 5317
experiencing 5316
stores 5316
provider 5315
overwhelming 5312
AU 5309
rebel 5308
Revised 5307
artificial 5304
accomplishment 5303
professor 5303
tries 5302
assistant 5300
schooling 5300
Give 5297
bled 5297
Destruction 5295
illegally 5290
actor 5289
à 5288
coupled 5287
8,000 5284
CRIC 5283
detected 5283
fun@@ 5282
pledge 5280
talked 5280
Compensation 5278
OIC 5278
captured 5277
iness 5277
sin@@ 5276
favorite 5275
fears 5275
explains 5272
nose 5266
ums 5266
hygiene 5261
margin 5261
socioeconomic 5261
LA 5260
Egyptian 5259
accomplish 5259
demanded 5256
144 5254
Intelligence 5254
Paper 5254
uck 5253
Rehabilitation 5252
Ob@@ 5251
attracted 5251
collaborate 5250
cro@@ 5250
eness 5246
deeper 5241
educated 5241
protest 5240
reg@@ 5239
signals 5239
SADC 5238
safeguarding 5238
tiny 5238
Pl@@ 5236
blocks 5236
1975 5235
CS 5235
bol@@ 5235
commented 5235
coun@@ 5235
accelerating 5233
Prison 5231
neglect 5231
10,@@ 5230
na 5230
versions 5225
199@@ 5224
methyl 5224
windows 5223
ack@@ 5221
fifteenth 5220
Conclusions 5219
ki 5218
predecessor 5217
na@@ 5215
unclear 5215
鈥檚 5215
pe 5214
&lt; 5210
bomb 5209
CI 5208
expressions 5208
Travel 5205
Dispute 5204
oma 5204
pos@@ 5204
Mat@@ 5202
anywhere 5202
cr@@ 5202
ballot 5200
AB@@ 5199
bin 5198
MA 5197
differ 5197
ising 5196
explanations 5195
doctrine 5194
vic@@ 5194
Da@@ 5193
Nonetheless 5192
ji@@ 5192
Offices 5190
countermeasures 5189
hat 5189
op 5186
picked 5186
1. 5185
Learning 5185
superior 5184
flood 5181
by@@ 5180
ack 5179
hol@@ 5179
Practices 5178
Comm@@ 5177
CM@@ 5176
addendum 5176
dogs 5176
you@@ 5175
Muslims 5174
combine 5174
tackling 5174
bo 5173
stressing 5171
ATION 5169
compiled 5169
ome 5169
passenger 5169
20,000 5168
Fu@@ 5168
ti 5168
Knowledge 5167
lend 5167
tropical 5167
endorsement 5165
147 5164
II.@@ 5162
hum@@ 5162
CCW 5161
Tobago 5160
arose 5160
forensic 5159
shocks 5157
ight 5155
ket 5155
introductory 5154
precious 5154
servant 5152
establishments 5150
horizontal 5149
ous@@ 5147
institute 5146
Organizational 5145
magnetic 5145
Reiterates 5144
spatial 5144
volatile 5143
pandemic 5142
AC.@@ 5141
connections 5141
tone 5141
á@@ 5141
Hospital 5139
Pri@@ 5139
ography 5139
Prior 5138
AF@@ 5137
breaches 5137
costly 5136
dose 5136
multinational 5136
@ 5134
demining 5132
~ 5130
cou@@ 5129
dies 5129
fairness 5129
graduates 5129
supervisory 5129
156 5128
ED@@ 5128
ranking 5128
fuels 5127
passport 5127
phones 5126
amp 5123
twelve 5123
C.6 5122
win@@ 5120
analyze 5119
streamlining 5119
survive 5119
US@@ 5118
bit@@ 5118
ishes 5118
deserve 5117
entitlements 5117
complemented 5116
heaven 5116
repeat 5115
sem@@ 5115
Students 5114
laser 5113
symptoms 5113
Set 5111
subprogrammes 5111
nursing 5110
fax 5109
merit 5109
Papua 5108
diligence 5106
ali@@ 5105
broadcasting 5105
fed 5105
hear@@ 5105
accepting 5104
shaped 5103
151 5102
Approach 5102
clusters 5100
Ji@@ 5099
stones 5098
livestock 5096
powder 5096
identifies 5094
PRESIDENT 5093
dominated 5092
AS 5091
marginalization 5091
166 5090
frozen 5090
Abyei 5088
UNAMA 5088
legacy 5083
locked 5083
connect 5081
confined 5079
33@@ 5078
Enforced 5078
mercenaries 5077
bil@@ 5072
blame 5072
civic 5072
habit 5072
Partnerships 5071
read@@ 5071
aftermath 5070
cheap 5066
cooperatives 5065
Procedures 5064
eless 5061
liver 5060
Courts 5057
stra@@ 5057
voluntarily 5057
lifted 5056
ministry 5055
ners 5055
advocated 5052
agendas 5051
settlers 5051
Net 5050
antly 5050
credentials 5048
nearby 5047
Sun 5045
guards 5045
norm 5045
MONUSCO 5044
electro@@ 5044
James 5043
exhibition 5043
purchased 5043
container 5039
ame 5038
okay 5038
ion@@ 5036
photo 5035
Enforcement 5031
humankind 5031
hide 5030
operator 5029
entrance 5028
bun@@ 5026
treating 5026
hell 5025
OK 5024
Background 5021
FO@@ 5021
7,000 5018
ther 5018
ACC 5017
Ju@@ 5016
conscious 5015
devote 5015
proposing 5015
Uses 5013
regretted 5012
flu@@ 5011
universally 5011
Minimum 5010
Stabilization 5010
Verification 5010
chose 5009
cable 5008
verse 5008
nomination 5007
1977 5006
UNV 5006
optical 5006
Growth 5005
jump 5005
archives 5004
crew 5003
ind@@ 5003
multilateralism 5003
contaminated 5001
legs 5000
pipe 5000
attempting 4999
gre@@ 4999
recycling 4998
click 4996
lake 4996
RES 4995
ids 4994
mood 4994
Treaties 4993
reject 4993
Expressing 4991
admit 4991
thick 4989
harmonious 4988
discount 4987
honor 4986
Point 4985
promises 4985
not@@ 4984
Projects 4983
sil@@ 4982
Traffic 4981
judgements 4981
146 4979
overcoming 4979
doors 4978
negatively 4977
strain 4975
Pal@@ 4973
winning 4972
deciding 4971
quarters 4971
Decisions 4970
Export 4970
extraction 4970
Im 4968
TC 4967
selective 4967
Cu@@ 4966
Disability 4966
employ 4964
pulled 4964
tends 4964
Guiding 4960
Mi@@ 4960
sophisticated 4959
Form 4957
couples 4954
152 4953
ham@@ 4953
seeds 4952
ga 4951
chances 4950
deb@@ 4950
underlines 4950
170 4949
civilizations 4949
libraries 4949
soldier 4949
luck 4948
accessing 4947
Recovery 4946
Far@@ 4944
reasonably 4944
Contract 4943
Guam 4943
approached 4943
microfinance 4941
tine 4941
stake 4940
ore@@ 4939
tissue 4939
apartment 4938
exemptions 4938
liber@@ 4938
Serbian 4937
freezing 4937
GC.@@ 4936
Ram@@ 4935
SP 4935
Subject 4934
license 4933
Sales 4929
di 4929
ranks 4928
154 4926
designation 4926
doubts 4925
streamline 4924
Bhutan 4923
artistic 4923
sa 4923
linkage 4921
harder 4920
scourge 4919
Economy 4917
erosion 4916
helicopter 4916
4.5 4915
aggressive 4915
identical 4915
linear 4915
UNDOF 4914
alternate 4914
audited 4914
prosecutions 4913
rap@@ 4913
Christ 4911
Best 4905
Near 4905
parity 4904
Olympics 4903
steering 4903
supporters 4902
Robert 4901
County 4900
watched 4899
MENT 4897
tourist 4897
foreseen 4896
log 4895
restored 4894
tall 4894
Argentine 4892
SU@@ 4892
inspectors 4888
credits 4887
Hotel 4885
encouragement 4884
Defense 4883
XV 4883
Er@@ 4882
bottle 4882
wheel 4882
Decolonization 4881
Des@@ 4880
corrected 4880
investor 4879
hang 4878
correspondence 4877
Solomon 4875
Embassy 4872
Investigations 4870
Request 4870
bly 4869
Sen@@ 4868
ft 4868
escalation 4867
fying 4867
sixteenth 4867
graphic 4866
innovations 4866
ord@@ 4866
personally 4866
split 4864
criminals 4863
empowered 4863
reception 4863
rolling 4863
Substantive 4862
surely 4861
39@@ 4859
ax@@ 4857
pot 4855
retail 4855
spaces 4855
Pen@@ 4854
Full 4853
minimal 4853
shells 4853
Judges 4852
Unless 4852
deputy 4852
naturally 4850
hot@@ 4849
investigators 4849
To@@ 4848
celebrate 4847
referral 4846
emerge 4844
seventeenth 4843
contracted 4838
158 4837
cher 4837
belongs 4836
benefiting 4836
es.@@ 4836
apportionment 4835
Airport 4832
Bali 4831
run@@ 4831
distinguish 4830
coercive 4828
petroleum 4828
wed 4828
outlines 4827
remittances 4827
demanding 4825
unfair 4825
Forest 4824
evolved 4824
compounds 4823
consisted 4823
converted 4822
Throughout 4821
AC.109 4819
Bro@@ 4818
van 4817
Hol@@ 4814
evacuation 4814
Br@@ 4813
sheets 4813
Nor 4812
manufacturers 4812
stro@@ 4811
broaden 4810
ji 4810
teen 4810
ath 4809
compete 4809
208 4807
MDG 4807
Bay 4806
Ti@@ 4806
suspicious 4805
Greater 4804
vendor 4804
Grand 4803
ades 4803
rounds 4802
aring 4800
oned 4800
commensurate 4798
impede 4798
Cases 4794
liquidity 4794
ard@@ 4792
Georgian 4791
5.2 4790
Serb 4790
endorse 4788
scenarios 4786
Crimes 4785
formerly 4783
Sports 4782
fleet 4781
eng 4780
loading 4780
privatization 4779
Gabon 4777
activists 4777
Funds 4776
IDPs 4776
ide@@ 4776
alongside 4775
Lin@@ 4771
ards 4770
land@@ 4769
burn 4768
dying 4768
usefulness 4768
tric@@ 4767
1971 4766
Ho@@ 4766
shelf 4766
242 4764
licences 4763
parliaments 4763
Out 4762
auditors 4760
illustrated 4760
interregional 4760
Refugee 4759
lacked 4756
Notwithstanding 4755
email 4755
Poor 4754
backed 4754
comfort 4754
Enhancing 4752
cloud 4751
assignments 4750
clauses 4750
consciousness 4750
dimensional 4750
signatories 4750
films 4748
somebody 4748
notable 4747
tsunami 4747
hypo@@ 4745
soci@@ 4745
CTBT 4744
igh@@ 4744
nominations 4744
Apart 4743
Examples 4743
preferential 4743
sequence 4743
affirmative 4740
Add 4739
FARDC 4739
beneficiary 4738
Fl@@ 4737
giant 4737
inevitable 4737
roof 4737
1961 4736
lucky 4734
oph@@ 4734
lets 4733
weakness 4733
nets 4731
chamber 4730
departmental 4730
dramatically 4729
eradicating 4728
restraint 4728
wan@@ 4728
1.6 4727
volunteer 4727
Bal@@ 4726
invention 4726
tube 4724
breath 4721
stayed 4721
ethnicity 4719
remainder 4719
miscellaneous 4718
Val@@ 4717
restitution 4717
volatility 4716
Understanding 4715
iss@@ 4714
eighteenth 4711
beaten 4710
gers 4710
ries 4710
1,4@@ 4709
inappropriate 4709
963 4708
May@@ 4708
communiqué 4706
immunities 4706
Keep 4705
discovery 4704
tin 4703
Gen@@ 4702
Rico 4702
chairmanship 4702
edition 4702
lat@@ 4702
generic 4701
unchanged 4701
Sol@@ 4699
Mexican 4698
vacation 4698
compensate 4697
Areas 4696
slight 4695
ada 4692
definitely 4692
Dutch 4691
ude 4691
successes 4690
dish 4688
148 4687
Joseph 4687
moderate 4687
worried 4687
tickets 4686
unencumbered 4686
Opening 4685
ri 4684
Okay 4683
tells 4681
AT 4680
gear 4680
tured 4679
inc@@ 4678
portal 4678
tis 4678
vegetables 4677
Ltd 4676
inviting 4676
Tu@@ 4675
ignore 4675
} 4675
bor@@ 4674
sion@@ 4673
gent 4672
tanks 4672
Fisheries 4671
Never 4671
score 4671
ith@@ 4670
wi@@ 4669
149 4668
AP 4667
attained 4667
Oil 4665
161 4664
LE 4664
amongst 4663
Fifty 4661
suspend 4661
guests 4658
.9 4657
Bahamas 4657
Del@@ 4657
expectancy 4657
offensive 4657
Cl@@ 4656
USA 4653
mobilized 4651
applicability 4650
Age 4649
Challenges 4649
bas@@ 4649
eth@@ 4649
Detention 4648
Ger@@ 4648
ek 4648
depression 4647
rubber 4647
Phase 4646
blockade 4645
fiber 4645
fix 4644
physically 4644
ari 4643
{ 4641
Lack 4639
drove 4639
expeditiously 4639
165 4638
EX@@ 4637
fled 4637
accumulated 4635
graph 4635
220 4634
fold 4634
venue 4634
determines 4631
prevail 4631
basically 4629
192 4628
idi@@ 4625
War@@ 4624
Ni@@ 4623
5.1 4622
embodied 4622
tile 4622
quest 4621
Award 4620
CP 4620
democratization 4620
Preparation 4618
4.3 4615
travelling 4615
EP 4614
yl 4614
aling 4613
cleared 4613
legality 4613
informing 4611
pride 4611
stolen 4611
successive 4611
Allow 4610
coll@@ 4610
competing 4610
directives 4609
explosion 4609
ear 4608
ents 4605
Norwegian 4604
270 4603
Physical 4603
UL@@ 4603
connectivity 4603
interpretative 4602
confrontation 4601
Held 4600
Albanian 4599
any@@ 4599
pon@@ 4599
II@@ 4598
utilizing 4598
ware 4598
appreciates 4597
landing 4597
ills 4596
govern 4595
tailored 4595
Dr 4594
displayed 4594
ascertain 4593
minds 4593
sia 4592
undertakings 4591
acquiring 4590
persecution 4590
HK 4589
Kivu 4589
underground 4589
fluid 4588
Ka@@ 4587
exacerbated 4587
contamination 4586
policing 4586
reads 4586
oversee 4585
deportation 4583
dioxide 4583
zz@@ 4583
213 4582
0.7 4581
depleting 4581
globe 4581
campus 4579
checked 4579
eggs 4579
string 4579
ams 4578
composite 4578
roughly 4578
Rom@@ 4576
,000 4574
yp@@ 4574
strikes 4573
cohesion 4572
ceased 4571
36@@ 4570
profiles 4569
cing 4568
Solidarity 4567
excuse 4566
rer 4566
incomplete 4562
exam 4559
golden 4559
hampered 4559
vulnerabilities 4559
Sciences 4558
ik@@ 4558
terminal 4558
convergence 4556
designs 4556
rooted 4555
Eight 4553
financially 4553
lifetime 4553
Old 4552
requisite 4551
interviewed 4550
irrigation 4549
ose 4549
advocates 4548
undermining 4548
reconnaissance 4546
shell 4546
tribal 4546
Beirut 4545
Contact 4545
Compact 4544
Lee 4544
1972 4543
failures 4542
rob@@ 4542
trafficked 4542
favor 4541
tru@@ 4541
Has 4539
carriage 4538
ures 4538
Sub.2 4535
classroom 4535
wheat 4535
Emphasizes 4534
condemn 4534
3.4 4533
gri@@ 4533
acceding 4531
clo@@ 4531
likewise 4529
voices 4529
1325 4528
XII 4528
entitlement 4528
Granting 4527
competencies 4527
201 4526
fol@@ 4526
specially 4526
None 4525
undoubtedly 4525
gene 4524
instrumental 4524
cooking 4522
facilitates 4521
2.6 4520
consecutive 4520
hired 4520
kets 4520
top@@ 4520
Af@@ 4517
Multi 4517
graduation 4517
happening 4516
stepped 4515
iled 4514
odi@@ 4514
210 4513
Mac@@ 4512
expectation 4512
Primary 4509
allegation 4509
metric 4509
Dra@@ 4508
suppression 4508
measurable 4507
pricing 4507
crossed 4506
quotas 4506
Ministries 4505
DA 4502
correlation 4502
motivation 4502
Similar 4500
atten@@ 4500
openness 4500
paint 4500
mentally 4498
sustaining 4498
GHG 4497
acknowledging 4497
tel 4497
wa 4497
ading 4496
ney 4496
1960 4494
Lesotho 4494
alists 4494
atively 4494
AWG 4493
PL@@ 4493
renovation 4493
favoured 4490
missed 4490
1976 4489
badly 4489
mature 4489
imply 4488
instituted 4488
paramount 4488
tens 4488
Chen 4487
pays 4486
Him 4483
38@@ 4482
ays 4482
IOM 4481
Institutional 4481
Brown 4480
248 4479
fabric 4479
Ap@@ 4478
Citizens 4478
gn@@ 4478
RA 4477
cas@@ 4477
Ref@@ 4475
nobody 4474
Kabul 4473
alled 4473
Experience 4472
Manager 4470
HR@@ 4469
OS@@ 4469
conform 4469
destructive 4468
specifications 4468
Subsidiary 4467
confront 4467
Abu 4465
Supplementary 4464
protests 4464
theories 4464
37@@ 4463
183 4462
Contracts 4462
Pre 4462
millennium 4462
outbreak 4462
reunification 4462
convictions 4461
uncertain 4460
progressively 4458
truck 4457
159 4456
B.@@ 4455
gar 4454
Catholic 4453
sharply 4453
Closed 4451
cle@@ 4451
211 4450
tar@@ 4450
CL@@ 4449
adviser 4449
residing 4447
Ageing 4446
holidays 4446
outlook 4446
spreading 4446
Ko@@ 4445
Watch 4445
hiring 4444
Martin 4442
educate 4442
militias 4442
inspired 4441
gy 4439
injection 4438
modes 4438
1,5@@ 4437
Almost 4436
Communities 4436
executing 4436
scarce 4436
í@@ 4436
bre@@ 4435
confusion 4435
modifications 4435
foremost 4431
importantly 4430
ales 4429
Ri@@ 4428
metals 4426
34@@ 4423
Gambia 4423
imbalances 4423
lim@@ 4422
shareholders 4422
remnants 4421
Ethiopian 4419
rivers 4419
ashed 4418
enrolled 4417
mixture 4417
procuring 4417
noble 4415
pped 4414
alo@@ 4413
cream 4413
hyper@@ 4412
exporting 4410
fluctuations 4409
touched 4408
isation 4406
publicity 4406
1951 4403
floods 4403
pump 4403
plight 4402
prisoner 4402
shore 4402
accompanying 4401
centers 4399
intercultural 4399
Cro@@ 4398
Organic 4398
SAT 4398
borrowing 4398
human@@ 4398
liked 4398
Fin@@ 4397
Club 4395
UNMEE 4395
complied 4393
Father 4392
leverage 4391
Def@@ 4390
hen@@ 4390
rating 4389
restoring 4389
Colonial 4388
Executives 4388
UNDG 4388
fruitful 4388
10th 4387
distribute 4386
interrelated 4386
prioritize 4386
ac 4385
ups 4385
patent 4384
pocket 4384
deposited 4383
extends 4383
trace 4383
1,500 4382
Mis@@ 4382
Method 4381
lab@@ 4381
recruit 4378
terminated 4377
alities 4375
persist 4375
Up 4374
complementarity 4372
simplified 4372
leaf 4371
them@@ 4371
UNOMIG 4370
meter 4370
Thirdly 4367
Charles 4365
sto@@ 4364
ath@@ 4363
pushed 4363
Gi@@ 4362
interactions 4362
pretrial 4362
wash 4362
founding 4360
segregation 4360
gue 4357
Especially 4356
Over@@ 4356
colleges 4355
ger@@ 4355
hire 4355
ron 4355
Making 4354
shi@@ 4352
syn@@ 4352
supplemented 4351
ordnance 4349
autumn 4348
Festival 4347
veto 4346
cleaner 4345
scales 4345
manufactured 4343
IPCC 4342
Serbs 4342
rightly 4342
Nature 4341
retired 4341
Queen 4340
synergy 4340
tier 4339
Tell 4336
bureau 4336
Clinton 4335
lion 4335
Recently 4334
accrued 4334
spar@@ 4334
infectious 4333
log@@ 4330
arises 4329
Front 4327
strengths 4327
Whole 4326
book@@ 4324
pollutants 4324
overarching 4323
Zhang 4322
deforestation 4322
mortgage 4322
fourteenth 4321
seizure 4320
gifts 4318
transformed 4318
administrations 4317
Funding 4316
entails 4316
je@@ 4314
Campaign 4311
UNAMSIL 4311
finalization 4311
bears 4310
choosing 4310
path@@ 4310
Ash@@ 4309
Fundamental 4309
ese 4309
Principal 4308
asks 4308
immune 4308
CISG 4307
cleansing 4304
pin@@ 4304
12,@@ 4301
duc@@ 4301
harvest 4301
shirt 4301
189 4300
Ren@@ 4300
impressive 4300
tortured 4300
brown 4296
button 4295
crude 4295
intermediate 4295
surge 4294
EM 4293
hearts 4292
parameter 4292
plain 4292
correction 4291
doubled 4291
Den@@ 4290
sty 4290
assuming 4289
filter 4289
plenty 4289
1,7@@ 4286
aching 4286
stockpiles 4284
defeat 4283
forwarded 4282
AN 4281
attracting 4281
forgotten 4281
K. 4280
ain@@ 4280
Empowerment 4279
backlog 4277
Eritrean 4276
yer 4276
UNAMI 4274
CO2 4273
smell 4273
ton@@ 4272
167 4271
Han@@ 4271
UNMIT 4271
Mad@@ 4270
voltage 4270
proclaimed 4269
WG@@ 4268
absent 4268
overdue 4268
seize 4268
appendix 4267
lic@@ 4267
unsustainable 4267
Lake 4266
Ter@@ 4266
lar@@ 4266
Indonesian 4265
Towards 4265
Sar@@ 4264
IFAD 4263
spl@@ 4263
disclose 4262
worship 4261
Satellite 4260
radical 4259
Evidence 4258
CRP.@@ 4257
ately 4257
purely 4257
spec@@ 4257
admissible 4256
alarming 4255
centuries 4254
desert 4254
Poly@@ 4252
5.5 4249
cen@@ 4249
defer 4249
reproduced 4249
catalyst 4248
indications 4246
Lan@@ 4245
habits 4244
Pat@@ 4242
Recalls 4242
holy 4242
yn@@ 4242
my@@ 4241
safer 4241
adjacent 4240
13,@@ 4239
enn@@ 4239
wal@@ 4238
251 4237
abduction 4236
afforded 4235
dialogues 4235
shooting 4235
dedication 4234
childcare 4233
227 4232
seconds 4232
ICSC 4230
1969 4229
participates 4229
Aboriginal 4228
Fa@@ 4223
speedy 4223
belt 4222
benchmark 4222
stan@@ 4222
threw 4222
extensively 4221
combining 4220
163 4218
164 4218
175 4218
Kimberley 4218
nic@@ 4218
AG@@ 4216
bin@@ 4216
textbooks 4216
Spec@@ 4215
173 4214
laboratories 4214
SD@@ 4212
fighters 4212
Chairmen 4211
develops 4211
acc@@ 4210
reduces 4210
Very 4209
distant 4208
theft 4208
thin@@ 4208
umbrella 4208
stimulus 4206
Mel@@ 4205
geared 4205
optimization 4205
deadlines 4204
deteriorating 4204
IONS 4203
L. 4203
commissioned 4203
bes 4201
sen 4200
Remember 4199
misuse 4198
selecting 4198
construct 4197
law@@ 4197
rig@@ 4197
IDF 4196
breakfast 4196
timber 4196
trigger 4196
ich 4195
ori@@ 4192
academia 4191
farms 4191
factual 4189
affiliated 4188
opium 4186
alert 4185
hur@@ 4185
cooperated 4184
voter 4183
compatibility 4182
pac@@ 4180
Index 4177
eventual 4176
168 4175
extremism 4175
kn@@ 4175
cho@@ 4174
inserted 4172
CE 4170
artillery 4170
199 4169
signatory 4168
reforming 4167
59@@ 4166
replacing 4166
Dar@@ 4165
Identification 4164
perfectly 4163
painful 4162
Ten 4161
banned 4160
cer@@ 4159
receivables 4159
swimming 4159
5.3 4158
decreasing 4158
6.5 4157
socialist 4157
inated 4156
predictability 4155
TA 4154
UNMISS 4154
checking 4154
fur@@ 4154
fy 4154
Pi@@ 4153
Overseas 4152
ols 4152
Adopted 4151
Oman 4151
ises 4151
variables 4151
Equipment 4150
rationale 4147
enacting 4146
parking 4146
orderly 4145
unequal 4145
NG@@ 4144
alarm 4142
intervene 4142
interior 4141
CPC 4140
notifications 4140
qualities 4139
14,@@ 4138
organisation 4136
IB@@ 4133
Khartoum 4131
izes 4131
bidding 4130
containers 4128
grades 4127
sciences 4126
Belgrade 4125
communal 4125
cru@@ 4125
15,@@ 4124
Inspectors 4124
Southeast 4124
cumulative 4124
ets 4124
variation 4124
Globalization 4123
describing 4123
Monaco 4122
celebration 4122
organisms 4122
fusion 4121
pharmaceutical 4121
57@@ 4120
Wa@@ 4120
disproportionate 4120
prof@@ 4119
1,6@@ 4118
attaining 4118
oun@@ 4118
indiscriminate 4117
tourists 4117
ears 4116
mirror 4116
172 4115
Better 4115
excellence 4115
214 4114
lips 4114
Arusha 4113
chicken 4113
scholars 4113
oid 4112
purchases 4112
elementary 4110
mel@@ 4110
plan@@ 4110
delegate 4109
demonstrating 4107
guns 4106
dil@@ 4104
shed 4104
Cam@@ 4103
compile 4103
shortages 4103
t.@@ 4103
Series 4102
trac@@ 4102
Cost 4099
delete 4096
foot@@ 4096
240 4095
ny 4095
rail 4095
stateless 4095
70@@ 4094
lers 4092
urging 4092
dam@@ 4090
1,8@@ 4089
abl@@ 4089
break@@ 4089
tape 4088
bromide 4086
circular 4086
packaging 4083
enjoys 4079
credited 4078
infrastructures 4078
1.7 4077
black@@ 4076
ara 4075
delicate 4075
keen 4075
230 4074
organised 4073
enact 4072
Sha 4071
dad 4071
confronted 4070
nutritional 4069
Stressing 4066
shorter 4065
Girls 4064
cake 4062
Transparency 4061
rests 4060
pounds 4058
shipments 4058
fans 4057
gun@@ 4057
volumes 4056
allies 4055
rem@@ 4053
fossil 4052
captain 4051
21st 4050
Put 4049
aya 4047
def@@ 4047
dating 4046
tele@@ 4046
350 4045
MD@@ 4045
Officials 4045
liberation 4045
discriminate 4044
Neither 4043
Sk@@ 4043
robbery 4043
TION 4042
mentary 4041
valve 4040
Generally 4039
Hal@@ 4039
226 4038
slave 4038
Cre@@ 4037
1.8 4036
mitigating 4036
RIGHTS 4035
coexistence 4035
varies 4035
Google 4034
controversial 4032
fruits 4032
inevitably 4030
Ed@@ 4029
depended 4028
Hamas 4027
cure 4027
terminology 4027
Traditional 4026
copper 4025
hereinafter 4024
reaches 4024
2.7 4023
Virgin 4021
overlap 4020
48@@ 4019
Henry 4019
mainland 4019
observes 4019
disposition 4018
Croatian 4017
Verde 4016
bold 4016
py 4016
Real 4015
exploited 4015
industrialization 4014
inmates 4013
moreover 4012
deserves 4011
laugh 4011
variations 4010
Mines 4009
centralized 4009
exploit 4009
stamp 4009
Fre@@ 4008
INSTRAW 4007
ali 4007
AC@@ 4006
aire 4005
undue 4005
reaffirming 4004
tre@@ 4004
diagnostic 4001
intentions 4001
tech 4001
Thomas 4000
perpetrator 4000
praise 4000
imbalance 3999
curb 3998
unauthorized 3998
ET@@ 3997
lacks 3997
pet 3997
Wan 3996
ication 3996
Ros@@ 3995
ano 3995
differentiated 3995
esses 3995
viability 3994
iring 3993
reward 3993
Accord 3992
hai 3991
prosperous 3991
somewhere 3989
deliberately 3988
efficacy 3987
yours 3987
craft 3986
deficits 3986
hungry 3986
Annexes 3985
spots 3985
190 3984
chemistry 3984
Cap@@ 3983
oxygen 3983
recruiting 3982
IR 3981
concert 3981
planted 3981
3. 3979
pour 3979
DNA 3978
upheld 3978
condemns 3976
sible 3976
absorb 3975
lengthy 3974
mul@@ 3974
narrative 3974
reveals 3974
Later 3973
lodged 3973
bombs 3972
cancelled 3972
equation 3972
undergoing 3971
HKSAR 3970
certainty 3970
Documents 3968
Landlocked 3967
minerals 3967
Equatorial 3966
PER@@ 3966
William 3966
Abuse 3965
STA@@ 3965
ome@@ 3965
Implementing 3964
asserted 3964
seriousness 3962
tom@@ 3961
Relevant 3960
meters 3959
Elections 3958
Strategies 3958
alisation 3957
hat@@ 3957
likelihood 3957
Cities 3956
scaling 3956
Macao 3955
exchanged 3954
Sur@@ 3953
offender 3953
171 3952
ok 3952
deficiency 3951
numerical 3951
similarly 3951
tracing 3950
Actions 3949
Subcommission 3948
she@@ 3948
FMCT 3947
empowering 3947
noon 3947
Ir@@ 3946
analysts 3946
OD@@ 3945
auditing 3945
vol@@ 3945
Certificate 3943
logy 3943
tioning 3943
Directors 3942
Hy@@ 3942
validation 3942
multisectoral 3940
Town 3939
Daily 3938
SD 3936
person@@ 3936
photos 3936
203 3935
Laws 3935
LRA 3934
beam 3934
exported 3934
transferring 3934
sla@@ 3932
Pr@@ 3931
highway 3931
consultancy 3930
deepen 3930
multidisciplinary 3929
rigorous 3929
searching 3929
Microsoft 3928
Supporting 3928
one@@ 3928
177 3927
foregoing 3927
sleeping 3927
matching 3926
spo@@ 3926
0.5 3925
233 3925
Belize 3925
Tur@@ 3925
documentary 3924
zhou 3924
vested 3923
chil@@ 3922
inv@@ 3922
narcotic 3921
Shi@@ 3920
distress 3920
Controller 3919
producer 3919
actuarial 3918
computing 3918
ins@@ 3918
relied 3918
unlike 3918
Periodic 3917
Temporary 3917
enjoying 3917
redeployed 3917
schedules 3917
wives 3917
hoping 3916
suspicion 3916
shops 3915
ate@@ 3914
beach 3914
tertiary 3914
174 3913
Commitment 3913
extremist 3913
super 3913
Ke@@ 3912
absorbed 3912
discover 3912
gener@@ 3912
sters 3911
1,9@@ 3909
Station 3909
bags 3909
alliance 3906
dismissal 3905
visas 3905
protracted 3904
218 3902
buried 3902
Tim@@ 3901
interfere 3901
Mus@@ 3900
corrupt 3900
caring 3896
commander 3896
OC 3895
initiation 3893
compliant 3892
staying 3891
Again 3890
hinder 3890
Crisis 3889
Tibet 3888
UNLB 3888
net@@ 3888
sexes 3888
ush@@ 3888
Malaria 3887
creativity 3887
commanders 3886
guest 3886
ust 3886
pen 3885
Tel 3884
abducted 3884
absorption 3884
Guidance 3883
ater@@ 3882
sensitization 3882
185 3881
random 3880
yearly 3880
243 3879
han 3879
Mark 3878
nan@@ 3877
tide 3877
191 3875
Adaptation 3875
Almaty 3875
ESA 3875
PP@@ 3875
17,@@ 3874
harsh 3872
hostage 3872
rolled 3872
DO@@ 3871
Missions 3871
singing 3871
flagrant 3870
181 3869
mentation 3868
resistant 3868
Computer 3867
perceptions 3867
Female 3866
buyers 3866
concessions 3866
euros 3866
laying 3866
ok@@ 3866
sheep 3866
OAS 3865
cap 3865
mol@@ 3865
positioning 3863
OA@@ 3862
suited 3860
tual 3860
Bre@@ 3859
Little 3859
Inquiry 3858
frames 3858
suggesting 3858
pic@@ 3856
syndrome 3856
buffer 3854
CB 3853
beer 3852
Priority 3851
aps 3851
congratulations 3850
enemies 3850
regrettable 3849
TH 3848
ade@@ 3848
bn 3848
lighting 3848
scrutiny 3848
DS 3847
disorder 3847
predict 3847
beside 3846
emanating 3846
conditional 3845
speci@@ 3845
Initial 3844
bet 3844
inquiries 3844
jury 3844
Addressing 3843
quar@@ 3843
unfortunately 3843
a.@@ 3842
boats 3842
comprehensively 3841
repairs 3840
clashes 3839
sou@@ 3838
Liu 3837
contest 3837
doc@@ 3837
260 3836
Ma 3836
songs 3836
enforcing 3835
500,000 3834
cloth 3834
healthcare 3834
Paragraphs 3833
dressed 3832
reorganization 3831
uck@@ 3831
Hon@@ 3830
Sanctions 3830
Truth 3830
darkness 3829
gan@@ 3829
protects 3829
Responsibility 3828
entertainment 3828
Ozone 3827
boxes 3827
suppose 3826
SO 3825
rats 3825
keys 3824
Au@@ 3822
propaganda 3822
EN 3821
consular 3821
immunization 3821
Call 3820
Nu@@ 3819
seizures 3819
Bar 3818
appropriated 3818
confirms 3818
vacuum 3818
ITU 3817
loving 3815
Moroccan 3813
ab 3813
Schedule 3812
qualify 3812
concentrations 3809
striking 3809
mad 3808
enrichment 3807
R. 3806
importing 3806
intelligent 3806
petition 3805
Changes 3804
universe 3804
tal@@ 3803
fought 3802
Whatever 3801
loaded 3801
UNPROFOR 3800
basin 3800
nervous 3800
clouds 3799
dependency 3799
mp@@ 3799
206 3798
Vo@@ 3798
detrimental 3798
2,0@@ 3797
La 3797
egg 3797
vation 3797
charter 3796
16,@@ 3795
ratios 3795
GIS 3794
abolish 3794
fr@@ 3794
si 3793
186 3792
Low 3792
ideological 3792
Along 3791
Substances 3791
offshore 3791
ulation 3791
Kinshasa 3790
kits 3790
chest 3787
fortune 3787
unconditional 3787
curve 3785
calculate 3784
multidimensional 3784
Phil@@ 3783
ail 3783
thrust 3783
CM 3781
Intolerance 3781
35@@ 3780
Inspector 3780
UNO@@ 3780
permanently 3780
vul@@ 3780
deepening 3779
grid 3779
artists 3778
ress 3778
184 3777
alter 3776
toll 3776
traffickers 3776
D.C. 3775
ases 3774
burst 3774
49@@ 3773
202 3772
Infrastructure 3771
Mohamed 3771
preferences 3771
therapeutic 3771
uneven 3771
Extension 3770
constrained 3770
Turning 3769
manuals 3769
leisure 3768
y.@@ 3767
inging 3766
instructed 3765
yah 3765
vel 3764
encounter 3763
sensor 3763
Armenian 3762
emp@@ 3762
illustrate 3761
confiscated 3760
embedded 3760
situated 3760
Vol@@ 3759
oneself 3759
tent 3757
ODS 3756
fla@@ 3756
mouse 3756
colors 3755
bon@@ 3754
tasked 3754
banning 3752
lac@@ 3752
extraterritorial 3751
pragmatic 3751
Conditions 3750
Memorandum 3749
insert 3749
205 3748
condemnation 3747
approaching 3746
recommending 3746
prompted 3745
pt 3745
Intellectual 3744
ave 3744
particles 3744
Agencies 3742
disadvantages 3742
reactions 3742
triangular 3742
HS 3741
225 3740
passes 3740
rated 3740
checkpoints 3739
Tar@@ 3738
Fish 3737
Berlin 3736
e. 3736
fro@@ 3736
178 3735
References 3734
exporters 3734
Specifically 3733
exciting 3733
orphans 3732
zer 3732
47@@ 3731
clearer 3731
sustainment 3731
engineers 3730
grand@@ 3730
retaining 3730
tings 3728
Roman 3727
vil@@ 3727
Leg@@ 3726
presumption 3726
Distribution 3725
Listen 3725
ski 3725
fingers 3724
differently 3723
insured 3723
46@@ 3722
Richard 3722
calculating 3722
complications 3722
tus 3722
BC 3721
pun@@ 3721
History 3720
loose 3720
besides 3719
elling 3719
222 3718
encompass 3718
babies 3717
eration 3717
warehouse 3717
burned 3716
travelled 3716
disadvantage 3715
insisted 3715
OL 3712
Sil@@ 3712
6.3 3710
Bor@@ 3710
Emphasizing 3710
Significant 3710
scholarships 3710
Spring 3709
atomic 3709
diffusion 3708
farmer 3708
upward 3708
ensuing 3706
Arctic 3705
SCO 3705
finger 3705
expelled 3704
slum 3704
stuck 3704
aggravated 3703
Trustees 3702
compact 3702
rous 3702
standardization 3702
198 3701
guides 3701
ili@@ 3701
packing 3701
209 3700
Add.3 3700
Observatory 3700
boo@@ 3700
obl@@ 3700
30,000 3699
LDC 3698
Requirements 3698
Respect 3698
Welcome 3696
dozen 3696
influences 3696
precedent 3693
Ay@@ 3692
Pass@@ 3692
ca 3692
phot@@ 3692
stroke 3692
Cup 3691
fan@@ 3691
magic 3691
Increasing 3690
litem 3690
clubs 3689
preserved 3689
Disabled 3686
presently 3686
sewage 3686
Relationship 3685
donations 3685
refined 3684
Departments 3681
Museum 3681
terminate 3681
Products 3680
resist 3680
Republican 3678
embarked 3678
comp@@ 3677
outs 3677
AC.105 3675
Type 3675
Austrian 3672
continually 3672
remembered 3672
daughters 3671
passive 3671
theatre 3669
cop@@ 3668
builds 3664
Judiciary 3662
Legislation 3662
righ@@ 3662
loves 3661
apple 3659
rebuilding 3658
stat@@ 3658
defects 3657
prevents 3657
shortfall 3657
optimize 3655
sel@@ 3655
Documentation 3654
bel 3654
assists 3653
ions 3653
4.4 3651
ICCPR 3651
aerial 3651
vaccine 3651
crash 3648
interact 3648
neuro@@ 3647
UPR 3646
Large 3645
187 3644
Oceans 3643
tariffs 3643
shoot 3642
interpret 3641
Arrangements 3640
80@@ 3639
announce 3639
insist 3639
boom 3637
fra@@ 3637
ility 3637
Classification 3636
cannabis 3636
conciliation 3635
groupings 3635
impediments 3635
seventy 3635
stomach 3635
summarizes 3635
Claims 3634
Consultation 3633
prop@@ 3633
shouldn 3633
unfortunate 3632
Arts 3631
deserved 3630
safely 3630
Different 3629
mom 3629
god 3628
imminent 3627
measurements 3627
188 3626
crazy 3626
enter@@ 3626
cornerstone 3625
footing 3625
sacrifice 3625
Colombian 3624
New@@ 3624
Pla@@ 3624
gle 3624
Encourage 3623
generators 3623
vibration 3623
zation 3623
Auditor 3622
&apos;a 3620
arsenals 3620
Consultations 3619
class@@ 3619
constituent 3619
diabetes 3619
fan 3619
176 3618
abandon 3618
precarious 3618
rebels 3617
Marriage 3616
aut 3616
consuming 3616
Bri@@ 3615
Brindisi 3615
Exploitation 3615
airports 3615
err@@ 3614
grace 3614
surrender 3614
acti@@ 3613
maturity 3612
prone 3612
low@@ 3611
sho@@ 3611
accepts 3610
confronting 3610
legislature 3609
RD 3608
panellists 3608
underline 3608
breaks 3607
disciplines 3607
midterm 3607
len@@ 3606
2.8 3604
economists 3603
substantiated 3603
year@@ 3603
devise 3602
ail@@ 3601
cried 3601
hath 3601
ERP 3600
funny 3600
holdings 3600
stance 3598
fre@@ 3597
strongest 3597
ired 3596
originating 3596
maker 3595
Laundering 3594
caution 3594
conducts 3594
delegated 3594
hard@@ 3594
194 3593
Cluster 3592
abused 3592
defendants 3590
reas@@ 3590
ric 3589
CB@@ 3588
Try 3588
disturbing 3587
finances 3587
Bou@@ 3586
knife 3586
7.5 3585
execute 3585
hem@@ 3585
oon 3584
understands 3584
arriving 3582
titles 3580
gang 3579
prize 3579
Stockpiling 3578
leather 3578
Micro@@ 3577
Valley 3577
ologists 3577
L.1 3576
Sec@@ 3576
disorders 3576
junior 3575
pipeline 3575
tower 3574
ideals 3573
vol 3573
GC 3572
arity 3572
circumstance 3572
kid 3570
2,500 3569
200,000 3569
Discussion 3569
Ur@@ 3567
lea@@ 3566
Polish 3565
ops 3564
zes 3564
Economics 3563
undergo 3563
dirty 3562
itt@@ 3561
municipality 3561
wound 3561
countryside 3560
wore 3560
58@@ 3559
Technological 3559
Unlike 3559
dom 3559
meals 3559
milestone 3559
constituting 3558
furthermore 3558
Credit 3557
Schools 3557
Entity 3556
contributor 3556
observing 3556
photographs 3555
totalled 3555
Beyond 3554
Companies 3554
payroll 3554
Sahel 3553
hub 3553
unaccompanied 3553
90@@ 3552
wards 3552
sincerely 3551
Improvement 3550
enthusiasm 3550
ino 3550
rage 3550
Israelis 3549
Atlas 3547
administer 3547
bias 3547
onn@@ 3547
illa 3546
incoming 3546
seal 3546
Crescent 3545
clu@@ 3545
AM 3544
Establishing 3544
enters 3544
remedial 3544
Signed 3543
confinement 3543
neglected 3542
Comoros 3541
Sport 3541
initiating 3541
poorly 3541
Back 3539
ied 3539
56@@ 3538
Kowloon 3538
Sin@@ 3538
analyzing 3538
narcotics 3538
gen 3536
228 3535
Caledonia 3535
Timorese 3535
sampling 3535
school@@ 3535
sword 3535
cy 3534
ota 3534
Seven 3533
ineffective 3533
irreversible 3533
kiss 3533
Facilitation 3532
Single 3532
Sp@@ 3532
instant 3532
traders 3531
assign 3530
collaborating 3530
prospective 3530
Labor 3529
executives 3529
fri@@ 3529
ute 3529
Commissions 3528
Thematic 3528
tam@@ 3528
statutes 3527
Chi@@ 3526
readers 3526
reluctant 3526
AD 3525
overtime 3525
preamble 3525
shan 3525
clinic 3524
dig@@ 3524
Accra 3523
Plurinational 3522
coach 3522
215 3521
forcing 3521
radar 3521
graphy 3520
audiences 3519
bridges 3519
occupy 3519
attainable 3518
Credentials 3517
adequacy 3517
conveyed 3517
tle 3517
P. 3516
Vincent 3516
ity@@ 3516
verifiable 3516
factions 3515
Wil@@ 3514
Socialist 3513
rush 3513
supplementing 3513
wel@@ 3510
ified 3509
embrace 3508
disproportionately 3507
tum@@ 3507
6.2 3506
RES@@ 3505
geological 3503
disappointed 3502
surprising 3502
automation 3501
uh 3500
widening 3500
4. 3498
6.1 3498
immigrant 3498
unexpected 3498
trips 3497
vo 3496
ICAO 3495
deadly 3495
anxiety 3494
pleasant 3493
ene 3492
albeit 3491
streamlined 3491
factories 3490
ken 3490
li 3490
peacefully 3489
Was 3488
chairpersons 3488
Page 3486
firing 3486
ita 3486
refuge 3486
ts@@ 3486
bulletin 3485
invalid 3485
SubCommission 3484
Euro 3483
lovely 3483
Objectives 3482
corn 3482
HC@@ 3481
supervise 3481
auto 3478
reclassification 3478
conception 3477
Associate 3476
thor@@ 3476
counts 3475
harmonizing 3475
lectures 3475
Everything 3474
enriched 3474
implied 3474
manufacturer 3474
19,@@ 3473
nonetheless 3472
scre@@ 3472
Otherwise 3471
Particular 3470
arm@@ 3470
IF 3469
occupations 3469
OS 3468
Ottawa 3468
Individual 3467
eling 3467
wastewater 3467
221 3466
237 3466
Improve 3466
207 3465
3.6 3465
ez 3465
strip 3465
threatens 3464
exceeds 3463
cam@@ 3462
formats 3462
luxury 3462
Abidjan 3461
ences 3461
premature 3461
convenience 3460
dental 3460
D.@@ 3459
movies 3459
atmospheric 3458
winner 3458
ech@@ 3457
Cat@@ 3456
literary 3456
subsidy 3456
S.@@ 3455
elaborating 3454
trusted 3454
Narcotics 3452
pointing 3451
Pact 3450
simultaneous 3450
179 3449
estimation 3449
sing@@ 3449
quo 3448
shifting 3448
Medium 3447
SAR 3447
borrow 3447
disputed 3447
prevalent 3447
minded 3446
ventures 3446
Tenth 3445
XIII 3444
stupid 3444
è@@ 3443
criminalization 3442
employing 3441
litigation 3441
pack 3441
loud 3440
passion 3440
Karabakh 3439
tip 3439
18.@@ 3438
Bosnian 3437
rebuild 3437
GE 3436
efficiencies 3436
physics 3436
Vanuatu 3435
writers 3435
optimum 3434
Art 3433
problematic 3433
&apos;clock 3432
Resolutions 3432
oh 3431
speaks 3431
anybody 3430
sch@@ 3429
sy@@ 3429
Delhi 3428
ori 3428
rocks 3428
wil@@ 3428
xes 3428
Wor@@ 3427
CTC 3426
Kim 3425
ock@@ 3425
Ak@@ 3424
evidenced 3424
probability 3424
Secondary 3423
241 3422
grows 3422
Pres@@ 3421
install 3420
versus 3420
1948 3419
coercion 3419
complain 3419
destroying 3419
disk 3419
classifications 3418
indictment 3418
Abkhazia 3416
morbidity 3416
privately 3416
Directive 3415
itis 3415
un.org 3415
Debt 3414
Hom@@ 3414
Initiatives 3414
ify 3414
immense 3414
interdependent 3414
technically 3414
Rad@@ 3413
tran@@ 3413
Modern 3412
Quartet 3412
unresolved 3412
washing 3412
exert 3410
pled 3410
swing 3410
add@@ 3409
muscle 3409
Volunteer 3408
crystal 3408
inflows 3406
tear 3406
compliments 3405
216 3404
osis 3404
Communist 3403
apparatus 3403
apartheid 3402
childbirth 3402
Cypriots 3401
extra@@ 3401
void 3401
NP@@ 3400
anz@@ 3400
cattle 3400
iers 3400
liberal 3400
Command 3399
NAM 3399
temperatures 3399
finalizing 3398
lessly 3398
Assistants 3397
Heritage 3397
217 3396
bacteria 3396
18,@@ 3394
day@@ 3394
urs 3394
deter 3393
analyzes 3392
sor 3392
there@@ 3392
Chernobyl 3390
WMO 3390
ush 3390
nurses 3389
affirm 3388
oth 3388
Hun@@ 3387
warfare 3387
Reconstruction 3384
glasses 3384
mented 3384
inflicted 3383
Gre@@ 3382
expeditious 3382
kindly 3382
ump 3382
casting 3381
Lucia 3380
struggling 3380
exhaustive 3379
Television 3378
grand 3377
OR 3376
arena 3376
Digital 3375
Indicators 3375
diminished 3375
Often 3374
battery 3374
praised 3374
velocity 3374
dy@@ 3373
tun@@ 3373
Sorry 3371
fires 3371
sympathy 3371
Looking 3370
armaments 3370
Jane 3368
attributes 3368
uni@@ 3368
Gazette 3367
advocating 3367
atrocities 3367
ote 3367
d.@@ 3366
thr@@ 3366
wanna 3366
bike 3365
PAR@@ 3364
criticized 3364
eful 3364
kidnapping 3364
Sheikh 3361
explaining 3361
diplomats 3360
engineer 3360
thrown 3360
Membership 3359
naval 3359
transported 3359
Chicago 3358
itable 3358
Off@@ 3357
Ukrainian 3356
classical 3356
1267 3355
demarcation 3355
bility 3354
compounded 3354
essed 3354
initi@@ 3354
253 3353
compelled 3353
aming 3352
Acknowledging 3351
carriers 3351
stu@@ 3351
Material 3350
ced 3350
brush 3349
nu@@ 3349
wan 3349
Falkland 3348
invaluable 3348
logging 3348
pay@@ 3348
psychosocial 3348
turnover 3348
FD@@ 3347
constraint 3347
sum@@ 3347
End 3346
holes 3346
204 3345
outsourcing 3345
synthetic 3345
wings 3345
jet 3343
20th 3342
FC 3342
68@@ 3341
Dakar 3341
artist 3341
biotechnology 3341
itor 3341
aly@@ 3339
269 3337
193 3335
HA 3335
Mutual 3335
ee 3335
eye@@ 3335
conceived 3334
plo@@ 3334
Plans 3333
approving 3333
conservative 3332
imprisoned 3332
timeliness 3332
Tom@@ 3331
athletes 3331
crack 3331
Consolidated 3330
Malvinas 3329
premium 3329
rendering 3328
Direct 3327
MINURCAT 3327
ater 3327
circulate 3327
236 3326
dou@@ 3326
bore 3324
shaping 3324
Fight 3323
Religious 3322
Units 3322
bat@@ 3322
Diplomatic 3321
Ph@@ 3321
Daniel 3319
Times 3319
compelling 3319
abortions 3318
oppose 3317
Mas@@ 3316
Overview 3316
ound 3316
Firstly 3315
precursors 3315
summaries 3314
intra 3313
du 3312
moments 3312
Reg@@ 3311
damaging 3310
memories 3310
pile 3310
254 3309
My@@ 3308
stamps 3308
1970s 3307
MB@@ 3307
undertakes 3307
dering 3306
inity 3306
questionnaires 3306
scores 3306
cooling 3305
downward 3304
266 3303
alliances 3303
jun@@ 3303
Migrants 3302
Wat@@ 3301
excited 3301
lesser 3301
academics 3300
bed@@ 3300
idity 3300
reservoir 3300
tracks 3300
utilities 3300
197 3299
react 3299
basket 3298
journal 3298
lo 3298
steam 3298
vicinity 3296
ref@@ 3295
bath 3294
destiny 3294
fever 3294
biting 3293
Antigua 3292
FA 3292
burdens 3292
cocaine 3292
forecasting 3292
retro@@ 3292
Details 3291
Xenophobia 3290
gam@@ 3290
mir@@ 3290
lit@@ 3289
sooner 3288
induction 3287
but@@ 3286
eager 3286
Fed 3285
bran@@ 3285
pushing 3285
restaurants 3285
encumbered 3284
extract 3284
phy@@ 3284
time@@ 3284
Dynasty 3283
Lands 3283
house@@ 3283
Proposal 3281
Reintegration 3281
15.@@ 3280
tless 3279
ICEF 3278
Jim 3278
affirms 3278
ented 3278
impeding 3278
Living 3277
Transit 3277
ased 3276
reversed 3276
hunting 3275
Appointment 3274
activated 3274
practically 3274
Combined 3273
Multi@@ 3273
handbook 3273
hoo@@ 3272
neutrality 3271
che 3270
iting 3270
predicted 3270
pregnancies 3270
slowdown 3270
KP 3269
Teaching 3268
ranges 3268
val 3268
Mobile 3267
convert 3267
But@@ 3265
diversified 3265
extradite 3265
locate 3265
relies 3265
template 3265
195 3264
Lusaka 3264
MT@@ 3263
bell 3263
monopoly 3263
.... 3261
Swaziland 3261
allocating 3261
disregard 3261
13.@@ 3260
cook 3260
heightened 3259
pretext 3259
itting 3258
Fair 3257
basketball 3257
trucks 3257
unexploded 3257
15,000 3256
quoted 3255
circles 3254
trauma 3254
arch@@ 3253
zi 3253
Rob@@ 3252
Suriname 3252
journalist 3252
14.@@ 3251
flo@@ 3250
offs 3250
contravention 3249
heroin 3249
Big 3248
Clearly 3248
bic@@ 3248
del 3248
infants 3248
reinforcement 3247
20,@@ 3245
guilt 3245
Land@@ 3244
bars 3244
counting 3244
disruption 3244
esti@@ 3244
DPRK 3243
Anti@@ 3241
Jews 3240
complained 3240
manifest 3240
ni 3240
promotional 3240
SIDS 3239
vigorous 3239
Apple 3238
Mur@@ 3238
copyright 3238
bribery 3237
cabinet 3237
IM 3236
fragmentation 3236
eled 3234
sle@@ 3234
valley 3234
BA 3233
reparations 3233
barely 3232
licensed 3231
Preliminary 3230
com 3229
implements 3229
portable 3229
posing 3229
dat@@ 3228
MAN@@ 3227
privilege 3227
ift 3226
counted 3225
vigorously 3225
awa 3224
balancing 3224
adapting 3223
defending 3223
Thirty 3222
peninsula 3222
taxi 3222
Authorities 3221
E.@@ 3220
Managing 3220
definitive 3220
mounted 3220
overcrowding 3219
ural 3219
bitter 3218
loads 3218
openly 3218
stemming 3218
Sim@@ 3217
Srpska 3217
colleague 3217
coral 3216
suppress 3216
triggered 3216
vin@@ 3216
amazing 3215
talents 3215
illustrates 3214
reproduction 3213
stigma 3213
insofar 3211
museum 3210
HIPC 3209
PV.@@ 3209
WIPO 3209
ign@@ 3209
surgical 3209
Average 3208
Municipal 3208
Mrs 3207
imagination 3207
Sw@@ 3206
freshwater 3206
hectares 3206
opposing 3206
PF 3205
hydraulic 3205
Tuvalu 3204
constructively 3203
SS@@ 3202
shifts 3202
thro@@ 3202
Arabs 3201
dancing 3201
keeper 3201
breeding 3200
festival 3200
incremental 3200
5.4 3199
ories 3199
ration 3199
adopts 3198
Comments 3197
blocked 3197
connecting 3197
fullest 3197
matched 3197
ini 3196
rises 3196
od 3195
scheduling 3195
upset 3195
whereabouts 3195
catalytic 3194
rit@@ 3194
wireless 3194
IES 3192
amp@@ 3192
rigid 3192
tactics 3192
BY 3191
influencing 3191
listened 3191
routinely 3190
lecture 3189
Tehran 3188
accompany 3188
counties 3188
ideology 3188
regulators 3188
Drafting 3187
ICTs 3187
Observation 3187
repercussions 3187
rows 3187
trillion 3187
ó@@ 3187
classic 3185
nationalities 3185
Mul@@ 3184
lip 3184
Circular 3183
cant 3183
tunnel 3183
codification 3182
rockets 3182
ith 3181
pan 3181
restricting 3181
Cou@@ 3180
arisen 3180
backgrounds 3180
calculations 3180
fence 3179
sh 3179
Failure 3178
chocolate 3178
flew 3177
Dad 3176
wor@@ 3176
worn 3176
Gener@@ 3175
gently 3175
injustice 3174
reconcile 3173
reminder 3173
francs 3172
homeless 3172
invitations 3172
pling 3172
societal 3172
ven 3172
Seychelles 3171
articulated 3171
groundwater 3171
mile 3171
temple 3171
uncertainties 3171
dam 3170
margins 3170
CR 3169
whatsoever 3168
hotels 3167
rep@@ 3167
capitals 3166
reconsider 3166
Settlement 3164
unanimous 3164
arly 3163
proximity 3163
settling 3163
signatures 3163
glory 3162
lamp 3161
asleep 3160
jumped 3160
69@@ 3158
odd 3157
mathematics 3156
mud 3156
striving 3156
upholding 3156
anymore 3155
vector 3155
abundant 3154
tives 3154
Pu@@ 3153
practicable 3153
reasoning 3153
editor 3152
stal@@ 3151
Medicine 3150
honoured 3150
UNSOA 3149
clarifying 3149
196 3148
hanging 3148
optimistic 3148
Vocational 3147
Ki@@ 3146
diver@@ 3146
exhaustion 3146
hybrid 3146
tips 3146
Thai 3145
pressed 3145
1,200 3144
Marshall 3144
cri@@ 3144
Republika 3143
3.7 3142
UNIDIR 3142
dness 3142
1,3@@ 3140
Exercise 3140
ounding 3140
icity 3139
Johnson 3138
dare 3138
kick 3138
sian 3138
bits 3137
play@@ 3137
bombing 3136
gay 3136
Moses 3134
chip 3134
denying 3134
homework 3133
hereby 3131
aria 3130
mice 3130
UT@@ 3129
economical 3129
PR 3128
drilling 3128
worrying 3127
Discussions 3126
bureaux 3126
dissolution 3125
expiration 3125
menu 3125
merger 3125
Mike 3124
altogether 3124
lifestyle 3124
Ly@@ 3123
polar 3123
Concluding 3122
Vietnam 3122
brutal 3122
evolve 3122
1.9 3121
oxide 3121
ram@@ 3121
fits 3120
hero 3120
ald 3119
invoke 3118
5. 3117
Oslo 3115
auction 3115
mathematical 3115
1.15 3114
exhaust 3114
Nordic 3113
constituencies 3113
hasn 3113
severity 3113
255 3112
HUMAN 3112
Hor@@ 3112
contested 3112
prioritized 3112
wholly 3112
Awareness 3111
flowing 3111
silk 3111
238 3110
plates 3110
247 3108
gues 3108
constructing 3107
deceased 3107
influential 3107
tennis 3107
finite 3106
opens 3106
violates 3106
GU@@ 3105
Me 3105
commits 3105
corrective 3105
mag@@ 3105
mes 3104
sof@@ 3104
anyway 3102
disappointment 3102
seldom 3102
1963 3100
Amnesty 3097
encompasses 3097
appointing 3096
beneath 3095
sli@@ 3095
16.@@ 3094
Cir@@ 3094
Innovation 3093
244 3092
4.6 3092
Presentation 3092
Yang 3092
flame 3092
agreeing 3091
prosecuting 3091
Approximately 3090
mad@@ 3090
motor@@ 3090
triennial 3090
Bos@@ 3089
Kam@@ 3089
276 3088
fire@@ 3087
foreseeable 3087
hood 3087
Frente 3086
ballistic 3086
correspond 3086
Guard 3085
predominantly 3085
Brunei 3084
complainants 3084
uring 3084
decreases 3083
disposed 3082
nation@@ 3082
246 3080
Adopt 3080
conditioning 3080
lonely 3080
psychiatric 3080
Possible 3079
CEO 3077
Delegation 3077
automated 3076
interrogation 3076
asting 3075
brackets 3075
nerve 3075
abstract 3074
agro 3074
s. 3074
stimulating 3074
264 3073
Materials 3073
Recommends 3073
broadening 3073
dawn 3072
patience 3071
relying 3071
DR 3070
bru@@ 3070
precautionary 3069
tooth 3069
Joe 3068
fulfill 3067
symposium 3067
system@@ 3067
Tai 3066
grantor 3066
interpreters 3066
waited 3066
1968 3065
MC 3065
ner@@ 3065
sand@@ 3065
FOR@@ 3064
Facilities 3064
Pan 3064
bert 3064
juveniles 3064
ometer 3064
administrators 3062
GA@@ 3061
Particularly 3061
onal 3061
pursuance 3061
ICCD 3060
surveyed 3059
Effect 3058
flesh 3058
Book 3057
Kal@@ 3057
intervals 3057
wit@@ 3057
Continental 3056
Eli@@ 3056
Bir@@ 3054
Hello 3054
shake 3054
annum 3053
adjusting 3052
aster 3051
ature 3051
escaped 3051
optimism 3051
collaborated 3050
Compared 3049
judged 3049
revising 3049
midst 3048
Class 3047
drinks 3047
bow 3046
culturally 3046
fasc@@ 3046
flooding 3045
engines 3044
hou@@ 3044
eurozone 3042
slip 3042
231 3041
Estimate 3041
Nos. 3041
directive 3041
elec@@ 3041
juice 3041
Faculty 3040
fracture 3040
staffed 3040
coup 3039
tial 3039
slide 3038
Camp 3037
ION 3037
dge 3037
relax 3037
biology 3036
ele@@ 3036
posting 3036
Ben 3035
improves 3035
refu@@ 3034
obsolete 3033
ony 3033
smo@@ 3033
234 3032
predic@@ 3032
NAP 3031
ashes 3031
disparity 3031
mur@@ 3031
ses@@ 3031
Janeiro 3030
ool 3028
UD@@ 3027
eld 3027
Donor 3026
brave 3026
avoidance 3025
emotions 3025
marginal 3025
preferable 3025
Barbuda 3024
cancel 3024
eh 3023
entries 3023
stabilize 3023
tripartite 3022
Sources 3021
ligh@@ 3021
prediction 3021
servers 3021
tune 3021
materiel 3020
ock 3020
ratione 3020
HA@@ 3019
Mom 3019
associates 3019
inform@@ 3019
pivotal 3018
232 3017
IE@@ 3017
believing 3017
5.6 3016
complying 3016
lays 3016
rers 3015
planting 3014
populated 3014
LC 3013
magistrates 3010
unrest 3010
Damascus 3009
backs 3008
lasted 3008
IPU 3007
Rapporteurs 3006
WH@@ 3006
fitting 3006
Commissioners 3005
Nicosia 3005
ere 3005
layers 3005
1966 3004
Cash 3004
223 3002
Non@@ 3002
apo@@ 3002
ella 3002
recurrence 3002
Seabed 3001
affair 3001
INTERPOL 3000
genes 3000
stringent 3000
swift 3000
Azerbaijani 2999
Expenditure 2998
Plan@@ 2998
discriminated 2998
exchanging 2998
rum@@ 2998
seismic 2998
tar 2998
ax 2997
bush 2997
macro 2997
258 2996
Air@@ 2996
son@@ 2996
Associations 2995
Ten@@ 2994
directory 2994
1000 2993
CF 2993
Annan 2992
FR@@ 2992
hosts 2992
ACABQ 2991
Abuja 2991
Hydro@@ 2991
sten@@ 2991
Concern 2990
indebted 2990
underscore 2990
Cap 2989
prioritization 2989
bec@@ 2988
molecular 2988
2.9 2987
265 2987
intra@@ 2987
Dan@@ 2986
Mol@@ 2985
expired 2985
mortar 2985
responds 2985
Opinion 2984
effected 2983
dents 2982
derive 2982
sickness 2982
arid 2981
forecasts 2981
Elizabeth 2978
Disappearance 2977
L.2 2977
Includes 2976
dable 2976
evictions 2976
450 2975
MOP 2975
folk 2975
irs 2975
Symposium 2974
walks 2974
withdrew 2974
Observers 2973
brea@@ 2973
nominal 2973
pronounced 2973
sentencing 2973
accusations 2972
possessed 2972
trap 2972
acclamation 2971
tness 2970
Death 2969
contraceptive 2968
facilitators 2968
psychology 2968
rah 2968
tense 2968
Afro 2967
Lower 2967
discourage 2967
Cambodian 2966
Problems 2966
Tor@@ 2966
fortieth 2966
graduated 2966
queries 2966
criminalize 2964
uncle 2964
label 2963
pop 2963
thetic 2963
occasionally 2962
QU@@ 2961
forcibly 2961
vaccines 2961
objectivity 2960
celebrated 2958
illed 2958
Ahmed 2957
fines 2956
gall@@ 2956
atin@@ 2955
dire 2955
High@@ 2954
poorer 2954
assi@@ 2953
conf@@ 2953
lif@@ 2953
Bl@@ 2952
Whenever 2951
alised 2951
ford 2951
petrol 2951
beds 2950
charity 2950
nec@@ 2950
reader 2950
Hongkong 2949
bones 2949
here@@ 2949
spell 2949
microcredit 2948
soup 2948
ATIONS 2947
ISO 2947
altitude 2947
conc@@ 2947
phen@@ 2947
Referring 2946
Restrictions 2946
sanction 2946
undergone 2946
contends 2945
ila 2945
medi@@ 2945
CF@@ 2944
discourse 2944
wealthy 2944
clim@@ 2943
let@@ 2943
recreational 2943
sanitary 2943
Think 2942
dozens 2942
resignation 2942
Census 2941
Jul@@ 2941
LEG 2941
Op@@ 2941
prudent 2941
MAR@@ 2940
alistic 2940
incorporates 2940
treatments 2940
encompassing 2939
thirtieth 2939
ires 2938
19.@@ 2937
67@@ 2937
KFOR 2937
Mountain 2937
guardian 2937
JS@@ 2936
vegetable 2934
Waste 2933
altered 2933
har 2933
swee@@ 2933
Firearms 2932
Learn 2932
mers 2932
subparagraphs 2932
Estimated 2929
specifies 2929
Bermuda 2928
Goma 2928
examines 2928
performances 2928
thread 2928
Dear 2927
Proposals 2927
frank 2927
tation 2927
weakened 2927
Colonel 2926
ert 2926
hiding 2926
impeded 2926
lethal 2926
ouse 2926
José 2925
cheaper 2925
ing.@@ 2923
avail 2922
high@@ 2922
tible 2921
Notice 2920
suc@@ 2920
cord 2919
despair 2918
ira 2918
pesticides 2918
283 2917
Contribution 2917
hin@@ 2917
wildlife 2917
arbitrarily 2916
feared 2916
ja@@ 2914
simplify 2914
19th 2913
commemoration 2913
vague 2913
687 2912
Ethnic 2912
Geographical 2912
long@@ 2912
tually 2912
welding 2912
chambers 2911
favorable 2911
inger 2910
mal 2909
Corporate 2908
Ombudsperson 2908
spe@@ 2908
Ou@@ 2907
invoices 2907
expiry 2906
neutr@@ 2906
principally 2906
discrepancies 2905
kil@@ 2905
permitting 2905
warmly 2905
honey 2904
ura 2904
Exc@@ 2903
battalion 2903
comb@@ 2903
ference 2903
mighty 2903
oke 2903
teenage 2903
wells 2902
PN@@ 2901
Plant 2901
sacred 2901
Oc@@ 2900
adaptive 2900
Stop 2899
eminent 2899
repression 2899
Actually 2897
eu@@ 2897
hung 2897
surrounded 2897
attribute 2896
yields 2896
Buenos 2895
DPKO 2895
Ming 2895
contradiction 2895
defamation 2894
ho 2894
romantic 2894
Rev@@ 2893
bargaining 2892
precondition 2892
unforeseen 2892
201@@ 2891
Dr@@ 2891
shame 2891
Cartagena 2890
billions 2890
brilliant 2890
med@@ 2890
accommodated 2889
ISAF 2888
cin@@ 2888
Core 2887
Mid@@ 2887
Yu@@ 2887
combustion 2887
hydrogen 2887
preceded 2887
Existing 2886
UR 2886
boarding 2886
packed 2886
Fra@@ 2885
paradigm 2885
revolutionary 2885
RS 2884
devised 2883
nor@@ 2883
338 2882
Aires 2882
condolences 2882
educators 2882
forge 2882
Post@@ 2881
Water@@ 2881
insul@@ 2881
FDLR 2880
Tre@@ 2880
lung 2880
eve 2879
wooden 2879
Freedoms 2878
LL 2878
dia 2878
pel@@ 2878
Enterprises 2877
&apos;affaires 2876
Barack 2876
inspiration 2876
need@@ 2876
Uni@@ 2875
ered 2875
zo@@ 2875
etc. 2874
nurse 2874
Fire 2873
Kin@@ 2873
concession 2873
frustration 2873
grasp 2873
thered 2873
15th 2872
9,000 2871
Partners 2871
rapporteur 2870
Boards 2869
declares 2869
pel 2869
buses 2868
enclosed 2868
reminds 2867
Scotland 2866
facilitator 2866
Seventh 2865
hamper 2865
paths 2865
aquifer 2864
layout 2864
261 2863
Instrument 2863
tra 2863
Pra@@ 2862
Scientists 2862
departed 2862
hierarchy 2862
Irish 2861
Sun@@ 2861
Xi@@ 2861
abundance 2861
developers 2861
ition 2861
gray 2860
treasure 2860
tumor 2860
Hazardous 2859
ICPD 2859
245 2858
296 2858
amed 2858
beg@@ 2858
tian 2858
vein 2858
fundamentally 2857
ailing 2856
dismantling 2856
illing 2856
legisl@@ 2856
shipped 2856
224 2855
deems 2855
fuzzy 2855
ink@@ 2855
parks 2855
Autonomous 2854
preferably 2854
Revolution 2853
Transition 2853
gentle 2853
girlfriend 2853
hindered 2852
rival 2852
Jones 2851
Tan@@ 2851
entrepreneurial 2851
husbands 2851
advising 2850
consumed 2850
jeopardize 2850
Provincial 2849
scarcity 2849
Tw@@ 2848
migratory 2846
249 2845
Slovak 2845
critically 2845
swim 2844
wo@@ 2844
Dec.@@ 2843
fare 2843
hun@@ 2843
negotiable 2843
Technologies 2842
declaring 2842
fatigue 2842
outgoing 2842
removals 2842
sisters 2842
Sum@@ 2841
asserts 2841
ologist 2841
planes 2841
3.8 2840
imaging 2840
reprisals 2840
W. 2839
Sor@@ 2838
congratulated 2838
magazines 2838
unsafe 2838
redouble 2837
amnesty 2836
blast 2836
refoulement 2836
widest 2836
endanger 2835
apped 2834
specification 2834
climb 2833
educ@@ 2832
proves 2832
Putin 2831
ón 2831
gy@@ 2830
shifted 2830
insti@@ 2829
ishment 2829
plot 2829
11th 2828
SPT 2828
singer 2828
Import 2827
alleges 2827
afterwards 2826
Accountability 2825
Course 2825
sco@@ 2825
vic 2825
Bon@@ 2824
Grenadines 2824
219 2823
cer 2823
matic 2823
Amendments 2822
Shar@@ 2822
289 2821
underrepresented 2821
distinctive 2820
downturn 2820
furthering 2820
main@@ 2820
professions 2820
reformed 2820
4.8 2819
a.i. 2818
exempt 2818
activation 2817
flash 2816
custodial 2815
secrets 2815
beating 2813
concise 2813
Certification 2812
Jud@@ 2812
motions 2812
replenishment 2812
27,@@ 2811
Ds 2811
subregions 2811
Antarctic 2810
TNCs 2810
UNMOVIC 2810
ker@@ 2810
unreasonable 2810
Ara@@ 2809
Wu 2809
bud@@ 2809
troubled 2809
Lesson 2808
12th 2807
IL 2807
Leaders 2807
ingredients 2807
Database 2806
Except 2806
Too 2806
forefront 2806
inherited 2806
stockpile 2806
Aware 2805
Exploration 2805
coating 2805
Gal@@ 2804
Stocks 2804
detecting 2804
intake 2804
symbols 2804
fool 2803
hospitality 2803
1701 2802
275 2802
Kan@@ 2802
Vision 2802
Kyrgyz 2801
ashing 2801
supreme 2801
Columbia 2800
persisted 2800
promulgation 2800
respondent 2800
confirming 2799
neighbourhood 2799
professionalism 2799
administrator 2798
noteworthy 2798
attachment 2797
sorrow 2796
floating 2795
ples 2795
subjective 2795
Customer 2792
download 2792
enquiries 2792
horses 2792
outlining 2792
tuition 2792
Analy@@ 2791
preclude 2791
ICTR 2790
aster@@ 2790
lah 2790
questioning 2790
upgraded 2789
barrel 2788
minimizing 2787
multifaceted 2787
mut@@ 2787
repetition 2787
subnational 2787
amid 2786
posters 2786
priest 2786
comparing 2785
7.3 2784
Claimant 2784
ISU 2784
tory 2784
Andean 2783
Items 2783
Mass 2782
diesel 2782
forgot 2782
opponents 2782
Recognition 2781
dictionary 2781
pass@@ 2781
persuade 2781
bus@@ 2780
43@@ 2779
empirical 2779
unliquidated 2779
Prize 2778
communicating 2778
compensable 2778
polling 2778
spacecraft 2778
flu 2777
CCPR 2776
Check 2776
regulates 2776
Delivering 2775
bride 2775
Drought 2774
eco 2774
sexuality 2773
circum@@ 2772
verbal 2772
kingdom 2771
Los 2770
way@@ 2770
44@@ 2769
Sex 2769
XIV 2769
definite 2769
dispatch 2769
GO@@ 2768
exhibit 2768
attorney 2767
delimitation 2766
endorses 2766
Naqurah 2765
antiretroviral 2765
drawdown 2765
refusing 2765
ü@@ 2765
Cooperative 2764
conver@@ 2764
indi@@ 2764
itated 2764
4.7 2763
assistants 2763
depositary 2763
rat 2762
simplification 2762
BO@@ 2761
Grenada 2760
expire 2760
home@@ 2760
oping 2760
insight 2758
reside 2758
Sichuan 2757
emotion 2757
generator 2757
Gas 2756
influenza 2756
Issue 2755
cognitive 2755
ifies 2754
oa 2754
descriptions 2752
Interpol 2751
controller 2751
ight@@ 2751
port@@ 2751
robot 2751
bankruptcy 2750
impediment 2750
paramilitary 2750
toxicity 2750
yan 2750
Rs 2749
Tal@@ 2749
advertisement 2749
assertion 2749
modality 2749
sit@@ 2749
Carrie 2748
hurry 2748
itary 2748
Eleventh 2747
deliveries 2747
MS@@ 2746
deeds 2746
Ann@@ 2745
Gor@@ 2745
adjournment 2745
deploying 2745
roc@@ 2745
ignorance 2744
iro 2744
stretch 2744
Pollution 2742
aded 2742
tionally 2742
www.un@@ 2742
Student 2741
dol@@ 2741
homeland 2741
lag 2741
morality 2741
Hill 2740
LD@@ 2740
bent 2740
ICTY 2739
LS 2739
Speaking 2739
respiratory 2739
scientist 2739
warranted 2739
Forty 2738
clarifications 2738
itch@@ 2738
landmark 2738
manages 2738
PDF 2737
Shan@@ 2737
alling 2737
endangered 2737
eries 2737
featured 2737
lowering 2737
lump 2737
presiding 2737
swe@@ 2737
Telecommunications 2736
undermines 2736
chron@@ 2735
Attention 2733
Coast 2731
Endorses 2731
tot@@ 2731
Guangdong 2730
advisable 2730
preconditions 2730
entirety 2729
gal 2729
ffe@@ 2728
governor 2727
tap 2727
Pic@@ 2726
Principle 2726
angel 2725
deem 2725
ix 2725
lows 2725
nonproliferation 2725
sizes 2724
Santiago 2723
crowded 2723
ique 2723
peacemaking 2723
chem@@ 2722
Convinced 2721
Excuse 2721
medication 2721
rhetoric 2721
alls 2720
consequent 2720
destined 2720
Preventing 2719
aka 2719
fore 2719
infringement 2719
panic 2719
SM@@ 2718
dence 2718
profitable 2718
rationalization 2718
somehow 2718
272 2717
7.1 2717
coefficient 2717
Ye@@ 2716
drain 2716
fellowship 2716
part@@ 2716
On@@ 2715
sym@@ 2715
unstable 2715
Biodiversity 2714
Darussalam 2714
adi 2713
ida 2713
accessed 2712
commendable 2712
irrit@@ 2712
meteorological 2712
8.5 2711
gates 2711
poppy 2711
programmed 2711
une 2711
distributing 2710
storms 2710
Start 2709
ots 2709
vely 2709
Vol 2708
ola 2708
Juvenile 2707
ić 2707
spr@@ 2707
Harvard 2706
aches 2706
bail 2706
deteriorated 2706
Tunis 2705
ambition 2705
charts 2705
institutionalized 2705
voiced 2705
Offences 2704
obstetric 2703
26.@@ 2702
centr@@ 2702
closures 2702
kit 2702
SME 2700
mann 2700
superiority 2699
Santa 2698
anda 2698
bubble 2698
xi 2698
Han 2697
differing 2697
Nobel 2696
goodwill 2696
š@@ 2696
You@@ 2695
nar@@ 2695
rea@@ 2695
Juba 2694
Vis@@ 2694
earning 2694
royal 2694
MP 2693
equilibrium 2693
idal 2693
inten@@ 2693
intentionally 2693
mill 2693
365 2692
assemblies 2692
careers 2692
query 2692
scattered 2692
transforming 2692
fast@@ 2691
avenues 2690
confused 2690
diversify 2690
precursor 2690
projection 2690
tax@@ 2690
eline 2689
musical 2689
troop- 2689
COP.@@ 2688
drama 2688
ials 2688
impasse 2688
Alternative 2687
Hum@@ 2687
alloy 2687
contacted 2687
ici@@ 2687
vent 2687
259 2686
Ga@@ 2686
Ninth 2686
Options 2686
acks 2686
announcements 2686
fal@@ 2686
registers 2686
Forestry 2685
ind 2685
retreat 2685
slope 2685
ss 2685
conflicting 2684
microwave 2684
was@@ 2684
Belgian 2683
crying 2683
painted 2682
seabed 2682
7.2 2681
enhances 2681
program@@ 2680
Monthly 2679
Persistent 2679
automobile 2679
disturbed 2679
petitioner 2679
worsening 2679
288 2678
Marino 2678
Shall 2678
cell@@ 2678
grey 2678
Frank 2677
Whereas 2677
flies 2677
inspected 2677
Morgan 2676
acqu@@ 2676
iling 2675
real@@ 2675
sponsorship 2675
1950 2674
256 2674
Jan@@ 2674
Kor@@ 2674
Mount 2674
origins 2674
appearing 2672
breastfeeding 2672
ographic 2672
Equ@@ 2671
77@@ 2670
materi@@ 2670
Nation 2669
cautious 2669
coping 2669
historically 2669
china 2668
mounting 2668
Approved 2667
solitary 2667
POPS 2666
Palau 2666
trans 2666
Rep@@ 2665
avi@@ 2665
ologic 2665
winds 2665
pit 2664
quit 2664
villagers 2664
irregularities 2663
mercenary 2663
Handbook 2662
assumes 2662
berry 2662
free@@ 2662
outlets 2662
overlapping 2662
pulse 2662
Nobody 2660
ema 2660
20.@@ 2659
IONAL 2659
Jin@@ 2659
Sam 2659
landed 2659
Fo@@ 2658
Fran@@ 2658
regionally 2658
tel@@ 2658
Men@@ 2657
cont@@ 2657
ranked 2657
costing 2656
Cri@@ 2655
ICA 2655
POPs 2655
Tang 2655
convince 2655
rear 2655
305 2654
Cra@@ 2654
Hu 2654
mined 2654
unilaterally 2654
supplying 2653
252 2651
multimedia 2651
recreation 2651
55@@ 2650
hair@@ 2650
17th 2649
Bol@@ 2649
minim@@ 2649
rez 2649
Nearly 2648
far@@ 2648
stretched 2648
churches 2647
conscientious 2647
ero@@ 2647
meth@@ 2647
vicious 2647
Fax 2646
anthropogenic 2646
conten@@ 2646
lob@@ 2646
tivity 2646
Structure 2645
fishery 2645
Art. 2644
merged 2644
Prisoners 2643
commemorate 2643
deputies 2643
mou@@ 2643
vy 2643
DAC 2642
Punish 2642
Sarajevo 2642
TER@@ 2642
proportional 2642
stered 2642
45@@ 2641
Baltic 2641
Collective 2641
acceleration 2641
contraception 2641
func@@ 2641
ough 2641
300,000 2640
Transportation 2640
intim@@ 2640
overhead 2640
reporters 2640
Lim@@ 2639
ank 2639
recognised 2639
scal@@ 2638
Eng@@ 2637
oldest 2637
reactor 2637
Wales 2636
forgive 2636
Algerian 2635
jail 2635
lec@@ 2635
psychotropic 2635
Lam@@ 2634
arily 2633
that@@ 2633
Awards 2632
Mah@@ 2631
Tun@@ 2631
explosions 2630
elder 2629
footnote 2629
mar 2629
nat@@ 2629
stin@@ 2629
ula 2629
Out@@ 2628
easing 2628
Century 2627
N. 2627
brokering 2627
premise 2627
impressed 2626
particle 2626
relieve 2626
supplements 2626
Broad@@ 2625
faithful 2625
seasonal 2625
Bad@@ 2624
Resistance 2624
breathing 2624
competitors 2624
impaired 2624
slower 2624
Category 2623
contra@@ 2623
dupl@@ 2623
swiftly 2623
Confederation 2622
aint 2622
airline 2622
dishes 2622
shield 2622
unequivocal 2622
Card 2621
ary@@ 2621
drunk 2621
self@@ 2621
tis@@ 2621
loop 2620
BR@@ 2619
Focus 2619
Implement 2619
dispatched 2619
239 2618
Twelfth 2618
projec@@ 2618
Bat@@ 2617
mechan@@ 2617
olu@@ 2617
tening 2617
EP@@ 2616
collateral 2615
257 2614
Anyone 2614
Help 2614
drag 2614
Majesty 2613
rents 2613
shoulders 2613
1964 2612
Clinical 2612
ö@@ 2612
Value 2611
presumed 2611
262 2610
Abkhaz 2610
breakthrough 2610
mayor 2610
Governors 2609
Populations 2609
Mes@@ 2608
assassination 2608
broadband 2608
litres 2608
Interest 2607
Place 2606
adi@@ 2606
colonialism 2606
maximizing 2606
Kh@@ 2605
contempt 2605
editing 2604
pray 2604
Africans 2603
OPCW 2603
Speakers 2603
identities 2603
affection 2602
ud 2602
ure@@ 2602
Algiers 2601
armoured 2601
repeal 2601
sums 2601
astic 2600
depletion 2600
raped 2600
2030 2599
endless 2599
interpretations 2599
knee 2599
pin 2599
protections 2599
Sou@@ 2598
colon@@ 2598
jure 2598
sorts 2598
Jordanian 2597
deletion 2597
neighbors 2597
Bec@@ 2596
Commodities 2596
joke 2596
Consumer 2595
Francisco 2595
jacket 2595
quietly 2595
Telecommunication 2594
jec@@ 2594
Inc 2593
Weapon 2593
searches 2593
Connec@@ 2592
revitalize 2592
sealed 2592
discharged 2591
impacted 2591
menting 2591
NS@@ 2590
Vari@@ 2590
cia 2590
manifestation 2590
tif@@ 2590
yen 2590
Str@@ 2589
yielded 2589
enlargement 2588
resin 2588
throat 2588
Lev@@ 2587
MERCOSUR 2587
Older 2587
logistic 2587
Chargé 2586
Submission 2586
orange 2586
originated 2586
refine 2585
rope 2585
Pakistani 2584
Preventive 2584
domination 2584
66@@ 2583
25,000 2582
HO@@ 2582
SNA 2582
genuinely 2582
defensive 2581
hostility 2581
onset 2581
plac@@ 2581
wounds 2581
CN.15 2580
Strengthened 2580
postpone 2580
warrants 2580
AR 2579
bers 2579
fifteen 2578
varieties 2578
anxious 2577
aux 2577
warnings 2577
membrane 2576
tt@@ 2576
vaccination 2576
conferred 2575
destabilizing 2575
Agreed 2574
una 2574
speculation 2573
trusts 2573
vitamin 2573
Scope 2572
yang 2572
Arbitrary 2571
arian 2571
dwellers 2571
ket@@ 2571
supervised 2571
cycl@@ 2570
Sao 2569
enforceable 2569
sigh@@ 2569
solvent 2569
Andorra 2568
Product 2568
Tonga 2568
backing 2568
recurring 2568
rid@@ 2568
tum 2568
yan@@ 2568
discretionary 2567
ratifications 2567
Mediation 2566
Subregional 2566
gram 2566
18th 2564
Payment 2564
fle@@ 2564
toilet 2564
6.4 2563
Strong 2563
Appendix 2562
Offenders 2562
correctional 2562
streams 2562
MI 2561
backdrop 2561
underscores 2561
FM@@ 2560
Investments 2560
Pending 2560
Taylor 2560
interrupted 2560
mentoring 2560
plasma 2560
shoe 2560
www.un.org 2559
amb@@ 2558
passports 2558
suits 2558
hills 2557
matches 2557
16th 2556
Shenzhen 2556
discontinued 2556
tribes 2556
CN 2555
expecting 2555
revol@@ 2555
tract 2555
CFC 2554
biomass 2554
bum@@ 2554
280 2553
Kofi 2553
chaos 2553
dispose 2553
rays 2553
rence 2553
temp@@ 2553
MSP 2552
Option 2552
Reproductive 2552
critics 2552
gged 2552
Societies 2551
229 2550
Step 2550
Update 2550
ble@@ 2550
pit@@ 2550
rever@@ 2549
shortfalls 2549
subordinate 2549
Soci@@ 2547
prevailed 2547
rainfall 2547
sup@@ 2547
Dem@@ 2546
desperate 2546
merchandise 2546
acknowledgement 2545
aki 2545
GENERAL 2544
assembled 2544
fat@@ 2544
ena 2542
ugly 2542
chiefs 2541
eman@@ 2541
opt 2541
13th 2540
traded 2540
contemplated 2539
eaten 2539
neg@@ 2539
waiver 2539
assert 2538
biased 2538
bienniums 2538
14th 2537
controversy 2537
Determination 2536
Seoul 2536
dre@@ 2536
tours 2536
twin 2536
Khan 2535
Tibetan 2535
fraudulent 2535
traction 2535
geo@@ 2534
Developments 2533
Horn 2533
PS@@ 2533
Turks 2533
democracies 2533
modelling 2533
1958 2532
MP@@ 2532
amine 2532
lin 2532
bowl 2531
precedence 2531
thers 2531
tization 2531
unjust 2531
FS 2530
atized 2530
burg 2530
heed 2530
ocy@@ 2530
Secretaries 2529
positioned 2529
Effectiveness 2528
bite 2528
rey 2528
universalization 2528
unwilling 2528
5.7 2527
GR@@ 2527
UNITED 2527
shots 2527
sticks 2527
charitable 2526
diverted 2526
lon@@ 2526
PB@@ 2525
Term 2525
withdrawing 2525
Shabaab 2524
horizon 2524
kindness 2524
mindful 2524
vii 2524
Moon 2523
Name 2523
aids 2523
outward 2523
traveling 2523
292 2522
40,000 2522
Captain 2522
compl@@ 2522
ser 2522
Concerned 2521
authoritative 2521
punitive 2521
17.@@ 2520
bad@@ 2520
diminish 2520
donation 2520
aran@@ 2519
prescription 2519
Don@@ 2518
ON@@ 2518
Practical 2518
SGB 2518
nearest 2518
night@@ 2518
Log@@ 2517
Trends 2517
esteem 2517
flee 2517
sal 2517
solemn 2517
Clean 2516
catalogue 2516
rejects 2516
tories 2516
Havana 2515
Meteorological 2515
Mit@@ 2515
Ow@@ 2515
posi@@ 2515
yeah 2515
Tro@@ 2514
dar@@ 2514
letting 2514
Software 2513
ope 2513
290 2512
alk@@ 2512
plum@@ 2512
Teachers 2511
belonged 2511
disagreement 2511
owe 2511
postal 2511
Create 2510
ached 2510
checklist 2510
pa 2510
stranger 2510
22@@ 2509
provisionally 2509
Ill 2508
disbursement 2508
retaliation 2508
vegetation 2508
Detailed 2507
SPIDER 2507
ison 2507
practised 2507
envisages 2506
garbage 2506
mg 2506
purview 2506
Nationality 2505
Purpose 2505
Replace 2505
Up@@ 2505
affiliation 2505
designer 2505
vir@@ 2505
Leadership 2504
aesthetic 2503
udes 2503
Supervision 2502
indices 2502
rested 2502
sporting 2502
Expected 2501
band@@ 2501
duplicate 2501
famine 2501
styles 2501
enduring 2500
les@@ 2500
wind@@ 2500
Far 2499
Gab@@ 2499
electronics 2499
innocence 2499
ry@@ 2499
criminalized 2498
thickness 2498
Cur@@ 2497
ECOSOC 2497
rings 2497
wid@@ 2497
TRA@@ 2496
sav@@ 2496
C.12 2495
entailed 2495
263 2493
compiling 2493
mercy 2493
Publications 2492
drainage 2492
mess 2492
receipts 2492
Recruitment 2491
champion 2491
indefinite 2491
numbered 2491
organ@@ 2490
warplanes 2490
285 2489
53@@ 2489
Names 2489
Points 2489
proportions 2489
t. 2489
Associated 2488
IOC 2488
charging 2488
quadrennial 2488
sty@@ 2488
Cell 2487
blank 2487
ull 2486
ENT 2485
nitrogen 2485
Cook 2484
Guangzhou 2484
Cas@@ 2483
ball@@ 2483
standpoint 2483
Price 2482
detainee 2482
pity 2482
throwing 2482
Councils 2481
arguing 2481
intentional 2481
repository 2481
Map 2480
capac@@ 2480
deter@@ 2480
Suppress 2479
VA 2479
didnt 2479
maxim@@ 2479
performs 2479
Lar@@ 2478
Us 2477
bedroom 2477
specifying 2477
Literacy 2476
fran@@ 2476
concurred 2475
Dam@@ 2474
actu@@ 2474
modeling 2474
tactical 2474
Az@@ 2473
milit@@ 2473
faction 2472
lit 2472
master@@ 2472
Actual 2471
Advanced 2471
condemning 2471
Greenland 2470
telecommunication 2470
Identify 2469
Pur@@ 2469
V.@@ 2469
sends 2469
Coun@@ 2468
pole 2468
tentative 2468
jurisdictional 2467
pale 2467
tec@@ 2467
turmoil 2467
Mid 2466
Terms 2466
geography 2466
Gran@@ 2465
Ker@@ 2465
memorandums 2465
polymetallic 2465
proving 2465
subsidized 2465
testify 2465
Offr 2464
Shelf 2464
UNA@@ 2464
UNISFA 2464
Unlawful 2464
axis 2464
defect 2464
Nile 2463
OCHA 2463
forging 2463
frontier 2463
mount 2463
intern@@ 2462
memorial 2462
photograph 2461
Mohammed 2460
vered 2460
imposes 2459
piano 2459
unite 2459
Amman 2458
Vir@@ 2458
masses 2458
pec@@ 2458
poetry 2458
ration@@ 2458
nights 2457
nowadays 2457
Kigali 2456
Mercury 2456
NA 2456
Terrorist 2456
ode 2456
24,@@ 2455
app@@ 2455
counterpart 2455
cour@@ 2455
deformation 2455
ee@@ 2455
improper 2455
0s 2454
GNP 2454
cab@@ 2454
mild 2454
thed 2454
360 2453
chi 2453
differentiation 2453
Lessons 2452
Online 2452
drops 2452
pm 2452
races 2452
stopping 2452
23,@@ 2451
ey@@ 2451
smoothly 2451
snow@@ 2451
vor@@ 2451
UNISPACE 2450
insights 2450
1945 2449
22,@@ 2449
Ther@@ 2449
diameter 2449
steal 2449
popularity 2448
ask@@ 2447
shaft 2446
29,@@ 2445
Identical 2445
conve@@ 2445
fastest 2444
sibility 2444
CN.7 2443
PD 2443
humane 2443
influx 2443
juncture 2443
tery 2443
finger@@ 2442
gation 2442
inde@@ 2442
IVE 2440
bids 2440
criminality 2440
fierce 2440
tag@@ 2440
convincing 2439
forbidden 2439
forged 2439
torn 2439
desktop 2438
dropping 2438
nings 2438
reck@@ 2438
ting@@ 2438
trains 2438
Assist 2437
xed 2437
eighty 2435
endemic 2435
illnesses 2435
persu@@ 2433
bicycle 2432
disappear 2432
moisture 2432
siveness 2432
Ah 2431
resilient 2431
akh@@ 2429
expose 2429
peasants 2429
script 2429
Maria 2428
Subprogramme 2428
manipulation 2428
Institution 2426
Not@@ 2426
nonlinear 2426
Banking 2425
detriment 2425
Entebbe 2424
Return 2424
ame@@ 2424
Cel@@ 2423
dependants 2423
functionality 2423
CSCE 2422
character@@ 2422
entr@@ 2422
Job 2421
lodge 2421
ET 2420
elite 2420
orous 2420
Had 2419
Host 2419
Nation@@ 2419
escorted 2419
Angolan 2418
De 2418
Week 2418
bilingual 2417
flav@@ 2416
geospatial 2416
inspect 2416
ree 2416
Continued 2414
editorial 2414
nam@@ 2414
trapped 2414
Naz@@ 2413
drives 2413
possesses 2413
Cold 2412
Minority 2412
adhered 2412
ample 2412
eller 2412
laughter 2412
lover 2412
af 2411
clever 2411
deterrent 2410
mac@@ 2410
wer 2410
Bridge 2409
RU@@ 2409
custom@@ 2409
je 2409
quad@@ 2409
realm 2409
ren 2409
Mindful 2408
acquisitions 2408
displays 2408
pesticide 2408
8.3 2407
MENTS 2407
crip@@ 2407
risky 2407
Dissemination 2406
discharging 2406
embark 2406
rable 2406
rs 2406
Pristina 2405
inal 2405
side@@ 2405
elders 2404
show@@ 2404
Laboratory 2403
atives 2403
authorizing 2403
coding 2403
Green@@ 2402
Ass@@ 2401
akes 2401
bridging 2401
directing 2401
hedge 2401
rot@@ 2400
Continuing 2399
addiction 2398
edi@@ 2398
igh 2398
recruits 2398
weaker 2398
powered 2397
Broadcasting 2396
invisible 2396
ME 2395
expiring 2395
tos@@ 2395
Id 2394
massacre 2394
267 2393
425 2393
decrees 2393
Close 2392
DM 2392
Demand 2392
kings 2392
lab 2392
Kashmir 2391
Susan 2391
crossings 2391
fatal 2391
fulness 2391
permissible 2391
repatriated 2391
serv@@ 2391
ylene 2391
GNSS 2390
nit@@ 2390
Transboundary 2389
multipl@@ 2389
ordering 2389
osphere 2389
Barcelona 2388
Briefing 2388
Securities 2388
selectivity 2388
PIC 2387
compromised 2386
proc@@ 2386
scenes 2386
timeline 2386
WG.@@ 2385
implicit 2385
accords 2384
prepares 2384
Att@@ 2383
EF 2383
avert 2383
derog@@ 2383
mas 2383
midnight 2383
Bul@@ 2382
Ele@@ 2382
NU@@ 2382
cigarette 2382
spirits 2382
Mental 2381
atism 2381
favourably 2381
fifty@@ 2381
Reducing 2380
WA 2380
depic@@ 2380
hex@@ 2380
intimate 2380
oming 2380
Rol@@ 2379
prince 2379
slowed 2379
CESCR 2378
Processing 2378
depreciation 2378
gentleman 2378
rein@@ 2377
secrecy 2377
width 2377
ODP 2376
explo@@ 2376
shine 2376
trick 2376
Ugandan 2375
cheese 2375
dor@@ 2375
Collec@@ 2374
Florida 2374
Ky@@ 2374
Sus@@ 2374
TP 2374
harness 2374
murdered 2374
weakening 2374
316 2372
IGAD 2372
terrestrial 2372
RI 2371
boring 2371
cements 2370
FIR 2369
Sy@@ 2369
acking 2369
mask 2369
vain 2369
Cop@@ 2368
Insolvency 2368
Numerous 2367
key@@ 2367
unhappy 2367
usable 2367
calcul@@ 2366
essay 2366
interlocutors 2366
28,@@ 2365
Banks 2365
aug@@ 2365
olds 2365
Expenditures 2364
MIS@@ 2364
mit@@ 2364
prints 2364
Approves 2363
Hi 2363
ep 2363
ety 2363
stops 2362
Hope 2361
Sm@@ 2361
TP@@ 2361
flat@@ 2361
mainstreamed 2361
Add.4 2360
Cayman 2360
Scale 2360
Soon 2360
elled 2360
Jan 2359
Texas 2359
casual 2359
ograph@@ 2359
tail@@ 2359
Certainly 2358
Important 2358
bare 2358
eman 2358
esting 2358
prayer 2358
Cer@@ 2357
Pay 2357
anim@@ 2357
corrosion 2357
umin@@ 2357
Zaire 2356
aqu@@ 2356
speeches 2356
topo@@ 2356
Rab@@ 2355
extensions 2355
flour 2355
lens 2355
pound 2355
sth 2354
tained 2354
uded 2354
Shel@@ 2353
aw 2353
oot 2353
shower 2353
ule 2353
Globally 2352
Were 2352
cere@@ 2352
dys@@ 2352
eth 2352
sb 2352
Lou@@ 2351
ques 2351
responsiveness 2351
summarize 2351
279 2350
3.9 2350
iss 2350
poll 2350
ram 2350
gotta 2349
pig 2349
quarantine 2349
rub@@ 2349
textile 2349
educating 2348
videos 2347
Slavery 2346
arch 2346
elegant 2346
jiang 2346
operationalization 2346
ounded 2346
UNOSOM 2345
ffs 2345
impl@@ 2345
ville 2345
XVI 2344
chro@@ 2344
gging 2344
iff 2344
inland 2344
motives 2344
uniformed 2344
Finnish 2343
Kampala 2343
SAICM 2343
omission 2343
Ceasefire 2342
Stock 2342
austerity 2342
clandestine 2342
handsome 2342
him@@ 2342
technicians 2342
Palace 2341
UNC@@ 2341
individu@@ 2340
nominate 2340
Benefits 2339
MYFF 2339
asc@@ 2339
woods 2339
BiH 2338
Negotiations 2338
Obviously 2338
deaf 2338
awa@@ 2337
enumerated 2337
occasional 2337
plaintiff 2337
Above 2336
Nauru 2336
backstopping 2336
judgments 2336
pink 2336
practise 2336
stepping 2336
bans 2335
mes@@ 2335
.A 2334
Comment 2334
energies 2334
omen@@ 2334
ona 2334
Less 2333
incorrect 2333
Caucasus 2332
healing 2332
PE@@ 2331
TE 2331
abandonment 2331
scholarship 2331
acked 2330
friction 2330
Christians 2329
disbursements 2329
sentiment 2329
washed 2329
ek@@ 2327
287 2326
Collection 2326
SB@@ 2326
domin@@ 2326
induce 2326
poultry 2326
with@@ 2326
5.8 2325
Paulo 2325
psych@@ 2325
screw 2325
statelessness 2325
Anguilla 2324
Il@@ 2324
Short 2324
trem@@ 2323
Bob 2322
rod 2322
stand@@ 2322
Star@@ 2321
ance@@ 2321
gling 2321
1946 2320
WG 2320
compensated 2320
spac@@ 2320
oted 2319
suffers 2319
var@@ 2319
Ari@@ 2318
commencing 2318
backup 2317
batteries 2317
tops 2317
Remote 2316
SPLA 2316
tou@@ 2316
translating 2316
• 2316
Achieving 2315
Need 2315
Star 2315
alteration 2315
Monrovia 2314
intangible 2314
tility 2313
validated 2313
1962 2312
ascertained 2312
blade 2312
knock 2312
macro@@ 2312
tting 2312
isc@@ 2311
---@@ 2310
54@@ 2310
Fal@@ 2310
founder 2310
hadn 2310
onom@@ 2310
yi 2310
1965 2309
CGE 2309
drift 2309
overnight 2309
reiterating 2309
Hen@@ 2308
OL@@ 2308
Vietnamese 2308
brac@@ 2308
cla@@ 2308
manpower 2308
reluctance 2308
unwanted 2308
zy 2308
Doctor 2307
had@@ 2307
underway 2307
uted 2307
Asset 2306
Estimates 2306
PH@@ 2306
Residual 2306
Revision 2306
glance 2306
RE 2305
asa 2305
hotline 2305
node 2305
Sure 2304
XX 2304
UND@@ 2303
lord 2303
Citizenship 2302
Hungarian 2302
Search 2302
Yearbook 2302
boyfriend 2302
grouped 2302
plug 2302
soccer 2302
Hassan 2301
chlor@@ 2301
flag@@ 2301
lor@@ 2301
password 2301
corridor 2300
presidents 2300
prohibitions 2300
symbolic 2300
Outreach 2299
gauge 2299
oppression 2299
profiling 2299
researches 2299
demobilized 2298
enclosure 2298
impairment 2298
serial 2298
consume 2297
fitness 2297
dit@@ 2296
rant 2296
Wen@@ 2295
atures 2295
crimin@@ 2295
Cle@@ 2294
FP 2294
ela 2294
vag@@ 2294
norm@@ 2293
stems 2293
tireless 2293
6.6 2292
Ask 2292
even@@ 2292
phasing 2292
unutilized 2292
xi@@ 2292
2,7@@ 2291
Save 2291
chat@@ 2291
Parents 2290
notices 2290
tened 2290
widows 2290
Safe 2289
itted 2289
Railway 2288
endure 2288
ki@@ 2288
prejudices 2288
priv@@ 2288
Angeles 2287
leakage 2287
25,@@ 2286
overseeing 2286
seemingly 2286
sensors 2286
institutionalization 2285
lot@@ 2285
6.7 2284
Enhance 2284
Opportunity 2283
clean@@ 2283
cus@@ 2283
intensifying 2283
scared 2283
strife 2283
sufficiency 2283
whis@@ 2283
pir@@ 2282
refres@@ 2282
sured 2282
Lima 2281
Stability 2281
inclined 2281
&apos;I 2280
64@@ 2280
collections 2280
pluralism 2280
trades 2280
Andre@@ 2279
aquatic 2279
ousness 2279
yo 2279
INTERNATIONAL 2278
Indic@@ 2278
LCA 2278
Position 2278
Spe@@ 2278
smiled 2278
Regrettably 2277
bet@@ 2277
clay 2277
mates 2277
rest@@ 2277
searched 2277
NATIONS 2276
aud@@ 2276
lement 2276
mium 2276
strides 2276
brands 2275
unsatisfactory 2275
Comple@@ 2274
ICE 2274
kle 2274
Assets 2273
Pap@@ 2273
revert 2273
sinks 2273
Commun@@ 2272
Gross 2272
Leave 2272
Son 2272
eds 2272
weaken 2272
4.9 2271
Clar@@ 2271
Collaborative 2271
Shu@@ 2271
Village 2271
creatures 2271
inspire 2271
.com 2270
Entry 2270
deepest 2270
elastic 2270
weren 2270
268 2269
Nowadays 2269
age@@ 2269
icating 2269
retirees 2269
tia 2269
Nigerian 2268
Victoria 2268
sim@@ 2268
Disappearances 2267
alizes 2267
reciprocal 2267
defences 2266
ticul@@ 2266
89@@ 2265
DPI 2265
Rice 2265
Windows 2265
trainees 2265
und 2265
Something 2264
fragmented 2264
winners 2264
26,@@ 2263
Deeply 2263
declines 2263
tha 2263
morph@@ 2262
Box 2261
Montserrat 2261
Ric@@ 2261
short@@ 2261
Ali@@ 2260
Everybody 2260
XX@@ 2260
grief 2260
intensification 2260
ratings 2260
sink 2260
Inclusion 2259
cel@@ 2259
ond@@ 2259
Boundary 2258
child@@ 2258
88@@ 2257
SW@@ 2257
depen@@ 2257
Needs 2256
corresponds 2256
Athens 2255
Micronesia 2255
columns 2255
depressed 2255
electronically 2255
prec@@ 2255
Someone 2254
Buildings 2253
Van 2253
mystery 2253
sediment 2253
beans 2252
gotten 2252
inferior 2252
Autom@@ 2251
CRP.1 2251
colored 2251
lau@@ 2251
lean 2251
Counter@@ 2250
dressing 2250
involuntary 2250
overlooked 2250
Mechanisms 2249
Med@@ 2249
lum@@ 2249
Aliens 2248
Cla@@ 2248
Sul@@ 2248
consensual 2248
creature 2248
spin 2248
strengthens 2248
disbursed 2247
efully 2247
Collaboration 2246
Creation 2246
Encouraging 2246
castle 2246
hes@@ 2246
nut 2246
pup@@ 2246
DE 2245
exacerbate 2245
fraction 2245
án 2245
Disposal 2243
knocked 2243
verifying 2243
youre 2243
Equity 2242
FPA 2242
III.@@ 2242
Maternal 2242
backward 2242
meanwhile 2242
persists 2242
algorithms 2241
grandfather 2241
Grant 2240
Puntland 2240
UNCT 2240
architectural 2240
riding 2240
Occupational 2239
needy 2239
30,@@ 2238
Philippine 2238
stum@@ 2238
dull 2237
0.3 2236
unlimited 2236
Complaints 2235
donated 2235
dum@@ 2235
ev 2235
ich@@ 2235
incommunicado 2235
inefficient 2235
poet 2235
Earlier 2234
Music 2234
No.@@ 2234
Steps 2234
Theory 2234
dal 2234
Civilizations 2233
batch 2233
contraceptives 2233
drafts 2233
ecology 2233
ailed 2232
bonus 2231
gated 2231
recovering 2231
Finding 2230
Hussein 2230
Yu 2230
CERs 2229
Ituri 2228
Louis 2228
debated 2228
ision 2228
omin@@ 2228
295 2227
Burundian 2227
CCA 2227
Illegal 2227
cultivated 2227
friend@@ 2227
ially 2227
alty 2226
substantiate 2226
DP@@ 2225
Pollutants 2225
Sound 2225
invoice 2225
Mining 2224
xing 2224
Senator 2223
hes 2223
hn@@ 2223
inven@@ 2223
ocr@@ 2223
unregulated 2223
Ran@@ 2222
Re 2222
globalized 2222
ul 2222
PO 2221
call@@ 2221
verdict 2221
Main@@ 2220
Spirit 2220
pharmac@@ 2220
manifested 2219
plat@@ 2219
tit@@ 2219
Bil@@ 2218
fitted 2218
spectro@@ 2218
toys 2218
286 2217
broadcasts 2217
medal 2217
para@@ 2217
symbol@@ 2217
xenophobic 2216
abnormal 2215
desirability 2215
lessness 2215
pervasive 2215
Ze@@ 2214
eded 2214
edly 2214
experi@@ 2214
furnace 2214
Equally 2213
Madam 2213
Premier 2213
Reiterating 2213
Fortunately 2212
bullet 2212
Stat@@ 2210
indoor 2210
ship@@ 2210
absor@@ 2209
unpredictable 2209
Nutrition 2208
catastrophe 2208
erate 2208
gie 2208
lun@@ 2208
march 2208
reserving 2208
explanatory 2207
hid 2207
hopeful 2207
loyal 2207
Es@@ 2206
Top@@ 2206
alleviating 2206
neighbor 2206
shit 2206
thief 2206
273 2205
conden@@ 2205
checkpoint 2204
1,800 2202
confession 2202
eli@@ 2202
physi@@ 2202
Eradicate 2201
Investig@@ 2201
Rican 2201
calcium 2201
implication 2201
ç@@ 2201
LY 2200
Ouagadougou 2200
Suddenly 2200
mas@@ 2200
uan 2200
2018 2199
Harmonized 2199
Operating 2199
approves 2199
economist 2199
governorates 2199
mechanics 2199
attacking 2198
blocking 2198
cameras 2198
depleted 2198
paintings 2198
ris 2198
devil 2197
marke@@ 2197
neighbour 2197
transporting 2197
brow@@ 2196
butter 2196
registering 2196
CAR@@ 2195
Oper@@ 2195
sodium 2195
achievable 2194
erring 2194
Gold 2193
Teacher 2193
amen@@ 2193
detentions 2193
Balkans 2192
delicious 2192
dried 2192
privileged 2192
Active 2191
Dep@@ 2191
ares 2191
stalemate 2191
tism 2191
Individuals 2190
row@@ 2190
BE@@ 2189
jar 2189
masters 2189
shut@@ 2189
subsection 2189
domains 2188
milestones 2188
uro@@ 2188
ladies 2187
petitioners 2187
Examination 2186
Years 2186
channelled 2186
computerized 2186
ells 2186
ite@@ 2186
sleep@@ 2186
fertilizer 2185
Add.1. 2184
281 2183
beef 2183
Wong 2182
yers 2182
grounded 2180
ices 2180
tant 2180
IDA 2179
vac@@ 2179
304 2178
care@@ 2178
luggage 2178
Around 2177
Dangerous 2177
deriving 2177
gal@@ 2177
COP@@ 2176
emia 2176
ply 2176
prenatal 2176
shy 2176
existent 2175
palace 2175
1244 2174
Mak@@ 2174
herd 2174
som@@ 2174
surfaces 2174
muscles 2173
GPS 2172
Recommended 2172
peers 2172
ripe 2172
zo 2172
Fil@@ 2171
Lady 2171
M23 2171
countless 2171
indul@@ 2171
9.5 2170
ampl@@ 2170
useless 2170
gratis 2169
infl@@ 2169
tz 2169
FNL 2168
shop@@ 2168
victimization 2168
Appropriate 2167
maj@@ 2167
heated 2166
naked 2166
pools 2166
publicize 2166
crown 2165
extracted 2165
pitch 2165
bury 2164
gly@@ 2164
drying 2163
procured 2163
Mainstreaming 2162
Preparations 2162
amy 2162
arization 2162
proportionality 2162
tending 2162
Strongly 2161
contradictory 2161
delighted 2161
eding 2161
equations 2161
organizers 2161
RY 2160
Techn@@ 2160
funeral 2160
ym@@ 2160
ITY 2159
happily 2159
oci@@ 2159
1954 2158
1955 2158
Yuan 2158
aquifers 2158
organizes 2158
1,600 2157
2,9@@ 2157
Sab@@ 2157
additions 2157
gel 2157
spray 2157
warn 2157
aluminum 2156
demolition 2156
specialization 2156
tailor 2156
Savings 2155
comparisons 2155
sic 2155
subsidi@@ 2155
Chairpersons 2154
Exam@@ 2154
cyclical 2154
Advocacy 2153
Tin 2153
after@@ 2153
peasant 2153
gol@@ 2152
iles 2152
infrared 2152
probe 2152
relaxed 2152
rewards 2152
Few 2151
Tony 2151
cervical 2151
climatic 2151
futures 2151
3,500 2150
Tam@@ 2150
Tuberculosis 2150
bra 2150
collision 2150
electron 2150
tability 2150
750 2149
dled 2149
outdated 2149
prototype 2149
Ok@@ 2148
Creating 2147
Crown 2147
Direc@@ 2147
Maj@@ 2147
proportionate 2147
ago@@ 2146
cave 2146
possessing 2146
Inv@@ 2145
irrelevant 2145
pick@@ 2145
Safeguards 2144
auditor 2144
blessed 2144
dining 2144
miners 2144
vable 2144
UNCLOS 2143
XVII 2143
clerk 2143
combines 2143
oli@@ 2143
Unemployment 2142
lateral 2142
JI 2141
survived 2141
Gro@@ 2140
Responding 2140
Shan 2140
unfounded 2140
IE 2139
ound@@ 2139
Conven@@ 2138
adap@@ 2138
graphics 2138
substitution 2138
sunshine 2138
anch@@ 2137
oo 2137
shr@@ 2137
susceptible 2137
dev@@ 2136
Equalization 2135
insi@@ 2135
liaise 2135
siege 2135
standby 2135
sures 2135
2050 2134
Caicos 2134
NASA 2134
60,000 2133
EU@@ 2133
Navy 2133
bot@@ 2133
demonstrators 2133
reforestation 2133
satisfying 2133
worlds 2133
Len@@ 2132
Witnesses 2132
iner 2132
life@@ 2132
listen@@ 2132
smiling 2132
Specialized 2131
closest 2131
fies 2131
longest 2131
penetrated 2131
refining 2131
Prof@@ 2130
looting 2130
7.4 2129
L.3 2129
advertisements 2129
continents 2128
criminalizing 2128
equip 2128
oul@@ 2128
pirates 2128
prob@@ 2128
sey 2128
unused 2128
Comparison 2127
Expl@@ 2127
Kw@@ 2127
deadlock 2127
snake 2127
Vehicle 2126
los 2126
omy 2126
supervisors 2126
textiles 2125
Adequate 2124
Sale 2124
UNOWA 2124
ado 2124
blog 2124
compel 2124
radiological 2124
tackled 2124
6.8 2123
HCFC 2123
behold 2123
mic 2123
mini 2123
pairs 2123
web@@ 2123
Dag 2122
ERW 2122
Hus@@ 2122
eff@@ 2122
itations 2122
ultra 2122
wolf 2122
anticipate 2121
guardians 2121
cum@@ 2120
talented 2120
Cul@@ 2119
burnt 2119
catering 2119
corpus 2119
cultivate 2119
ept 2119
sunlight 2119
78@@ 2118
mable 2118
CFCs 2117
DIS@@ 2117
EULEX 2117
Helen 2117
Helena 2117
exhibits 2117
induc@@ 2117
timelines 2117
unhindered 2117
124@@ 2116
Song 2116
grandmother 2116
inconsistencies 2116
itating 2116
nel 2116
12,000 2115
Lawyers 2115
earthquakes 2115
portions 2115
racing 2115
teenagers 2115
Had@@ 2114
Plus 2114
REPORT 2114
extractive 2114
overflew 2114
ranged 2114
M.@@ 2113
Mai 2113
Ongoing 2113
Release 2113
hop@@ 2113
URE 2112
furnished 2112
misery 2112
tina 2112
Rapid 2111
decor@@ 2111
obesity 2111
Benjamin 2110
Fol@@ 2110
lifelong 2110
teenth 2110
ume 2110
Fiscal 2109
GH@@ 2109
Half 2109
True 2109
facial 2109
newborn 2109
nowhere 2109
rushed 2109
uk@@ 2109
vari@@ 2109
PE 2108
Parts 2108
centrally 2108
wanting 2108
cloning 2107
cris@@ 2107
Limits 2106
ROM 2106
X. 2106
anticipation 2106
inqu@@ 2106
modifying 2106
motive 2106
vibrant 2106
Has@@ 2105
Summer 2105
Telephone 2105
UNAMIR 2105
Monitor 2104
Nan@@ 2104
defeated 2104
diagnosed 2104
envelope 2104
fix@@ 2104
ues 2104
Chris@@ 2103
Definition 2103
Proceedings 2103
ader 2103
jan 2103
CSOs 2102
Sami 2102
anian 2102
opponent 2102
steep 2102
Stre@@ 2101
baggage 2101
construc@@ 2101
sensitize 2101
shocked 2101
unt 2101
Quick 2100
cents 2100
collapsed 2100
Judah 2099
SLM 2099
Used 2099
Comp@@ 2098
Demobilization 2098
fish@@ 2098
299 2097
Revenue 2097
enquired 2097
exhibitions 2097
stole 2097
Canal 2096
regain 2096
vigilance 2096
gaz@@ 2095
oes 2095
ora 2095
polio 2095
refuses 2095
consortium 2094
disturbance 2094
grievances 2094
intermediary 2094
policemen 2094
278 2093
9.3 2093
floors 2093
oe 2093
polymer 2093
rene 2093
T. 2092
amphetamine 2092
ardo 2092
fronts 2092
broker 2091
congress 2091
rehabilitate 2091
researched 2091
Palais 2090
authentication 2090
fostered 2090
generates 2090
infantry 2090
ation.@@ 2089
lowered 2089
scor@@ 2089
274 2088
Bilateral 2088
Efficiency 2088
Extradition 2088
Jacob 2088
Regulatory 2088
Submitted 2088
dling 2088
haz@@ 2088
odds 2088
repayment 2088
succ@@ 2088
23.@@ 2087
spill 2087
tioned 2087
CP.7 2086
bench 2086
cad@@ 2086
eping 2086
inhumane 2086
lou@@ 2086
stricken 2086
ñ@@ 2086
Wen 2085
Democrats 2084
Navigation 2084
PRC 2084
bio 2084
nuts 2084
tren@@ 2084
2,8@@ 2083
Maori 2083
Mot@@ 2083
ONUB 2083
DDT 2082
Depending 2082
TCDC 2082
pas@@ 2082
pulling 2082
Ev@@ 2081
reuse 2081
Activity 2080
Lead 2080
chat 2080
null 2080
quote 2080
inch 2079
Aud@@ 2078
ECCAS 2078
IV.@@ 2078
corridors 2078
informative 2078
sk 2078
0.6 2077
destinations 2077
venues 2077
hij@@ 2076
magn@@ 2076
utter 2076
attraction 2075
dict@@ 2075
aus@@ 2074
bathroom 2073
fibre 2073
COMMITTEE 2072
misleading 2072
nal 2072
wondering 2072
Po 2071
Sanitation 2071
ady 2071
aggravating 2071
ambitions 2071
exceptionally 2071
generously 2071
owns 2071
ption 2071
interruption 2070
onwards 2070
swear 2070
Guarantee 2069
Square 2069
comparability 2069
hall@@ 2069
lovers 2069
proxy 2069
sar@@ 2069
spiral 2069
stabilizing 2069
277 2068
Kis@@ 2068
Representation 2068
Wide 2068
apolog@@ 2068
habitat 2068
scar@@ 2068
Say 2067
Stamp 2067
draw@@ 2067
emin@@ 2067
imagery 2067
poem 2067
Fs 2066
ap 2066
devising 2066
repe@@ 2066
cruise 2065
gods 2065
juridical 2065
loyalty 2065
ninety 2065
ogenic 2065
0.8 2064
5.9 2064
BWC 2064
Wel@@ 2064
dropout 2064
emul@@ 2064
kidney 2064
respectful 2064
wl 2064
1,300 2063
1,400 2063
Abdel@@ 2063
Carlos 2063
honesty 2063
laughed 2063
ood 2063
poli@@ 2063
unification 2063
,@@ 2062
Referendum 2062
humor 2062
mus@@ 2062
tains 2062
Compl@@ 2061
IFRS 2061
Trading 2061
broadened 2061
disrupt 2061
ession 2061
prerequisites 2061
trail 2061
Manufacturing 2060
needle 2060
tolerate 2060
toy 2060
vitality 2060
Super@@ 2059
competency 2059
ook 2059
pave 2059
viewpoint 2059
visions 2059
enrich 2058
indicted 2058
jo 2058
rev@@ 2058
stationed 2058
Marketing 2057
catastrophic 2057
cybercrime 2057
dissolved 2057
modernize 2057
physician 2057
professors 2057
Unions 2056
interpreter 2056
tolerant 2056
Proportion 2055
Read 2055
bis@@ 2055
obey 2055
sanctioned 2055
uniforms 2055
curious 2054
importation 2054
sensible 2054
sively 2054
á 2054
Smuggling 2053
clan 2053
overly 2053
repl@@ 2053
lining 2052
computation 2051
handful 2051
scaled 2051
Ci@@ 2050
Gates 2050
thful 2050
Chin@@ 2049
ah@@ 2049
cross@@ 2049
Liability 2048
Tome 2048
contention 2048
understandable 2048
Reser@@ 2047
cow 2047
stigmatization 2047
Commends 2046
FGM 2046
atin 2046
commun@@ 2046
less@@ 2046
paste 2046
wi 2046
gasoline 2045
itors 2045
obe@@ 2045
representations 2045
RB@@ 2044
interconnected 2044
tale 2044
variability 2044
Commitments 2043
Liber@@ 2043
aspiration 2043
dominate 2043
irresponsible 2043
locating 2043
quake 2043
ATE 2042
Disease 2042
Hybrid 2042
Nar@@ 2042
abusive 2042
bankers 2042
laughing 2042
pets 2042
stor@@ 2042
Elements 2041
Hos@@ 2041
Lau@@ 2041
Thousands 2041
Win@@ 2041
cock@@ 2041
icing 2041
indefinitely 2041
multicultural 2041
Represents 2040
appliances 2040
compression 2040
dan@@ 2040
intermediaries 2040
may@@ 2040
paper@@ 2040
subjec@@ 2040
mixing 2039
oper@@ 2039
reporter 2038
descendants 2037
downsizing 2037
· 2037
ERS 2036
drill 2036
finishing 2036
rol@@ 2036
Alma 2035
tribe 2035
Kon@@ 2034
Pot@@ 2034
breathe 2034
cooperates 2034
disastrous 2034
dium 2034
immun@@ 2034
otic 2034
seated 2034
CH 2033
NS 2033
SE 2033
Starting 2033
cit@@ 2033
wasted 2033
wool 2033
CMP.1 2032
Fellowship 2032
Transactions 2032
envisage 2032
excitement 2032
exempted 2032
kid@@ 2032
spontaneous 2032
techn@@ 2032
Hollywood 2031
ND@@ 2031
Somaliland 2030
bless 2030
golf 2030
numer@@ 2030
282 2029
CRPD 2029
augh@@ 2029
citing 2029
disappointing 2029
ital 2029
sins 2029
uration 2029
whilst 2029
Corps 2028
Kat@@ 2028
fake 2028
intrinsic 2028
Contrac@@ 2027
bother 2027
brick 2027
delight 2027
garage 2027
objected 2027
pati@@ 2027
queen 2027
tain@@ 2027
dignified 2026
slept 2026
Chadian 2025
degraded 2025
domestically 2025
rains 2025
switching 2025
ette 2024
stipulate 2024
Delivery 2023
Fel@@ 2023
rainy 2023
supervising 2023
vine 2023
Ahmad 2022
Cho@@ 2022
LAC 2022
nest 2022
pockets 2022
7.6 2021
abolishment 2021
assignee 2021
fel@@ 2021
retire 2021
situ 2021
widen 2021
E4 2020
Positive 2020
Yesterday 2020
adventure 2020
sits 2020
stric@@ 2020
atics 2019
ip 2019
ophysical 2019
watch@@ 2019
DIS 2018
NO 2018
desires 2018
modul@@ 2018
6. 2017
Basin 2017
EEC 2017
ML@@ 2017
behave 2017
eternal 2017
Add.5 2016
acity 2016
fig@@ 2016
fir@@ 2016
hn 2016
lan 2016
attribution 2015
indivisible 2015
Description 2014
Wastes 2014
confessions 2014
diagram 2014
fic@@ 2014
fixing 2014
lenders 2014
relocated 2014
tiveness 2014
320 2013
Albert 2013
Industries 2013
Jakarta 2013
Ya@@ 2013
lap@@ 2013
perpetu@@ 2013
prostitutes 2013
reco@@ 2013
jur@@ 2012
mon 2012
well@@ 2012
Psychotropic 2011
sky@@ 2011
Completion 2010
Cr@@ 2010
grams 2010
subtle 2010
bolster 2009
conspiracy 2009
ible 2009
lubricants 2009
reversal 2009
330 2008
Laden 2008
Ontario 2008
Dou@@ 2007
Mars 2007
Find 2006
Principe 2006
behaviours 2006
heal 2006
negligence 2006
torial 2006
ament 2005
terrain 2005
8.1 2004
Mam@@ 2004
prioritizing 2004
tenants 2004
és 2004
blo@@ 2003
flown 2003
worm 2003
protesters 2002
viewing 2002
3,0@@ 2001
divorced 2001
enhancements 2001
launches 2001
reciprocity 2001
Aqu@@ 2000
Bak@@ 2000
Damage 2000
Exhibition 2000
VER@@ 2000
aer@@ 2000
did@@ 2000
dul@@ 2000
kins 2000
mentioning 2000
nes 2000
ove 2000
Costs 1999
Merc@@ 1999
gravely 1999
rotary 1999
spa@@ 1999
stairs 1999
303 1998
Layer 1998
Nine 1998
Rus@@ 1998
visitor 1998
Plac@@ 1997
expires 1997
relay 1997
bian 1996
cylinder 1996
fancy 1996
interpreting 1996
Europeans 1995
Happy 1995
PP 1995
R.@@ 1995
activate 1995
bloody 1995
chop@@ 1995
compassion 1995
deck 1995
doctrines 1995
eal 1995
perfec@@ 1995
Ful@@ 1994
lex 1994
shade 1994
Ratification 1993
level@@ 1993
museums 1993
outdoor 1993
revive 1993
solicitation 1993
MAL 1992
inclusiveness 1992
nt 1992
policeman 1992
slowing 1992
Dol@@ 1991
Movements 1991
Ping 1991
behaviors 1991
deprive 1991
punishing 1991
sterilization 1991
tural 1991
Dubai 1990
PM 1990
habitats 1990
portra@@ 1990
temper 1990
Operative 1989
blamed 1989
youths 1989
photo@@ 1988
tful 1988
Ken@@ 1987
Pierre 1987
blowing 1987
dispersed 1987
learnt 1987
nur@@ 1987
penetration 1987
Chang@@ 1986
Lin 1986
Sig@@ 1986
appetite 1986
blu@@ 1986
medic@@ 1986
1960s 1985
Top 1985
atization 1985
slums 1985
stock@@ 1985
Abdullah 1984
math 1984
shook 1984
ticism 1984
271 1983
Coordinators 1983
Trusteeship 1983
bie 1983
concessionaire 1983
dirt 1983
geopolitical 1983
preventable 1983
Ibrahim 1982
Sad@@ 1982
presided 1982
some@@ 1982
Hammarskjöld 1981
Ul@@ 1981
Junior 1980
Loss 1980
Qual@@ 1980
Disengagement 1979
Mos@@ 1979
Tunisian 1979
enlarged 1979
harvesting 1979
iri@@ 1979
opted 1979
soap 1979
∙ 1979
291 1978
DLDD 1978
Geographic 1978
Text 1978
dwelling 1978
obstruction 1978
stac@@ 1978
RMB 1977
generalized 1976
99@@ 1975
L.4 1975
itive 1975
min 1975
wholesale 1975
asses 1974
hia 1974
Academic 1973
Stephen 1973
tenders 1973
construed 1972
utes 1972
Dar 1971
GNI 1971
Upper 1971
Xia@@ 1971
bac@@ 1971
electr@@ 1971
ologically 1971
ped@@ 1971
aboard 1970
Wait 1969
cellular 1969
oblig@@ 1969
och@@ 1969
parti@@ 1969
79@@ 1968
NG 1968
electromagnetic 1968
fellowships 1968
graph@@ 1968
psycho@@ 1968
Sr 1967
airlines 1967
dynam@@ 1967
Der@@ 1966
Ford 1966
Ki 1966
Outlook 1966
competitions 1966
sam@@ 1966
sta 1966
Researchers 1965
alle@@ 1965
bands 1965
defen@@ 1965
extingu@@ 1965
invented 1965
legislators 1965
setbacks 1965
Covenants 1964
Milan 1964
ambassadors 1964
deported 1964
distances 1964
22nd 1963
Confidence 1963
FROM 1963
Film 1963
Luc@@ 1963
apping 1963
401 1962
Fact 1962
SB 1962
Seek 1962
boosting 1962
releasing 1962
ea 1961
evidentiary 1961
sells 1961
UNPOS 1960
grammar 1960
iah 1960
injecting 1960
ESS 1959
Kir@@ 1959
lifestyles 1959
tern 1959
Sat@@ 1958
tightly 1958
touching 1958
FM 1957
INF@@ 1957
gh 1957
imperi@@ 1957
sided 1957
Extraordinary 1956
metadata 1956
patrolling 1956
wrapped 1956
Experimental 1955
Pearl 1955
author@@ 1955
shallow 1955
21.@@ 1954
Forced 1954
Ol@@ 1954
Reflec@@ 1954
democratically 1954
illiterate 1954
immunodeficiency 1954
stereotyping 1954
stimulants 1954
yn 1954
clam@@ 1953
followers 1953
foolish 1953
lingu@@ 1953
lively 1953
obligatory 1953
worries 1953
301 1952
EF@@ 1952
Patri@@ 1952
Republicans 1952
fledged 1952
rally 1952
tter 1952
agu@@ 1951
distribu@@ 1951
manship 1951
Sta@@ 1950
Successful 1950
ager 1950
deviation 1950
entrenched 1950
registries 1950
exerted 1949
firstly 1949
massacres 1949
sting 1949
Gl@@ 1948
Hil@@ 1948
Malian 1948
baselines 1948
compromising 1948
roller 1948
smallest 1948
Consistent 1947
Selection 1947
inhabited 1947
markedly 1947
medium- 1947
neural 1947
tric 1947
underdevelopment 1947
Facilitating 1946
endo@@ 1946
leaflets 1946
quasi 1946
swept 1946
311 1945
climbed 1945
Claim 1944
Mun@@ 1944
Qi@@ 1944
hubs 1944
lane 1944
JS1 1943
god@@ 1943
perceive 1943
tees 1943
Holocaust 1942
asing 1942
blanket 1942
cli@@ 1942
congresses 1942
discrepancy 1942
remark 1942
deser@@ 1941
OBJECTIVE 1940
breeze 1940
censuses 1940
contentious 1940
measles 1940
unaware 1940
appealing 1939
pie 1939
poin@@ 1939
raft 1939
tan 1939
Leon@@ 1938
Rate 1938
expended 1938
kh@@ 1938
shapes 1938
widow 1938
Write 1937
outlying 1937
Steel 1936
UT 1936
VC 1936
brokers 1936
precip@@ 1936
rup@@ 1936
picking 1935
ECOMOG 1934
cables 1934
formidable 1934
Contemporary 1933
Travel@@ 1933
authentic 1933
bodily 1933
metry 1933
tage 1933
balls 1932
cocoa 1932
hil@@ 1932
mos@@ 1932
vest 1932
Fun@@ 1931
fined 1931
therhood 1931
garment 1930
quantum 1930
reimbursed 1930
tment 1930
Iraqis 1929
earnest 1929
interval 1929
Honourable 1928
apples 1928
learners 1928
resigned 1928
1,700 1927
ason 1927
jum@@ 1927
orbital 1927
Bible 1926
excessively 1926
palm 1926
strategically 1926
Always 1925
VE 1925
dilemma 1925
elle 1925
inary 1925
Sect 1924
ache 1924
articulate 1924
310 1923
8.2 1923
Abdul@@ 1923
Fuel 1923
broadest 1923
zinc 1923
75@@ 1922
PI 1922
companion 1922
cooked 1922
expel 1922
ICP 1921
guardianship 1921
CHAPTER 1920
convoy 1920
distortion 1920
itous 1920
Employees 1919
ements 1919
origin@@ 1919
surviving 1919
tex 1919
Sharing 1918
charm 1918
kar@@ 1918
weigh 1918
63@@ 1917
magistrate 1917
personalities 1917
Maz@@ 1916
Mir@@ 1916
behavioural 1916
cle 1916
fertile 1916
fugitives 1916
ints 1916
liness 1916
borrowed 1915
illustration 1915
mond 1915
Nur@@ 1914
RBM 1914
aided 1914
[...]
