的 27434616
， 18873627
。 14378514
和 9462525
在 5903817
、 4875001
. 4666584
一 4042499
了 3808613
是 3428401
, 2916162
) 2383816
( 2379023
个 2320008
" 2189662
这 2111169
对 2097746
国家 1948093
委员会 1757577
不 1711054
中 1683912
与 1673978
问题 1578700
有 1574784
我 1541434
会议 1525813
将 1519067
为 1478975
； 1478329
》 1468126
《 1468042
并 1426718
各 1341580
国际 1301289
工作 1301143
联合国 1267952
他 1226573
： 1220635
报告 1158543
组织 1146745
人 1136170
我们 1132573
发展 1121829
或 1120915
其 1120722
提供 1117504
该 1063307
所 1044580
以 1038994
） 1026281
（ 1025144
种 1003102
你 993692
到 984856
关于 976168
上 962933
就 947094
以及 946519
进行 926609
政府 905930
国 896608
这些 886194
包括 876699
社会 874902
第 851004
方面 844696
也 839868
通过 831993
机构 826188
情况 820743
方案 818034
其他 816096
项 806654
行动 792829
而 774535
还 763843
会 744722
执行 740261
有关 736839
及 725976
向 711988
妇女 700057
次 699116
活动 694517
地 692596
人员 690858
经济 689130
他们 681008
年 674466
安全 672707
都 672153
人权 665932
决议 665751
所有 664140
两 663014
被 658425
/ 643156
公约 640126
建议 638720
号 637870
能 608956
条 607602
但 602257
合作 592113
没有 580685
时 579700
项目 568301
需要 556578
大会 554729
技术 552152
下 550918
说 550778
儿童 550092
根据 547427
规定 539990
应 538010
区域 536485
本 535607
可以 531753
提出 523620
已 519264
理事会 518650
权利 515548
特别 514672
采取 514246
系统 512824
法律 511403
从 511054
管理 508500
它 503346
支持 503192
措施 500251
要 496637
更 493602
可 493086
新 490943
决定 490358
计划 481142
必须 474300
她 471185
代表 467632
可能 467223
影响 465598
政策 460772
于 454265
和平 451763
使 451504
服务 449955
资源 446375
来 439439
重要 431927
继续 431870
目标 429832
要求 428058
认为 426640
保护 422816
促进 419718
加强 418675
届 415073
努力 414836
由 410558
多 408427
世界 407854
内 406718
最 405824
一些 404935
能力 402873
名 400493
至 394311
确保 393446
主义 392926
信息 390363
研究 389271
美元 384533
主要 382428
任何 382032
使用 381927
行为 381111
段 380808
很 380028
秘书长 379818
教育 374918
提交 374065
环境 372563
1 369486
建立 367984
作为 367163
部门 358569
注意 356248
援助 355028
把 353844
因为 350077
后 348911
已经 343851
因此 342269
这个 340270
实现 338775
？ 336602
文件 335430
期间 335361
如果 334596
2 331143
等 330620
举行 330558
之间 330296
地区 329466
给 326544
大 326463
草案 326237
基金 326178
审查 322146
解决 321755
审议 320421
战略 318572
增加 317081
实施 314905
关系 312988
开展 312136
部分 311088
领域 310876
参与 310826
请 310428
成员 309683
考虑 309528
着 308350
方 305352
全球 302816
表示 301635
3 301096
主席 300754
每 300189
作出 299433
先生 299148
得到 298998
作用 295877
相关 294929
政治 291203
非洲 290488
指出 290132
其中 289025
共和国 288716
有效 286897
获得 286359
协调 286062
公司 285212
小组 284097
程序 281419
人民 281050
预算 277558
支助 277542
讨论 277117
方法 275308
中心 273757
提高 271025
三 269701
处理 264582
基础 263494
自己 262985
4 261143
资料 259980
人口 259060
由于 258969
事务 258883
但是 257526
正在 257184
能够 256369
特别是 254950
培训 254587
目前 254451
第一 251765
代表团 251532
未 251121
者 251070
意见 250826
美国 249510
特派团 249014
机制 246089
此 245838
任务 245081
许多 243702
让 242978
调查 242911
方式 241193
性 240308
- 239342
取得 239151
它们 238620
中国 237723
缔约国 236746
进一步 236744
家庭 235308
秘书处 234657
减少 234196
时间 232589
: 231626
条约 231016
利用 230731
参加 229042
犯罪 228754
制定 228425
同 228221
用 228109
5 227831
标准 227542
开始 227443
专家 226514
暴力 225813
行政 225629
做 225583
间 225036
强调 225026
框架 224624
评估 224339
法院 224302
前 224120
发展中 223246
数据 223138
贸易 222300
进程 221688
确定 221006
原则 220436
第二 219782
部队 219522
同时 218206
好 215471
伙伴 214610
生活 214529
类 214357
份 214238
制度 214212
司法 213677
以便 213276
具有 212962
那 212700
平等 212578
a 212556
欧洲 212424
冲突 212191
联合 211859
法 211747
办法 211703
文化 211079
里 210970
议程 210922
必要 210825
结果 210176
而且 209973
机会 209674
工作组 209443
费用 208329
说明 207894
分析 207543
12月 205986
不同 205868
款 205811
目的 205738
具体 205242
缔约 204162
级 204021
范围 202996
咨询 201956
发生 200806
存在 200680
又 198385
此外 198183
成为 197318
现在 197256
希望 197221
这样 196657
充分 196279
如 195217
歧视 195216
为了 194809
武器 193701
全面 193365
条件 193105
联盟 192681
6 190436
发言 190351
期 190303
进展 190156
只 190140
责任 190082
人道 189961
去 189012
是否 188804
应该 188644
共同 187941
即 187400
办事处 187340
维持 187254
公共 186029
之 185566
地方 185390
对于 185018
几 184875
设立 184855
建设 184436
会员国 183660
自由 183473
接受 182995
及其 182978
适当 182968
造成 182217
基本 182096
市场 181099
产生 180097
最后 179989
按照 179569
b 179398
什么 179317
受到 179286
资金 179277
消除 178812
性别 178734
投资 177702
严重 176588
; 175028
协助 174950
高 174875
承诺 174512
受 173950
小 173867
想 173834
开发 172282
应当 171296
做法 169723
并且 169349
10 168239
监测 168051
变化 167387
帮助 167202
义务 166855
? 166204
鼓励 165312
设施 164434
6月 162765
改革 162733
得 162695
涉及 162300
形式 162290
如何 162253
企业 162077
见 161882
民主 161638
天 160246
负责 159754
过程 159643
认识 159562
7 158827
部 158639
控制 158304
恐怖 157766
欢迎 157582
尽管 156568
议定书 156059
可持续 155394
生产 155263
积极 155256
非政府 155117
完成 155069
协定 154727
业务 154628
以色列 154618
例如 154298
位 154235
个人 152793
当局 152280
安排 152213
地位 151460
人们 151435
过 151342
起 150669
第三 150476
办公室 150374
8 150030
挑战 149244
利益 149213
武装 148908
一切 148059
谈判 147698
月 147372
以下 147130
7月 147031
健康 146762
表明 146247
法庭 146087
点 145987
国内 145234
则 145135
* 144785
独立 144472
那些 144395
知道 144373
批准 143842
采用 143679
才 143650
作 143401
全 143140
预防 143129
改善 142804
非常 142596
---- 142586
之后 142329
成果 142275
事项 142212
出现 141790
介绍 141751
银行 141685
另 141521
规则 140809
优先 140692
仍然 140458
选举 139358
用于 139237
社区 139230
关切 138924
状况 138915
吗 137498
案件 137075
难民 136945
直接 136857
立法 136839
种族 136445
关注 136279
协商 135857
高级 135128
附件 134810
非 134711
知识 134648
军事 133921
以来 133790
原因 133572
评价 133366
12 133204
履行 133113
无法 132870
比 132690
增长 132498
正 132403
当 132350
出 132236
2005年 132219
报告员 132196
禁止 131762
结构 131695
卫生 131619
四 131580
金融 131220
之前 131178
刑事 131175
收入 130710
2008年 130559
持续 130120
仍 129926
组 129634
虽然 128411
保障 128141
9 128089
一般 127794
一致 127774
指导 126579
内容 126511
最近 126176
风险 126116
因 125994
领土 125818
限制 125803
需 125556
然而 125442
时候 125272
c 125110
空间 125064
宣言 125056
经 124913
因素 124663
警察 124496
防止 124418
自 124227
9月 123936
现有 123607
2009年 123550
经验 123451
财政 123441
同意 123239
2010年 123104
综合 123098
打击 123069
广泛 122989
2006年 122898
10月 122713
经费 121813
需求 121376
安理会 121238
集团 120962
11 120959
过去 120502
． 119950
按 119743
土著 119642
科学 119527
2007年 119344
11月 119082
发挥 118827
公民 118749
重新 118598
稳定 118554
针对 118526
一直 118311
联系 118250
临时 118228
导致 118149
15 118146
成功 117850
审计 117715
网络 117668
重申 117627
某些 117609
规划 117589
监督 117587
了解 117377
再 117230
组成 117060
3月 116273
并不 116232
发达 116225
呼吁 116038
实际 115936
巴勒斯坦 115619
权 115573
明确 115283
纳入 114992
材料 114739
扩大 114607
财务 114531
论坛 114433
5月 114333
适用 114290
准则 114128
发现 114009
长期 113853
专门 113843
制订 113697
令 113676
结束 113673
事件 113175
-- 112908
联邦 112868
就业 112864
家 112840
协议 112808
产品 112762
选择 112733
承认 112670
非法 112453
2004年 112309
尤其是 112150
关键 112012
对话 111749
完全 111449
收到 111158
推动 110975
程度 110875
事 110775
设计 110621
威胁 110275
请求 110161
保证 109795
阶段 109784
岁 109751
内部 109671
上述 109616
伊拉克 109505
运动 109235
或者 109231
13 109124
条款 108971
危机 108850
群体 108690
1月 108572
面临 108370
城市 108150
符合 108121
却 107907
2011年 107661
外 107557
专员 107483
保持 107215
无 107158
二 107142
保健 107051
20 107044
遵守 106952
2003年 106881
4月 106696
定期 106663
人类 106617
14 106218
五 106183
员额 106079
2000年 105365
学校 105259
土地 104994
从而 104636
总统 103979
2002年 103975
重大 103899
统计 103732
感到 103470
[ 103381
气候 103372
不@@ 103352
当地 103272
重点 103035
违反 102916
您 102744
1日 101759
分 101555
加入 101000
普遍 100981
] 100652
宪法 100358
2012年 100125
年度 100008
专业 99515
大学 99049
更加 98506
来自 98475
总 98415
水 98205
改进 98173
恢复 98150
缔约方 97884
合同 97779
区 97554
侵犯 97432
记录 97329
正式 97277
！ 97111
占 96650
不断 96636
民族 96588
18 96321
应用 96299
之一 96293
新闻 96290
看 96136
应对 96083
结论 96061
成员国 95985
设备 95974
准备 95949
经常 95867
基于 95606
16 95006
你们 94528
阿拉伯 94254
人数 93852
只有 93804
质量 93687
水平 93678
拥有 93501
宗教 93368
较 93074
确认 93043
工具 92954
粮食 92875
处 92745
估计 92714
自然 92577
农业 92433
2001年 92402
贡献 92319
倡议 92257
编写 91684
有助于 91680
尊重 91547
整个 91424
做出 91397
裁军 91153
显示 90662
一样 90617
还是 90523
达到 90460
下列 90332
达成 90193
民间 90099
文书 89889
所述 89874
同样 89741
编制 89412
官员 89323
法官 89188
日 89100
现象 88879
未来 88797
贩运 88759
1999年 88718
宣传 88511
保留 88335
落实 88264
带来 88224
受害者 87633
缺乏 87605
局势 87595
电子 87505
不过 87480
举办 87449
像 87404
很多 87054
A 87020
艾滋病 86568
传统 86423
实体 86403
基金会 86394
解释 86326
能源 86268
价值 86234
首脑 86184
指标 86124
8月 86051
均 86022
学生 86000
2月 85969
境内 85827
反映 85758
支付 85464
生物 85444
资产 84892
议会 84762
给予 84393
计划署 84389
改变 84161
进入 84134
构成 83953
d 83881
紧急 83606
B 83499
调整 83492
日本 83461
证明 83411
手段 83368
列入 83073
贫穷 82923
若干 82804
权力 82724
申请 82573
21 82522
第四 82485
危险 82334
今天 82138
提到 82106
分配 82024
提议 81888
表 81850
1998年 81750
有些 81666
允许 81608
医疗 81515
总部 81511
数 81126
相互 81117
农村 81024
部长 80692
访问 80472
30日 80416
17 80310
满足 80246
反对 80230
大量 80018
理由 79980
享有 79955
管制 79935
英语 79898
声明 79704
女性 79665
厅 79612
低 79534
协会 79526
2013年 79450
条例 79376
就是 79213
数量 79019
看到 79006
苏丹 78449
补充 78316
回顾 78114
成立 78093
约 78028
女士 77666
起来 77528
司 77417
少数 77389
国际法 76977
交流 76940
精神 76865
那么 76756
30 76742
签署 76725
俄罗斯 76503
困难 76463
31日 76349
实行 76254
通知 76052
十 75947
我国 75912
职能 75772
森林 75670
超过 75652
如此 75618
青年 75357
载 75353
领导 75318
主管 75310
采购 75128
以上 75064
运输 75010
授权 74976
人力 74941
意义 74788
私营 74706
核 74678
曾 74614
信 74560
价格 74438
病毒 74325
感谢 74258
修订 74209
宣布 74059
团体 73973
后续 73894
酷刑 73872
多边 73839
发表 73780
职业 73759
残疾人 73669
19 73630
章 73416
支出 73208
为此 73206
然后 73158
外国 73147
拟议 73107
学习 73068
除 72848
治疗 72812
题为 72808
商业 72670
所以 72479
在内 72366
密切 72306
另外 72214
创造 71968
收集 71903
模式 71861
证据 71744
地点 71718
拟订 71643
加以 71516
呢 71506
e 71468
来源 71301
今后 71239
大@@ 71029
六 70644
贫困 70585
重要性 70482
财产 70444
详细 70387
通常 70352
罪行 70304
毒品 70249
增强 70052
十分 69961
千 69939
出口 69916
没 69798
大多数 69731
来说 69652
核心 69650
供 69648
旨在 69536
场 69526
部署 69499
再次 69376
避免 69192
海洋 69173
鉴于 69055
成本 69009
特殊 68924
统一 68884
团 68876
称 68801
最终 68738
课程 68698
成 68670
在这方面 68660
全体 68628
步骤 68560
工业 68473
第五 68424
件 68401
从事 68390
答复 68238
外交 68190
担任 67958
太 67885
登记 67615
阿富汗 67613
提案 67592
一定 67581
主任 67528
其它 67397
亚洲 67309
通信 67278
属于 67256
历史 67250
体制 67232
筹备 67191
比较 67073
拘留 66711
移民 66619
承担 66420
如下 66393
损失 66376
有限 66356
计算 66321
纲领 66290
效率 66241
行 65819
扩散 65786
25 65761
印度 65746
机关 65612
24 65580
专题 65554
寻求 65364
传播 65286
商定 65123
比例 65102
刚果 65080
赔偿 64883
据 64868
召开 64752
概念 64749
单位 64738
流离失所 64705
敦促 64518
引起 64334
运作 64170
除了 64121
越来越 64065
而言 63981
维护 63805
主题 63728
她们 63455
加拿大 63418
核武器 63388
观点 63386
公众 63256
媒体 63226
以前 63172
语言 63113
予以 63043
观察员 63033
债务 62962
还有 62917
告诉 62911
迅速 62905
22 62891
每个 62843
趋势 62776
至少 62688
孩子 62673
最高 62587
日内瓦 62492
共 62490
自愿 62460
香港 62446
不仅 62221
宪章 62174
甚至 62110
依据 62107
事实 62083
节 62063
黎巴嫩 61982
1997年 61936
重视 61449
表现 61369
核准 61353
反应 61306
喜欢 61295
只是 61134
定义 61078
理解 61059
药物 61023
占领 61012
王国 60958
良好 60847
法国 60837
检查 60774
体系 60701
案 60691
一起 60500
首先 60455
周 60428
公平 60322
发 60311
举措 60305
相信 60213
过渡 60213
住房 60209
平民 60140
某 60131
数字 60116
交易 60055
长 60024
决策 59709
似乎 59703
职位 59500
真正 59493
40 59358
身份 59350
预期 59197
古巴 59117
23 59101
50 58998
预计 58959
律师 58775
障碍 58752
降低 58735
灾害 58630
任命 58623
移徙 58606
性质 58564
顾问 58260
贸发 58207
1996年 58180
死亡 58149
战争 58103
非正式 57996
遭受 57985
指控 57921
纽约 57891
立即 57757
双方 57703
分别 57578
文 57477
男女 57304
工人 57167
讲习班 57121
仅 56938
国民 56898
伊斯兰 56696
电话 56673
伊朗 56517
尚 56514
当前 56429
1994年 56366
探讨 56361
破坏 56289
资助 56201
明显 56178
邀请 56074
依照 56039
力量 55950
疾病 55913
网站 55863
这里 55793
发出 55710
东西 55702
竞争 55667
有所 55656
居民 55632
训练 55546
叙利亚 55384
物质 55341
背景 55242
股 55108
常驻 54969
开发署 54951
7@@ 54947
规模 54807
及时 54791
6@@ 54760
劳工 54758
转让 54721
干事 54650
愿意 54617
形成 54498
率 54449
生命 54312
1995年 54209
下降 54097
子 53992
几乎 53970
艾滋 53943
随着 53933
实质性 53754
26 53737
损害 53701
索赔 53673
德国 53568
拒绝 53431
8@@ 53430
特定 53388
C 53254
那样 53199
残疾 53161
磋商 53127
生效 53016
工程 52949
福利 52912
适应 52909
找到 52831
出席 52721
事情 52660
与会者 52601
女孩 52588
日益 52536
致力于 52522
英国 52511
那个 52498
问 52438
货币 52389
诉讼 52353
的话 52348
全部 52231
办 52191
本身 52180
系列 52128
外地 52093
待遇 51966
往往 51934
指定 51909
行使 51909
清单 51881
时期 51864
人士 51766
捐款 51597
起诉 51582
辩论 51547
修改 51460
至关 51413
飞机 51316
吧 51198
省 51150
公开 51003
州 50783
2014年 50679
足够 50469
经过 50436
套 50342
类似 50262
头 50244
截至 50222
复杂 50171
保险 50044
最新 49976
且 49967
巨大 49939
澳大利亚 49919
意味 49890
领导人 49867
上诉 49797
公正 49750
视为 49726
1993年 49635
无@@ 49565
9@@ 49464
道 49452
意识 49438
容易 49352
下午 49350
平均 49345
接触 49302
工作队 49195
研讨会 49163
商品 49158
大约 49145
赞赏 49131
最佳 49066
任择 49024
之外 48971
一@@ 48954
职责 48888
中央 48860
书 48846
审判 48846
相 48829
第六 48827
32 48742
地雷 48729
27 48658
立场 48636
监狱 48574
化 48544
尤其 48470
货物 48406
数额 48279
集中 48131
处于 47835
达 47832
出来 47796
欧盟 47751
用户 47742
侵害 47685
那里 47683
索马里 47556
31 47465
28 47436
制裁 47342
以后 47336
筹资 47314
式 47306
理论 47279
双边 47238
分子 47133
会计 47094
停止 46953
· 46911
钱 46898
小时 46870
卢旺达 46802
加勒比 46796
小@@ 46763
年龄 46723
15日 46685
日期 46577
最大 46471
案文 46353
心理 46345
劳动 46287
评论 46252
平衡 46231
科索沃 46203
第@@ 46181
一般性 46133
型 46021
科 45926
数目 45910
研究所 45880
级别 45868
爱 45794
离开 45749
今年 45677
局 45648
压力 45634
! 45568
为什么 45538
35 45537
救济 45463
朋友 45449
以外 45427
多样性 45389
度 45337
合理 45326
涉 45243
执法 45032
29 44990
随后 44966
世纪 44852
各自 44819
创新 44793
供资 44780
供应 44666
即使 44650
技能 44533
45 44495
后果 44467
获取 44252
土耳其 44226
一下 44225
治理 44212
60 44166
官方 44097
本国 44093
快 44089
延长 44074
私人 44022
巴西 43984
唯一 43948
来文 43898
有@@ 43894
全国 43840
女 43770
男子 43768
状态 43729
名单 43694
捐助 43687
墨西哥 43670
33 43650
36 43583
通报 43516
拉@@ 43513
提及 43395
结合 43394
太平洋 43335
流动 43253
34 43206
原子能 43172
遭到 43091
相同 42957
启动 42929
信托 42886
资格 42873
吃 42858
在于 42845
不足 42839
觉得 42741
表达 42696
打算 42590
第1 42558
攸关 42514
预测 42464
谁 42390
指 42311
也许 42307
修正 42174
主权 42141
底 42091
更新 42083
效果 42077
切实 42027
攻击 42017
生态 41991
类型 41923
初步 41857
袭击 41818
走 41778
重建 41743
科威特 41726
数据库 41683
法治 41632
账户 41617
清楚 41600
贷款 41584
途径 41571
增进 41516
谨 41474
查明 41441
规范 41431
分发 41305
带 41260
实际上 41223
协调员 41161
指南 41148
投票 41121
大部分 41098
第2 41081
开放 41064
父母 40986
所需 40956
直 40930
助理 40907
普通 40899
检察官 40899
37 40876
便 40782
各个 40781
巴基斯坦 40758
根本 40752
手 40728
严格 40714
道路 40700
大家 40665
母亲 40647
便利 40580
卫星 40564
食物 40537
起草 40474
车 40375
享受 40274
提请 40231
非@@ 40223
包含 40162
维也纳 40103
化学 40089
科技 40040
票 40005
期限 40003
南非 39952
多@@ 39944
方针 39885
态度 39873
外部 39858
线 39842
高度 39826
20日 39749
交通 39734
现实 39700
委会 39673
汽车 39560
投入 39545
销售 39519
既 39505
建筑 39448
方向 39443
边界 39442
难 39433
B@@ 39405
市 39404
合法 39363
埃及 39361
句 39338
申诉 39312
3@@ 39311
不利 39210
北京 39168
总体 39118
看法 39105
额外 39104
2015年 39051
协作 39042
补救 38981
量 38980
信任 38963
更为 38956
转移 38938
当时 38928
集体 38856
判决 38851
遗憾 38851
中@@ 38850
38 38810
可@@ 38806
相当 38725
模型 38722
马@@ 38709
为止 38695
剥夺 38673
对此 38620
工资 38577
词 38540
加 38476
展开 38466
总是 38453
事实上 38430
话 38420
维和 38412
4@@ 38397
当然 38390
虐待 38365
41 38253
南部 38231
39 38220
资本 38202
特点 38135
变得 38133
体 38126
须 38124
23日 38074
放在 38070
中东 38059
步 38046
制造 38019
订正 37995
22日 37937
之下 37900
斯 37874
上文 37872
用途 37856
怎么 37808
哪些 37778
42 37752
报道 37737
拉丁美洲 37724
达尔富尔 37722
使得 37697
依然 37669
跟 37643
100 37638
M@@ 37441
拉 37436
南 37422
石油 37403
－ 37394
团结 37393
水@@ 37393
海地 37393
18日 37383
主持 37357
瑞士 37352
T@@ 37342
现行 37331
难以 37327
功能 37322
共同体 37300
总额 37242
客户 37236
跨国 37175
最低 37174
值得 37129
岛屿 37116
废物 37074
利比里亚 37070
行业 37065
列 37050
驻 37048
执行局 37045
28日 36998
公布 36991
载有 36960
实践 36906
之中 36905
高兴 36896
安保 36894
44 36887
表决 36815
简单 36789
机 36755
显然 36680
48 36665
次级 36661
污染 36604
强迫 36589
争取 36546
适用于 36525
规划署 36512
千年 36511
12日 36467
法令 36463
图 36439
S@@ 36435
医生 36379
' 36370
43 36356
D@@ 36338
可能性 36329
难民署 36325
多数 36309
载于 36248
试验 36221
架 36170
现金 36160
路 36156
女童 36076
酌情 36073
77 36041
地球 36023
张 36000
10日 35996
颁布 35989
分享 35981
19日 35901
高@@ 35878
意大利 35833
伤害 35821
现 35755
身体 35735
常设 35733
差异 35717
观察 35717
干预 35665
返回 35656
相比 35617
试图 35615
透明度 35586
后勤 35559
46 35540
指示 35499
子女 35476
这么 35461
14日 35456
差距 35455
测试 35449
七 35288
H@@ 35277
21日 35255
属 35229
中期 35214
1.@@ 35195
只要 35177
雇员 35161
剥削 35145
学 35132
国籍 35089
西班牙 35088
D 35044
近 35029
上午 35019
旅行 34983
软件 34914
食品 34913
医院 34906
16日 34870
坚持 34856
层面 34849
裁决 34754
i 34725
议事 34721
候选人 34717
特设 34697
极 34676
参考 34673
5@@ 34637
L@@ 34637
11日 34598
生 34581
年轻 34527
f 34523
有时 34491
赞扬 34468
发布 34444
物 34431
教师 34422
52 34419
道德 34371
快速 34343
25日 34335
·@@ 34299
相应 34298
南斯拉夫 34273
上升 34239
基地 34199
化学品 34171
法案 34166
47 34124
拟定 34114
成就 34098
正常 34090
49 34079
不要 34072
效力 34067
书面 34027
正确 34015
错误 33989
进步 33980
逮捕 33951
全球化 33910
进口 33874
车辆 33844
第七 33827
遇到 33731
G@@ 33716
K@@ 33660
和解 33593
17日 33589
教学 33574
语文 33546
动物 33505
24日 33504
取消 33491
诸如 33480
面 33467
津贴 33428
营养 33417
分类 33380
失踪 33326
打 33265
愿 33264
逐步 33244
尽可能 33238
美利坚 33225
角度 33212
持久 33171
网 33159
门 33137
阿@@ 33112
特征 33041
男性 33004
潜在 32988
署 32986
N@@ 32983
哥伦比亚 32962
反 32956
迄今 32907
腐败 32901
开 32857
29日 32847
27日 32846
工程处 32820
西@@ 32796
花 32790
次区域 32769
决心 32750
克 32742
26日 32699
现代 32694
有利于 32691
即将 32672
航空 32662
共识 32640
速度 32624
片 32616
附属 32607
C@@ 32595
53 32591
防治 32576
心 32571
得以 32548
几内亚 32526
-@@ 32521
环境署 32459
法规 32450
负担 32441
多少 32426
面前 32410
军队 32409
平台 32395
减轻 32372
联 32359
阻碍 32358
卡@@ 32336
居住 32296
合众国 32295
少 32264
制 32247
派遣 32236
阿根廷 32227
作了 32176
父亲 32172
免费 32167
座 32157
秘书 32136
因而 32090
10@@ 32039
笔 32031
有的 32023
朝鲜 32015
制止 31989
合并 31966
开支 31951
面对 31949
完整 31945
强烈 31945
赋予 31909
核查 31864
1992年 31862
器 31861
青少年 31818
大规模 31806
民众 31799
电视 31776
首 31766
用来 31757
任期 31754
弹药 31692
单独 31690
印度尼西亚 31651
特 31573
确实 31541
经营 31530
罪 31516
挪威 31510
位置 31502
思想 31492
经历 31485
报表 31473
兴趣 31440
公务员 31429
业绩 31410
婚姻 31409
R@@ 31386
科特迪瓦 31351
德 31328
工发 31321
生殖 31283
并在 31247
消费 31187
更多 31181
装置 31176
感觉 31164
购买 31156
解除 31090
51 31067
死刑 31065
中的 31025
替代 31009
担保 30968
惩罚 30946
美洲 30945
员 30926
F@@ 30853
争端 30847
2日 30784
主席团 30765
体现 30765
证实 30764
调动 30758
肯定 30751
自@@ 30743
事务部 30729
东帝汶 30687
计算机 30684
无论 30683
加@@ 30680
透明 30617
赞同 30563
场所 30550
滥用 30503
各地 30492
全世界 30447
9日 30410
西 30392
刑法 30371
推广 30364
燃料 30364
13日 30360
批 30304
55 30265
回答 30234
8日 30218
台 30214
队 30173
担心 30171
储存 30153
波斯尼亚 30128
上@@ 30126
住 30103
交换 30074
「 30062
2.@@ 30033
特@@ 30026
下来 30016
亚太 29975
突出 29969
设 29960
外勤 29950
阐述 29914
监管 29907
并没有 29894
满意 29886
荷兰 29885
54 29874
费 29858
去年 29845
西非 29796
吁请 29766
」 29764
比赛 29752
着重 29708
P@@ 29703
些 29703
议题 29592
出版物 29582
命令 29563
强 29511
效益 29476
值 29455
最好 29428
取决于 29398
反恐 29379
讨论会 29368
处罚 29352
布隆迪 29322
地理 29307
仲裁 29299
乌克兰 29292
谴责 29290
促使 29288
o 29267
1990年 29265
释放 29246
派 29234
对象 29209
第3 29195
混合 29187
紧张 29180
3日 29151
管辖 29134
若 29127
4日 29125
出版 29123
手册 29101
寻找 29090
群岛 29072
除非 28995
叫 28941
深入 28879
别 28828
融资 28818
加沙 28789
记者 28787
操作 28762
涵盖 28752
金 28736
一旦 28727
自我 28712
相对 28672
实地 28664
志愿 28660
2@@ 28656
自身 28649
教训 28599
旅游 28552
12@@ 28524
人@@ 28504
以往 28484
利 28472
族裔 28470
美 28470
预咨 28433
制作 28397
学院 28384
融入 28373
先 28370
56 28368
大使 28358
联络 28335
常常 28328
信仰 28325
审理 28317
塞拉利昂 28315
后来 28305
消息 28252
情报 28251
推进 28240
买 28224
认可 28218
巩固 28215
示范 28191
概述 28186
言 28148
促请 28118
回应 28110
显著 28107
捐助者 28089
排放 28084
埃塞俄比亚 28078
荒漠化 28060
6日 28043
整体 28002
纳 27994
例子 27989
啊 27960
体育 27958
高专 27954
新西兰 27953
彻底 27904
装备 27901
尚未 27867
确立 27866
成绩 27788
运行 27786
款项 27774
光 27749
代理 27737
感染 27731
感 27728
附近 27726
付款 27718
7日 27715
摩洛哥 27713
70 27705
发@@ 27705
斗争 27702
死 27671
证人 27654
新的 27603
依赖 27565
别人 27536
八 27521
力 27487
3.@@ 27452
死亡率 27438
周期 27435
曾经 27431
时代 27422
衡量 27415
一体化 27360
瑞典 27347
意愿 27338
摘要 27320
A@@ 27317
斯@@ 27314
站 27288
语 27276
旨 27264
得出 27263
极端 27263
5日 27253
听 27235
塞浦路斯 27230
外@@ 27224
失去 27210
整 27156
14@@ 27126
65 27116
德@@ 27089
可靠 27084
主流 27060
适合 27045
主 27034
注重 27033
仅仅 26969
神 26966
怎样 26950
容忍 26943
脆弱 26942
养 26933
亦 26926
阁下 26922
高等 26913
证书 26887
恶化 26821
进 26646
劳动力 26638
元 26611
s@@ 26598
可行 26585
筹措 26585
具 26584
永远 26578
尼日利亚 26570
受害人 26555
58 26554
实验 26545
代 26511
常规 26493
重 26487
g 26475
吸引 26475
有利 26423
联合会 26414
职权 26413
妨碍 26405
提 26392
澄清 26380
海@@ 26379
征聘 26365
额 26341
类别 26322
艾滋病毒 26316
物品 26311
声称 26310
描述 26307
重返 26293
发起 26276
艺术 26266
会议室 26256
外层 26250
口头 26241
放弃 26214
认真 26210
57 26209
列出 26165
观念 26129
加快 26124
64 26105
E 26104
卡 26104
真的 26037
轮 26037
自动 26020
期待 25999
药品 25986
言论 25975
不再 25968
这一 25966
层 25965
在一起 25960
管辖权 25932
1991年 25894
巴@@ 25891
大大 25882
事业 25880
要素 25814
建造 25812
期望 25804
产出 25799
驱逐 25783
讲 25776
监禁 25773
儿子 25764
分摊 25753
并非 25745
职务 25732
界定 25701
真 25663
59 25658
块 25657
设想 25590
缅甸 25589
中非 25574
尽快 25559
例 25554
修正案 25551
争议 25473
不得不 25469
贩卖 25468
利@@ 25437
阿塞拜疆 25402
信贷 25401
可是 25385
极为 25371
秩序 25363
短期 25349
I 25328
男人 25291
战斗 25288
翻译 25277
高级别 25260
罗@@ 25251
供应商 25248
部长级 25240
雇主 25229
62 25216
回 25200
找 25198
具备 25181
任意 25163
米 25163
海关 25148
61 25134
痛苦 25090
潜力 25083
写 25068
心@@ 25052
电脑 25045
管理局 25043
0@@ 25030
最初 25030
清洁 25014
终止 25000
克服 24998
倍 24991
半 24981
应急 24978
与其 24975
亚@@ 24974
主动 24910
对@@ 24905
页 24885
经委会 24877
患者 24848
科@@ 24836
护理 24811
准确 24778
教科文 24761
乌干达 24758
声 24733
初 24704
想要 24692
早 24673
分钟 24665
习惯 24650
泰国 24640
新@@ 24591
辆 24577
63 24562
第5 24552
细胞 24538
监督厅 24537
推迟 24533
边 24523
弱势 24492
阻止 24486
1999 24480
谅解 24475
互动 24464
船 24408
听取 24375
被告 24366
广播 24355
通讯 24337
支 24322
利比亚 24310
i@@ 24307
菲律宾 24257
女人 24248
自治 24245
设法 24241
星期 24226
天@@ 24222
前往 24202
奥@@ 24199
定 24196
前景 24192
气体 24172
17@@ 24170
重复 24170
询问 24169
马 24163
特性 24158
怀疑 24157
一点 24152
生育 24137
干 24119
15@@ 24112
拨款 24107
文章 24105
电影 24089
初级 24048
运用 24038
角色 24035
低于 24005
引渡 23995
掌握 23989
机场 23978
规约 23946
11@@ 23940
飞行 23940
E@@ 23933
哈@@ 23933
好处 23919
设置 23910
豁免 23895
安@@ 23893
续 23845
16@@ 23843
b@@ 23824
议员 23812
失业 23807
岛 23798
称为 23782
事故 23776
人人 23775
分@@ 23750
66 23731
空缺 23710
象 23684
消费者 23638
格鲁吉亚 23637
照顾 23617
总理 23613
创建 23590
政党 23569
黑塞哥维那 23539
n@@ 23516
结婚 23487
室 23483
之@@ 23481
渔业 23477
第九 23466
肯尼亚 23442
出生 23428
想法 23426
丰富 23392
13@@ 23369
18@@ 23360
周年 23351
宗旨 23348
核裁军 23337
细则 23333
克罗地亚 23328
对待 23317
应付 23310
/@@ 23307
赞成 23296
口 23288
观察团 23282
同@@ 23281
员工 23280
指数 23274
80 23270
民事 23266
许可 23256
们 23252
巴勒斯坦人 23235
阿尔及利亚 23207
产权 23180
下文 23163
安装 23157
第6 23121
教授 23116
测量 23113
名义 23106
申诉人 23101
敏感 23093
h 23068
受理 23062
相反 23024
关心 23009
纪念 23005
工会 23002
空气 22970
业 22961
出于 22954
副主席 22935
72 22927
与此同时 22873
厄立特里亚 22871
下@@ 22863
培养 22856
声音 22800
案例 22800
注册 22800
发放 22785
伊@@ 22756
补偿 22750
内@@ 22741
老年人 22735
性能 22710
备忘录 22704
4.@@ 22700
固定 22693
优势 22684
气 22662
听到 22658
销毁 22647
重@@ 22623
入 22618
就此 22610
看来 22604
讲话 22596
无核武器 22570
意思 22565
管 22560
所谓 22544
检测 22520
位于 22509
早期 22502
东道国 22472
转变 22459
变成 22440
m@@ 22436
取代 22420
备选 22386
刚 22371
75 22363
单 22361
妻子 22332
智利 22329
节目 22322
薪金 22310
惯例 22294
作业 22276
经社会 22273
拟 22261
将来 22214
t@@ 22211
剂 22200
s 22190
本@@ 22161
68 22159
小型 22137
欧元 22133
原 22122
总数 22121
罗马 22099
逐渐 22092
布 22090
发言者 22089
移动 22089
J@@ 22079
e@@ 22079
法@@ 22074
定于 22053
提醒 22051
奥地利 22013
希腊 22008
投资者 21999
5.@@ 21992
69 21973
人格 21972
告知 21965
或是 21961
地@@ 21940
马来西亚 21930
粮农 21900
方便 21895
九 21889
柬埔寨 21874
大型 21870
基 21864
主张 21861
200 21858
削减 21825
尊严 21817
提名 21798
补贴 21795
恤金 21792
考试 21788
图书馆 21785
尔@@ 21785
看见 21775
北部 21764
何 21753
V@@ 21750
男孩 21740
东 21714
完善 21708
卖淫 21703
康复 21671
出@@ 21663
丈夫 21636
灭绝 21608
远 21583
系 21566
事先 21552
故事 21550
第十 21550
当选 21548
一半 21540
塞尔维亚 21539
当事 21491
加速 21482
许可证 21477
收益 21465
危害 21464
分布 21446
充满 21433
获 21428
W@@ 21409
.@@ 21405
巴黎 21376
为期 21367
必 21359
而是 21359
副秘书长 21305
获悉 21302
名额 21292
热 21292
d@@ 21278
金@@ 21257
67 21255
协同 21241
病 21235
项下 21228
情形 21226
建设性 21206
失败 21180
山 21167
发射 21157
布@@ 21131
生存 21130
大陆 21129
近东 21127
家人 21121
不良 21099
加剧 21082
音乐 21052
71 21044
移交 21040
他人 21037
驻地 21034
2000 21018
法定 21004
囚犯 21001
限度 20989
强制 20974
应在 20955
士兵 20952
r@@ 20947
不论 20912
排除 20895
白俄罗斯 20889
第八 20881
住区 20829
基@@ 20823
尼 20810
病人 20805
否则 20789
族 20789
绝对 20780
回到 20774
90 20767
随时 20767
有害 20753
萨@@ 20742
始终 20738
约旦 20724
常 20667
交付 20651
视 20648
尔 20647
长@@ 20644
p@@ 20627
很少 20623
下去 20612
双 20596
很大 20595
大楼 20594
以期 20575
英文 20523
连接 20520
73 20511
经济体 20505
转型 20501
复员 20500
老 20500
尼@@ 20477
遵循 20475
产业 20456
有力 20456
㈡ 20454
概算 20442
㈠ 20431
近年 20418
l@@ 20414
耶路撒冷 20402
各国 20387
比如 20387
理想 20378
用品 20372
独特 20359
内罗毕 20357
强化 20348
克@@ 20345
开@@ 20322
配置 20287
er 20284
鱼 20277
任职 20272
雇用 20252
农民 20230
安置 20229
反@@ 20222
安哥拉 20218
名字 20201
纳@@ 20186
迫切 20185
简要 20181
c@@ 20173
丹麦 20168
加上 20162
k@@ 20148
日常 20129
基准 20123
上帝 20097
白@@ 20079
伦敦 20060
文本 20043
爆炸 20028
充足 20019
打@@ 20003
推行 19985
退休 19962
1998 19954
互联网 19952
关联 19952
总结 19948
边境 19946
变革 19941
贸易法 19930
缔结 19894
着手 19892
汇编 19888
据称 19876
动态 19862
缺少 19819
植物 19809
港 19803
工艺 19780
邻国 19762
波兰 19749
绿色 19748
流 19697
警方 19694
经社 19686
主办 19675
邮件 19675
扩展 19670
不得 19652
2004 19648
相@@ 19627
策略 19627
问责 19625
看看 19611
间接 19607
坚定 19605
税 19598
加工 19588
强奸 19584
板 19577
毁灭性 19571
广告 19559
尽量 19549
渠道 19520
事态 19513
首席 19500
例外 19497
改为 19494
尼泊尔 19492
党 19491
第7 19490
特遣队 19489
导弹 19484
外国人 19479
比率 19478
有用 19474
百分比 19472
融合 19472
别的 19467
正如 19458
衣服 19458
另一方面 19448
形势 19442
约束力 19442
74 19441
读 19411
现状 19401
y@@ 19400
群 19361
调解 19347
里@@ 19345
a@@ 19332
后者 19331
耶和华 19328
所列 19324
芬兰 19323
签订 19320
前提 19308
毫 19300
或许 19291
城 19287
金属 19279
关闭 19252
公路 19245
不平等 19222
1@@ 19219
出售 19212
足以 19204
文职 19202
暂停 19202
汇率 19193
an 19187
6.@@ 19164
马里 19153
保存 19142
正义 19116
老@@ 19110
格式 19098
20@@ 19078
信心 19075
成@@ 19071
设在 19055
秘鲁 19050
我的 19046
塞 19031
连续 19027
提升 19000
瓦@@ 18983
国外 18980
76 18960
内陆 18914
认定 18908
遣返 18898
婴儿 18885
纲要 18881
武力 18872
北 18867
连 18863
的确 18857
生@@ 18849
处境 18847
跟踪 18839
海 18832
风 18824
组合 18821
废除 18818
缺陷 18798
信号 18784
裁定 18767
委员 18764
工作者 18753
下面 18745
篇 18724
陈述 18712
核定 18708
300 18694
退化 18673
印发 18672
等待 18666
O@@ 18665
国@@ 18665
参数 18664
企图 18639
余额 18619
成效 18604
过@@ 18603
万 18592
工 18591
转递 18584
附加 18584
界 18578
先前 18565
不妨 18563
循环 18550
眼睛 18549
佳 18532
空中 18526
地带 18523
突尼斯 18511
汇报 18496
房间 18494
孟加拉国 18490
军备 18483
不久 18462
本人 18461
合 18450
副 18429
依靠 18416
拿 18405
转@@ 18379
支援 18372
单方面 18353
明白 18337
职等 18314
时间表 18313
危地马拉 18300
排雷 18299
游戏 18295
78 18286
塔@@ 18286
房子 18264
守则 18260
比@@ 18260
民国 18258
P-3 18256
81 18249
周围 18249
探索 18234
审评 18233
格@@ 18218
配合 18183
兼 18177
网上 18173
核可 18167
三@@ 18164
巴 18162
个别 18144
名称 18139
穷人 18132
有罪 18127
坚决 18125
差 18125
500 18108
表格 18082
球 18066
晚上 18065
于是 18060
妈妈 18021
角 18012
负责人 18005
亚美尼亚 17981
持有 17950
汞 17947
P-4 17943
I@@ 17938
覆盖 17935
转交 17935
在@@ 17921
帐户 17921
董事会 17918
国别 17917
删除 17910
负有 17898
各位 17897
推出 17894
受伤 17893
繁荣 17893
第9 17853
米@@ 17852
必要性 17850
字 17843
其余 17817
商务 17817
极其 17816
偿还 17805
规章 17797
总值 17790
来看 17765
当中 17761
单一 17760
缓解 17748
海洋法 17727
宏观 17723
至于 17704
委内瑞拉 17678
身上 17673
祝贺 17659
不管 17640
区别 17637
海外 17636
沙@@ 17633
处决 17621
房屋 17619
越南 17600
高于 17582
深 17573
维修 17573
限于 17545
如今 17530
元首 17510
所在 17504
79 17491
y 17484
南@@ 17480
油 17472
小学 17468
做到 17457
遗产 17437
现场 17430
动 17426
树 17401
吨 17398
简化 17397
靠 17397
大力 17387
金额 17348
空@@ 17346
83 17345
法语 17328
比利时 17320
解放 17320
首长 17320
仇外 17317
裁谈会 17313
雷@@ 17313
投诉 17311
7.@@ 17309
订立 17307
丧失 17303
过境 17296
南南合作 17284
突然 17284
越 17267
达@@ 17262
接近 17253
h@@ 17249
秘密 17238
尽 17230
变 17229
自从 17226
为@@ 17220
彼此 17213
ar@@ 17200
85 17179
犯下 17170
哪 17161
an@@ 17160
亚 17160
诊断 17159
世贸 17156
气@@ 17150
光@@ 17137
厄瓜多尔 17137
根 17137
负债 17129
怀孕 17104
新加坡 17099
热@@ 17090
快乐 17063
捷克 17030
2010 17027
面积 17023
分列 17016
罪犯 17012
拖延 17011
首要 17000
说法 16994
文明 16989
之内 16984
中等 16983
沟通 16969
轻武器 16968
第十四 16951
竞争力 16947
斯里兰卡 16944
F 16932
西亚 16930
流程 16925
手@@ 16920
g@@ 16918
维@@ 16917
沿海 16907
能否 16907
强大 16893
品 16892
南方 16885
学会 16879
档案 16879
批评 16878
行为者 16877
季度 16862
河 16855
老师 16848
大韩 16843
共体 16841
处置 16838
算法 16817
药 16814
终了 16810
物资 16807
国会 16803
82 16800
假设 16758
总@@ 16757
风@@ 16752
in@@ 16745
净 16742
某个 16732
er@@ 16728
顺利 16708
残忍 16695
当事人 16692
识别 16680
少年 16678
波 16677
al@@ 16670
持 16665
东部 16653
加大 16644
减贫 16625
杀害 16609
绩效 16609
掉 16607
愿望 16595
暂时 16584
纪律 16582
花@@ 16580
人群 16578
后@@ 16578
5% 16573
人居署 16567
差别 16563
报 16557
离 16545
合适 16541
84 16536
主@@ 16536
标志 16535
作品 16533
有机 16533
源 16524
宝贵 16523
於 16523
版 16508
计 16482
灵活 16467
埃@@ 16459
色 16453
上面 16444
表面 16436
上空 16433
升级 16411
监察员 16410
2001 16406
京都 16398
会上 16397
阅读 16396
地震 16391
众多 16381
干旱 16374
幸福 16365
定为 16356
照片 16351
临床 16350
碳 16348
外交部 16346
捐助国 16344
前@@ 16330
阐明 16329
职 16326
枚 16291
87 16288
温室 16288
多样化 16267
质疑 16266
消耗 16265
动力 16258
回来 16257
促成 16254
友好 16247
喝 16228
财富 16224
教 16212
伊 16209
地域 16209
手术 16202
Y@@ 16189
响应 16186
照料 16164
w@@ 16160
军 16160
村 16160
入侵 16145
学术 16133
电@@ 16132
19@@ 16127
穿 16116
索赔人 16113
刺激 16111
辩护 16110
来到 16097
区分 16089
行@@ 16088
天气 16080
谈到 16064
减 16057
博士 16048
谈 16046
海上 16041
反腐败 16035
格 16035
共享 16026
禁 16026
发言人 16024
用以 16022
富有 16011
Add.1 16010
大幅 16006
86 16002
包容性 15982
忽视 15978
全@@ 15970
f@@ 15967
身 15960
应@@ 15953
班 15951
效应 15950
侵略 15944
用@@ 15934
以为 15929
过度 15927
根源 15918
时刻 15887
古@@ 15872
展示 15867
图像 15852
有效性 15846
U@@ 15839
留下 15829
披露 15825
洗钱 15821
负面 15807
日@@ 15794
西方 15784
并未 15770
葡萄牙 15769
以此 15763
公@@ 15748
夫 15745
文@@ 15741
行事 15731
不到 15730
主导 15729
2011 15727
第十一 15725
塔 15724
领袖 15711
示 15699
坦桑尼亚 15696
活 15684
波@@ 15682
圣@@ 15681
破产 15674
中间 15652
人身 15630
领取 15623
灾难 15614
现代化 15614
进度 15614
真实 15610
到达 15608
引发 15606
儿 15589
证券 15585
判处 15564
施加 15558
会谈 15537
二@@ 15536
放 15536
0 15532
0.@@ 15524
88 15519
2009 15504
塞@@ 15494
警告 15484
出去 15481
夫人 15479
等等 15473
被迫 15467
孩子们 15458
停火 15447
种种 15441
从未 15437
原@@ 15434
变动 15430
流@@ 15427
林 15394
陷入 15389
穆斯林 15388
价 15384
首次 15373
工厂 15371
变@@ 15360
受益 15357
乍得 15350
92 15341
清除 15336
也是 15330
第8 15319
尝试 15317
定罪 15300
正@@ 15293
对策 15288
爱尔兰 15275
实质 15271
没收 15271
份额 15263
罚 15263
追求 15263
庇护 15261
因特网 15254
饥饿 15253
政权 15245
著 15245
> 15240
M 15238
奖 15235
合@@ 15234
至今 15216
王 15215
状 15213
轨道 15203
同等 15199
罗 15188
辅助 15178
优惠 15175
山@@ 15126
迪@@ 15121
普@@ 15117
in 15112
思考 15108
招募 15108
动员 15103
全民 15083
视察 15082
楼 15081
电信 15074
领空 15069
兄弟 15049
封锁 15042
和@@ 15025
本文 15021
革命 15018
如@@ 15010
其实 15004
正当 14996
经合 14995
伤 14987
公里 14986
L.@@ 14984
对付 14982
习俗 14962
够 14949
办公 14941
参照 14938
89 14937
意外 14934
此种 14931
登记册 14923
实例 14922
其后 14921
沙特阿拉伯 14915
纠正 14910
距离 14901
必需 14894
含有 14889
库存 14886
疟疾 14885
从@@ 14884
侧重于 14881
满 14864
科学家 14857
支柱 14852
保安 14850
明天 14840
编列 14839
哥斯达黎加 14830
莫@@ 14828
对其 14823
贝@@ 14815
一致性 14813
女儿 14812
记得 14805
净额 14798
面向 14796
列为 14780
庆祝 14780
五@@ 14776
加纳 14770
土壤 14767
排斥 14759
公报 14756
帕@@ 14754
中学 14752
敌对 14751
本地 14748
填补 14745
产 14737
温度 14736
最为 14725
Z@@ 14708
担忧 14706
红@@ 14705
林@@ 14703
分歧 14702
永久 14699
莱@@ 14699
港口 14692
约束 14687
回@@ 14686
图@@ 14678
县 14677
9.@@ 14667
乌拉圭 14661
明@@ 14660
说话 14655
有可能 14650
在线 14642
电力 14642
假 14641
条文 14640
限 14635
93 14634
相当于 14625
坐 14622
情绪 14616
时限 14615
物体 14612
u@@ 14608
包 14608
团队 14593
营地 14588
监察 14586
91 14583
第十二 14582
经理 14581
税收 14576
杀伤 14573
利润 14566
地址 14559
通@@ 14559
倡导 14550
左右 14546
用作 14528
单@@ 14525
有权 14524
en@@ 14523
94 14521
上海 14512
北爱尔兰 14509
哈萨克斯坦 14500
时@@ 14498
代表性 14495
制约 14483
超出 14466
2013 14465
绑架 14464
实验室 14462
排放量 14461
违背 14450
吸收 14439
8.@@ 14433
o@@ 14433
这儿 14433
犯 14429
脆弱性 14420
资讯 14419
普查 14409
是的 14402
门@@ 14401
提起 14387
罗马尼亚 14381
更大 14378
2006 14374
98 14359
接收 14355
99 14343
库 14330
认证 14326
合格 14321
v@@ 14314
在此 14305
免疫 14300
从来 14298
所有权 14295
吉@@ 14282
塞内加尔 14280
消极 14275
培训班 14270
狗 14264
爆发 14261
玻利维亚 14259
样 14248
95 14224
分庭 14218
通 14210
一系列 14209
人和 14207
平@@ 14194
预警 14182
博@@ 14176
选民 14167
一贯 14164
选出 14144
提@@ 14136
形象 14132
也门 14130
受@@ 14100
酒 14096
普及 14091
客观 14083
家属 14070
设定 14067
隔离 14048
诉 14041
细节 14038
封 14034
关押 14027
质 14026
仔细 14021
检验 14018
眼 14013
所@@ 14008
宗 14006
代价 14005
会晤 14005
违法 14003
查询 14001
铭记 13993
股票 13991
种植 13984
脚 13984
96 13982
黑@@ 13977
= 13975
打开 13973
库@@ 13969
住在 13967
模拟 13955
G 13947
禁运 13940
电台 13939
地图 13937
未@@ 13933
活力 13925
摆脱 13923
医学 13921
洛@@ 13903
97 13902
西岸 13901
观测 13897
赢得 13895
ad@@ 13890
收@@ 13890
选定 13888
席位 13886
姆 13885
作@@ 13883
民兵 13882
伟大 13878
价值观 13874
好像 13868
包容 13865
钻石 13865
at@@ 13862
回收 13855
中华 13848
撤销 13847
来@@ 13839
基因 13825
鼓舞 13818
里面 13816
双@@ 13800
近期 13775
海事 13758
判断 13757
利率 13756
改造 13749
致 13748
森 13742
色情 13739
每天 13735
28@@ 13730
任 13729
头@@ 13721
原来 13719
由此 13719
昨天 13718
表@@ 13718
Rev.1 13716
优化 13716
决策者 13714
开办 13710
形 13709
对外 13707
不结盟 13685
指称 13678
人才 13677
灵活性 13674
强制性 13671
神@@ 13653
尼加拉瓜 13649
匈牙利 13647
圆桌 13647
商 13633
作者 13629
遭 13619
单元 13585
超@@ 13584
地面 13581
反恐怖 13580
索@@ 13579
或有辱 13578
皮@@ 13577
过来 13576
看起来 13575
意图 13573
400 13572
发展权 13571
离职 13569
试点 13569
日子 13567
开会 13566
30@@ 13553
厂 13538
节省 13538
薪酬 13498
版本 13496
星期一 13494
公认 13490
查阅 13489
25@@ 13482
全球性 13480
所得 13480
船舶 13473
迹象 13472
土著人 13464
为何 13453
好的 13451
论述 13450
剩余 13445
机械 13428
标题 13421
有益 13393
旧 13373
发行 13372
首都 13370
雷 13369
性@@ 13368
生计 13364
保@@ 13363
坏 13361
流行 13360
世界上 13350
配偶 13350
论文 13347
编辑 13344
成年人 13336
那时 13333
it@@ 13332
斯洛伐克 13323
削弱 13316
谢谢 13311
责制 13308
萨尔瓦多 13304
2012 13303
作物 13301
冻结 13301
分离 13291
韩国 13290
新型 13274
散发 13272
国内法 13271
装 13238
短 13237
答案 13233
分为 13228
会费 13221
课 13216
种类 13215
童工 13212
油@@ 13211
其@@ 13210
坐在 13208
定@@ 13207
星期五 13205
每年 13205
太阳 13197
真相 13197
委 13193
它的 13185
辐射 13183
下述 13165
常见 13162
参与者 13160
自决 13156
加紧 13152
电 13145
激励 13127
阿尔巴尼亚 13126
准 13117
先进 13108
24@@ 13102
有点 13098
下放 13087
起@@ 13087
互相 13079
年底 13078
顿 13059
得@@ 13053
债权人 13048
交@@ 13045
万@@ 13041
定居点 13040
高效 13039
27@@ 13035
申请人 13034
船只 13031
做好 13029
人生 13023
k 13007
刚刚 13006
人物 12999
艾@@ 12999
成长 12996
论 12981
结论性 12977
清理 12967
发动 12959
华盛顿 12952
美@@ 12952
亿 12948
应由 12943
2005 12941
120 12940
空 12938
脱离 12935
产量 12934
增多 12934
比绍 12934
计量 12933
继承 12926
旅游业 12919
制品 12917
战 12914
多哈 12906
el@@ 12905
房 12903
授予 12902
杯 12900
储备 12899
上涨 12897
学家 12892
美丽 12891
卷 12890
而@@ 12888
z@@ 12887
当今 12883
朝 12883
清@@ 12881
知 12867
家@@ 12864
不当 12859
29@@ 12850
信通 12847
合法性 12844
ar 12840
名@@ 12835
送 12822
t 12820
巴塞尔 12819
尽早 12816
养护 12815
26@@ 12807
神经 12803
家里 12794
23@@ 12786
新兴 12784
有待 12782
无论是 12773
机@@ 12771
u 12765
1996 12764
污染物 12763
共计 12760
召集 12759
短缺 12751
集 12733
同一 12727
民 12724
输入 12723
中亚 12717
中部 12709
买卖 12701
司法部 12694
核实 12682
化@@ 12676
含量 12676
石 12674
大众 12673
美好 12670
难民营 12668
倒 12662
火@@ 12661
火 12651
缓慢 12645
多个 12634
索 12619
美国人 12606
阿 12603
和谐 12600
机器 12591
j@@ 12589
P 12587
终于 12587
再@@ 12586
国防 12584
消灭 12583
验证 12577
基本上 12576
免受 12562
哪里 12554
其次 12547
地下 12545
素 12544
复苏 12527
黄@@ 12526
en 12519
1% 12508
寿命 12505
建 12504
网页 12503
东@@ 12501
足 12490
㈢ 12487
权能 12487
给出 12487
es 12483
1997 12479
自由化 12474
杂志 12466
往 12465
可行性 12447
增长率 12430
队伍 12421
公园 12418
am@@ 12415
成人 12415
报纸 12407
血 12406
杀 12405
围绕 12400
黑山 12397
标准化 12395
英 12393
要是 12385
同事 12379
鲁@@ 12375
易 12373
广大 12372
喀麦隆 12369
大不列颠 12369
免遭 12363
缩小 12353
层次 12351
局面 12343
600 12336
回家 12336
想到 12330
会见 12326
入@@ 12326
均衡 12325
被拘留者 12318
开幕 12317
恰当 12314
远远 12313
迫使 12312
机遇 12308
咨商 12307
第十九 12304
改 12288
通用 12278
苏@@ 12268
含 12267
当代 12265
店 12264
特使 12263
托@@ 12252
梅@@ 12251
红 12251
先@@ 12249
青年人 12237
半@@ 12232
颜色 12232
审 12223
文字 12222
持续性 12221
证 12213
盟约 12209
关税 12200
不够 12198
干@@ 12194
更改 12191
健全 12189
征求 12180
S 12169
见到 12162
非殖民化 12162
4% 12153
初次 12153
安 12153
起到 12153
著名 12148
蒙特利尔 12147
站在 12130
管理层 12129
卡塔尔 12126
书记 12120
付 12118
入境 12116
皮 12104
对抗 12103
丝 12095
后面 12095
3% 12077
酸 12074
想象 12073
不错 12072
置于 12072
牙买加 12068
Ch@@ 12048
铁@@ 12036
on@@ 12031
司长 12029
援引 12029
报酬 12016
查@@ 12015
添加 12014
台湾 12006
巡逻 12001
开设 11996
人均 11988
白 11972
完 11970
1989年 11968
知情 11962
10% 11952
顾客 11952
麻醉 11952
保加利亚 11951
毛里求斯 11951
前面 11945
总共 11940
试 11938
抗议 11919
无害 11918
投 11914
据说 11906
指挥 11901
接着 11898
待 11897
生长 11897
玩 11894
镇 11892
联黎 11889
气象 11878
逻辑 11867
发送 11866
俱乐部 11861
暂行 11861
视频 11849
红十字 11847
承受 11839
or@@ 11838
准入 11836
同次 11830
赠款 11825
形态 11824
矛盾 11820
最@@ 11818
气氛 11814
环 11814
深刻 11802
非正规 11794
求 11793
斯洛文尼亚 11792
生产力 11789
那儿 11785
被占 11778
找出 11772
歧视性 11772
副@@ 11770
al 11769
运送 11763
小额 11762
第15 11762
国王 11755
性的 11751
人为 11750
留在 11748
依法 11740
马上 11738
失望 11733
签证 11723
P-5 11722
一部分 11720
方@@ 11719
交给 11705
跨 11701
ch@@ 11700
警务 11700
爆炸物 11695
性虐待 11694
招聘 11694
大小 11692
海盗 11690
杜@@ 11684
个案 11674
保密 11668
失业率 11665
街 11662
事宜 11657
双重 11657
必然 11646
恐惧 11646
疫苗 11644
修建 11641
50% 11637
700 11636
次数 11634
铁路 11633
设有 11630
对方 11626
看@@ 11625
2% 11621
东欧 11616
举 11606
村庄 11598
Corr.1 11596
草稿 11591
被捕 11588
预防性 11588
强有力 11583
本来 11583
指挥官 11580
老人 11579
详情 11575
第60 11570
阶层 11570
家园 11566
纸 11563
产妇 11557
建筑物 11556
连@@ 11550
8% 11547
恩 11547
照会 11544
特权 11538
墙 11530
无效 11526
波动 11523
正规 11516
卫生部 11515
简报 11514
动机 11513
引入 11513
第10 11502
7% 11499
姆@@ 11498
委托 11495
仇恨 11493
希@@ 11493
石@@ 11492
十二 11487
之时 11486
补助 11485
真是 11482
1000 11480
百万 11478
修复 11476
证件 11474
整合 11472
期内 11470
署长 11460
老年 11458
回返 11457
太@@ 11455
成熟 11451
支配 11450
福祉 11450
提前 11441
实物 11439
冲击 11438
治安 11433
集会 11430
依 11428
力求 11426
国有 11411
申明 11409
权限 11408
笑 11405
麦@@ 11404
如同 11401
煽动 11401
凡 11392
情 11387
不安 11382
10时 11378
迪 11378
000 11377
序言 11374
搜索 11372
四@@ 11369
开列 11368
久 11365
好@@ 11365
... 11362
各方 11362
10.@@ 11361
消失 11360
统治 11359
蒙古 11349
工作量 11346
养恤 11342
追究 11341
奥巴马 11338
6% 11337
能量 11334
经@@ 11330
紧迫 11325
奥运会 11324
疑问 11324
分担 11322
利息 11321
可持续性 11321
权益 11320
R 11301
分散 11301
紧密 11292
飞@@ 11291
无疑 11290
20% 11287
毛额 11269
切 11267
采纳 11264
西部 11258
办理 11252
认捐 11252
妇发 11241
熟悉 11240
可用 11239
不仅仅 11237
排 11235
取 11234
转 11234
较为 11234
今日 11227
杰@@ 11218
恩@@ 11215
星期四 11207
振兴 11195
意 11194
相似 11194
列@@ 11189
选 11184
所作 11177
架构 11177
院 11171
不稳定 11170
分段 11168
付出 11156
可再生 11156
防@@ 11154
12.@@ 11148
防范 11140
瓦 11138
转向 11138
人权法 11136
物理 11135
n 11133
说@@ 11133
这种 11131
筹集 11127
赞比亚 11125
延迟 11124
带有 11118
旅费 11112
裂变 11109
1988年 11108
漂亮 11107
X 11105
德班 11101
膜 11097
错 11094
2008 11093
一道 11093
定位 11086
诉诸 11084
撒哈拉 11083
斯·@@ 11082
比额 11080
料 11074
转换 11068
体@@ 11067
技巧 11066
子@@ 11061
既定 11058
诺@@ 11051
工业化 11047
压 11043
要点 11040
开采 11026
害怕 11008
指令 11003
菜 11002
联利 11001
划分 10999
债券 10994
家长 10983
星期二 10983
转化 10980
颗 10979
低@@ 10978
增至 10977
必不可少 10977
本着 10974
il@@ 10973
画 10972
供水 10970
林业 10970
协调会 10969
L 10967
前进 10964
购置 10956
奖励 10949
此后 10944
除外 10943
命运 10942
东南亚 10941
事务处 10939
莫桑比克 10930
真@@ 10928
东盟 10922
塔吉克斯坦 10917
包装 10915
1-@@ 10914
马其顿 10896
契约 10894
组建 10893
阵线 10893
记忆 10890
微@@ 10883
第十三 10882
脸 10875
典型 10871
摊 10866
面@@ 10860
驱动 10858
术语 10854
A/60 10853
土 10851
盘 10850
奠定 10848
边缘 10844
权威 10843
复@@ 10841
仪式 10834
勒@@ 10832
影响力 10832
不幸 10831
哈 10831
乌兹别克斯坦 10817
受害 10817
注 10816
原理 10811
梦想 10809
布什 10802
成分 10799
老板 10799
住宅 10795
点@@ 10790
手机 10786
直@@ 10783
里约 10776
布基 10775
重组 10775
年轻人 10769
范畴 10768
尔·@@ 10767
民警 10767
元素 10765
150 10762
立@@ 10762
干涉 10760
中美洲 10759
毫不 10757
复原 10756
体面 10749
浪费 10741
还应 10736
否认 10735
口@@ 10727
血@@ 10725
理事国 10724
赫@@ 10724
撤出 10721
+ 10719
抗 10713
庭 10709
结@@ 10706
行动者 10704
王@@ 10686
驳回 10686
草 10684
赛 10682
营 10675
调@@ 10673
力度 10666
运营 10664
部落 10663
团伙 10653
敢 10652
缴款 10652
收费 10649
制@@ 10648
演变 10642
贯彻 10641
9% 10621
追踪 10621
然 10618
算 10617
接@@ 10611
立陶宛 10607
艘 10602
is@@ 10599
困境 10597
干扰 10595
市民 10588
奇 10582
数学 10582
最多 10579
800 10576
反馈 10575
兰@@ 10560
号决议 10560
实用 10560
多么 10554
端 10552
军@@ 10549
爸爸 10535
显得 10533
题 10532
任用 10531
帮 10529
排@@ 10528
竞赛 10527
胜利 10526
忘记 10521
更好 10519
考察 10519
师 10518
灯 10511
信@@ 10509
伤亡 10503
爱@@ 10496
常会 10495
活跃 10494
不可@@ 10490
失@@ 10489
编 10485
自主 10484
民用 10479
on 10478
以@@ 10470
％ 10468
as@@ 10464
A.@@ 10461
叙述 10452
Al@@ 10446
解 10445
11.@@ 10437
犯有 10436
竞选 10433
真诚 10431
谨慎 10430
走向 10427
并请 10416
遗传 10416
闭会 10415
兵 10410
1,@@ 10407
过于 10401
谋求 10400
5/@@ 10393
爱情 10390
肉 10388
--- 10378
欺诈 10378
优质 10358
津巴布韦 10349
花费 10348
之际 10343
超越 10339
乌@@ 10332
交 10332
二十 10331
物种 10328
职类 10324
抓住 10308
核@@ 10303
部委 10303
进@@ 10302
局长 10295
测定 10293
被@@ 10287
异@@ 10284
两@@ 10282
101 10281
骚扰 10277
105 10274
弥补 10274
般 10272
应以 10269
城镇 10254
摊款 10253
木@@ 10248
102 10244
人事 10239
颁发 10236
第16 10226
会员 10223
骨 10222
顾及 10219
牌 10212
几十 10199
敌人 10197
放射性 10196
3/@@ 10186
幅 10186
第11 10184
出发 10183
统筹 10182
奇@@ 10179
换 10178
ia 10175
纳法索 10175
含义 10164
路线 10150
常任 10144
48@@ 10143
蒂@@ 10133
明 10132
服务器 10129
幅度 10118
决 10117
衰退 10111
T 10102
外空 10101
,000 10094
便于 10091
麻烦 10091
提倡 10089
有趣 10089
等级 10089
指@@ 10086
全权 10082
道@@ 10080
一再 10079
收 10076
深@@ 10076
姓名 10075
垃圾 10073
联@@ 10069
就@@ 10063
离婚 10063
承包商 10060
章程 10060
un@@ 10047
人工 10039
演讲 10038
36@@ 10037
2002 10032
中文 10032
晚 10030
创业 10025
偏见 10019
勒 10018
怎么样 10017
负责任 10017
使命 10002
6/@@ 9991
哦 9990
ur@@ 9989
公职 9989
毕业 9984
缴纳 9981
104 9979
马耳他 9977
罗姆人 9970
见@@ 9969
作法 9967
抵达 9965
积累 9965
世 9957
向前 9953
箱 9951
警官 9950
女@@ 9946
娱乐 9942
工@@ 9942
臭氧 9939
切@@ 9937
罚款 9935
摧毁 9927
22@@ 9924
理念 9924
夫@@ 9919
目的地 9917
施工 9915
绝 9911
身@@ 9911
外联 9903
自行 9903
人体 9900
ab@@ 9896
精@@ 9890
热情 9889
学位 9887
联刚 9881
托 9877
联塞 9877
ir@@ 9870
打破 9869
鱼类 9868
不限 9866
减缓 9865
印刷 9857
id@@ 9856
军火 9855
徒刑 9855
到了 9854
并使 9853
之上 9852
千@@ 9850
撒 9849
酒店 9849
曼 9846
2003 9844
咖啡 9844
普遍性 9840
商店 9838
出色 9837
刑法典 9836
住所 9834
礼物 9833
追加 9832
生成 9831
确切 9830
休息 9824
特区 9815
合成 9805
致使 9805
耶稣 9804
1993 9794
星期三 9794
早上 9791
情@@ 9790
合作社 9788
迁移 9788
遗留 9778
巴拿马 9777
对手 9771
贫 9770
111 9765
构想 9764
我@@ 9757
管@@ 9756
可怕 9755
38@@ 9753
兹 9753
表演 9751
配备 9748
冷@@ 9746
感受 9746
补助金 9744
103 9743
到底 9742
代码 9740
品牌 9740
核能 9739
救助 9731
路线图 9729
玛@@ 9725
团长 9723
所需要 9723
el 9720
im@@ 9711
斯德哥尔摩 9709
et@@ 9708
精力 9707
北@@ 9705
撤回 9704
边缘化 9704
官 9701
签发 9701
预先 9701
动@@ 9696
乡村 9695
谈话 9695
35@@ 9683
李@@ 9678
饮食 9672
枪 9668
环保 9664
赞助 9658
1990年代 9656
当作 9655
处在 9654
压@@ 9653
总务 9646
对应 9641
30% 9640
龙 9640
直升机 9639
m 9638
屠杀 9631
感兴趣 9631
不可能 9630
第13 9628
刚才 9624
分裂 9622
贵 9620
下次 9608
上学 9607
那@@ 9607
三分之一 9604
持久性 9604
碎片 9597
希 9593
代替 9588
顺序 9588
贝宁 9586
ol@@ 9583
应为 9582
遭遇 9581
土@@ 9571
核试验 9571
皮肤 9569
事物 9568
看出 9568
结余 9567
假如 9562
好吗 9559
死@@ 9559
极@@ 9558
退出 9552
不少 9549
带着 9546
学@@ 9545
夜 9543
文学 9542
j 9541
接 9541
能@@ 9540
独立性 9537
判例 9524
明年 9521
要@@ 9518
使用者 9516
症 9514
不用 9510
税务 9507
液 9506
艰难 9501
准许 9500
发明 9499
穆@@ 9492
联科 9490
透过 9488
学科 9477
教育部 9476
引导 9466
第十七 9465
蒂 9464
采矿 9464
签名 9460
接纳 9459
报@@ 9457
O 9455
脱@@ 9450
更换 9449
针对性 9447
展望 9444
戈@@ 9444
案情 9442
爱沙尼亚 9441
频率 9441
租赁 9440
力@@ 9438
精确 9436
器官 9432
渴望 9429
减免 9426
class 9423
欣见 9422
传递 9418
跑 9418
维护者 9416
居 9415
2008-2009 9406
分开 9404
跨界 9400
孕妇 9399
智慧 9394
纳米比亚 9393
未经 9390
截止 9389
反对派 9388
es@@ 9382
上次 9378
送交 9377
先决 9370
抵抗 9369
过分 9366
别@@ 9354
慈善 9351
妥善 9345
海岸 9342
手续 9337
学者 9334
绝大多数 9334
大幅度 9330
玻璃 9329
中止 9327
土库曼斯坦 9327
网址 9325
措辞 9321
堕胎 9313
口译 9312
遏制 9312
N 9311
盖 9311
重叠 9311
的@@ 9304
900 9302
内政 9299
抑制 9298
激烈 9298
棒 9296
流入 9296
叶 9295
捍卫 9293
实在 9290
15.@@ 9288
青@@ 9282
挑选 9281
装@@ 9276
教@@ 9275
37@@ 9271
Sh@@ 9263
服 9263
教会 9256
实@@ 9254
拉脱维亚 9252
木材 9250
4/@@ 9249
名册 9248
约翰 9244
品质 9240
补编 9239
高速 9239
110 9233
】 9231
地中海 9229
末 9226
国防军 9223
包@@ 9219
推荐 9216
法人 9215
指明 9214
浓度 9214
第十五 9213
em@@ 9212
糟糕 9209
示威 9205
星 9201
伯@@ 9199
塔利班 9198
as 9194
害 9192
惩处 9191
构建 9190
次序 9185
宣称 9183
恶劣 9182
操守 9180
49@@ 9179
完美 9179
14.@@ 9177
订约 9174
全力 9173
专@@ 9172
惩治 9169
106 9159
00@@ 9155
予 9155
对比 9153
负 9144
温@@ 9143
准备金 9135
文献 9135
聘用 9133
印象 9122
一方面 9119
中断 9115
记住 9114
天然气 9113
理 9111
深信 9097
男 9093
黑 9092
赤字 9088
六@@ 9081
调节 9081
选@@ 9077
感情 9076
势头 9072
号码 9070
40@@ 9069
蔓延 9064
以南 9063
内在 9062
租金 9062
公务 9060
牵头 9060
ay@@ 9053
看作 9053
教堂 9052
乐观 9048
强@@ 9045
代@@ 9044
到来 9043
常@@ 9041
西撒哈拉 9037
l 9034
诉讼法 9031
专用 9030
等@@ 9026
小姐 9025
39@@ 9024
难@@ 9024
冰岛 9023
炸弹 9022
存款 9021
向@@ 9019
报复 9018
相关性 9018
强度 9017
未成年人 9014
各@@ 9013
食 9012
定型 9007
从中 9004
内阁 9002
H 8999
火箭 8996
百@@ 8993
邦 8988
张@@ 8984
严峻 8983
危及 8981
多米尼加 8978
穷国 8977
车@@ 8976
勘探 8972
巴林 8968
原始 8964
湖 8964
,@@ 8963
呈 8952
海牙 8952
收取 8951
诺 8945
108 8941
导航 8939
1/@@ 8936
买方 8933
储蓄 8929
款额 8927
优秀 8925
调 8925
会@@ 8910
实务 8905
霍@@ 8901
审讯 8898
运动员 8898
编号 8894
西班牙语 8894
圈 8891
延误 8890
聪明 8888
精简 8886
饮用水 8876
兰 8874
治 8874
信函 8873
总干事 8872
护照 8872
混乱 8870
预定 8868
107 8867
手中 8866
企业家 8865
议定 8861
列举 8849
x 8847
捕捞 8847
北方 8840
节约 8836
邮政 8836
入学 8835
胡@@ 8834
1995 8833
撤离 8830
要么 8830
易@@ 8825
有意 8819
身心 8817
13.@@ 8814
不满 8813
贾@@ 8813
女生 8811
提取 8811
施@@ 8809
每次 8808
红色 8807
非国家 8805
放@@ 8802
会期 8798
参观 8794
士 8794
不扩散 8793
华 8790
外债 8787
头发 8785
解@@ 8780
零@@ 8777
侵权 8776
申报 8774
刀 8771
严厉 8768
尽力 8765
副本 8762
职员 8762
庇护者 8758
第二十 8758
户 8755
据此 8755
检查组 8751
.1 8746
岗位 8745
异常 8745
博物馆 8737
初期 8734
故意 8730
农场 8728
沃@@ 8721
南亚 8720
金钱 8720
目录 8712
联检 8712
弃权 8711
34@@ 8710
约@@ 8710
动作 8709
吃@@ 8704
外汇 8702
呀 8700
第十六 8700
费@@ 8697
ag@@ 8696
假定 8696
流行病 8689
指责 8686
独@@ 8686
ak@@ 8684
17.@@ 8683
组@@ 8681
媒介 8680
传真 8679
估算 8673
50@@ 8671
展览 8670
施政 8670
进来 8664
继 8655
注意力 8651
汉 8650
酋长国 8649
缴 8645
威@@ 8640
风格 8639
理@@ 8629
羁押 8610
该国 8608
货 8607
预见 8605
主体 8604
大多 8604
海底 8604
3-@@ 8602
歌 8602
不是 8601
系数 8596
禁令 8591
清 8589
存储 8585
看上去 8585
7/@@ 8584
音 8584
损坏 8583
年@@ 8582
这@@ 8572
可否 8571
齐@@ 8570
债 8564
卢@@ 8562
无需 8562
照 8560
鸟 8559
归还 8556
零 8556
警察局 8555
第18 8549
确信 8544
200@@ 8542
糖 8540
47@@ 8538
国务院 8538
流化 8538
顶 8533
监控 8528
之所以 8526
声@@ 8524
占有 8523
第二十三 8520
第14 8519
增@@ 8517
45@@ 8516
划界 8515
与会 8512
旅馆 8511
而非 8509
街头 8508
奇怪 8506
巴拉圭 8502
谋杀 8502
发给 8499
目 8499
华@@ 8494
谈论 8494
据报 8493
曼@@ 8493
远程 8491
配@@ 8491
少女 8488
提供者 8487
看待 8484
结 8482
第12 8480
热带 8477
配额 8476
113 8471
救援 8470
八@@ 8468
福@@ 8466
自决权 8461
核证 8457
去@@ 8455
试@@ 8446
．@@ 8446
行径 8444
避孕 8444
听@@ 8442
不必 8437
拯救 8436
作战 8435
核算 8434
十@@ 8431
小说 8427
综合性 8426
老龄 8422
al-@@ 8421
乐 8421
服装 8421
震惊 8416
善 8412
个体 8410
随 8410
百 8409
蒙@@ 8409
驾驶 8409
蒙特雷 8408
有时候 8398
抵消 8396
1967年 8392
2010-2011 8392
床 8390
等于 8390
109 8381
侧 8381
评注 8380
应将 8379
忆及 8376
民@@ 8371
通货膨胀 8370
收养 8369
见解 8367
钢 8367
虽 8364
泰@@ 8360
签字 8360
112 8358
洗 8356
争论 8353
军用 8352
函数 8351
大气 8348
清晰 8348
广 8347
眼@@ 8345
证词 8343
ri@@ 8342
思维 8341
移徙者 8340
114 8335
改组 8331
盖@@ 8327
无人 8325
此前 8320
抗@@ 8312
ah 8311
塞族 8311
将近 8305
根除 8305
木 8302
载列 8302
论点 8300
倾向 8297
医务 8296
司机 8296
借此 8295
同上 8295
军人 8294
凯@@ 8289
场合 8289
进出口 8289
家具 8286
标记 8286
洪都拉斯 8284
费率 8283
标签 8281
总的 8276
无线电 8276
第十八 8276
模糊 8272
批款 8262
5-@@ 8261
本质 8261
样子 8256
雨 8255
愉快 8253
尊敬 8252
扎@@ 8249
吸取 8245
流通 8245
缩短 8243
流量 8242
老挝 8235
既然 8230
何时 8229
称赞 8229
复兴 8226
殖民地 8226
涉嫌 8225
详尽 8224
前任 8222
世卫 8221
$@@ 8215
46@@ 8215
运 8214
像是 8213
间的 8213
吉尔吉斯斯坦 8211
模块 8204
桥 8202
记 8200
早日 8199
带@@ 8196
http 8191
预@@ 8189
延期 8185
收回 8184
斐济 8181
集@@ 8181
【 8178
乐@@ 8173
心里 8170
传染病 8169
房地 8167
不法 8166
北约 8166
冰@@ 8164
汇款 8163
捐赠 8158
尤为 8155
二十一 8150
火车 8147
古 8140
求@@ 8139
承付 8133
癌症 8133
密@@ 8132
X@@ 8130
通道 8128
40% 8127
社 8121
区域性 8120
毛@@ 8113
处以 8111
ed@@ 8109
改@@ 8108
ing 8105
线@@ 8105
60@@ 8102
牺牲 8101
接到 8100
re@@ 8097
属性 8094
山区 8093
摩尔 8092
阳光 8091
场地 8090
略 8085
此@@ 8082
运@@ 8080
平 8078
苦难 8078
听说 8077
116 8073
ou@@ 8072
跳 8069
耶@@ 8067
坚信 8065
每@@ 8065
携带 8063
115 8061
呼吸 8057
堆 8051
当@@ 8049
下跌 8045
曼谷 8042
孔 8039
结社 8036
恐吓 8035
吉布提 8034
获益 8033
动荡 8032
卖 8023
入学率 8022
ul@@ 8021
信念 8019
不但 8017
2006-2007 8013
草坪 8011
引用 8005
放松 8003
诊所 8002
工程师 7994
实效 7991
生境 7988
种子 7988
佩@@ 7987
黑暗 7984
立刻 7983
降至 7979
1373 7978
第20 7974
1991 7972
今晚 7970
呈现 7968
纤维 7967
适足 7961
兹@@ 7959
指派 7955
枪支 7954
警卫 7953
女子 7951
运载 7951
术 7947
清洗 7943
概况 7941
事@@ 7940
内地 7940
实 7940
极大 7938
Al-@@ 7937
奖学金 7937
牛 7936
作家 7935
19.@@ 7933
复杂性 7933
理事 7928
递交 7928
基层 7927
小心 7924
弗@@ 7924
对本 7923
不予 7921
连续性 7920
原先 7919
忙 7918
将军 7915
主义者 7912
使@@ 7910
增编 7910
足球 7910
16.@@ 7908
2/@@ 7907
德·@@ 7907
稳定性 7905
铁 7904
80% 7901
升 7898
规律 7898
地上 7894
军官 7890
对在 7890
毛 7890
素质 7887
1992 7883
大脑 7883
借鉴 7880
诗 7880
研制 7879
应有 7878
船@@ 7877
落 7877
望 7876
加深 7874
么 7872
轻@@ 7870
即便 7868
采访 7865
社会主义 7864
网@@ 7864
借口 7861
游客 7860
主人 7849
诸多 7848
危害人 7845
第23 7841
生意 7838
季 7834
业已 7833
选项 7833
2007 7830
考@@ 7823
走@@ 7818
刻 7816
忽略 7815
回归 7809
虚拟 7805
球@@ 7803
训研所 7803
59@@ 7802
纠纷 7802
修@@ 7799
扭转 7796
周末 7795
满意地 7794
第24 7794
联海 7794
雇佣军 7786
七@@ 7785
派出 7783
孕产妇 7781
立 7781
野生 7781
英@@ 7774
说道 7773
8/@@ 7769
味 7768
倾向于 7757
戈兰 7756
某一 7756
0万 7755
亲属 7752
退@@ 7751
2-@@ 7750
薄弱 7748
产@@ 7746
1994 7743
ov@@ 7743
较大 7739
1986年 7738
校 7736
概要 7731
战争罪 7729
ic@@ 7728
支@@ 7724
痛 7723
遵照 7721
练习 7719
好几 7718
微型 7718
弹 7716
段落 7711
题目 7711
情感 7708
很快 7706
市政 7704
年级 7704
汤姆 7702
赛@@ 7702
4-@@ 7701
韦@@ 7691
18.@@ 7690
易受 7689
女的 7686
聚@@ 7681
助长 7680
拨出 7679
故障 7679
汉@@ 7678
鱼@@ 7678
航行 7677
查 7673
Q@@ 7672
宇宙 7670
救灾 7670
冲@@ 7669
僵局 7668
抱怨 7663
统计局 7659
腿 7658
第22 7657
解释性 7656
认同 7654
122 7649
行政区 7644
本条 7643
传@@ 7642
解雇 7640
10万 7639
海军 7639
回报 7634
路@@ 7633
降 7632
增设 7621
多哥 7616
剩下 7614
外面 7612
完整性 7612
这时 7608
三分之二 7606
深切 7602
布鲁塞尔 7601
翻@@ 7601
结构性 7599
卷入 7598
118 7597
月份 7597
归 7595
第27 7595
扫盲 7593
纪录 7587
频繁 7587
盘旋 7586
峰会 7585
非公开 7583
接待 7582
后代 7576
不懈 7574
房地产 7573
集束 7572
匹配 7571
2,@@ 7569
第4 7569
亲@@ 7567
原料 7566
番 7564
可信 7563
自动化 7563
观 7561
猫 7557
不如 7555
理性 7555
代理人 7554
虫 7552
可靠性 7551
境况 7549
领@@ 7549
病例 7544
甲 7538
内外 7535
专利 7533
审计员 7532
一体 7530
采@@ 7523
性骚扰 7521
－@@ 7515
130 7504
沉重 7503
附录 7502
收购 7500
荣幸 7499
阵 7497
无关 7495
法典 7494
政 7489
共@@ 7488
症状 7488
穿着 7487
利害 7485
章节 7485
绳之以法 7485
甄选 7482
萨摩亚 7482
and@@ 7480
调查团 7479
联阿 7478
取@@ 7477
施行 7477
体罚 7473
益处 7469
大赦 7468
读者 7468
数@@ 7467
第五十七 7465
at 7464
优点 7459
现任 7459
无视 7457
均等 7455
推@@ 7450
管道 7448
界限 7447
远@@ 7447
聚集 7444
监视 7443
儿基会 7442
了@@ 7438
陆地 7435
脑 7434
平静 7431
约翰内斯堡 7430
含@@ 7426
慢 7425
哪个 7424
东京 7419
存 7414
9/@@ 7412
博 7411
物@@ 7408
2004-2005 7406
基督教 7406
分割 7405
此类 7405
支持者 7395
断 7395
2012-2013 7394
56@@ 7393
收容 7393
中小型 7392
劳@@ 7388
陈@@ 7386
特色 7385
荷 7383
一边 7378
小孩 7378
苹果 7378
第50 7376
留 7375
鉴定 7374
节@@ 7372
追回 7371
法外 7370
职工 7367
身边 7364
译文 7363
周@@ 7362
马拉维 7360
联委会 7358
卖方 7355
环节 7353
院长 7351
惠益 7350
以供 7348
明智 7348
睡 7348
尼日尔 7345
幼儿 7345
类罪 7344
缴付 7344
黄金 7344
人居 7343
复制 7342
啦 7341
非索 7341
奥 7340
扮演 7339
6-@@ 7336
矿物 7335
谢@@ 7332
象征 7329
切割 7325
烟@@ 7323
非统 7320
为主 7318
内政部 7316
欧@@ 7312
创伤 7310
专家们 7304
债务人 7302
命 7301
毫米 7300
燃烧 7299
缺点 7299
损伤 7296
观众 7294
公私 7293
A/58/@@ 7292
多瓦 7292
125 7291
问卷 7291
游@@ 7290
信用 7289
变更 7287
时机 7286
P-2 7283
编纂 7282
出台 7278
菲@@ 7277
食@@ 7277
短@@ 7276
控 7275
标@@ 7273
专长 7271
急剧 7271
数值 7270
淘汰 7270
工商 7269
引进 7265
刑罚 7261
调集 7261
阿尔@@ 7261
列支敦士登 7260
赤贫 7259
假期 7257
演员 7254
邮票 7254
V 7252
而已 7252
订 7251
隔离墙 7251
慢慢 7247
热烈 7247
00万 7244
产假 7244
五十 7241
回复 7234
哲学 7231
客 7230
航天 7228
123 7227
勇气 7227
分支 7226
接下来 7225
冷 7220
究竟 7215
空运 7215
酒@@ 7214
制造商 7213
导@@ 7213
欧安 7213
得知 7212
灵魂 7209
抢劫 7208
国防部 7207
研发 7204
言@@ 7203
十一 7201
太太 7201
定居 7201
斯特 7195
戴 7194
农@@ 7193
学术界 7193
欠 7189
桑@@ 7187
用尽 7184
编@@ 7184
遥感 7184
117 7183
还要 7180
上市 7177
尸体 7177
二氧化碳 7176
创 7176
埃 7175
懂 7175
第五十九 7169
受益人 7165
马德里 7165
货@@ 7162
幸运 7161
也就是 7156
商@@ 7156
倒@@ 7155
快@@ 7149
玻利瓦尔 7146
俄 7144
小岛屿 7144
1980年 7140
英镑 7140
依存 7138
外来 7137
第五十八 7136
通告 7136
难道 7133
慷慨 7131
更@@ 7130
90@@ 7127
无数 7127
关@@ 7126
于@@ 7125
图片 7125
地质 7125
母 7125
白色 7122
卢森堡 7120
57@@ 7117
th@@ 7117
圆@@ 7115
无辜 7114
ro@@ 7113
下载 7113
占据 7113
落@@ 7113
并对 7110
测@@ 7107
蛋白 7104
妥协 7101
杰出 7101
伴侣 7097
连同 7097
朝着 7095
身份证 7094
活@@ 7090
破@@ 7090
吸引力 7089
曲 7089
茶 7088
吸毒 7086
密度 7085
哥本哈根 7084
回合 7083
野@@ 7083
充当 7080
异议 7080
创作 7079
萨 7078
不可或缺 7073
微笑 7071
替代品 7068
满@@ 7068
25% 7067
借 7065
用语 7063
高中 7063
兼顾 7062
暗@@ 7062
信中 7059
前后 7055
圆满 7055
袋 7052
并将 7051
登@@ 7050
栏 7049
om@@ 7047
天然 7047
得不 7047
is 7044
概览 7042
蓝 7040
庭长 7039
夫妇 7037
第六十 7037
体重 7034
澳门 7034
适宜 7033
分娩 7031
整@@ 7031
发育 7029
仪器 7027
除@@ 7027
焦点 7025
侧重 7020
想@@ 7020
病@@ 7018
输出 7016
吸烟 7012
苏联 7012
第二十四 7009
介入 7007
本法 7007
牛@@ 7007
雅@@ 7007
1亿 7006
实力 7003
智能 7003
班@@ 7002
为由 7001
A/59/@@ 6997
1987年 6994
营销 6994
苦@@ 6990
吹@@ 6988
各项 6985
股东 6984
注射 6983
云@@ 6982
到@@ 6979
用水 6979
第二十六 6978
贩毒 6978
所致 6977
修 6976
迈出 6974
岸 6971
悲剧 6971
乘 6969
致命 6967
ac@@ 6966
开罗 6962
难题 6960
享 6959
进而 6958
保护区 6954
出境 6953
止 6953
原籍国 6951
迎接 6948
首@@ 6948
加重 6946
友谊 6945
苏 6945
星@@ 6944
若@@ 6943
第3@@ 6941
应向 6935
运转 6935
裁减 6933
什么样 6931
140 6928
巴巴多斯 6928
20.@@ 6927
国内外 6927
全文 6926
西欧 6922
迫害 6920
布雷顿 6919
细菌 6918
偷运 6914
大批 6913
119 6910
怕 6910
留@@ 6908
因@@ 6907
群众 6902
阵地 6902
拿@@ 6901
D-1 6896
丽@@ 6896
富@@ 6896
环@@ 6896
多国 6890
梦 6890
1982年 6889
夏天 6889
瓶 6889
乱@@ 6886
5000 6885
述及 6883
什@@ 6881
劳动者 6881
境外 6880
应用于 6879
同行 6878
解放军 6876
奴役 6870
St@@ 6861
再度 6861
可在 6861
肯 6860
马尔代夫 6856
桶 6854
都会 6854
盐 6852
抚养 6850
克斯 6849
㈣ 6847
蓄意 6839
100万 6835
整理 6834
英里 6833
2010-2011年 6829
印 6829
挂钩 6828
引@@ 6826
城市化 6824
鞋 6822
感激 6818
58@@ 6817
民和 6815
动议 6814
124 6808
第六十一 6808
博茨瓦纳 6807
球队 6806
复合 6802
33@@ 6795
& 6791
色@@ 6790
os@@ 6788
伦 6783
香 6783
暴露 6782
央行 6781
书@@ 6779
波多黎各 6776
卡车 6767
高层 6765
扩张 6763
传输 6762
离@@ 6762
衣 6758
$ 6754
可疑 6754
连贯 6754
庞大 6751
停 6749
抱歉 6747
多重 6744
扣押 6742
护@@ 6741
幸存者 6740
所在地 6740
第29 6740
随@@ 6739
非洲人 6737
着@@ 6736
2008-2009年 6734
累积 6734
23.@@ 6733
检察长 6733
伦@@ 6731
果 6730
121 6727
总量 6723
电池 6721
沉默 6720
叛乱 6718
应予 6718
公然 6710
21.@@ 6703
财政部 6703
进去 6702
权@@ 6700
1985年 6699
以色列人 6698
默@@ 6695
经济学 6693
or 6689
措词 6686
交叉 6684
患 6684
部件 6684
聚会 6683
犯人 6681
153 6680
辅导 6680
知名 6678
伴随 6677
44@@ 6673
相符 6672
划拨 6670
2014 6669
井 6669
麻醉品 6669
草@@ 6667
农产品 6666
散@@ 6665
链接 6664
杆 6662
睡觉 6662
东亚 6661
物流 6660
养@@ 6655
分组 6655
课题 6652
透露 6652
球员 6650
举报 6648
减@@ 6648
各种各样 6644
哪儿 6643
第五十五 6643
滑@@ 6641
借助 6638
大概 6638
延伸 6638
乘客 6636
制造业 6634
第28 6634
信件 6633
de 6632
飞 6630
讲@@ 6629
违约 6629
C.@@ 6628
偏远 6627
简介 6627
很@@ 6625
散 6625
招标 6624
仓库 6623
生命权 6623
法文 6621
轴 6621
莫斯科 6619
自杀 6616
孤立 6615
反复 6614
路上 6611
信誉 6608
合约 6605
扶持 6604
着眼 6602
义 6600
伯 6599
康@@ 6599
av@@ 6598
雪@@ 6597
定性 6596
种群 6591
1540 6588
此时 6586
香@@ 6586
A/64/@@ 6584
判 6584
云 6583
巴格达 6582
拘押 6582
名为 6581
一会儿 6579
am 6572
第39 6571
娜 6570
房舍 6570
ut@@ 6568
崩溃 6567
年会 6566
软 6561
必@@ 6557
圭亚那 6552
延续 6550
...... 6547
努@@ 6546
接种 6541
父 6540
大臣 6539
全国性 6538
家中 6538
月@@ 6538
改动 6536
党派 6530
壁垒 6530
送到 6530
K 6526
发病率 6523
走私 6522
昂贵 6521
127 6519
养老金 6517
听见 6512
领 6512
长官 6509
更正 6508
1949年 6506
生产性 6506
抵制 6505
有一些 6504
警@@ 6504
附带 6504
展现 6502
背后 6500
色彩 6500
战略性 6499
大纲 6498
护士 6498
15% 6496
肉@@ 6496
128 6495
好好 6491
60% 6489
殴打 6486
底@@ 6484
沿着 6484
2亿 6482
第17 6480
革新 6479
·阿@@ 6478
量化 6478
存@@ 6477
丁@@ 6475
斡旋 6472
有形 6469
半岛 6468
马达加斯加 6468
话题 6467
早@@ 6465
游 6465
A/55/@@ 6462
带到 6462
人民币 6460
品种 6460
无论如何 6460
无线 6457
或在 6455
血液 6454
窗口 6453
180 6451
155 6448
松@@ 6448
叶@@ 6447
靠近 6447
核不扩散 6445
遍 6444
到处 6443
将要 6443
判定 6440
烟 6440
原则上 6439
尤@@ 6439
对不起 6437
走到 6436
投@@ 6435
绝@@ 6435
A/@@ 6433
仿真 6431
孤儿 6429
少@@ 6427
托克劳 6424
轻 6424
公立 6423
写作 6419
洗@@ 6419
药@@ 6419
铀 6419
体验 6418
屋 6416
到期 6415
统计司 6410
众所周知 6407
126 6405
污水 6405
138 6402
r 6401
决定性 6401
同情 6401
穿过 6400
过时 6400
空白 6399
第5@@ 6398
前所未有 6397
易于 6397
A/65/@@ 6396
认知 6394
搞 6392
载@@ 6392
奴隶 6391
S-@@ 6389
保卫 6389
夫妻 6387
太阳能 6386
硬件 6386
核查团 6384
塑料 6383
动用 6381
同步 6381
混@@ 6379
愤怒 6378
弹@@ 6377
仪 6376
修理 6376
十五 6376
势力 6374
5亿 6373
A/63/@@ 6373
宜 6370
并@@ 6370
拍 6367
68@@ 6366
第五十六 6362
旁边 6361
浏览 6357
刑警 6352
拘禁 6350
全额 6349
ti@@ 6348
供应链 6346
蔬菜 6344
影片 6342
中将 6341
暴行 6338
程 6337
样本 6336
电视台 6335
意志 6333
海啸 6333
诚实 6331
判刑 6330
沙 6328
肿瘤 6325
70% 6322
公告 6322
生产率 6322
自行车 6322
抵押 6320
疗法 6320
遵约 6320
um@@ 6319
下表 6319
破 6319
史 6315
早些 6315
撒@@ 6313
皇家 6309
粉 6306
22.@@ 6303
55@@ 6302
主意 6297
社团 6296
官长 6294
限额 6292
减灾 6291
A/61/@@ 6290
创立 6290
90% 6289
供@@ 6288
相对于 6286
词汇 6285
协调人 6284
第五十三 6284
超级 6282
征得 6281
朱@@ 6281
拖欠 6280
登 6280
艰苦 6280
再生 6275
成年 6274
锻炼 6274
根@@ 6270
普 6268
池 6266
紧@@ 6265
／ 6265
免 6262
册 6261
嘴 6260
甘@@ 6259
关 6258
插入 6258
九@@ 6255
换@@ 6253
毛里塔尼亚 6252
裁撤 6252
远离 6251
俩 6250
增效 6250
派驻 6250
24.@@ 6248
骨@@ 6241
Mar@@ 6238
下令 6238
面试 6237
质@@ 6236
形状 6235
烟草 6234
3000 6233
中立 6233
差旅 6233
学员 6230
主持人 6229
160 6220
亚的斯亚贝巴 6220
简直 6220
生产者 6218
紧 6218
8-@@ 6215
自主权 6214
A/66/@@ 6212
欲 6212
男@@ 6210
近@@ 6210
侦查 6208
决不 6207
源于 6207
住宿 6205
ot@@ 6204
防御 6204
..... 6203
中国人 6203
黑人 6202
替换 6201
家伙 6199
分项 6197
传感器 6196
室内 6196
公寓 6195
吉 6193
周边 6193
第五十四 6193
填写 6191
os 6188
第21 6188
第二十一 6188
心脏 6187
第25 6187
212 6182
报导 6182
愿景 6180
按时 6179
乱 6176
果@@ 6176
团@@ 6175
惊讶 6173
里程碑 6172
征税 6169
部@@ 6169
亲自 6168
指引 6167
丁 6164
此项 6164
古老 6161
杀死 6161
互助 6160
从前 6159
友 6156
撰写 6156
旁 6156
资 6156
忘 6154
日程 6154
横@@ 6151
自由权 6151
构造 6150
天空 6149
氟 6148
在场 6146
A/57/@@ 6145
补@@ 6142
舞台 6140
地名 6138
细@@ 6138
说服 6138
使该 6137
us@@ 6136
预审 6136
冷战 6132
立法会 6132
股份 6132
大选 6131
飞离 6130
50万 6127
第19 6126
姑娘 6125
瑞@@ 6125
磨@@ 6123
ap@@ 6122
语@@ 6120
麻 6119
死于 6116
相称 6116
拆除 6115
长度 6115
阿布哈兹 6114
列于 6113
未决 6113
直布罗陀 6113
134 6111
莱 6111
交往 6110
一揽子 6108
旅客 6108
轻松 6108
杰克 6106
st@@ 6101
液体 6100
2012-2013年 6096
新增 6096
海湾 6095
132 6094
无力 6094
技术性 6092
较@@ 6092
小册子 6090
急@@ 6089
者们 6089
背 6089
市长 6088
水准 6087
秒 6087
边@@ 6087
伊斯坦布尔 6082
黑色 6082
后裔 6081
服务业 6081
藏 6081
造 6078
严肃 6077
宽容 6077
句子 6076
:@@ 6071
制备 6071
该@@ 6071
好吧 6070
阴@@ 6069
旅 6068
奥林匹克 6063
A/HRC/@@ 6061
ah@@ 6060
发电 6059
容器 6057
在职 6054
od@@ 6053
129 6051
教材 6050
70@@ 6045
守@@ 6042
联苏 6037
169 6036
台@@ 6036
保 6035
晋升 6032
犹太人 6029
传达 6023
族群 6022
首相 6022
受益者 6021
营业 6018
谈谈 6018
引擎 6014
受教育 6011
後 6009
ev@@ 6008
法郎 6008
第六十二 6008
2020年 6007
大战 6006
微 6005
省份 6004
量@@ 6004
致@@ 6003
x@@ 6001
良心 6001
胁迫 6000
毕业生 5999
跨部门 5999
框 5998
自卫 5998
7-@@ 5997
配 5996
形@@ 5995
朝@@ 5994
脸上 5989
弹性 5987
态 5987
播放 5987
有毒 5987
患有 5986
航班 5986
辞职 5986
机器人 5985
民政 5981
建制 5979
深度 5979
弱点 5977
弱 5976
初@@ 5975
肇事者 5974
ib@@ 5972
2006-2007年 5967
度过 5967
拥挤 5966
正面 5966
学年 5965
购物 5965
历史性 5964
实时 5964
活性 5960
便利化 5959
公式 5959
迷@@ 5958
轮@@ 5957
初等 5956
汲取 5953
传染性 5952
逃离 5951
拖@@ 5948
转型期 5948
余留 5947
视@@ 5947
还@@ 5945
保养 5944
水果 5943
］ 5943
变量 5940
矿 5940
移@@ 5940
尽@@ 5939
帝国 5939
心情 5939
印@@ 5938
拿出 5938
不确定性 5937
势 5936
流动性 5935
激光 5929
早晨 5924
客人 5923
暗示 5923
编码 5922
水域 5920
探@@ 5919
岩 5917
尺寸 5914
深表 5914
书籍 5912
公斤 5912
忧虑 5912
and 5911
院校 5910
回国 5909
码 5907
135 5905
不受 5905
任@@ 5904
桌子 5904
66@@ 5903
之类 5903
或者是 5903
初始 5901
桥梁 5901
3,@@ 5900
总局 5900
险 5900
样品 5898
变为 5895
石头 5895
致力 5894
赤道 5894
A/54/@@ 5893
胶@@ 5893
外包 5892
多元化 5892
承@@ 5887
支撑 5887
殖民 5886
付诸 5885
免除 5885
兑现 5884
习惯法 5878
投标 5877
视角 5877
征收 5876
有组织 5876
ig@@ 5873
电路 5870
便宜 5868
内心 5868
步@@ 5863
免于 5856
E/@@ 5854
树@@ 5854
大学生 5852
荣誉 5852
鹿特丹 5852
对照 5851
困扰 5849
传媒 5848
视觉 5843
欣赏 5841
深化 5841
欧 5838
展 5837
毫无 5836
劳动法 5835
同性恋 5834
农药 5833
现@@ 5831
不变 5826
自信 5825
［ 5825
沿 5824
检察 5823
忍受 5821
龙@@ 5821
推翻 5820
省级 5820
非盟 5818
乔@@ 5817
基线 5814
生气 5814
耳@@ 5814
洞 5813
冠军 5810
家族 5808
民主化 5804
跨越 5804
性健康 5803
杀人 5802
人质 5801
5％ 5798
福 5795
ad 5794
133 5792
熟练 5792
声援 5791
居留 5790
紧缩 5789
订单 5789
综述 5787
南南 5781
造@@ 5781
超 5779
社交 5778
199@@ 5777
简短 5776
Ar@@ 5775
民主党 5771
ha@@ 5769
强行 5769
进攻 5768
往来 5766
击 5763
抽@@ 5763
洪水 5763
火器 5762
一向 5761
千万 5761
街道 5761
助@@ 5760
op@@ 5756
加倍 5756
道理 5756
疗效 5754
250 5753
解散 5753
大使馆 5750
女工 5746
替 5742
伊斯兰教 5741
餐厅 5735
25.@@ 5734
唱 5733
跳@@ 5732
调查表 5730
密集 5729
市镇 5728
北美 5727
弄 5726
列表 5724
睡眠 5724
加蓬 5722
吸@@ 5722
私有化 5720
飞越 5720
支票 5718
生日 5718
第6@@ 5718
相辅相成 5717
商人 5716
三十 5715
挖掘 5713
蓝色 5713
股@@ 5711
热线 5709
齐 5709
消@@ 5708
执照 5707
摩加迪沙 5705
节余 5705
探测 5704
艺术家 5703
战@@ 5702
影 5701
检查站 5699
雇佣 5699
目@@ 5697
作证 5696
大致 5696
已@@ 5695
出庭 5694
民航 5694
混凝土 5694
U 5693
宁 5690
心灵 5689
猪 5689
财力 5689
发展部 5688
捕鱼 5688
新鲜 5688
苦 5688
深为 5686
分区 5683
多次 5683
草拟 5683
揭示 5681
上班 5679
乳@@ 5679
丝@@ 5677
高效率 5677
现况 5674
被害人 5673
假@@ 5672
固有 5671
使之 5669
查看 5667
法制 5663
参议院 5661
不丹 5660
大卫 5660
下属 5657
经由 5656
限制性 5651
心中 5648
板@@ 5647
67@@ 5645
安盟 5644
处长 5643
家务 5643
链 5643
性地 5641
交谈 5636
纸@@ 5635
化合物 5634
201 5633
所附 5632
讨厌 5630
A/67/@@ 5628
田 5627
惊@@ 5625
毒 5625
数码 5623
丧生 5622
务 5620
日历 5618
实况 5616
定稿 5615
源自 5610
可爱 5609
季节 5609
传染 5608
战胜 5607
股市 5607
象@@ 5607
救@@ 5606
同学 5605
曲线 5604
低收入 5603
门户 5603
浓缩 5601
获准 5601
'@@ 5600
耶 5599
观看 5599
毁坏 5597
稿 5597
恐怕 5596
镜 5595
aw@@ 5594
巨@@ 5594
常用 5594
节日 5593
残@@ 5592
赋权 5590
耐@@ 5587
新闻稿 5585
审核 5582
本次 5580
深深 5580
et 5579
以免 5578
勇敢 5576
汇 5575
le@@ 5574
喷@@ 5573
组件 5570
卢 5568
竞争性 5566
中欧 5564
崇高 5564
才能 5564
想起 5563
机密 5563
巴布亚 5561
贫民窟 5561
E/200@@ 5559
断@@ 5557
独联体 5557
罢工 5557
花园 5555
136 5553
剂量 5550
客@@ 5549
炎 5548
竞争法 5548
深远 5544
急性 5543
合办 5542
强劲 5542
2002-2003 5541
扶贫 5541
讲座 5538
意@@ 5537
毒素 5536
编入 5536
击@@ 5535
惊人 5535
标 5532
合理化 5529
董事 5529
附表 5529
业@@ 5527
A/53/@@ 5525
li@@ 5524
回忆 5524
炉 5524
面包 5524
供给 5523
参@@ 5523
p 5522
182 5519
都@@ 5516
终身 5515
借@@ 5513
回去 5512
归@@ 5508
A/62/@@ 5507
民法 5507
毒性 5504
衣@@ 5504
智力 5503
传送 5501
基督 5500
局部 5498
思@@ 5496
银@@ 5496
应于 5492
酶 5492
厨房 5489
百分之@@ 5487
年份 5486
灾 5486
多年来 5485
收支 5485
激发 5485
第4@@ 5485
表述 5485
走上 5483
并与 5482
劫持 5481
脑@@ 5481
搜查 5480
氯@@ 5480
否定 5479
套@@ 5477
定居者 5476
母@@ 5475
英雄 5474
潮 5473
131 5472
开车 5472
圣诞 5468
金伯利 5468
馆 5468
军方 5467
余 5457
神圣 5456
部长们 5455
送@@ 5451
www.@@ 5450
校长 5450
礼 5450
推定 5449
文盲 5449
所犯 5445
139 5443
近来 5443
2％ 5441
规格 5441
Add.2 5435
安全性 5435
只@@ 5434
奥运 5434
成千上万 5433
产物 5432
从不 5432
破坏性 5432
冒险 5431
第二十二 5430
80@@ 5429
宽 5428
：@@ 5428
国务 5427
附@@ 5424
数百万 5423
不利于 5422
杂项 5421
第52 5414
新生儿 5411
吃饭 5410
依赖于 5409
我方 5409
阿拉伯语 5404
创收 5403
当天 5403
发票 5401
索取 5401
审视 5400
令人满意 5395
第五十二 5394
固体 5393
步伐 5393
第五十 5393
叙 5392
私@@ 5392
开心 5391
周转 5390
河@@ 5388
把握 5387
扭曲 5386
聚 5386
走进 5386
结盟 5385
司@@ 5383
情节 5383
舒适 5381
饮水 5380
人选 5379
合物 5376
息 5374
足@@ 5374
闭幕 5374
或@@ 5372
端@@ 5372
新生 5371
灵 5371
阶级 5370
为本 5368
载入 5367
man 5366
差@@ 5366
IDB.@@ 5364
ec@@ 5363
不明 5362
54@@ 5361
浮@@ 5361
2.1 5360
奉 5360
辛@@ 5360
不容忍 5358
特许 5357
联网 5357
27.@@ 5355
减至 5354
铲除 5354
外界 5351
松 5351
波黑 5350
行李 5349
偷@@ 5345
考验 5345
/2@@ 5344
ov 5343
饮料 5342
对妇 5340
IN@@ 5339
土族 5339
142 5338
列明 5337
按@@ 5337
参与性 5336
多巴哥 5336
总之 5336
洛 5336
随之 5336
阿曼 5335
咱们 5334
波恩 5334
前途 5333
发电机 5329
科研 5329
误解 5328
注入 5325
硬@@ 5325
左@@ 5324
致函 5321
II 5320
第六十三 5319
兴奋 5318
柱 5317
旧@@ 5314
第二十五 5314
货运 5314
发动机 5311
100% 5310
裔 5309
细 5308
各种 5307
受援国 5306
纯粹 5306
健康权 5304
出入 5303
去世 5303
牙 5302
隐藏 5301
常务 5300
拍摄 5300
线路 5300
基石 5299
外籍 5298
工作日 5296
突破 5296
爆 5295
自豪 5295
丽 5294
剧 5294
市@@ 5294
关岛 5290
旋转 5290
重量 5290
招@@ 5289
出身 5288
建@@ 5288
席 5287
估值 5286
停@@ 5286
卖@@ 5286
复 5286
富裕 5286
不能 5285
第五十一 5285
速 5285
1.1 5284
干净 5284
装饰 5283
137 5281
温 5281
口粮 5280
消耗性 5279
故 5278
无罪 5276
反而 5273
胆@@ 5273
创@@ 5272
域 5270
信用证 5269
计@@ 5269
飓风 5268
仲裁庭 5267
无须 5267
磁@@ 5266
泡沫 5265
元@@ 5264
141 5263
Am@@ 5263
大于 5263
汽油 5263
名誉 5262
停留 5260
201@@ 5259
艰巨 5258
内战 5257
系统性 5256
特派 5255
酸@@ 5255
1981年 5252
通知书 5252
救 5251
会前 5250
激动 5250
创造性 5248
画@@ 5248
不论是 5247
射@@ 5246
付@@ 5243
宣读 5243
纯 5243
脚@@ 5242
定量 5240
直到 5239
坚实 5238
应计 5238
糖尿病 5238
追@@ 5238
路径 5237
顾 5236
特·@@ 5235
脂肪 5234
反叛 5233
az@@ 5232
触@@ 5232
婚礼 5231
管理厅 5230
上去 5229
显而易见 5228
牛奶 5227
车队 5227
144 5226
何@@ 5224
使其 5221
操纵 5221
核对 5221
永@@ 5220
疯狂 5220
翼 5220
43@@ 5219
注销 5218
落后 5214
平行 5213
时尚 5213
欧元区 5212
黄 5212
1984年 5211
26.@@ 5211
走廊 5211
大西洋 5209
沉@@ 5207
蓝@@ 5207
弄@@ 5206
似的 5205
登记处 5204
移植 5202
差不多 5201
补 5201
树立 5200
严重性 5198
临 5195
废水 5193
嫌疑人 5192
演出 5190
转达 5189
143 5188
玩具 5188
暂定 5187
答应 5187
河流 5186
1％ 5184
稳步 5182
特立尼达 5181
突@@ 5181
坐@@ 5179
存放 5179
结核病 5179
容 5176
跑@@ 5176
史@@ 5173
舍 5173
采集 5171
钢@@ 5170
体内 5169
可怜 5169
起着 5169
第六十五 5168
无障碍 5167
分工 5166
联索 5166
附有 5164
提问 5162
游泳 5162
异 5161
录 5161
不得@@ 5158
品@@ 5158
扫描 5158
禁毒署 5158
20万 5155
防护 5155
Add.@@ 5154
头脑 5154
进出 5154
创意 5153
十八 5153
园 5152
SA@@ 5151
列报 5151
烧 5150
过多 5150
迈@@ 5150
如有 5149
履约 5148
顺@@ 5148
1978年 5147
寄@@ 5147
跨@@ 5146
范例 5145
157 5142
圆 5142
策划 5142
汇集 5141
隔 5141
传 5140
2004-2005年 5139
待@@ 5139
红十字会 5138
湾 5135
兵役 5134
折@@ 5134
公营 5131
管理员 5130
重计 5130
届满 5129
广场 5129
灌溉 5126
薄 5126
就要 5124
感@@ 5123
漫长 5122
邮@@ 5122
慢性 5121
0000 5119
深感 5119
逃避 5119
也就是说 5118
扎 5118
指望 5117
ed 5116
贯穿 5114
上限 5112
第四十九 5110
联大 5110
防 5110
69@@ 5108
叫做 5107
种@@ 5107
结成 5107
转到 5107
托管 5104
算@@ 5103
医药 5102
游行 5102
陈规 5102
多元 5101
世@@ 5100
越境 5100
兵力 5098
文档 5098
甲基溴 5095
佛@@ 5094
邻近 5094
沙特 5091
中介 5090
简@@ 5090
ob@@ 5089
见面 5089
记@@ 5088
公顷 5087
粉@@ 5087
使团 5084
即@@ 5084
ud@@ 5081
原子 5081
十三 5080
巴哈马 5080
78@@ 5078
校园 5077
估价 5075
复审 5074
新闻界 5074
维 5072
领事 5072
雨@@ 5070
强加 5068
其所 5067
77@@ 5066
似 5066
性格 5066
概括 5065
约会 5065
恶@@ 5063
伦理 5062
生涯 5059
A/68/@@ 5058
圣 5058
标识 5058
一并 5057
增大 5057
休@@ 5055
生育率 5055
提示 5054
讲述 5054
1979年 5053
餐 5053
经常性 5052
附上 5052
杂@@ 5050
钟 5050
没@@ 5049
便@@ 5047
收获 5047
鲁 5047
前者 5046
GDP 5044
前体 5044
擦@@ 5044
数百 5043
什 5042
代表们 5041
令人 5041
监@@ 5040
苯醚 5040
血管 5040
2014-2015 5039
冈比亚 5039
十四 5039
做@@ 5037
接口 5037
撤消 5037
盈余 5037
服从 5033
夜@@ 5032
划@@ 5031
镇压 5030
参阅 5024
业主 5022
原有 5022
30万 5021
表中 5021
原文 5019
壳 5019
粒 5019
集装箱 5016
事例 5015
第26 5014
A/56/@@ 5013
政@@ 5013
厚 5011
手工 5011
他@@ 5010
一同 5008
无意 5008
145 5007
字母 5003
预报 5003
总的来说 5001
横向 5001
3亿 5000
矿@@ 4999
陪同 4999
ek@@ 4998
保守 4998
监护人 4998
il 4997
呼@@ 4997
堂 4995
宣告 4995
流域 4995
蛇 4995
某人 4994
裁判 4991
玛丽 4990
饭 4988
96@@ 4987
休假 4987
少量 4987
ra@@ 4986
刺@@ 4986
条@@ 4985
背@@ 4985
ing@@ 4982
ir 4982
噢 4982
从业 4981
休 4981
硬 4981
eg@@ 4980
应收 4980
持续不断 4975
156 4974
平面 4973
臭氧层 4971
曾@@ 4969
密码 4968
长久 4968
拍卖 4967
懂得 4966
沮丧 4964
骄傲 4961
盒 4960
苏格兰 4957
煤 4955
兴@@ 4952
152 4950
应力 4947
搬迁 4947
大麻 4943
CO@@ 4941
扬@@ 4941
古代 4938
摩纳哥 4938
控告 4935
湿 4935
集合 4933
储备金 4931
甲@@ 4931
缺 4929
打死 4927
拒 4927
肌肉 4923
舆论 4923
目睹 4921
还为 4921
经典 4920
大胆 4919
太空 4918
精度 4918
联络点 4917
蒙 4914
淡水 4913
罪名 4913
长远 4911
照@@ 4910
伪造 4909
字@@ 4909
恶性 4909
富 4907
预备 4907
蛋 4906
146 4903
座位 4903
决@@ 4902
写信 4901
雷达 4901
< 4898
请@@ 4898
定价 4896
中午 4895
思 4895
缺口 4895
邻居 4895
毁灭 4894
效能 4892
百姓 4892
巴勒斯坦国 4889
残酷 4885
约定 4885
凭 4884
日志 4884
交易所 4883
预算外 4882
数千 4880
莱索托 4878
高校 4877
来自于 4876
桩 4876
窗户 4876
老鼠 4875
检索 4871
掩盖 4870
事务局 4869
绿@@ 4868
伤@@ 4867
十六 4867
变形 4866
界面 4866
管制署 4865
起飞 4865
销 4865
审前 4864
欺骗 4864
牙@@ 4863
告 4862
树木 4862
流产 4862
166 4861
静@@ 4858
ub@@ 4857
夏@@ 4855
147 4854
备@@ 4854
西藏 4852
∶ 4850
悲惨 4850
简易 4850
欢@@ 4849
沙漠 4849
省@@ 4849
相处 4848
虚@@ 4848
28.@@ 4847
尾 4847
所罗门 4844
枪@@ 4844
冰 4843
废料 4843
教室 4842
先例 4837
制度化 4837
第六十四 4837
锁 4837
不幸的是 4832
录音 4831
该系统 4830
响 4829
151 4828
生理 4827
不知道 4826
产前 4826
绝不 4825
夏季 4823
CEDAW/C/@@ 4822
奴隶制 4822
压缩 4821
名词 4821
学到 4821
公用 4820
惩戒 4820
租 4820
预料 4818
4,@@ 4817
北非 4813
更高 4813
多万 4812
英格兰 4812
ik@@ 4811
余地 4811
演习 4811
卷@@ 4809
史密斯 4807
坦@@ 4806
粗@@ 4804
总体上 4803
偏@@ 4802
大陆架 4802
大厦 4801
牲畜 4801
你@@ 4799
至@@ 4798
An@@ 4797
殖民主义 4797
隐私 4797
嗯 4796
牧师 4795
疼痛 4794
1974年 4793
宝@@ 4790
射 4787
情景 4786
振动 4786
筛选 4786
阻挠 4786
走出 4785
认@@ 4784
导向 4781
永久性 4781
饭店 4781
us 4780
举例 4780
UNEP 4779
1990 4777
参见 4777
报价 4777
将@@ 4776
隐@@ 4776
真理 4775
携手 4772
租用 4772
审慎 4770
产值 4768
国情 4768
证@@ 4767
举@@ 4765
扣 4765
钥匙 4765
外科 4763
风暴 4763
不同于 4761
铜 4761
分成 4760
拨 4759
莉 4759
通胀 4759
围@@ 4758
持@@ 4758
少于 4756
糟 4756
鬼 4755
移 4752
朗@@ 4749
拿到 4745
特有 4745
调解人 4745
ani 4744
轨 4742
个@@ 4740
追溯 4740
封闭 4739
城乡 4738
转运 4738
交存 4737
祖国 4735
监护 4734
茨 4730
优先权 4727
拉·@@ 4726
着重于 4726
A/52 4725
职司 4725
3％ 4724
积压 4724
过境点 4720
海运 4715
程序性 4715
何种 4714
戈 4714
日趋 4714
偿付 4713
EC 4712
离子 4712
使我 4709
平方米 4709
154 4708
长大 4708
雅 4708
眼前 4707
审@@ 4706
随机 4705
众议院 4704
禁毒 4700
ang@@ 4699
时光 4698
较好 4697
模板 4696
200万 4694
方程 4689
材 4688
萨赫勒 4686
只不过 4685
词语 4685
武@@ 4684
积@@ 4684
158 4683
距 4682
实习 4681
灰@@ 4681
ez 4680
出资 4679
哭 4678
征 4677
均@@ 4676
2016年 4674
志愿者 4673
闻 4673
上网 4671
占@@ 4671
滴 4670
犹太 4669
差额 4668
亲爱的 4667
录像 4667
大声 4666
总督 4666
急需 4665
机理 4665
餐馆 4663
空军 4661
管理处 4661
阿卜耶伊 4661
壁 4659
启用 4658
烧@@ 4657
诚意 4657
影@@ 4655
获@@ 4654
大门 4653
162 4652
不公平 4652
获释 4652
谘询 4652
净@@ 4651
扫雷 4650
问@@ 4649
下滑 4647
承办 4646
多方面 4642
有着 4639
研究生 4639
校@@ 4637
菌 4637
_@@ 4636
住院 4636
UN@@ 4635
汇@@ 4635
申请书 4634
航 4633
规@@ 4633
知@@ 4632
印度洋 4630
增值 4630
拜@@ 4629
第二十七 4629
sh@@ 4628
毕竟 4628
岩石 4627
多方 4626
味道 4625
C/@@ 4624
应是 4624
亲 4621
原本 4621
泽@@ 4621
区@@ 4618
半数 4613
差旅费 4613
顶@@ 4611
IS@@ 4609
3.1 4608
银 4607
摩@@ 4606
升@@ 4603
灵@@ 4600
营@@ 4600
大地 4598
AR@@ 4597
列有 4594
单身 4593
检 4592
窗 4592
贝 4592
越@@ 4592
轰炸 4592
é@@ 4591
管理人 4590
示@@ 4589
队员 4589
排列 4588
等到 4588
田@@ 4585
营造 4584
小小 4583
全新 4582
原告 4582
it 4580
陆@@ 4579
绝望 4578
奉行 4576
148 4574
呆 4574
生殖器 4574
第六十六 4574
行星 4574
毒@@ 4572
私立 4571
航@@ 4571
数十 4570
贪污 4569
170 4568
贵国 4566
姆·@@ 4565
依@@ 4564
汇总 4564
贝鲁特 4561
隔@@ 4561
增列 4560
观@@ 4558
针 4558
149 4557
位@@ 4556
受损 4556
受过 4556
正是 4556
喜爱 4555
职@@ 4555
星期六 4554
严@@ 4553
届会 4552
甚 4549
音@@ 4549
诉@@ 4548
屏幕 4547
硕士 4547
唐@@ 4546
垄断 4545
瘤 4545
退休金 4545
贿赂 4540
魅力 4540
舞 4539
宪政 4535
祖@@ 4535
当年 4534
表决权 4534
仆人 4533
划定 4533
住户 4529
火灾 4528
相关者 4528
充@@ 4527
务实 4527
短暂 4527
就职 4526
局限于 4526
届时 4526
耳 4525
右@@ 4523
高达 4523
扣除 4522
那位 4522
教练 4521
王子 4521
输@@ 4521
评级 4520
南北 4519
敌 4519
厄 4518
压迫 4518
援助团 4518
海域 4517
骑 4517
门口 4516
马克 4516
性行为 4515
导 4513
热点 4512
161 4511
侵入 4510
检讨 4510
鸡 4509
联格 4508
冬天 4507
课堂 4504
捐助方 4503
软@@ 4503
已婚 4500
男童 4500
碳@@ 4500
开枪 4498
1.2 4497
佛得角 4497
SR.@@ 4496
64@@ 4494
几@@ 4494
怪 4494
到位 4493
帮忙 4493
符号 4493
话@@ 4493
用的 4492
展@@ 4491
姐妹 4490
明星 4490
有意义 4490
温暖 4490
官处 4489
洋@@ 4489
绿 4484
192 4482
肤色 4482
看着 4481
感染者 4479
时至 4476
老龄化 4476
消费量 4475
在与 4474
籍 4474
被告人 4474
im 4473
鸿沟 4473
模@@ 4472
站@@ 4472
33.@@ 4471
88@@ 4471
放射 4471
射击 4470
仿佛 4469
所设 4469
折磨 4469
索偿 4468
在家 4467
派@@ 4466
通往 4465
J 4464
鼠 4464
制成 4463
廉价 4459
科摩罗 4459
挺 4457
残 4457
联络处 4455
z 4453
汤 4453
痛@@ 4452
可为 4451
个性 4450
来讲 4450
水泥 4450
专注 4449
刊登 4447
尼亚 4447
调查员 4447
战术 4446
众 4445
命名 4445
汁 4445
拓展 4444
下落 4442
扩充 4439
神秘 4439
合金 4436
和为 4436
氏 4435
消防 4435
灭 4435
肯@@ 4435
限定 4435
不动产 4434
团聚 4434
并入 4433
1:@@ 4432
封@@ 4432
有益的 4431
为例 4427
以致 4427
椅子 4426
泥@@ 4424
耐心 4423
id 4422
会面 4422
法医 4421
助 4419
春天 4418
东非 4417
缩减 4417
喀布尔 4415
缓和 4415
高质量 4415
三角 4411
追查 4411
粘@@ 4410
帽子 4409
79@@ 4408
函 4407
自然人 4407
价@@ 4406
湿@@ 4406
第六十七 4405
原油 4404
零件 4404
1325 4403
插@@ 4401
榜样 4401
开来 4400
英尺 4400
1975年 4399
乃至 4399
30.@@ 4398
符 4397
开关 4395
独自 4395
剪@@ 4393
并为 4391
悲伤 4391
羊 4391
速@@ 4391
165 4390
刑 4389
帮我 4389
饼 4389
处@@ 4388
爵士 4388
ok@@ 4386
众@@ 4385
藏@@ 4383
力图 4382
159 4380
降@@ 4379
否决 4378
屋子 4378
税率 4377
违规 4377
2.2 4376
转入 4376
10亿 4374
年代 4373
戴@@ 4373
电流 4372
eb@@ 4371
起点 4371
乌 4370
计数 4369
尔斯 4367
1961年 4365
育儿 4365
动词 4364
比尔 4364
暴@@ 4362
警惕 4362
ow@@ 4361
圣诞节 4361
答辩 4361
志@@ 4360
选票 4359
摆在 4358
多久 4357
目光 4357
义@@ 4356
图表 4356
评@@ 4356
综管 4354
为使 4352
介绍性 4351
通行 4350
担负 4349
守 4348
户主 4348
及早 4347
蛋白质 4344
访谈 4344
类似于 4342
流感 4339
0年 4338
正好 4338
共处 4337
第34 4336
读@@ 4336
妹妹 4335
沿岸 4335
65@@ 4334
倾@@ 4334
准确性 4333
承运人 4331
曲@@ 4330
极度 4330
罗姆 4330
大湖区 4329
学生们 4329
记载 4329
第2@@ 4326
贴@@ 4325
布朗 4324
交货 4322
例句 4322
免@@ 4322
误差 4321
研训所 4320
呆在 4317
号@@ 4316
评 4316
不公正 4315
与@@ 4315
单词 4312
Bar@@ 4311
地板 4311
序列 4311
愚蠢 4311
检察院 4311
管理部 4311
上半年 4310
第纳尔 4308
信用卡 4307
送给 4307
保育 4306
of 4305
露 4302
乔 4301
天主教 4301
标的 4301
告@@ 4300
1971年 4298
堡 4297
审案 4297
互@@ 4296
朋友们 4295
9-@@ 4294
酒精 4293
给我 4291
0% 4290
下达 4289
卫@@ 4289
访问团 4289
雪 4289
调用 4288
一律 4287
茶@@ 4287
ra 4286
不对 4284
集成 4284
低下 4282
所指 4282
第四十八 4282
ent@@ 4277
办事 4277
造林 4277
侵蚀 4276
受益于 4276
酒吧 4275
关键性 4273
管理者 4273
侮辱 4272
竟 4271
基本法 4270
升高 4268
方应 4268
领先 4267
广@@ 4266
四分之一 4265
衷心 4264
iz@@ 4263
查验 4263
考 4263
订购 4260
渗透 4259
税@@ 4259
布拉@@ 4257
准@@ 4256
取缔 4256
调度 4255
晶@@ 4253
副总统 4251
双语 4251
错@@ 4251
高昂 4251
变性 4250
耳朵 4250
A/C.5/6@@ 4249
彼得 4249
总裁 4249
偶尔 4248
温和 4246
虚假 4245
排名 4244
af@@ 4242
食用 4242
1983年 4241
往@@ 4240
监察组 4240
189 4236
手指 4236
精算 4236
防卫 4236
附 4235
Th@@ 4232
割 4232
审批 4232
政治家 4229
中为 4228
莫 4228
2000-2001 4227
坎@@ 4227
道歉 4227
联合体 4226
巧克力 4225
164 4224
薪 4224
负责者 4223
买@@ 4221
容量 4221
次@@ 4221
素@@ 4221
弹道 4220
来临 4220
玉米 4219
赶@@ 4219
１@@ 4219
% 4218
服@@ 4214
两方面 4213
偏离 4213
念 4213
本项 4213
玩@@ 4213
丹@@ 4212
安静 4212
牢固 4212
舒@@ 4211
威 4209
子弹 4207
思路 4207
自治区 4206
贬值 4206
1980年代 4204
无限 4203
零售 4203
34.@@ 4202
派别 4202
昨晚 4201
围 4200
碰到 4200
斜@@ 4198
湖@@ 4198
0-@@ 4196
导言 4195
碎 4194
十九 4193
增订 4192
负@@ 4191
麻@@ 4191
Al 4190
推 4190
间@@ 4190
㈤ 4189
qu@@ 4188
历 4188
喂养 4188
轻易 4187
好了 4186
度假 4186
行列 4186
其第 4184
说出 4184
选择性 4184
01 4181
167 4181
遥远 4181
保管 4178
手里 4176
随意 4176
乡 4175
规范性 4175
Kh@@ 4174
微生物 4174
阿拉伯人 4174
垂@@ 4172
版权 4172
节能 4171
D-2 4167
刘@@ 4167
戏 4167
哥哥 4164
夜间 4164
始于 4164
幕 4164
噪音 4162
多样 4162
放置 4160
公 4158
出示 4157
29.@@ 4156
广阔 4156
增添 4155
起码 4155
原谅 4154
第35 4153
31.@@ 4152
不安全 4152
激进 4152
禁毒办 4152
前来 4150
固@@ 4150
结算 4150
薪水 4150
1977年 4148
发展局 4146
执政 4146
母婴 4146
隆 4145
公主 4144
1951年 4142
伯利兹 4142
外资 4142
Ad@@ 4141
称作 4141
密 4140
亮 4138
建成 4138
彩@@ 4138
敏感性 4137
睡@@ 4137
铺@@ 4137
合资 4136
描绘 4136
索引 4135
资@@ 4135
商会 4134
飘@@ 4134
宫 4132
长时间 4132
另见 4131
承包者 4131
旗 4131
缺席 4130
75% 4128
人家 4127
床上 4125
机动 4124
III 4123
即时 4123
并由 4122
效用 4122
格局 4122
礼貌 4122
欠款 4121
以求 4120
禁@@ 4120
应收款 4119
测 4118
浅@@ 4116
久@@ 4115
森@@ 4115
款@@ 4115
间隔 4114
东方 4112
矿产 4110
不等 4109
薪资 4107
北极 4104
总计 4103
想想 4103
航运 4103
还将 4103
线性 4102
失 4101
资发 4101
保护法 4100
士@@ 4100
容@@ 4100
英译 4099
2005/@@ 4098
躺在 4098
部位 4098
S/@@ 4095
新设 4094
q@@ 4093
折扣 4093
延@@ 4092
168 4091
183 4091
更多地 4091
电邮 4091
抽样 4090
阿鲁沙 4090
163 4089
干燥 4089
春@@ 4089
生病 4089
仅有 4088
胶 4088
动脉 4086
潜能 4085
纳米 4085
页面 4085
谱 4084
安保部 4083
南极 4081
吃惊 4081
1:00 4080
带头 4075
试着 4075
3.2 4074
儿基 4074
名叫 4074
哈马斯 4073
简称 4073
Ab@@ 4072
筒 4072
薄@@ 4071
力学 4069
参议员 4069
并行 4068
听起来 4066
商业性 4066
失效 4066
第57/@@ 4066
议案 4065
置 4064
贝尔格莱德 4064
闭门 4064
休会 4063
累计 4063
联保 4063
水道 4062
终端 4060
应邀 4059
演@@ 4058
类@@ 4058
陪伴 4058
喀土穆 4056
因子 4055
案子 4053
坑 4052
冲 4050
及@@ 4050
婚 4050
1973年 4049
ay 4048
广为 4048
if@@ 4045
发生率 4045
保人 4043
占用 4042
抛弃 4040
装运 4040
控诉 4039
凡@@ 4037
改良 4037
舱 4037
玛 4036
寻常 4035
炸药 4035
上来 4034
容许 4033
00 4032
挂 4032
生物学 4032
良@@ 4031
马尔@@ 4031
专项 4027
也可能 4027
善@@ 4025
地说 4025
未能 4025
农 4023
克·@@ 4022
1972年 4021
那边 4021
借贷 4019
分阶段 4018
申请者 4017
学费 4015
头上 4014
性取向 4012
挫折 4011
角@@ 4011
业界 4010
铜@@ 4009
第六十八 4008
口语 4007
猜 4007
一生 4005
我的@@ 4005
空调 4005
除此之外 4004
乃 4003
ine 4001
克林顿 4001
居@@ 4000
S.@@ 3999
io 3996
35.@@ 3995
果断 3993
迟于 3993
结核 3992
L.1 3991
后期 3991
祈祷 3991
高峰 3988
下半年 3987
先后 3987
刺 3987
卓越 3986
76@@ 3985
务@@ 3985
母乳 3985
学业 3984
海峡 3984
克隆 3983
占领军 3983
阀 3983
可供 3981
政体 3981
覆盖面 3981
议 3980
翻修 3979
长达 3977
教科书 3975
十七 3973
开辟 3972
跟着 3972
聘请 3971
不应 3969
斯特@@ 3968
A节 3967
共产党 3967
子孙 3967
灰 3966
节点 3966
购 3966
培育 3965
年初 3965
景观 3965
175 3964
中型 3964
梅 3964
牌照 3964
生产商 3964
驻科 3962
运费 3960
井@@ 3958
哺乳 3956
阿拉木图 3956
附注 3955
做了 3954
栋 3954
邪恶 3954
都市 3953
匮乏 3952
工作@@ 3951
保罗 3950
多于 3950
低估 3948
all@@ 3947
放缓 3947
北欧 3944
叫@@ 3944
致意 3944
隧道 3944
互联 3943
亲密 3943
冬季 3942
宽@@ 3940
岩@@ 3940
切合 3939
拉加 3939
爱国 3939
ina 3938
短语 3938
什麽 3937
并就 3937
上校 3936
颗粒 3936
副部长 3933
妈 3933
市区 3933
2003/@@ 3932
得益于 3932
逆转 3932
某种 3931
75@@ 3930
绘制 3930
Y 3929
时常 3928
破裂 3928
大会堂 3926
拼@@ 3924
稳 3924
搜集 3920
断定 3919
海水 3918
谨向 3918
落在 3917
评审 3917
丢失 3915
牙齿 3915
其为 3913
统@@ 3912
东北 3910
祝愿 3910
备 3905
第61/2@@ 3905
接管 3904
精神病 3904
据以 3903
专属 3902
赫 3902
涂@@ 3901
考绩 3901
教徒 3900
液@@ 3900
道义 3900
四周 3899
笔@@ 3899
舞@@ 3899
漏洞 3898
开启 3896
男生 3896
从一开始 3895
油价 3895
克制 3894
水源 3894
略@@ 3894
迁徙 3894
4亿 3893
片@@ 3892
精心 3892
罗斯 3890
公海 3889
熊 3888
172 3887
年龄组 3887
庄严 3886
码头 3886
称之为 3886
是非 3884
猎@@ 3884
颇 3884
ie 3883
国际性 3883
城@@ 3883
微软 3883
景 3883
注视 3883
挂@@ 3882
Sal@@ 3881
博客 3881
奖金 3881
兑换 3880
声誉 3880
忠诚 3880
转为 3878
哥@@ 3877
存货 3876
总署 3876
行为人 3876
10000 3875
分解 3875
迈进 3873
逾期 3873
伏@@ 3872
新年 3872
湿地 3872
露@@ 3871
寡妇 3868
莉@@ 3868
啤酒 3867
怪@@ 3867
逃@@ 3867
铅 3867
房@@ 3866
抵触 3865
ard 3864
·卡@@ 3864
碎@@ 3864
现已 3862
碱 3862
读书 3862
汉语 3860
约翰·@@ 3860
午餐 3859
大为 3859
透@@ 3859
鼻@@ 3859
怀 3858
穿@@ 3858
共和党 3857
奋斗 3857
173 3856
1976年 3856
教员 3855
等候 3855
采 3855
4％ 3853
不足以 3853
听证会 3853
灾难性 3853
幻想 3851
白宫 3850
乘坐 3849
余下 3849
清偿 3849
瑞 3849
会计师 3848
善意 3848
爱好 3848
狂@@ 3847
迹 3847
历来 3846
战士 3846
...@@ 3845
兴奋剂 3844
期@@ 3844
渔船 3843
江@@ 3842
Add.3 3841
一般来说 3839
天使 3839
300万 3838
答 3838
部族 3838
所知 3837
函件 3836
或将 3835
氯化 3835
束 3834
庇护所 3833
氧化 3833
174 3832
198@@ 3832
论@@ 3832
8年 3831
江 3831
滚@@ 3831
欧共体 3830
研究员 3826
ER@@ 3824
斗 3822
调拨 3822
速效 3822
4000 3821
梁 3820
群@@ 3820
多种 3819
拉美 3819
拘留所 3819
罪@@ 3819
ST@@ 3818
商标 3816
瓦努阿图 3815
祝福 3815
不适用 3814
抓 3812
加州 3811
捍卫者 3811
警报 3811
过境国 3811
191 3807
拟@@ 3804
渐渐 3804
渔@@ 3803
190 3801
塑造 3801
挑衅 3800
uk@@ 3799
帽 3799
并经 3799
故@@ 3799
轻微 3799
177 3797
错过 3797
伤残 3796
激@@ 3796
5,@@ 3795
访 3795
185 3794
系@@ 3794
质的 3794
夜晚 3793
歌曲 3793
电气 3793
跨境 3792
人文 3791
事后 3790
火山 3790
备件 3788
经营者 3788
公正性 3787
否决权 3787
平方公里 3787
购@@ 3787
扣@@ 3784
征@@ 3783
37.@@ 3781
夏 3781
抱 3780
多达 3779
MA@@ 3778
诞生 3778
停战 3777
终@@ 3777
罐 3777
争 3775
人心 3775
抵销 3775
明了 3775
激素 3775
完毕 3774
青 3774
橡胶 3772
A/51/@@ 3771
第三十一 3768
脱 3768
零部件 3768
夹@@ 3765
恶 3765
戏剧 3765
摄影 3765
隆@@ 3765
月球 3763
由@@ 3762
母语 3759
选举法 3759
向上 3758
浪漫 3758
委任 3757
泛@@ 3757
好象 3756
杀@@ 3755
尖@@ 3754
可取 3752
多余 3752
菲 3752
黄色 3752
le 3750
焦虑 3750
哥 3749
盛@@ 3749
1969年 3748
借款 3747
控制权 3746
点击 3746
中方 3745
含水层 3745
多媒体 3745
度@@ 3744
急 3744
淡@@ 3744
漫@@ 3744
ip@@ 3742
单个 3742
不时 3741
起因 3741
Ma@@ 3740
领导层 3739
鼓掌 3739
学历 3738
毫无疑问 3738
炮弹 3738
肺 3738
苏里南 3738
仍未 3736
早婚 3736
典礼 3735
姿态 3735
组织法 3735
充实 3734
流失 3734
赛季 3734
左 3733
竟然 3733
og@@ 3732
报告期 3732
无可@@ 3732
186 3731
放到 3731
第37 3731
金沙萨 3731
误@@ 3730
剑 3729
206 3728
人称 3728
无限期 3728
第四十 3728
识字 3728
缺@@ 3727
还说 3727
员们 3726
光学 3725
不平衡 3724
之友 3724
人造 3724
偶然 3724
催化剂 3724
un 3723
优@@ 3723
乙 3722
腔 3722
婚@@ 3721
C-@@ 3719
end@@ 3718
备用 3718
尾@@ 3717
签@@ 3717
不确定 3716
文物 3716
关节 3715
医@@ 3714
柏林 3714
进化 3714
下届 3713
吊@@ 3713
甜@@ 3713
过高 3713
氛围 3712
填@@ 3710
癌 3710
盘@@ 3710
糖@@ 3710
同盟 3709
挑战性 3709
eh 3708
有效期 3708
压制 3705
搜寻 3705
翻 3705
利于 3704
幼儿园 3704
孔@@ 3703
捕@@ 3702
平稳 3701
深海 3700
固 3699
皆 3698
2014-2015年 3697
血统 3697
大气层 3696
因果 3694
贵@@ 3694
乐队 3692
昨日 3689
财@@ 3689
178 3687
乐意 3687
小麦 3687
181 3686
电压 3686
维尔京 3686
W 3685
图形 3685
图瓦卢 3685
所称 3684
卡拉巴赫 3683
总协定 3683
日后 3683
每当 3683
第8@@ 3683
百分点 3682
1500 3681
与否 3681
并发症 3681
覆盖率 3681
鸡@@ 3681
99@@ 3680
何处 3680
六月 3680
出缺 3680
恰恰 3680
暗杀 3680
胜 3680
98@@ 3679
成员们 3679
第9@@ 3679
7％ 3678
诽谤 3678
贴 3678
从其 3677
前南 3677
2年 3675
500万 3675
付给 3674
功@@ 3674
氧 3674
面谈 3673
5万 3670
au@@ 3670
不停 3670
单纯 3670
互补 3669
变暖 3669
族人 3667
教廷 3666
根深蒂固 3666
还在 3666
语法 3665
明文 3663
天堂 3662
丹 3661
碰撞 3661
评定 3661
巴厘 3659
较少 3659
南美洲 3658
10:00 3657
当务之急 3657
广义 3656
S/1999 3654
至迟 3654
频道 3653
130@@ 3652
选手 3652
针@@ 3650
专业化 3649
姐姐 3648
议@@ 3648
越过 3647
晚餐 3646
帐 3645
斯威士兰 3645
谷歌 3645
赔偿金 3645
交战 3644
赚 3644
A/C.5/5@@ 3643
欢乐 3643
赢 3643
意在 3642
裂 3642
第四十六 3639
妮 3638
审定 3636
尺度 3636
狼 3633
机票 3632
西班牙文 3632
入口 3631
累 3631
臂 3631
茨@@ 3631
ey@@ 3630
被动 3629
Kar@@ 3628
ef@@ 3628
留给 3628
CA@@ 3626
来信 3626
退还 3626
对面 3624
译 3624
谷 3624
动乱 3623
AS@@ 3622
出差 3622
199 3621
噪声 3621
死去 3621
son 3620
只好 3619
坦率 3619
相连 3619
一百 3618
可卡因 3618
洁净 3618
187 3617
例行 3617
催化 3616
歌@@ 3616
171 3615
oc@@ 3614
高出 3614
优良 3613
垂直 3613
194 3612
第7@@ 3612
非线性 3612
像@@ 3611
心脏病 3611
泰 3611
电器 3611
第63/2@@ 3611
警 3611
不了 3610
反思 3610
L. 3609
层@@ 3609
跳舞 3609
拜 3606
吻 3604
或非 3604
楼@@ 3603
住@@ 3602
怎么办 3601
惠@@ 3601
密封 3599
舞蹈 3598
延 3597
然@@ 3597
现时 3597
街上 3597
1970年 3595
侦察机 3595
船长 3595
休闲 3594
弗 3594
敬意 3594
缩@@ 3594
造福 3592
余@@ 3590
有望 3590
.org 3589
穷 3589
不人道 3588
B.@@ 3587
所在国 3587
换句话说 3587
调和 3587
000多 3586
写@@ 3586
瓦尔 3586
可使 3585
未成年 3584
羊@@ 3584
45.@@ 3582
听众 3581
性暴力 3581
员@@ 3579
安慰 3579
流向 3579
见证 3579
反洗钱 3578
第30 3578
新建 3577
合法化 3576
揭露 3576
替代性 3574
注明 3574
被控 3573
承包 3572
推销 3572
竭尽全力 3572
肠 3572
船上 3572
阴影 3572
清真寺 3571
176 3570
受灾 3569
刻@@ 3568
尖 3568
是@@ 3568
安全区 3566
棵 3566
找@@ 3565
解读 3565
俄国 3564
周一 3564
国立 3564
帮你 3562
拍@@ 3562
西北 3562
184 3561
宁@@ 3560
多边主义 3559
水质 3559
法例 3559
矿业 3559
互利 3557
模 3556
谢 3556
除名 3556
静止 3556
188 3555
196@@ 3555
凡是 3555
不管是 3554
定向 3554
春 3553
那天 3552
以至于 3550
废 3549
光盘 3548
新喀里多尼亚 3548
氮 3548
检疫 3547
热爱 3547
马丁 3547
三维 3546
跨国界 3545
邦@@ 3545
事务所 3544
乘@@ 3542
你方 3542
胸@@ 3542
缘 3541
在前 3540
贵方 3540
枝 3538
柔@@ 3538
所用 3536
铝 3536
浓@@ 3535
股权 3535
期刊 3534
管理制 3533
退 3529
混合物 3528
205 3527
一月 3527
外聘 3526
交由 3525
估 3524
谋生 3524
悬而未决 3523
孤独 3522
键 3522
英国人 3521
图书 3520
魔@@ 3520
DNA 3517
963-@@ 3516
还对 3516
iv@@ 3515
四十 3515
晚些时候 3515
宾@@ 3514
运动会 3514
震@@ 3514
众人 3513
光明 3513
挽救 3513
无形 3513
语音 3512
以使 3511
判例法 3511
圣卢西亚 3511
犯罪者 3511
不合理 3510
基础上 3510
物价 3510
阿克拉 3510
奉献 3509
祝 3508
无国籍 3507
电源 3507
缩编 3507
外交官 3506
无家可归 3506
听着 3505
3:00 3503
治@@ 3503
屋顶 3502
按钮 3502
迟到 3502
适@@ 3500
A/CONF.@@ 3498
鼻子 3497
四月 3496
李 3495
回避 3494
脂 3494
葡萄酒 3492
此刻 3491
经济区 3491
办公厅 3490
五月 3489
ass@@ 3488
各界 3488
型@@ 3488
不止 3485
中旬 3485
圣经 3484
本节 3484
便是 3480
得了 3478
棘手 3478
陆军 3478
益@@ 3477
2.3 3475
86@@ 3475
一次性 3475
诗人 3475
PA@@ 3474
视听 3474
宝 3472
止@@ 3472
置@@ 3472
遗@@ 3470
详述 3468
礼拜 3467
乐趣 3466
矩阵 3465
还没有 3465
树脂 3463
2002-2003年 3462
── 3461
兼@@ 3460
最少 3460
物业 3460
弟弟 3459
累@@ 3459
扬 3457
星球 3457
诚信 3455
202 3453
真空 3452
跟进 3452
减排 3451
鸦片 3450
反对党 3449
候补 3448
芝加哥 3448
遗弃 3448
RE@@ 3447
ou 3447
仲裁员 3447
喜@@ 3444
泡 3444
纷纷 3444
代办 3443
废@@ 3443
罪恶 3443
上课 3442
合乎 3441
形容 3441
轮胎 3441
蒙受 3440
东南欧 3438
假日 3438
家乡 3438
熔@@ 3438
盛 3438
高地 3438
嘉@@ 3437
通货膨胀率 3437
如上所述 3436
第58 3436
锡 3436
发布会 3435
粮 3435
远景 3435
铺平 3435
疲劳 3434
蛋糕 3433
疡 3432
沟 3431
1.3 3430
# 3429
Br@@ 3429
Le@@ 3429
妊娠 3429
演 3429
价值链 3428
执@@ 3428
舒服 3428
较低 3428
S/2000/@@ 3427
牵@@ 3427
续@@ 3427
PR@@ 3426
渥太华 3426
倾听 3425
处分 3425
ell@@ 3424
粒子 3424
塞舌尔 3423
潜@@ 3423
天体 3422
不可分割 3421
冒@@ 3421
10号 3420
熟 3420
用在 3419
增补 3418
恨 3417
记入 3416
争@@ 3415
创新性 3415
比重 3415
猛@@ 3414
珊瑚礁 3414
轻轻 3414
1960年 3413
略有 3413
193 3412
政变 3411
途中 3411
减弱 3408
服刑 3407
玫瑰 3407
联东 3407
党@@ 3406
学前 3406
范@@ 3406
角落 3406
ep@@ 3405
境 3405
起源 3404
纳粹 3403
所有者 3402
劳资 3401
奇迹 3401
恶意 3401
会在 3400
厕所 3400
海洛因 3400
德黑兰 3399
收缴 3398
场景 3397
寻@@ 3396
毁 3396
注@@ 3396
输送 3396
100@@ 3395
答@@ 3395
烤@@ 3394
稍后 3394
周五 3393
责成 3392
槽 3391
诗@@ 3390
出租 3389
时效 3388
让@@ 3388
4.2 3386
挤@@ 3386
显@@ 3386
208 3385
ation 3385
乙@@ 3385
科目 3385
ant@@ 3384
难度 3382
建模 3381
侧@@ 3380
联伊 3380
P.@@ 3378
封信 3378
敌方 3378
纽@@ 3377
联署 3377
变换 3376
巨额 3376
录@@ 3376
89@@ 3375
阿比让 3375
档 3374
败@@ 3374
伸出 3373
制剂 3373
第57/2@@ 3373
菌@@ 3373
加热 3372
死者 3372
纯@@ 3372
纵向 3372
宽带 3371
已知 3371
西洋 3371
20世纪 3370
第三十 3370
功率 3369
带给 3369
ch 3368
灰色 3368
财产权 3368
营运 3367
野蛮 3367
销@@ 3367
互 3365
情事 3365
第三十三 3365
社@@ 3363
减小 3362
海滩 3362
肥胖 3362
冷却 3361
穿越 3360
还没 3360
重型 3360
借调 3359
用法 3359
阴谋 3359
1267 3358
特许权 3357
IT@@ 3356
稍@@ 3356
表情 3356
镇@@ 3356
第55/@@ 3354
餐@@ 3354
不太 3351
学士 3350
截@@ 3349
益于 3349
大自然 3347
棉花 3347
炮 3346
际 3346
原材料 3345
教养 3345
全境 3344
纺织品 3344
降到 3344
41.@@ 3343
参看 3343
安全网 3343
207 3342
Sa@@ 3342
冠 3342
有序 3342
切尔诺贝利 3341
绳 3341
腐蚀 3341
集群 3341
大鼠 3340
焊接 3340
胃@@ 3339
12% 3338
S/1998 3338
悬挂 3338
称@@ 3338
备灾 3337
年纪 3337
滑 3337
误 3337
童年 3336
盆地 3335
第四十七 3335
非暴力 3335
大厅 3334
空前 3334
胜任 3333
料@@ 3332
锡@@ 3332
ana 3330
磅 3329
显现 3328
陷于 3328
喂 3327
当是 3326
更具 3326
179 3325
汗 3325
选用 3324
巡逻队 3323
本土 3323
谋@@ 3323
机能 3322
配套 3322
干部 3321
归纳 3321
牢房 3320
狭窄 3320
人事费 3318
施 3318
激情 3318
链@@ 3318
可向 3317
文莱 3317
逾 3317
ach@@ 3316
失衡 3316
穿上 3316
之日起 3315
划为 3315
局@@ 3315
混 3315
差价 3314
佛 3311
冷静 3311
坦克 3311
锁@@ 3311
年中 3309
珠@@ 3309
莎 3309
这类 3309
53@@ 3308
容纳 3307
40万 3306
报销 3306
203 3305
电缆 3305
第64/2@@ 3305
账目 3305
198 3304
连贯性 3302
分部 3301
役 3301
微观 3301
增 3300
0/@@ 3299
关怀 3299
宁愿 3299
ess@@ 3298
举动 3298
们@@ 3298
活着 3296
犯罪人 3295
盈利 3294
丝毫 3293
建议书 3293
播@@ 3292
杜 3292
砍伐 3292
第三十二 3292
辩称 3291
敌军 3290
政治化 3289
议长 3289
应受 3288
197 3286
商用 3284
设@@ 3284
制图 3283
竞@@ 3283
著作 3283
牵涉 3282
订@@ 3282
负荷 3282
195 3281
内务部 3281
制服 3280
边远 3280
代表权 3279
孤@@ 3279
注定 3278
转用 3278
辞 3278
儿@@ 3277
安提瓜 3277
第四十一 3277
巴尔干 3276
204 3275
利亚 3275
劳工法 3275
影像 3275
待命 3275
联席会议 3273
中乍 3272
卢萨卡 3272
起初 3272
释@@ 3271
3.3 3269
第三十九 3269
出口国 3268
口袋 3267
第32 3267
绘画 3267
本组 3266
非经 3266
1年 3265
刚@@ 3265
女王 3265
论证 3264
38.@@ 3263
//www.@@ 3262
效 3262
辍学 3262
九月 3260
上级 3259
偷 3259
尚待 3259
指认 3259
电讯 3259
戒@@ 3258
打印 3258
第三十六 3258
保险费 3257
对人 3257
避难 3256
多学科 3255
扇 3255
包裹 3253
航天局 3253
怀@@ 3251
S/2@@ 3250
span 3250
仍旧 3250
也@@ 3248
三月 3247
安第斯 3247
煤炭 3247
不然 3246
升值 3246
喜 3246
进修 3246
随便 3246
to 3245
膨胀 3245
右 3244
服用 3243
核爆炸 3243
中毒 3242
争夺 3242
反过来 3241
桌 3241
规 3241
公安 3240
击中 3240
商讨 3240
抛@@ 3240
现存 3240
罕见 3240
6000 3239
境地 3239
税款 3239
63@@ 3238
出国 3238
雾 3238
宣誓 3237
尔德 3236
静 3236
宿舍 3235
让步 3235
刊物 3234
菜@@ 3234
杨@@ 3232
爬 3232
El@@ 3230
坚强 3230
峰 3230
多项 3228
术后 3228
清醒 3228
瑟@@ 3228
DE@@ 3226
科学家们 3226
签 3226
透 3226
尼亚@@ 3225
恋 3225
高温 3225
Pr@@ 3224
删去 3224
第八@@ 3224
言语 3224
模仿 3223
ers 3222
精彩 3222
iy@@ 3220
南太平洋 3220
开头 3220
摇@@ 3219
设计师 3219
去除 3218
奥尔@@ 3217
总会 3216
相等 3216
肾 3216
靠@@ 3215
经受 3214
过后 3214
里约热内卢 3214
43.@@ 3213
悬@@ 3213
讯息 3213
驻@@ 3213
反驳 3212
肝@@ 3212
宪兵 3211
第二十八 3210
非核心 3210
外表 3209
泵 3209
控@@ 3208
白人 3208
暂 3207
热量 3207
50％ 3206
杀戮 3206
纳税人 3206
体检 3205
凭借 3205
缺失 3205
派往 3204
焦@@ 3204
第36 3202
体积 3201
准予 3201
对立 3201
煤@@ 3200
归属 3199
逗留 3199
为限 3198
合计 3198
给@@ 3198
钢铁 3198
寒冷 3196
吻合 3195
早先 3195
作好 3194
所定 3194
190@@ 3193
农发 3193
精 3193
预订 3192
储@@ 3191
报名 3191
全盘 3189
心理学 3189
4.1 3188
局限性 3188
村民 3187
第57 3187
计入 3187
Pro@@ 3184
刑期 3184
带领 3184
移送 3184
照射 3182
等着 3182
视作 3182
标明 3180
沉积 3180
烦恼 3180
遵行 3180
门槛 3180
执行官 3179
国旗 3178
化石 3177
无权 3177
仅@@ 3176
印制 3176
捕获 3176
不经 3175
工作人员 3174
第六十九 3174
驻扎 3174
ug@@ 3173
奥斯陆 3173
查访 3173
日前 3171
正常化 3171
完@@ 3170
可观 3169
银行业 3169
马克思 3169
搬@@ 3168
百慕大 3168
产后 3167
查找 3167
赴 3167
00多 3166
举证 3166
所得税 3166
抵御 3166
法学院 3166
第四十四 3166
一百@@ 3165
意向 3165
提法 3165
终结 3165
赦免 3165
接替 3164
第二十九 3163
美联储 3163
196 3161
早餐 3161
构架 3161
安道尔 3160
打交道 3160
说到 3160
2500 3159
摩西 3159
郊区 3159
夹 3158
棉@@ 3158
每日 3158
志 3157
面的 3156
87@@ 3155
引 3155
05 3154
研究者 3154
第58/2@@ 3154
过剩 3154
3年 3152
5/1 3152
票据 3152
谋 3152
为人 3151
开火 3150
艇 3150
铺 3149
专职 3148
从此 3148
永恒 3148
逆转录 3148
宠物 3147
混淆 3147
第三十八 3147
脚注 3146
光谱 3145
诺贝尔 3145
使馆 3142
稳固 3142
算是 3142
SO@@ 3141
割@@ 3141
署@@ 3141
务必 3140
国界 3137
6％ 3136
鸡蛋 3136
狮子 3135
反歧视 3134
图案 3134
46.@@ 3133
主观 3133
六十 3133
认 3133
各方面 3132
腹@@ 3132
钟@@ 3132
车间 3131
内涵 3130
32.@@ 3129
IV 3128
为数 3128
喝@@ 3128
堆@@ 3128
梦@@ 3128
求助 3128
P-@@ 3127
移民局 3127
-1 3126
汤加 3126
过失 3124
国土 3123
寒@@ 3123
撞@@ 3123
4年 3122
惠及 3122
LA@@ 3121
行之有效 3119
险@@ 3119
ash@@ 3118
介质 3118
率领 3118
清算 3117
关爱 3116
6,@@ 3115
废止 3115
全职 3113
扰乱 3113
S/PRST/200@@ 3111
定制 3111
欲望 3110
白天 3110
产科 3109
氯 3109
雨水 3108
极少 3107
209 3106
中性 3106
周二 3106
扩@@ 3106
兴 3105
大马士革 3105
电机 3105
制定者 3104
推断 3104
眼光 3104
线索 3104
荷@@ 3104
达喀尔 3104
交互 3103
停滞 3103
动力学 3103
资深 3103
乔治 3102
氧@@ 3102
10％ 3101
2006/@@ 3100
吩咐 3100
健@@ 3099
泡@@ 3098
部份 3098
引人注目 3097
无知 3097
47.@@ 3096
44.@@ 3095
架次 3095
演说 3095
逐@@ 3095
笑@@ 3094
第65/@@ 3094
1948年 3093
7,@@ 3093
爆@@ 3093
人性 3092
牢记 3092
顺 3092
8％ 3091
泄漏 3091
确 3091
In@@ 3090
外贸 3089
威慑 3087
散步 3087
篮球 3086
脉冲 3086
劳务 3085
拔@@ 3085
35% 3084
一时 3084
动植物 3084
盗窃 3084
走过 3084
48.@@ 3083
周三 3083
42.@@ 3081
防扩散 3081
不可避免 3080
五年 3080
大海 3080
斑 3080
更快 3080
胎儿 3080
诗歌 3080
所占 3079
厚@@ 3078
惊奇 3078
闪@@ 3078
迷 3077
ang 3075
地铁 3075
私有 3075
试行 3075
36.@@ 3074
ust@@ 3074
华尔街 3074
开创 3074
遇见 3074
ai 3073
为准 3073
编程 3073
阳 3073
利用率 3072
可见 3072
方可 3072
第九@@ 3072
用地 3071
反应堆 3070
新近 3070
豪@@ 3070
6亿 3068
佳@@ 3068
分析师 3068
浆 3068
斑@@ 3067
保护@@ 3066
既有 3066
灯@@ 3066
科长 3066
奔@@ 3065
安全局 3064
市政府 3064
教育权 3064
好多 3062
己 3062
临@@ 3061
诸 3061
那就是 3060
日渐 3059
游说 3059
随函附上 3059
礼@@ 3058
第67/2@@ 3058
节奏 3058
15-@@ 3057
国营 3057
星期天 3057
致辞 3057
·拉@@ 3056
出口商 3056
战场 3056
醒来 3056
--@@ 3055
有人 3054
胃 3054
重振 3054
坡 3053
专 3052
券 3052
平均数 3052
拉丁 3052
迎@@ 3052
5年 3051
几百 3051
底部 3051
战时 3051
该法 3051
不加 3050
奈@@ 3050
精英 3050
13% 3049
凝@@ 3049
简历 3048
包围 3047
衬衫 3046
工发组织 3045
抽象 3045
胎 3044
40.@@ 3043
总监 3043
第三十四 3041
供电 3040
球场 3040
领地 3040
AN@@ 3039
朗 3039
联发援 3039
饥荒 3039
&@@ 3038
减损 3038
可望 3038
问责制 3038
GC.@@ 3035
开幕式 3035
日报 3035
豆@@ 3035
示威者 3033
ong 3032
七月 3032
科技委 3032
麦克@@ 3032
oy@@ 3031
另行 3031
献@@ 3030
第59/2@@ 3030
偿 3029
老是 3029
丑 3028
传说 3027
巴布达 3027
顽固 3027
AL@@ 3026
化为 3024
外出 3024
囊 3023
散布 3023
氢@@ 3023
鉴别 3023
得很 3022
收缩 3022
雷区 3022
浸@@ 3021
紧紧 3021
人际 3020
陪 3020
候选国 3017
官@@ 3015
楼宇 3014
可将 3013
景@@ 3013
照明 3013
.2 3011
对着 3010
又@@ 3009
机组 3009
来源于 3009
第61 3009
四十@@ 3008
归咎于 3008
触发 3008
中级 3006
卡尔 3006
摆@@ 3006
演奏 3006
狗@@ 3006
命@@ 3005
100000 3003
及第 3003
搁置 3003
珍贵 3003
为重 3002
姓 3002
就业率 3002
寄 3000
文凭 2999
部际 2999
静脉 2998
必定 2996
手法 2996
践踏 2996
下雨 2995
推移 2995
获胜 2995
当初 2993
速率 2993
鲜明 2993
第53/@@ 2991
送回 2991
织@@ 2990
反射 2989
赤@@ 2989
反抗 2988
A/AC.@@ 2987
教派 2987
犬 2987
第65/2@@ 2987
醇 2987
海报 2986
突发 2986
默认 2986
乡@@ 2985
ann@@ 2984
伤心 2984
长者 2984
Car@@ 2983
在第 2983
幽默 2983
谈@@ 2983
高的 2983
CRC/C/@@ 2982
准时 2982
分区域 2982
微妙 2982
总体而言 2982
来的 2982
检@@ 2982
滴@@ 2982
第四十二 2980
送往 2980
掠夺 2979
普京 2979
耕地 2979
身为 2979
应变 2978
条第 2978
萨里奥 2978
今@@ 2977
印尼 2977
就读 2976
或由 2976
里·@@ 2976
7年 2973
奶@@ 2972
笔译 2972
珠 2971
眼镜 2971
并以 2970
方对 2970
衍生 2970
350 2968
Har@@ 2968
开端 2968
选区 2968
戈马 2967
收容所 2967
晚@@ 2967
ey 2966
俄语 2966
荣耀 2966
our@@ 2965
坚@@ 2965
聘 2965
信服 2964
吸毒者 2964
Sch@@ 2963
依旧 2963
第四十三 2963
妇女的 2961
总经理 2961
第38 2961
中产 2960
医师 2960
1.5 2959
育@@ 2959
幢 2957
火焰 2957
英联邦 2957
野 2957
例@@ 2956
启@@ 2956
更是 2956
第66/2@@ 2956
放下 2955
磷 2955
5.2 2954
根本性 2954
福克兰 2954
菜单 2954
免税 2953
忠实 2953
翻新 2953
词@@ 2953
征募 2952
兵@@ 2950
尼科西亚 2950
扶养 2950
改正 2950
裂@@ 2950
12时 2948
ari 2948
世上 2948
拖 2948
水分 2948
划 2947
创办 2947
切断 2946
名人 2946
圣文森特 2946
站点 2946
课@@ 2946
赚取 2946
侦察 2945
换言之 2945
克什米尔 2944
授@@ 2944
灵活的 2944
瘫痪 2944
鞋@@ 2944
国中 2943
树林 2943
租@@ 2943
步行 2942
鲜@@ 2942
剧院 2941
极限 2941
次要 2941
诱惑 2941
以内 2939
传授 2939
国贸 2939
家们 2939
杀虫剂 2939
细目 2939
问道 2939
降落 2938
画面 2937
220 2936
农田 2935
互补性 2934
系指 2933
陛下 2933
251 2932
吞@@ 2932
唱@@ 2932
逆@@ 2932
传单 2931
局限 2931
涉@@ 2931
解体 2931
19号 2930
旋@@ 2930
卡尔@@ 2929
宣扬 2929
控制器 2929
上下 2928
旱地 2928
调控 2928
过滤 2928
历年 2927
资本主义 2927
9/L.@@ 2924
他国 2924
服务@@ 2924
本章 2924
真主党 2924
阿布贾 2924
骨折 2923
CC@@ 2922
偏 2922
第四十五 2922
以防 2921
妇 2921
张贴 2921
6年 2920
对联 2920
点儿 2920
医 2919
放心 2919
沿线 2919
8亿 2917
群组 2917
2017年 2916
氢 2916
法学 2916
船员 2916
远见 2916
音乐会 2916
这项 2915
适于 2915
瓜@@ 2914
阿拉伯文 2914
CT 2913
伤口 2913
测验 2913
暗 2912
谎言 2912
协 2911
陈旧 2911
随函 2910
伸@@ 2909
心态 2907
识字率 2907
账款 2907
拆@@ 2906
I/@@ 2905
州@@ 2905
政治犯 2905
水文 2905
消化 2904
偶@@ 2903
高专办 2903
不足之处 2902
保有 2902
将于 2902
值@@ 2900
外围 2900
第三十五 2900
纵@@ 2900
é 2899
在此之前 2899
头部 2899
胺 2899
高风险 2899
w 2898
英译汉 2898
讽刺 2897
20％ 2896
令人@@ 2896
信徒 2896
视野 2896
水量 2895
齿 2895
逃跑 2894
阿拉@@ 2894
e-@@ 2893
带走 2893
所处 2893
折 2892
豁免权 2892
CH@@ 2891
星期日 2891
格林纳达 2891
克拉@@ 2889
嘿 2889
摩擦 2889
商界 2888
盆 2888
过渡期 2887
再见 2886
抱有 2886
刀@@ 2885
柴油 2885
港@@ 2885
黎 2884
振@@ 2883
放大 2883
不定 2881
法则 2881
输 2881
新任 2880
生产国 2880
述@@ 2880
排序 2879
限期 2879
不一 2878
体会 2878
油田 2878
第61/@@ 2878
至多 2878
55/@@ 2877
亲爱 2877
装修 2877
岛上 2876
拥抱 2876
放宽 2876
轮流 2876
阿布@@ 2876
兼职 2875
P/@@ 2874
欧空局 2874
逢 2873
养育 2872
收藏 2872
马车 2872
〕 2871
和睦 2871
成像 2871
前瞻性 2870
新娘 2869
227 2868
凝聚力 2868
创造力 2867
居住地 2866
经纪人 2866
抗击 2865
漏 2865
启发 2864
地产 2864
熟@@ 2864
赶上 2864
退回 2864
昂@@ 2863
竭力 2863
陌生人 2863
降解 2863
陪审团 2863
RA@@ 2862
卡拉@@ 2862
对称 2862
摩尔多瓦 2862
高压 2862
均应 2861
视力 2861
适用性 2861
赞成票 2860
偏低 2859
气味 2859
气温 2859
社群 2859
红新月会 2859
购买力 2859
吹 2858
年满 2858
开拓 2858
箱子 2858
述 2858
未满 2857
没错 2857
遇 2857
直至 2856
拨给 2855
初中 2854
柜 2854
行驶 2854
属@@ 2853
抽 2853
恰@@ 2851
批准书 2851
爱的 2851
另@@ 2850
均匀 2850
归因于 2850
技 2850
同伴 2849
工商业 2848
车站 2847
圣马力诺 2846
概率 2846
卡塔赫纳 2845
植被 2845
点钟 2845
笑话 2845
推理 2844
难过 2844
列名 2843
大街 2843
微波 2843
逊 2843
〔 2842
感冒 2842
2.5 2841
CE@@ 2841
一览表 2841
行走 2841
阳@@ 2841
付费 2840
一般而言 2839
受众 2839
域外 2839
海港 2838
第三十七 2837
共存 2836
址 2836
情势 2836
潮流 2836
激增 2836
许@@ 2836
享用 2835
脾气 2835
马尔维纳斯 2835
刑事罪 2833
20多 2832
危急 2832
押@@ 2832
防空 2831
院@@ 2831
额度 2831
国家级 2830
Dec.@@ 2829
公吨 2829
研究院 2829
亮@@ 2828
判决书 2828
发言权 2828
听力 2828
开庭 2828
把@@ 2827
锌 2827
缝 2826
全身 2825
地形 2825
倒退 2824
官僚 2824
收款 2824
来源国 2824
威尔士 2823
鹿 2823
协@@ 2822
02 2821
保全 2821
光线 2820
吴@@ 2820
服役 2820
迈向 2820
夸@@ 2819
导则 2819
旱灾 2819
杰 2819
元件 2818
朵 2817
49.@@ 2816
踢 2816
the 2815
归类 2815
抵 2815
钙 2815
手臂 2814
分数 2813
化管 2813
协理 2813
扣留 2813
结案 2813
年鉴 2812
礼品 2812
对等 2811
陶瓷 2811
使用权 2810
示例 2810
罂粟 2810
剧烈 2809
帕劳 2809
甜 2809
研究@@ 2809
辈 2809
2:@@ 2808
第48 2808
装有 2808
法学家 2807
伴 2806
耐 2806
互惠 2805
尺 2805
马绍尔 2805
A/69/@@ 2804
剧@@ 2804
州长 2804
布局 2803
林迪 2803
改建 2801
约翰@@ 2801
园@@ 2800
祸害 2800
第53 2800
若要 2800
1701 2799
圣地亚哥 2799
破产法 2799
视委 2799
薪@@ 2798
轻型 2798
咬 2797
昆虫 2796
离去 2796
同酬 2795
崛起 2795
环境法 2795
第56/@@ 2795
A/6@@ 2794
押 2794
有鉴于此 2794
冻@@ 2793
耗@@ 2793
钻@@ 2793
困惑 2791
巴士 2791
城里 2790
好转 2790
哀@@ 2789
扎伊尔 2789
遴选 2789
阻@@ 2789
，@@ 2789
天赋 2788
扫 2788
扫@@ 2788
汽@@ 2788
继@@ 2788
２@@ 2788
字符 2787
联苯 2787
善于 2786
力争 2785
喊 2785
拦截 2785
涌入 2785
上游 2784
劳 2784
温柔 2783
杀伤性 2782
老化 2782
趋于 2781
AT@@ 2780
R.@@ 2780
ind@@ 2780
出具 2779
发光 2779
第59 2779
装甲 2779
教导 2778
格林纳丁斯 2778
用处 2778
赖 2778
拜访 2776
波利 2776
狂 2776
花钱 2776
动摇 2775
协力 2775
同性 2775
徒 2775
琳 2775
第67 2775
打印机 2774
4.3 2773
在乎 2773
犹豫 2773
优 2772
忍@@ 2772
Con@@ 2771
斯基 2771
电联 2771
抢@@ 2770
不一定 2769
深处 2769
缓冲区 2769
ME@@ 2768
幼@@ 2768
浅 2768
旅程 2767
舍@@ 2767
逃 2767
规例 2766
望远镜 2764
演示 2764
粗 2764
主教 2763
晚饭 2763
草地 2763
运往 2763
争吵 2762
地毯 2762
或以 2761
搭配 2761
东北部 2759
未清 2759
鲍@@ 2759
ist@@ 2758
十多 2758
平安 2758
应从 2758
适度 2758
击败 2757
布宜诺斯艾利斯 2756
外观 2755
恰 2755
欣慰 2755
频@@ 2755
第64 2753
管理司 2753
会的 2752
就任 2752
电网 2752
.. 2751
da 2751
超声 2751
马拉 2751
浪 2750
紫@@ 2750
Re@@ 2749
腰@@ 2749
1/L.@@ 2748
宽松 2748
引述 2748
责 2748
39.@@ 2747
奶 2747
欲@@ 2747
第58/@@ 2747
带上 2746
INF 2745
顿@@ 2745
临近 2744
萨拉@@ 2744
典范 2742
就算 2742
研 2742
ID@@ 2741
净化 2741
监核 2741
ic 2740
失业者 2740
纸张 2739
/Add.1 2737
判@@ 2737
自力更生 2737
高加索 2737
um 2736
申@@ 2736
书写 2735
射线 2735
译@@ 2735
隐私权 2735
Part 2734
弥合 2734
归于 2734
深受 2734
祭司 2734
维尔 2734
觉 2734
身分 2734
迈克尔 2734
四处 2733
数字化 2732
辍学率 2732
辩@@ 2732
风景 2732
CD/@@ 2731
劳力 2731
应能 2731
q 2729
春季 2728
车子 2728
万亿 2727
以在 2727
送达 2727
无核 2726
最迟 2726
缔造 2726
临时性 2725
向下 2725
开曼 2725
调到 2725
制宪 2724
杜绝 2724
核武库 2724
烈@@ 2724
界线 2724
一度 2723
其间 2723
善良 2723
探访 2723
刑@@ 2722
势@@ 2722
磨 2722
雄@@ 2722
号召 2721
眼泪 2721
第62/@@ 2721
95% 2719
爱上 2719
55.@@ 2718
单据 2717
周日 2717
方为 2717
10-@@ 2716
8/L.@@ 2716
停车 2716
00000 2715
240 2715
受让人 2715
ill@@ 2714
领导者 2714
题@@ 2714
214 2713
喜悦 2713
源@@ 2713
信奉 2712
即可 2712
潘@@ 2712
秀 2712
世界杯 2711
聊天 2711
征服 2710
enn@@ 2709
芯片 2709
谷物 2709
贝克 2709
伯爵 2708
候 2708
列车 2708
匹 2708
DP/@@ 2707
内存 2707
彩色 2707
才@@ 2707
洛杉矶 2707
生动 2707
繁殖 2707
超支 2707
est@@ 2706
可予 2705
练 2705
① 2704
型号 2704
拿着 2704
撤@@ 2704
许 2704
乐于 2703
股价 2703
亦@@ 2702
各次 2702
同类 2702
控件 2702
买到 2701
希族塞人 2701
某@@ 2701
水中 2701
骂 2701
不堪 2700
瞧 2700
秋 2699
不愿意 2698
代表作 2698
天才 2697
敲定 2697
盒子 2697
参与人 2696
哈利 2696
宝宝 2696
第62/2@@ 2696
公益 2695
期货 2695
肌@@ 2695
外长 2694
常委会 2694
望@@ 2694
疏@@ 2694
痕迹 2694
踏@@ 2694
危险性 2693
态势 2693
镜子 2693
刊 2692
最早 2692
阳性 2692
钢琴 2691
也可以 2690
逃犯 2690
十月 2689
嘛 2689
宝贝 2689
滤@@ 2689
秋@@ 2689
办@@ 2688
坐标 2687
柯@@ 2686
写入 2685
冬 2685
发病 2685
智@@ 2685
舞弊 2685
悠久 2684
cl@@ 2683
sp@@ 2683
冠@@ 2683
出租车 2683
怒 2683
损 2683
积 2683
逍遥法外 2683
行人 2682
减去 2681
因其 2681
迷人 2681
..@@ 2680
岁月 2680
学的 2679
空袭 2679
写道 2678
攸关方 2678
由该 2678
97@@ 2677
奎@@ 2677
瞬间 2677
简 2677
禽流感 2676
迟 2676
业余 2674
侵@@ 2674
倾斜 2673
单亲 2673
搭@@ 2673
能效 2673
1200 2672
接入 2672
2.4 2671
妇人 2671
废弃 2671
样@@ 2671
自助 2671
自营 2671
0亿 2670
渣 2670
歪曲 2669
灌@@ 2669
A/5@@ 2668
唱歌 2668
永 2668
亲戚 2666
妇@@ 2666
投资@@ 2666
学期 2665
氧化@@ 2665
颈@@ 2665
惨@@ 2664
覆@@ 2664
夫·@@ 2663
燃油 2663
物料 2663
界@@ 2663
合众 2662
无情 2662
明亮 2662
第66 2662
ell 2661
即便是 2661
A/CN.9/@@ 2660
int@@ 2660
兴建 2660
8000 2658
倘若 2658
首领 2658
51.@@ 2657
投机 2657
私法 2657
第33 2657
uc@@ 2655
政务 2655
文中 2655
肥 2655
赞美 2655
帐篷 2654
微小 2653
鞋子 2653
德拉@@ 2652
跟随 2652
20000 2651
搬到 2651
敬@@ 2651
盐@@ 2651
舰 2651
60万 2650
季@@ 2650
祷告 2650
说的 2650
210 2649
告诫 2649
弯@@ 2649
感动 2649
漏@@ 2649
冰箱 2648
指向 2648
实证 2647
疏忽 2647
奉@@ 2646
掌控 2646
束缚 2646
论及 2646
译成 2646
7/Add.@@ 2645
不遗余力 2645
理智 2645
燃@@ 2644
领养 2644
历@@ 2643
求解 2643
主计 2642
全都 2642
得起 2642
蜂@@ 2642
Q 2641
兴起 2641
袭 2641
密克罗尼西亚 2640
尚@@ 2640
打造 2640
该部 2640
泽 2639
理工 2639
腰 2639
85% 2638
功效 2638
水电 2638
倾倒 2637
溶液 2637
停车场 2636
骗 2636
2004/@@ 2635
仿@@ 2635
弯曲 2635
青春 2635
原定 2634
电梯 2634
鼓@@ 2633
登记@@ 2632
轮调 2632
ta 2631
抵@@ 2631
某项 2631
组织者 2631
达鲁萨兰国 2631
猜测 2630
光纤 2629
十二月 2627
印第安人 2627
歌手 2627
稳@@ 2627
贝尔 2627
主旨 2626
书中 2626
全会 2626
生活费 2626
业者 2625
边防 2625
屈@@ 2624
扼要 2624
第62 2624
遵从 2624
景象 2623
涨 2623
豪华 2623
静态 2623
尼·@@ 2622
苯 2622
衫 2622
古典 2621
多部门 2621
批@@ 2621
涅@@ 2621
1973 2620
ard@@ 2620
冬@@ 2620
有辱 2620
睦邻 2620
嘉宾 2619
滥杀 2619
.org/@@ 2618
弯 2618
纺织 2618
帮@@ 2617
流体 2617
呼声 2616
污@@ 2616
甲基 2616
着力 2616
吸 2615
警员 2615
闻名 2615
三十@@ 2614
敌意 2614
水面 2614
iss@@ 2613
勤 2613
篇幅 2613
证明书 2613
Gu@@ 2612
周四 2612
其下 2611
足额 2611
oun@@ 2610
会同 2610
单证 2610
厉害 2610
存活 2610
盛行 2610
产地 2609
小国 2609
挣扎 2609
骑@@ 2609
合伙 2608
月亮 2608
秋天 2608
2011/@@ 2607
226 2607
神话 2607
上将 2606
劝 2605
墨@@ 2605
蒸汽 2605
通风 2605
裁研 2604
账 2604
宝石 2603
西南 2603
灯光 2602
@un.org 2601
厌恶 2601
妇女署 2601
本地区 2601
运气 2601
金枪鱼 2601
呆@@ 2600
罚金 2600
家用 2599
溶剂 2599
独裁 2599
滥 2598
萧条 2598
换取 2597
麽 2597
如在 2596
讯 2595
间谍 2595
露出 2595
出血 2594
口径 2594
6:00 2593
刮@@ 2592
炮@@ 2592
转而 2592
260 2591
亏损 2591
始@@ 2591
Ag@@ 2590
Ali 2590
垫 2590
大都 2590
IC@@ 2589
人大 2589
本函 2589
30分 2588
察 2588
报刊 2588
模具 2588
蓝图 2588
Cl@@ 2587
v 2587
径 2587
萨拉热窝 2587
扑@@ 2586
此处 2586
赶 2586
1万 2585
塞族人 2584
稍微 2584
天线 2583
猛烈 2583
策 2583
18% 2581
20亿 2581
M.@@ 2581
S/2004/@@ 2581
大体上 2581
举止 2580
介意 2580
做成 2580
墙@@ 2580
失误 2579
推测 2579
步枪 2579
赞@@ 2579
纹 2578
份子 2577
科学界 2577
12号 2576
流血 2576
配件 2576
沿@@ 2575
伊丽莎白 2574
会使 2574
佐@@ 2574
可比 2574
祭 2574
藉 2574
战斗机 2573
户@@ 2573
抬头 2573
播 2573
甚@@ 2573
亨利 2571
信赖 2571
国人 2571
繁@@ 2570
完工 2569
弥@@ 2569
延至 2568
作文 2566
应按 2565
大人 2564
波罗的海 2564
看守 2564
醒 2564
II@@ 2563
S/2005/@@ 2563
泥 2563
丢 2562
巡@@ 2562
第49 2562
被判 2562
谈及 2562
旗帜 2561
洲 2561
碗 2561
芬@@ 2561
诸@@ 2561
饲料 2561
增幅 2560
平时 2560
鼓 2560
ka 2559
当日 2559
磺酸 2559
先知 2558
内向 2558
摩托车 2558
第56 2558
街@@ 2558
情报局 2557
第63/@@ 2557
B节 2556
民选 2556
版@@ 2556
确凿 2556
做事 2555
焚烧 2555
镜头 2555
委派 2554
布置 2554
楼梯 2554
211 2553
有益于 2553
看成 2553
软弱 2553
ex@@ 2552
坚定不移 2551
影子 2551
祖先 2551
凶@@ 2550
加密 2550
叔叔 2550
售 2550
aj@@ 2549
酗酒 2549
1,000 2548
厚度 2548
缩 2548
诉求 2548
阿尔及尔 2548
麦 2548
ara 2547
S/2001/@@ 2546
ati@@ 2546
s/@@ 2546
劲 2546
勃@@ 2546
房产 2546
脑袋 2546
人权@@ 2545
毗邻 2545
不行 2544
养殖 2544
卧室 2544
情愿 2544
整整 2543
时数 2543
综合症 2543
SE@@ 2542
拨@@ 2542
穆罕默德 2542
不起 2541
治愈 2541
Di@@ 2540
ur 2539
濒危 2539
通盘 2539
ya 2537
可比性 2537
鬼@@ 2536
1968年 2535
布里@@ 2535
有名 2535
工具包 2534
想像 2534
谷@@ 2534
轿车 2534
雇@@ 2533
抓@@ 2532
自由@@ 2532
减肥 2530
恐慌 2530
格陵兰 2530
莎@@ 2530
中小学 2529
出发点 2529
加利 2529
摆 2529
来访 2529
闭@@ 2529
放入 2528
沃 2528
率先 2528
可信度 2527
大韩民国 2527
盗@@ 2527
宴会 2525
瑙鲁 2524
当你 2523
辰 2523
鹰 2523
Sp@@ 2522
副总理 2522
1963年 2521
民意 2521
验@@ 2521
亚非 2520
挑@@ 2520
援用 2520
晚会 2520
极大地 2520
继承国 2520
㈥ 2519
夺取 2519
富人 2519
狄@@ 2518
结局 2518
见表 2518
山脉 2517
后悔 2516
帐目 2516
脑子 2516
尿@@ 2515
断裂 2515
查出 2515
纳税 2515
话语 2515
起见 2515
颠覆 2515
E.@@ 2513
国际化 2513
指的 2513
海里 2513
珍惜 2513
ik 2512
处方 2512
控制@@ 2512
仓 2511
总统令 2511
捐助界 2509
留意 2509
直线 2509
//@@ 2507
Sam@@ 2507
终生 2507
触犯 2507
贫@@ 2507
丧@@ 2506
尿 2506
管辖区 2506
陷 2506
需@@ 2506
浪@@ 2505
第59/@@ 2505
罩 2505
性侵犯 2504
第55/2@@ 2504
走了 2504
狂热 2503
荣@@ 2503
导游 2502
欧安会 2501
红外 2501
葬 2501
ha 2500
丙@@ 2499
父@@ 2499
/C@@ 2498
年龄段 2498
教育法 2498
无偿 2498
极力 2498
前线 2497
据@@ 2497
一点点 2496
基督徒 2496
概@@ 2496
特种 2496
丰@@ 2495
垫@@ 2495
缘故 2495
隐瞒 2495
往年 2494
惟一 2494
通向 2493
电动 2492
羞辱 2491
载体 2491
没事 2490
户外 2489
未必 2489
皇帝 2489
远处 2489
检方 2488
辉煌 2488
选举权 2488
打断 2487
火星 2487
逮捕令 2487
齿@@ 2487
冒 2486
尘 2486
财 2486
5.1 2485
9％ 2484
府 2483
安全部 2482
斗@@ 2482
预付款 2482
前沿 2481
应分 2481
恪守 2481
东南 2480
孙@@ 2480
尼斯 2480
结清 2480
蔑视 2480
S/2002/@@ 2479
吉姆 2479
含糊 2479
嫌疑犯 2479
皇@@ 2479
硅 2479
运河 2479
优雅 2478
组办 2478
过期 2478
场址 2477
学龄 2477
须经 2477
专题组 2476
害@@ 2476
开口 2476
提供商 2476
翅膀 2476
摸@@ 2475
期满 2475
行政@@ 2475
请愿人 2475
17% 2474
受访者 2474
落入 2474
不信任 2473
停顿 2473
克里@@ 2473
多氯 2473
二月 2472
减量 2472
标书 2472
57.@@ 2471
同胞 2471
币 2471
捐@@ 2471
登录 2471
可由 2470
幻@@ 2470
不在 2469
疑@@ 2469
票@@ 2469
缉获量 2469
严密 2468
哪怕 2468
底下 2468
时报 2468
求职 2468
兼容 2467
14% 2465
嫁给 2465
水资源 2465
身材 2465
佐证 2464
90年代 2463
肝 2463
11% 2462
Bl@@ 2462
但@@ 2462
宿@@ 2461
玉@@ 2461
北大西洋 2460
~ 2459
外语 2459
狼@@ 2459
筹款 2459
该报告 2459
飞行员 2459
30％ 2458
地缘 2458
挺@@ 2458
被盗 2458
避开 2458
冲动 2457
轴@@ 2457
大宗 2456
恩德培 2456
威廉 2455
密集型 2455
解析 2455
逃脱 2455
名声 2454
珍@@ 2454
出门 2453
居然 2453
撞 2453
康 2452
汤@@ 2451
训练有素 2451
奶奶 2450
带薪 2450
平常 2450
2000-2001年 2449
45% 2449
加班 2449
填 2449
桃@@ 2449
4/L.@@ 2448
腾 2448
偿债 2447
高频 2447
7000 2446
星星 2446
桥@@ 2446
共有 2445
哨所 2445
宾 2445
液压 2445
第25@@ 2445
饰 2445
365 2444
PC 2444
后备 2444
蓄@@ 2444
前期 2442
国务卿 2442
显 2442
灭@@ 2442
责@@ 2442
金牌 2442
As@@ 2441
激活 2441
琴 2441
第29@@ 2441
1.4 2439
兑 2439
咬@@ 2439
哈利@@ 2439
较高 2439
雅典 2439
氢氟 2438
注释 2438
理应 2438
辛烷 2438
30年 2437
S/200@@ 2437
广州 2437
碰@@ 2437
微不足道 2436
安圭拉 2435
涂料 2435
负起 2435
8,@@ 2434
备份 2434
肺结核 2434
事关 2433
抽烟 2433
盟友 2433
致电 2433
适 2433
适时 2433
确定性 2432
十几 2431
可转让 2431
合作@@ 2431
穆罕默德·@@ 2431
郡 2431
非常任 2431
7亿 2430
不一致 2430
升温 2430
掌 2430
运动@@ 2429
闲@@ 2429
强硬 2428
轴承 2428
----@@ 2427
居所 2427
护送 2427
适应性 2427
正直 2426
责任感 2426
走路 2426
实质上 2425
检控 2425
砂@@ 2425
走访 2425
跟@@ 2425
债权 2424
纽约市 2424
队@@ 2424
触及 2423
ES@@ 2422
多年 2422
妻 2422
脖子 2422
从没 2421
可得 2421
政客 2421
普里什蒂纳 2421
80万 2420
德尔 2420
配方 2420
格拉@@ 2419
登上 2419
耕作 2419
魔法 2419
可通过 2418
应把 2418
74@@ 2417
宽泛 2417
往返 2417
整天 2417
方括号 2417
杠杆 2417
欠@@ 2417
6.2 2416
八月 2416
在案 2416
村@@ 2416
英寸 2416
奥·@@ 2415
师@@ 2415
成见 2415
氟@@ 2415
非传统 2415
73@@ 2414
候@@ 2414
患病 2414
拉斯 2413
贪@@ 2413
暖 2412
口号 2411
经管 2411
进口国 2411
225 2410
沃尔@@ 2410
物理学 2410
责任人 2410
妮@@ 2409
尴尬 2409
布鲁@@ 2409
情报区 2409
中就 2408
巡回 2408
砂 2408
IM@@ 2407
S/1994 2407
有史以来 2407
航天器 2407
醉 2407
铝@@ 2407
54.@@ 2406
中小 2406
克莱@@ 2406
窝 2406
305 2405
世人 2405
农户 2405
分化 2405
利马 2405
病假 2405
脂@@ 2405
非凡 2405
乳腺癌 2404
已向 2404
挖@@ 2404
坛 2403
座谈会 2403
欠缺 2403
点燃 2403
趟 2403
收据 2402
比如说 2402
积极性 2402
助手 2401
搭 2401
独一无二 2401
简明 2401
行程 2401
集结 2401
体力 2400
切除 2400
重重 2400
1000万 2399
50.@@ 2399
哭泣 2399
欣@@ 2399
秋季 2399
肖@@ 2399
专科 2398
5/L.@@ 2397
做些 2397
肥@@ 2397
em 2396
受权 2396
沦为 2396
豆 2396
碰 2395
胸 2394
A/49/@@ 2393
全氟 2393
在各 2393
电磁 2393
非歧视 2393
受控 2392
忽然 2392
每人 2392
疫情 2392
ak 2391
不符 2391
引爆 2391
当事国 2391
美妙 2391
哈瓦那 2390
律 2390
旅@@ 2390
催@@ 2389
崇拜 2389
打下 2389
陆上 2389
奖@@ 2388
慢@@ 2388
拆 2388
法域 2388
ast@@ 2387
服务员 2387
绕@@ 2387
诊 2387
默 2387
9年 2386
仰@@ 2386
厘米 2386
遥@@ 2386
30多 2385
泰勒 2385
眼中 2385
著@@ 2385
迈克 2385
3/L.@@ 2384
文盲率 2384
第28@@ 2384
考生 2383
哭@@ 2382
圣地 2382
分销 2381
1989 2380
国都 2380
天上 2380
戈尔 2380
矫正 2380
肉体 2380
装配 2379
中和 2378
亟需 2378
能使 2378
起诉书 2378
撞击 2377
频 2377
Mor@@ 2376
执行@@ 2376
琴@@ 2376
置信 2376
佛教 2375
兽 2375
加勒比海 2375
在此期间 2375
神奇 2375
03 2374
216 2374
ran@@ 2374
外流 2374
拿起 2374
A/AC.109/200@@ 2373
⑴ 2373
厄@@ 2373
吐@@ 2373
天生 2373
鸟类 2373
基加利 2372
演化 2372
迫@@ 2372
WP.@@ 2370
发誓 2370
本应 2370
相机 2369
制药 2368
龄 2368
16% 2367
农作物 2367
战俘 2367
雄心 2367
代谢 2365
共用 2365
再加上 2365
扩建 2365
晶体 2365
藐视 2365
酋长 2365
IS 2364
好事 2364
澳 2364
猪@@ 2364
会议厅 2363
彼@@ 2363
伙 2362
宜@@ 2362
屋@@ 2362
把手 2362
受审 2361
庆 2361
投票权 2361
转发 2361
oh@@ 2359
公法 2359
阶 2359
顺便 2359
XV 2358
超市 2358
飞往 2358
不致 2357
市中心 2357
申请表 2357
运输@@ 2356
里亚 2356
A/AC.109 2355
初审 2355
各地区 2355
辩解 2355
酮 2355
防备 2355
85@@ 2354
喝酒 2354
本说明 2354
51/@@ 2353
Be@@ 2353
优于 2353
该区域 2353
壁@@ 2352
排定 2352
转送 2352
000万 2351
2008/09年 2350
妓女 2350
宫@@ 2350
座@@ 2350
悲@@ 2350
数以千计 2350
瓶颈 2350
科学院 2350
荡 2350
急救 2348
高血压 2348
为之 2347
反倾销 2347
开了 2347
救护车 2347
睡着 2347
SC@@ 2346
玩家 2346
等同于 2346
雾@@ 2346
7/L.@@ 2345
仙@@ 2345
惩教 2345
攻@@ 2345
约有 2345
老婆 2345
6/L.@@ 2344
将对 2344
失踪者 2343
营利 2343
军营 2342
来往 2342
案@@ 2342
转给 2342
230 2341
盖茨 2341
麻疹 2341
Mu@@ 2340
断言 2340
汉堡 2340
笔记本 2340
择@@ 2339
逼 2339
探 2338
私下 2338
风俗 2338
减低 2337
分析性 2337
小于 2337
米兰 2337
of@@ 2336
促 2336
确@@ 2336
配有 2336
黑海 2336
INF/@@ 2335
Su@@ 2335
嗣后 2335
悄悄 2335
215 2334
CR@@ 2334
信息@@ 2334
公信力 2334
笑容 2334
宽恕 2333
锅 2333
再一次 2331
树上 2331
核销 2331
盼望 2331
ort@@ 2329
公署 2329
四分之三 2329
残余 2328
脸@@ 2328
网格 2327
宁静 2326
抹@@ 2326
阿富汗人 2326
随即 2326
韩@@ 2326
嫌犯 2325
满意度 2325
琼斯 2325
福利部 2325
解答 2325
及时性 2324
招 2324
牙科 2324
美味 2324
评述 2324
赏@@ 2324
避@@ 2324
70万 2323
手上 2323
进驻 2323
连带 2323
Gr@@ 2322
电报 2322
硬币 2322
诚挚 2322
误导 2322
农业部 2321
嘲笑 2321
器材 2321
266 2320
2万 2320
斯托@@ 2320
贵族 2320
跌 2320
陈 2320
不可逆转 2319
单边 2319
钱@@ 2319
摊@@ 2318
眼下 2318
具@@ 2317
家政 2317
蛋@@ 2317
伸张正义 2316
听证 2316
宗@@ 2316
方法学 2316
第68 2316
简便 2316
多·@@ 2315
洋 2315
第一百@@ 2315
网球 2315
载明 2315
En@@ 2314
调研 2314
过早 2314
2002/@@ 2313
掉@@ 2313
童 2313
预示 2313
A/C.4/6@@ 2312
紧迫性 2312
＊ 2312
蒙特塞拉特 2311
1966年 2310
利亚@@ 2310
带动 2310
福特 2310
载荷 2310
加元 2309
合理性 2309
地步 2309
败 2309
GS 2308
军警 2308
娜·@@ 2308
缉获 2308
城堡 2307
惯常 2307
等人 2307
绕 2307
致死 2307
葡萄 2307
联安 2306
酱 2306
陆 2306
ot 2305
假装 2305
坚固 2305
时在 2305
留住 2305
几千 2304
器具 2304
有期 2304
烦@@ 2304
腾@@ 2304
la 2303
上一 2303
前夕 2303
A/HRC/2@@ 2302
企 2302
并同 2302
洪@@ 2302
硅@@ 2302
试试 2302
轮换 2302
IT 2301
一点儿 2301
第27@@ 2301
第31 2301
评判 2301
长得 2301
可可 2300
坦 2300
收拾 2300
肩 2300
骚乱 2300
ert@@ 2299
和善 2299
子公司 2299
持有人 2299
省长 2299
预言 2299
5.3 2298
后送 2298
坎帕拉 2298
J.@@ 2297
无所@@ 2297
桌面 2297
特拉@@ 2297
A/48/@@ 2296
有赖于 2296
织物 2296
许诺 2296
细致 2295
获利 2295
识@@ 2295
不作为 2294
不善 2294
伴@@ 2294
善政 2294
蒙罗维亚 2294
视图 2294
导演 2293
帕 2293
任一 2292
唯@@ 2292
15号 2291
倡导者 2291
感染率 2291
特殊性 2291
订于 2291
3/2@@ 2290
筹划 2290
级@@ 2290
转动 2290
商事 2289
弟兄 2289
财物 2289
返还 2289
Ham@@ 2288
同工 2288
执行率 2288
珠宝 2288
凸显 2287
存档 2287
绝大部分 2287
驱 2287
情人 2285
佣金 2284
泛滥 2284
科菲·安南 2284
避难所 2284
Rev.@@ 2283
上方 2283
质素 2283
油漆 2282
状@@ 2282
邮寄 2282
挖 2281
鸟@@ 2281
00亿 2280
启示 2280
弱@@ 2280
无聊 2280
D.@@ 2279
分期 2279
安援 2279
毫克 2279
磨损 2279
订阅 2279
责任制 2279
连任 2279
世界性 2278
分包 2278
150万 2277
吉尔吉斯 2277
打扰 2277
午@@ 2276
卖给 2276
22% 2275
不便 2275
周期性 2275
人权署 2273
族@@ 2273
裙子 2273
馆@@ 2273
统 2272
-3@@ 2271
ek 2270
住处 2270
泉 2270
健身 2269
开除 2269
派对 2269
跟上 2269
亲人 2267
废弃物 2267
教育@@ 2267
水下 2267
英属 2267
规避 2267
占领区 2266
第687 2266
预约 2266
戏@@ 2265
56.@@ 2264
介绍会 2264
疼 2264
童@@ 2264
绞@@ 2264
ee 2263
出版社 2263
弃 2263
德意志 2262
193@@ 2261
iyah 2261
匿名 2261
披@@ 2261
退役 2261
当成 2260
德里 2259
耗费 2259
辞@@ 2259
或有 2258
扶@@ 2257
查尔斯 2257
葛@@ 2257
赖@@ 2257
队长 2257
3.4 2256
Tr@@ 2256
蓬勃 2256
辖区 2256
哈佛 2255
图象 2255
援@@ 2254
饱受 2254
兰人 2253
激起 2253
受灾国 2252
斯坦 2252
未知 2252
牛津 2252
督察 2252
第64/@@ 2252
调配 2252
分派 2251
擅长 2251
爷爷 2251
直径 2251
自称 2251
排水 2249
有钱 2249
爬@@ 2249
肩膀 2249
血清 2249
得分 2248
心理学家 2248
ate 2247
妇幼 2247
诺言 2247
合伙人 2246
以东 2245
倍@@ 2245
安曼 2245
恒@@ 2245
慎重 2245
条目 2245
犹@@ 2245
顾@@ 2245
象是 2244
价钱 2243
勉强 2243
厂商 2243
耻辱 2243
213 2242
54/@@ 2242
驶@@ 2242
撰文人 2241
娶 2240
阻力 2240
一日 2239
不力 2239
佣工 2239
典@@ 2239
吓 2239
笼统 2239
调查局 2239
不佳 2238
还请 2238
ID 2237
变异 2237
没法 2236
泄露 2236
困@@ 2235
圣保罗 2235
钉 2234
列示 2233
联络官 2233
丑闻 2232
狭隘 2232
瘦@@ 2232
2007/08年 2231
寒 2231
妥当 2230
戈尔诺 2230
收音机 2230
染@@ 2230
由其 2230
股长 2230
Z 2229
ij@@ 2229
八国 2229
卫 2229
发掘 2229
齿轮 2229
80％ 2228
IMF 2228
不已 2228
侨民 2228
发援 2228
约翰逊 2228
舞会 2228
丘@@ 2227
中小企业 2227
捷@@ 2227
煮 2227
限@@ 2227
化工 2226
卫生@@ 2226
快捷 2226
撕@@ 2226
福音 2226
耦合 2226
西撒 2226
DP/200@@ 2225
草原 2225
ong@@ 2224
不必要 2224
充作 2224
忘@@ 2224
盯 2224
Ba@@ 2223
传给 2223
债@@ 2223
否 2223
ion 2222
发酵 2222
路口 2222
门诊 2222
愈 2221
移民法 2221
论据 2221
und@@ 2220
残暴 2220
+@@ 2219
仁 2219
教法 2218
照管 2218
精密 2218
表面上 2218
下一次 2217
天文台 2217
胳膊 2217
主机 2216
决赛 2216
磁 2216
董事长 2216
小鼠 2215
怒@@ 2215
箭 2215
缴费 2215
串 2214
试用 2214
诱导 2214
师们 2213
绳子 2213
降临 2213
非关税 2213
99.@@ 2212
下一 2212
传来 2211
北美洲 2211
第56/2@@ 2211
责备 2210
骨头 2210
副主任 2208
叹 2208
够@@ 2208
昆@@ 2208
纪念日 2208
ge 2207
不大可能 2207
圣多美 2207
帐@@ 2207
1244 2206
国籍法 2206
捕捉 2206
潘基文 2206
队部 2206
需求量 2206
2001-@@ 2205
一千 2205
或者@@ 2205
数次 2205
分辨率 2204
单击 2204
基薪 2204
自愿性 2204
自给自足 2204
隶属 2204
Par@@ 2203
年限 2203
敬 2203
电视机 2203
部厅 2203
销售@@ 2203
院的 2203
飞船 2203
原型 2202
哀悼 2202
所属 2202
拨付 2202
播出 2202
周六 2201
现正 2201
A/C.6/6@@ 2200
一会 2200
宣判 2200
肩负 2200
0.7% 2199
入伍 2199
S/2007/@@ 2198
渔民 2198
art@@ 2197
可惜 2197
天天 2197
40％ 2196
一共 2196
84@@ 2195
^ 2195
〉 2195
例证 2195
日增 2195
柏@@ 2195
肌 2195
艺术@@ 2195
艺术品 2195
芬 2195
闹 2195
浇@@ 2194
理会 2194
瓜 2194
继承权 2194
饮@@ 2194
450 2193
CMP.1 2193
济@@ 2193
第54 2193
比起 2192
研@@ 2192
战机 2191
360 2190
不知 2190
奴 2190
裤子 2190
五分之一 2189
牢 2189
跟你 2189
亿@@ 2188
存入 2188
同期 2187
富国 2187
总表 2187
悲痛 2187
渐进 2187
裁@@ 2187
詹姆斯 2187
出自 2186
少年犯 2186
魔鬼 2186
二.@@ 2185
牧场 2185
数据集 2184
溶@@ 2184
Sha@@ 2183
砖 2183
一一 2182
之二 2182
介@@ 2182
保险@@ 2182
斟酌 2182
球迷 2182
1/2@@ 2181
re 2181
动画 2181
山谷 2181
平原 2181
当他 2181
欧洲人 2181
沉积物 2181
烹饪 2181
用到 2181
pl@@ 2180
虎@@ 2180
分析@@ 2179
取样 2179
PDF 2178
味@@ 2178
湖泊 2178
环卫 2178
胚胎 2178
院子 2178
病情 2177
1958年 2176
1970年代 2176
Me@@ 2176
推动力 2176
饲养 2176
简洁 2175
货车 2175
同居 2174
嘉莉 2174
备有 2174
杰夫 2174
蒸@@ 2174
起床 2174
15000 2173
瓦加杜古 2173
着陆 2173
肿 2173
跃@@ 2173
17号 2172
ić 2172
序 2172
疏散 2172
勃勃 2171
号法 2171
肚子 2171
04 2170
PS@@ 2170
好奇 2170
滥@@ 2170
资历 2170
还向 2170
遇@@ 2170
2007-@@ 2169
第23@@ 2169
贡@@ 2169
呈@@ 2168
审问 2168
巴马 2168
开出 2168
拒服 2168
犹如 2168
病理 2168
范本 2168
融 2168
上司 2167
家禽 2167
纪念碑 2167
肢体 2167
讯问 2167
负载 2167
预付 2167
各州 2166
尾巴 2166
联布 2166
体外 2165
准军事 2165
应得 2165
校正 2165
流亡 2165
簿 2165
鼓吹 2164
不曾 2163
加权 2162
手枪 2162
株 2162
第63 2162
荣 2162
课本 2162
抄@@ 2161
最小 2161
Is@@ 2160
原籍 2160
天基 2160
所获 2160
步兵 2160
初稿 2159
样式 2159
繁重 2158
争辩 2157
全面地 2157
想知道 2157
溜@@ 2157
所为 2156
遗址 2156
在外 2155
格外 2155
润滑油 2155
牧@@ 2155
分会 2154
所长 2154
灵感 2154
疑虑 2154
坟墓 2153
第40 2153
部内 2153
PC@@ 2152
ian 2152
克里 2152
扔 2152
炸 2152
式@@ 2150
气专委 2150
化解 2149
递@@ 2149
50000 2148
Qu@@ 2148
副作用 2148
朱巴 2148
果实 2148
格林 2148
第一@@ 2148
造型 2148
ish@@ 2147
同样的 2147
嘴@@ 2147
段@@ 2147
194@@ 2146
勤奋 2146
发性 2146
流浪 2145
结尾 2145
2030年 2144
F-@@ 2144
圈@@ 2144
塞人 2144
大豆 2144
3.5 2143
头痛 2143
成套 2143
毕@@ 2143
腹 2143
222 2142
殿 2142
爱人 2142
细胞@@ 2141
九龙 2140
合规 2140
大师 2140
脉 2140
amb@@ 2139
耗 2139
一块 2138
唐 2138
画家 2138
空间站 2138
近日 2138
协商会 2137
招待会 2137
习 2136
尤 2136
碍 2136
共和 2135
姿势 2135
微额 2135
犯@@ 2135
韦 2135
56/@@ 2134
65.@@ 2134
就是说 2134
马路 2134
遗忘 2133
震 2133
PO@@ 2132
二十年 2132
至为 2132
词典 2132
WG.@@ 2130
吓@@ 2130
昏@@ 2130
杨 2130
遍布 2130
235 2129
400万 2129
交际 2129
感知 2129
核扩散 2129
优美 2128
将由 2128
伪@@ 2127
离境 2127
55/2@@ 2126
IP@@ 2126
复会 2126
水灾 2126
繁忙 2126
账单 2126
长老 2126
屋里 2125
掩饰 2125
有损 2125
磁场 2125
2/200@@ 2124
33% 2124
同在 2124
边际 2124
递送 2124
12-@@ 2123
二十五 2123
信息网 2122
拒@@ 2122
毁林 2122
训@@ 2122
era 2121
发展@@ 2121
听从 2121
悲观 2120
反政府 2119
当量 2119
无条件 2119
变的 2118
走去 2118
钻 2118
抗体 2117
检查员 2117
过量 2117
驱@@ 2117
4.4 2116
公爵 2116
商业化 2116
委@@ 2116
迦@@ 2116
旋风 2115
看似 2115
霍乱 2115
48/@@ 2114
哪@@ 2114
讨@@ 2114
卡特尔 2113
卧@@ 2113
权衡 2113
2008-2011年 2112
〈 2112
双性恋 2112
慰问 2112
贷@@ 2112
柳@@ 2111
逆 2111
３@@ 2111
1995-@@ 2110
养老 2110
息@@ 2110
斯塔@@ 2110
苏维埃 2110
上任 2109
凭证 2109
格雷 2108
拆毁 2107
问候 2107
sk@@ 2106
好莱坞 2106
补给 2106
公允 2105
展出 2105
求职者 2105
IC 2104
柄 2104
潮湿 2104
目击者 2104
几何 2103
观察站 2103
键盘 2103
严 2102
库尔德 2102
灾后 2102
荒谬 2102
俯@@ 2101
发作 2101
受害国 2101
裤 2101
伏 2100
65% 2099
吸附 2099
消 2099
碳化 2099
磁盘 2099
脏@@ 2099
关在 2098
兼并 2098
参谋 2098
因应 2098
才干 2098
抢 2098
树枝 2098
蜡烛 2098
9,@@ 2097
廉正 2097
棚 2097
远距离 2097
跑到 2096
顶部 2096
IR@@ 2095
Ram@@ 2095
ath@@ 2095
ba 2095
弦 2095
暴风雨 2095
朝向 2095
照看 2095
猜@@ 2095
组装 2095
育 2095
Add.4 2094
庭@@ 2094
海洋学 2094
祖父 2094
要使 2094
不负责任 2093
析 2093
立足于 2093
视察员 2093
S/2003/@@ 2092
扰 2092
疲软 2092
里昂 2092
零售商 2091
CD 2090
创始人 2090
坦诚 2090
并购 2090
耗氧 2090
层级 2089
珊瑚 2089
辨认 2089
1964年 2087
动物园 2087
成立于 2087
祖 2087
验 2087
高科技 2087
09 2086
担当 2086
立足 2086
敏 2085
特克斯 2085
痕 2085
维持费 2085
缸 2085
肠@@ 2085
香烟 2085
IP 2083
屈服 2083
苯@@ 2083
资料库 2083
兔子 2082
盘子 2082
非营利 2082
9亿 2081
友善 2081
受训 2081
残留 2081
独 2081
243 2080
字典 2080
放进 2080
景色 2080
AM@@ 2079
瘦 2079
窄 2079
行的 2079
酌处 2079
ow 2078
想象力 2078
稀少 2078
竹@@ 2078
便携式 2077
Man@@ 2076
探测器 2076
烷 2076
瞄准 2076
管理科 2076
近地 2076
优越 2075
庭审 2075
性教育 2075
成份 2075
盘存 2075
全人类 2074
字样 2074
普林西比 2074
附加值 2074
S/2008/@@ 2073
凉 2073
医治 2073
并于 2073
执行人 2073
漆 2073
现今 2073
徒@@ 2072
民盟 2072
硝@@ 2072
萎缩 2072
co 2071
行长 2071
1946年 2070
恋爱 2070
旅行社 2070
未付 2070
认出 2070
养恤金 2069
太子港 2069
高危 2069
刑院 2068
2000-@@ 2067
传唤 2067
十一月 2067
叶子 2067
物件 2067
了不起 2066
场@@ 2066
宽度 2066
岛国 2066
移居 2066
幼 2065
陶@@ 2065
双向 2064
指挥部 2064
映射 2064
盲人 2064
行了 2064
载述 2064
锁定 2064
古怪 2063
巧 2063
新颖 2063
某事 2063
缓冲 2063
归入 2062
接获 2062
无误 2062
澳洲 2062
经纪 2062
辅 2062
高原 2062
2001/@@ 2061
ma 2061
成形 2061
房价 2061
插 2061
汇票 2061
玩笑 2061
甲烷 2061
肩@@ 2061
赶到 2061
遣散 2061
分隔 2060
塔尔 2060
宾馆 2060
打发 2060
轮廓 2060
霜 2060
304 2059
工业界 2059
牌@@ 2059
08 2058
买家 2058
疡@@ 2058
公会 2057
大体 2057
将使 2057
所要 2057
祖母 2057
A/C.3/6@@ 2056
宏伟 2056
巴尔@@ 2056
嗨 2055
客观性 2055
备受 2054
弃@@ 2054
北朝鲜 2053
捕 2053
煤矿 2053
知晓 2053
纪要 2053
联接 2053
赫尔辛基 2053
雄 2053
高潮 2053
1978 2052
9000 2052
修饰 2052
升至 2052
编拟 2052
1994-1995 2051
CP.7 2051
ii 2051
不复 2051
后于 2051
在最 2051
5/2@@ 2050
毛病 2050
虎 2050
南美 2049
要件 2049
轨迹 2049
鲨鱼 2049
ro 2048
拘@@ 2048
挪用 2048
摸 2048
滚 2048
谨此 2048
以人为本 2047
地表 2047
投资人 2047
第24@@ 2047
借以 2046
卫队 2046
摩 2046
难得 2046
不多 2045
安定 2045
椅 2045
音乐@@ 2045
2/2@@ 2044
仍在 2044
叛军 2044
理所当然 2044
简述 2044
Pl@@ 2042
ev 2042
ISO 2041
周岁 2041
很久 2041
47/@@ 2040
人间 2040
增拨 2040
人手 2039
卡片 2039
块@@ 2039
织 2039
行者 2039
老虎 2038
丹尼尔 2037
促销 2037
凯科斯 2037
化验 2037
县级 2037
探视 2037
环绕 2037
美军 2037
蚊帐 2037
50亿 2036
a-@@ 2036
惹@@ 2036
深圳 2036
为生 2035
口腔 2035
斯科@@ 2035
艺@@ 2035
荡@@ 2035
躲避 2035
一天 2034
从句 2034
好看 2034
屑 2034
廷@@ 2034
必需品 2034
通行证 2034
61.@@ 2032
ama 2032
交出 2032
短信 2032
大道 2031
政界 2031
葡萄牙语 2031
ry 2030
』 2030
市值 2030
识 2030
228 2029
日刊 2029
螺旋 2029
认罪 2029
酷@@ 2029
长途 2029
1988 2028
za 2028
1945年 2027
为首 2027
保护性 2027
政治处 2027
突显 2027
罗·@@ 2027
罗伯特 2027
63.@@ 2026
上诉@@ 2026
展览会 2026
邮政局 2026
音频 2026
俄文 2025
更替 2025
淡 2025
牧民 2025
聆听 2025
闹@@ 2025
DA@@ 2024
字符串 2024
录取 2024
绘图 2024
世俗 2023
书店 2023
令@@ 2023
关上 2023
工商界 2023
贸易区 2023
雅加达 2023
217 2022
62.@@ 2022
公升 2022
定额 2022
细分 2022
航空器 2022
青春期 2022
UR@@ 2021
器件 2021
培训@@ 2021
娜@@ 2021
跑步 2021
返 2021
偷窃 2020
反弹 2020
奖项 2020
技@@ 2020
末尾 2020
浪潮 2020
下游 2019
亵渎 2019
占到 2019
嘴唇 2019
大火 2019
研训 2019
反腐 2018
困 2018
装载 2018
负债表 2018
返@@ 2018
之初 2017
候选 2017
壮@@ 2017
外商 2017
怀着 2017
06 2016
地狱 2016
小学生 2016
川 2016
裙 2016
蝴蝶 2015
还给 2015
Mc@@ 2014
出任 2014
嫉妒 2014
第0@@ 2014
胡 2014
阻挡 2014
07 2013
可从 2013
却@@ 2012
滴滴涕 2012
ica 2011
俗 2011
成因 2011
民法典 2011
硫 2011
第44 2011
譬如 2011
迫 2011
郑@@ 2011
CD@@ 2010
年假 2010
有助 2010
30000 2009
公国 2009
安非他明 2009
并能 2009
总检察长 2009
敲 2009
艾伦 2009
南共 2008
烦 2008
积分 2008
裂缝 2008
路面 2008
５@@ 2008
1962年 2007
乔治·@@ 2007
呼叫 2007
填充 2007
赶出 2007
不许 2006
前方 2006
奋@@ 2006
汗@@ 2006
渐@@ 2006
飞行器 2006
C节 2005
下称 2005
出卖 2005
姓氏 2005
油气 2005
迪拜 2005
[@@ 2004
绝育 2004
E/CN.4/Sub.2/200@@ 2003
不可思议 2003
履@@ 2003
酯 2003
IDB.3@@ 2002
在上 2002
折衷 2002
特等 2002
粗糙 2002
阻 2002
墨 2001
好在 2001
席@@ 2001
泛美 2001
海面 2001
花在 2001
PV.@@ 2000
挡 2000
论者 2000
低温 1999
修缮 1999
圆形 1999
带回 1999
未婚 1999
闭 1999
历程 1998
掌@@ 1998
二十四 1997
定的 1997
打败 1997
all 1996
one 1996
冗长 1996
卵 1996
消费品 1996
胡子 1996
运到 1996
钠 1996
墙壁 1995
消毒 1995
药具 1995
贫民 1995
20-@@ 1994
pr@@ 1994
就座 1994
焊@@ 1994
说服力 1994
身处 1994
避孕套 1994
52.@@ 1993
E4 1993
叙@@ 1993
斯蒂@@ 1993
浮动 1993
迟交 1993
共同点 1992
叫我 1992
岛@@ 1992
硫丹 1992
维奇 1992
肉类 1992
彻@@ 1991
热门 1991
锋 1991
鸣@@ 1991
221 1990
党员 1990
氯烃 1990
陷阱 1990
红利 1989
苗 1989
真实性 1988
联赛 1988
交织 1987
卡扎菲 1987
核设施 1987
烤 1987
牛肉 1987
赐 1987
err@@ 1986
复杂化 1986
底层 1986
索马里兰 1986
因数 1985
调试 1985
000@@ 1984
265 1984
Bo@@ 1984
开放式 1984
抑郁 1984
敞开 1984
时有 1984
服务台 1984
编排 1984
6.1 1983
凉@@ 1983
加固 1983
无比 1983
表扬 1983
运营商 1983
傲慢 1982
参政 1982
小孩子 1982
托运人 1982
银行家 1982
有一天 1981
中长期 1980
战斗员 1980
俄@@ 1979
对之 1979
称呼 1979
身子 1978
25％ 1977
后的 1977
临界 1976
已故 1976
捉@@ 1976
血压 1976
警卫队 1976
67.@@ 1975
座标 1975
歌唱 1975
膏 1975
辅@@ 1975
感和 1974
1/200@@ 1973
专为 1973
发展司 1973
性传播 1973
投掷 1973
大意 1972
磷@@ 1972
赌博 1972
会话 1971
公民权 1971
审美 1971
一如既往 1970
上下文 1970
亚·@@ 1970
同事们 1970
抱@@ 1970
柬 1970
医护 1969
夜里 1969
棕色 1969
猴子 1969
218 1968
ion@@ 1968
伯特 1967
秀@@ 1967
胜@@ 1967
几率 1966
烂 1966
继承人 1966
联卢 1966
长短 1966
ew@@ 1965
东道 1965
柔软 1965
马拉@@ 1965
3:@@ 1964
变迁 1963
吸入 1963
给他 1963
233 1962
CS@@ 1962
偶像 1962
制冷 1962
选取 1962
驻留 1962
拥@@ 1961
收益率 1961
í@@ 1960
埋@@ 1960
香蕉 1960
乐器 1959
坡@@ 1959
契 1959
ation@@ 1958
事儿 1958
ata 1957
ity 1957
⑵ 1957
四川 1957
幽@@ 1957
承 1957
有损于 1957
沙发 1957
炮击 1957
蚀 1957
陪@@ 1957
功 1956
操 1956
汇聚 1956
2005/06年 1955
中去 1955
主角 1955
外套 1955
S/2006/@@ 1954
优异 1954
第20@@ 1954
除去 1954
马里@@ 1954
之地 1953
似@@ 1953
助益 1953
Web 1952
在校 1952
居民区 1952
技术员 1952
留出 1952
肘 1952
调入 1952
阵@@ 1952
崭新 1951
无遗 1951
1954年 1950
2050年 1950
S/PRST/@@ 1950
争执 1950
本能 1950
评分 1950
闪烁 1950
学说 1949
忠@@ 1949
瞩目 1949
248 1948
4/200@@ 1948
分手 1948
枢纽 1948
氮@@ 1948
粗暴 1948
领水 1948
唱片 1947
搞@@ 1947
撤退 1947
构@@ 1947
武 1947
皮革 1947
笼罩 1947
讲解 1947
赛事 1947
之久 1946
减除 1946
贪婪 1946
恩·@@ 1945
献身 1945
第51 1945
Atlas 1944
上周 1944
发电厂 1944
埃尔@@ 1944
教皇 1944
服务处 1944
滚动 1944
烟雾 1944
编撰 1944
返回者 1944
Gh@@ 1943
John 1943
eng@@ 1943
不使用 1943
惹 1943
盲目 1943
自发 1943
盾 1942
立法者 1942
订有 1942
恢复性 1941
1967 1940
征用 1940
水层 1940
泵@@ 1940
问及 1940
1965年 1939
a'@@ 1939
ton 1939
存有 1939
研究金 1939
二战 1938
小计 1938
戴上 1938
拟于 1938
经济@@ 1938
者@@ 1938
面部 1938
ent 1937
天数 1937
或为 1937
权威性 1937
美德 1937
表达式 1937
让我 1937
管控 1936
tion 1935
亲眼 1934
工伤 1934
手套 1934
担@@ 1934
水产 1934
阀门 1934
14号 1933
223 1933
挂在 1933
挥@@ 1933
晒 1933
剩 1932
灌木 1932
部将 1932
锦@@ 1932
下设 1931
喜剧 1931
威尔 1931
巧妙 1931
性关系 1931
文化@@ 1931
无期 1931
献给 1931
组长 1931
钓 1931
i-@@ 1930
吉尔 1930
矿石 1930
苏丹@@ 1930
起义 1930
加利福尼亚 1929
司令部 1929
名录 1929
int 1928
文化部 1928
程@@ 1928
系统化 1928
聚焦 1928
脚步 1928
薪金税 1928
适当地 1928
顺应 1928
4.5 1927
对第 1927
脉@@ 1927
适合于 1927
鲜花 1927
9:@@ 1926
外阴 1926
达格·哈马舍尔德 1926
哪种 1925
尼克 1925
开玩笑 1925
战后 1925
大米 1924
未用 1924
第67/@@ 1924
自尊 1924
议席 1924
G-@@ 1923
伊拉克人 1923
掌管 1923
纪 1923
经销商 1923
不可 1922
布莱尔 1922
重伤 1922
66.@@ 1921
俗@@ 1921
厂家 1921
对吗 1921
河谷 1921
取出 1920
斯顿 1920
津@@ 1920
1955年 1919
冰淇淋 1919
副代表 1919
完备 1919
干嘛 1919
252 1918
强壮 1918
打扮 1918
摄入 1918
比照 1918
瓶子 1918
2008/@@ 1917
ers@@ 1917
专制 1917
援 1917
整编 1917
最大化 1917
毛利人 1917
汇总表 1917
萨尔@@ 1917
裁员 1917
还原 1917
有幸 1916
罢了 1916
辛苦 1916
圣城 1915
第47 1915
237 1914
4:@@ 1914
尔顿 1914
还未 1914
饱和 1914
信息化 1913
夸大 1913
快点 1913
旁@@ 1913
男朋友 1913
露天 1913
ern@@ 1912
口味 1912
横 1912
高管 1912
197@@ 1911
23% 1911
ICCD/COP 1911
借用 1911
可选 1911
囊@@ 1911
指挥@@ 1911
政令 1911
说来 1911
FCCC/SBSTA/@@ 1910
不列颠 1910
卓有 1910
压倒 1910
同志 1910
天下 1910
染 1910
欧亚 1910
缝@@ 1910
邻@@ 1910
3万 1909
58/@@ 1909
商场 1909
本科 1909
滞后 1909
门徒 1909
企业界 1908
失调 1908
济 1908
海员 1908
膜@@ 1908
日元 1907
电极 1907
季节性 1906
构件 1906
泪@@ 1906
1996-1997 1905
CT@@ 1905
国产 1905
淹没 1905
270 1904
偶 1904
大院 1904
实话 1904
流行率 1904
遮@@ 1904
MS@@ 1903
停滞不前 1903
摒弃 1903
灾区 1903
刷@@ 1902
惊喜 1902
所涉 1902
而异 1902
传动 1901
使用率 1901
穷@@ 1901
遗嘱 1901
面孔 1901
你自己 1900
利物浦 1900
尊@@ 1900
神经@@ 1900
采购@@ 1900
重心 1900
低廉 1899
友@@ 1899
埋 1899
宣@@ 1899
5/Add.@@ 1898
偏差 1898
口中 1898
可获得 1898
奏 1898
工地 1898
期中 1898
漂@@ 1898
问问 1898
192@@ 1897
Abu 1897
共产主义 1897
廉政 1897
营养@@ 1897
224 1896
格里@@ 1896
民行 1896
跌@@ 1896
非歧视性 1896
须@@ 1896
手表 1895
新闻处 1895
死了 1895
爱德华 1895
聚合物 1895
获知 1895
规管 1895
车上 1895
成型 1894
线上 1894
NA@@ 1893
PE@@ 1893
不应该 1893
甚麽 1893
na 1892
前列 1892
墙上 1892
每月 1892
灿烂 1892
班吉 1892
考核 1892
高尚 1892
上了 1891
丙 1891
信守 1891
公诉 1891
处处 1891
将其 1891
新德里 1891
Or@@ 1889
囚禁 1889
在意 1889
批发 1889
改性 1889
票数 1889
移民@@ 1889
迟迟 1889
遗失 1889
金色 1889
主席国 1888
全局 1888
厂@@ 1888
坐下 1888
投保 1888
求助于 1888
6.3 1887
地政 1887
旗@@ 1887
浴室 1887
祝你 1887
附文 1887
/CO/@@ 1886
亨@@ 1886
年青人 1886
打扫 1886
报警 1886
抬@@ 1886
源泉 1886
ne 1885
偏好 1885
统治者 1885
踢@@ 1885
2002-2005年 1884
● 1884
使不 1884
使者 1884
女孩子 1884
布尔 1884
依赖性 1883
对了 1883
斯坦@@ 1883
长于 1883
1718 1882
236 1882
303 1882
逐字 1882
CRP.@@ 1881
不可缺少 1881
回报率 1881
贮存 1881
鸟儿 1881
１ 1881
A/52/@@ 1880
与众不同 1880
安宁 1880
就说 1880
清晨 1880
叉@@ 1879
推导 1879
新界 1879
洛克 1879
社会学 1879
起步 1879
韩 1879
十万 1878
喀@@ 1878
猫@@ 1878
组别 1878
耽搁 1878
『 1877
可接受 1877
玩耍 1877
戒指 1876
杯@@ 1876
艺 1876
90万 1875
凯 1875
埃尔 1875
巢 1875
301 1874
回头 1874
待在 1874
摇 1874
21% 1873
拘留@@ 1873
牙医 1873
破碎 1873
程式 1873
53.@@ 1872
利斯 1872
土地权 1872
挨@@ 1872
水管 1872
监 1872
颇为 1872
are 1871
服务费 1871
疾@@ 1871
1950年 1870
开门 1870
愚@@ 1870
据点 1870
柜台 1870
直升飞机 1870
衣物 1870
连锁 1870
尸@@ 1869
缓 1869
19% 1868
á@@ 1868
上岗 1868
养成 1868
取向 1868
国债 1868
寄宿 1868
山上 1868
敏捷 1868
班级 1868
而后 1868
1600 1867
但愿 1867
时段 1867
A/C.5/@@ 1866
字体 1866
文人 1866
盲@@ 1866
跑道 1866
El 1865
绒 1865
轮值 1865
末@@ 1864
猛虎 1864
下调 1863
梁@@ 1863
震动 1863
242 1862
律的 1862
揽子 1862
法国人 1862
自在 1862
受雇 1861
存量 1861
走在 1861
黛@@ 1861
克减 1860
口岸 1860
夏威夷 1860
民防 1860
颁奖 1860
HR@@ 1859
万一 1858
人日 1858
全方位 1858
察@@ 1858
或者说 1858
致敬 1858
陌生 1858
保健@@ 1857
告别 1857
恫吓 1857
男士 1857
蜜蜂 1857
伯格 1856
厌倦 1856
参与率 1856
呼吸道 1856
水稻 1856
联想 1856
逊@@ 1856
里斯本 1856
镍 1856
停下来 1855
凶手 1855
括号 1855
饮酒 1855
处所 1854
巴里 1854
并把 1854
杆菌 1854
杰克逊 1854
租约 1854
面貌 1854
At@@ 1853
会儿 1853
做完 1853
坚称 1853
居高不下 1853
不适 1852
劳动部 1852
臭 1852
荒@@ 1852
詹@@ 1852
迫击炮弹 1852
不均衡 1851
凸@@ 1851
口气 1851
熊@@ 1851
说成 1851
重罪 1851
58.@@ 1850
A/50 1850
巴塞罗那 1850
总和 1850
看护 1850
偏向 1849
叶片 1849
好运 1849
彩 1849
流行病学 1849
100多 1848
anc@@ 1848
固然 1848
平均值 1848
授课 1848
格尔 1848
纽带 1848
讲授 1848
饮用 1848
干活 1847
贷 1847
仅限于 1846
分项目 1846
千克 1846
阻塞 1846
饱 1846
1800 1845
ens@@ 1845
咽 1845
库克群岛 1845
望着 1845
枝@@ 1845
笔者 1845
忙@@ 1844
既@@ 1844
衬@@ 1844
轻重 1844
反击 1843
可用性 1843
回想 1843
城区 1843
膝盖 1843
陷@@ 1843
领海 1843
219 1842
成瘾 1842
沥青 1842
独家 1842
联系国 1842
己@@ 1841
性感 1841
构 1841
违@@ 1841
283 1840
om 1840
两部分 1840
堂@@ 1840
多层面 1840
洄游 1840
派系 1840
滞留 1840
知名度 1840
身后 1840
通信@@ 1840
一带 1839
创始 1839
小农 1839
邓@@ 1839
ab 1838
火车站 1838
第47/@@ 1838
野心 1838
其一 1837
分权 1837
涌@@ 1837
知悉 1837
肌肤 1837
自私 1837
雅各 1837
高涨 1837
有无 1836
海平面 1836
信封 1835
刷 1835
勤@@ 1835
处理器 1835
房租 1835
沙滩 1835
童婚 1835
胜过 1835
详见 1835
ter 1834
以北 1834
敏@@ 1834
数据@@ 1834
旺@@ 1834
洞@@ 1834
衔接 1834
货品 1834
98.@@ 1833
Sar@@ 1833
ce 1833
动产 1833
柱@@ 1833
紧要 1833
表彰 1833
转账 1833
悲哀 1832
脑海 1832
随身 1832
仍有 1831
批判 1831
拿走 1831
裨益 1831
鲜 1831
ung@@ 1830
充斥 1830
放慢 1830
植@@ 1830
航线 1830
规程 1830
贸@@ 1830
238 1829
梯@@ 1829
吐 1828
外侨 1828
审判@@ 1828
就绪 1828
放牧 1828
退伍 1828
丛林 1827
中共 1827
匆匆 1827
灌输 1827
爆炸性 1827
语气 1827
F.@@ 1826
儿女 1826
导师 1826
水流 1826
罗夫 1826
E/CN.@@ 1825
第18@@ 1825
赚钱 1825
驾驶员 1825
世代 1824
第七十三 1824
诠释 1824
Se@@ 1823
_ 1823
壮大 1823
找个 1823
波特 1823
瑟 1823
脚本 1823
EM@@ 1822
期末 1822
递解 1822
饮 1822
村子 1821
瓶@@ 1821
紫色 1821
舱@@ 1821
杯子 1820
节制 1820
匆忙 1819
尼维斯 1819
晶 1819
议和 1819
有约 1818
深层 1818
用具 1818
腹泻 1818
难民法 1818
27% 1817
右边 1817
安全@@ 1817
木头 1817
淋@@ 1817
螺@@ 1817
赶走 1817
同侪 1816
最优 1816
矿床 1816
膳食 1816
防务 1816
出路 1815
建筑师 1815
旅途 1815
虾 1815
长足 1815
签约 1814
425 1813
Far@@ 1813
圣基茨 1813
弄得 1813
损耗 1813
额@@ 1813
2006/07年度 1812
开幕词 1812
支架 1812
硫化物 1812
割礼 1811
诺夫 1811
转载 1811
马尼拉 1811
24% 1810
乳 1810
厄尔尼诺 1810
原力 1810
实用性 1810
淫@@ 1810
234 1809
率@@ 1809
246 1808
ess 1808
成了 1808
玉 1808
葬礼 1808
4/2@@ 1807
寺 1807
山顶 1807
平息 1807
房委会 1807
高空 1807
7.2 1806
Abd@@ 1806
Sc@@ 1806
复活 1806
大笑 1806
邦特兰 1806
下车 1805
机油 1805
燃 1805
肯尼迪 1805
车臣 1805
64.@@ 1804
E/ICEF/200@@ 1804
东南部 1804
基数 1804
肢 1804
主宰 1803
发觉 1802
女朋友 1802
斯克 1802
水力 1802
促@@ 1801
水利 1801
第51/2@@ 1801
自备 1801
旧金山 1800
鸭 1800
中药 1799
大有 1799
招收 1799
肝脏 1799
诱@@ 1799
E/C.@@ 1798
富翁 1798
强力 1798
终点 1798
被杀 1798
28% 1797
F-16 1797
传奇 1797
敦请 1797
瓦斯 1797
聚合 1797
过敏 1797
邮局 1797
不可接受 1796
减半 1796
如果说 1796
开销 1796
截然不同 1796
拓宽 1796
255 1795
很好地 1795
晓 1795
镑 1795
De@@ 1794
克拉 1794
行进 1794
隶属于 1794
帝力 1793
施以 1793
欢呼 1793
正视 1793
洒 1793
CM@@ 1792
嘴里 1792
培@@ 1792
280 1791
厅@@ 1791
唯有 1791
应被 1791
麻管局 1791
59.@@ 1790
傻@@ 1790
劫@@ 1790
墓地 1790
念头 1790
核电站 1790
融化 1790
高额 1790
245 1789
25000 1789
XX 1789
操@@ 1789
堵塞 1788
小偷 1788
查理 1788
销量 1788
ala 1787
床@@ 1787
放映 1787
尖锐 1786
若是 1786
OS 1785
咨询@@ 1785
微量 1785
摄@@ 1785
暂@@ 1785
胖 1785
98% 1784
尽职 1784
抗生素 1784
指纹 1784
调制 1784
颈 1784
仇视 1783
全面性 1783
幸@@ 1783
流出 1783
石棉 1783
等同 1783
臭@@ 1783
趋向 1783
68.@@ 1782
水库 1782
烈 1782
眼里 1782
经贸 1782
绵@@ 1782
232 1781
暴雨 1781
离散 1781
褐色 1781
见于 1781
警觉 1781
雷斯 1781
验收 1781
Ac@@ 1780
兰德 1780
吸纳 1780
外在 1780
政治性 1780
车道 1780
Mal@@ 1779
奔 1779
寡@@ 1779
就地 1779
机体 1779
讲师 1779
贝尔@@ 1779
起伏 1779
孙 1778
效仿 1778
60％ 1777
厨师 1777
逐出 1777
面粉 1777
ON@@ 1776
之处 1776
攀升 1776
暖@@ 1776
沾@@ 1776
街区 1776
一视同仁 1775
丛 1774
对吧 1774
招待 1774
饱@@ 1774
以至 1773
卜 1773
销售额 1773
长的 1773
一下子 1772
斐@@ 1772
映@@ 1772
篮子 1772
诋毁 1772
辛格 1772
接洽 1771
说谎 1771
铸@@ 1771
乏味 1770
保障@@ 1770
有线 1770
账@@ 1770
非军事化 1770
231 1769
ich@@ 1769
讲习会 1769
一流 1768
士气 1768
明示 1768
驳斥 1768
A/C.1/5@@ 1767
Ben@@ 1767
敏锐 1767
氟化 1767
爱心 1767
畅销 1767
阈值 1767
19/@@ 1766
338 1766
不公 1766
架@@ 1766
焦 1766
如表 1765
护 1765
瓦解 1765
监护权 1765
管理股 1765
脊@@ 1765
马格里布 1765
埋葬 1764
扭@@ 1764
拳 1764
脸色 1764
近似 1764
256 1763
60.@@ 1763
S/2010 1763
he@@ 1763
ice 1763
并可 1763
日记 1763
有效率 1763
气息 1763
猖獗 1763
盈@@ 1763
排除在外 1762
芯 1762
卫生署 1761
异性 1761
投降 1761
转身 1761
进口商 1761
违禁 1761
雄心勃勃 1761
直觉 1760
酶@@ 1760
麦克 1760
55% 1759
客厅 1759
小伙子 1759
左边 1759
贷记 1759
15％ 1758
减速 1758
挣 1758
无理 1758
有偿 1758
比喻 1758
热切 1758
耶夫 1758
阅 1758
7/2@@ 1757
ada 1757
不偏不倚 1757
同性恋者 1757
防守 1757
26% 1756
太阳@@ 1756
建国 1756
林肯 1756
津 1756
潜艇 1756
监委 1756
311 1755
ane 1755
仿效 1755
探究 1755
鼠@@ 1755
189@@ 1754
GE@@ 1754
所持 1754
能为 1754
塞尔@@ 1753
弗兰克 1753
恶心 1753
抗拒 1753
此次 1753
渊源 1753
造就 1753
砖@@ 1752
讲台 1752
Ak@@ 1751
P. 1751
出生率 1751
围栏 1751
搬运 1751
骑士 1751
夸张 1750
金矿 1750
6:@@ 1749
侵略者 1749
教义 1749
那人 1749
LE@@ 1748
拥有者 1748
排队 1748
溴@@ 1748
英文版 1748
试验性 1748
1737 1747
FA@@ 1747
Sim@@ 1747
为向 1747
响@@ 1747
多米尼克 1747
用力 1747
融@@ 1747
www.un@@ 1746
不属于 1746
宣传@@ 1746
山羊 1746
未遂 1746
1612 1745
9/2@@ 1745
很长 1745
虚弱 1745
5:@@ 1744
sc@@ 1744
入手 1744
入狱 1744
挤 1744
机上 1744
病变 1744
鸣 1744
可笑 1743
拳@@ 1743
美属 1743
黏@@ 1743
70％ 1742
EL@@ 1742
力气 1742
肮脏 1742
致残 1742
近代 1742
连结 1742
王后 1741
线程 1741
大片 1740
承包人 1740
滩 1740
稀缺 1740
精算师 1740
腹部 1740
舟 1740
G.@@ 1739
活泼 1739
这边 1739
保留地 1738
微弱 1738
耕种 1738
胸部 1738
设于 1738
下级 1737
亲身 1737
借给 1737
切尔西 1737
州市 1737
敌@@ 1737
紫外线 1737
se@@ 1736
大笔 1736
相邻 1736
光辉 1735
地基 1735
布莱@@ 1735
阿卜杜拉 1735
个个 1734
亏@@ 1734
背道而驰 1734
脏 1734
诉状 1734
跨学科 1734
很可能 1733
日本人 1733
测绘 1733
盟国 1733
饭@@ 1733
基伍 1732
大象 1732
搜@@ 1732
离任 1732
请愿 1732
路边 1732
锯@@ 1732
DC@@ 1731
att@@ 1731
aya 1731
彭@@ 1731
问到 1731
302 1730
流传 1730
亲切 1729
假释 1729
半导体 1729
华丽 1729
肥料 1729
阐释 1729
97.@@ 1728
Ex@@ 1728
不禁 1728
参 1728
墨西哥城 1728
建筑业 1728
振奋 1728
炉@@ 1728
美学 1728
贫富 1728
赋@@ 1728
辛勤 1728
2003-@@ 1727
Ay@@ 1727
相干 1727
糖果 1727
咳嗽 1726
工程@@ 1726
攀@@ 1726
方方面面 1726
无损 1726
革@@ 1726
ere 1725
储量 1725
字段 1725
小儿麻痹症 1725
帆 1725
擅自 1725
欧安组织 1725
邮箱 1725
1300 1724
拘捕 1724
硬化 1724
第48/@@ 1724
维多利亚 1724
递 1724
FCCC/SBI/200@@ 1723
凯瑟琳 1723
开通 1723
折旧 1723
控股 1723
水生 1723
洁 1723
游览 1723
许是 1723
200多 1722
CRP.1 1722
ung 1722
拒不 1722
语义 1722
锅炉 1722
2005-@@ 1721
用量 1721
肝炎 1721
舌头 1721
亚人 1720
对准 1720
联运 1720
风力 1720
可信性 1719
应尽 1719
每周 1719
途 1719
遭@@ 1719
闪电 1719
500@@ 1718
专辑 1718
兵库 1718
吕@@ 1718
数个 1718
肺炎 1718
高尔夫 1718
─ 1717
国境 1717
往前 1716
枯竭 1716
气管 1716
2007/@@ 1715
相容 1715
钱包 1715
专案 1714
冷漠 1714
朴@@ 1714
羽毛 1714
预 1714
400@@ 1713
94.@@ 1713
位移 1713
分布式 1713
巨人 1713
数十亿 1713
遣送 1713
1700 1712
307 1712
弗里@@ 1712
想出 1712
拱@@ 1712
雕刻 1712
2014-2017年 1711
600万 1711
为受 1711
哇 1711
天地 1711
光芒 1710
奥斯@@ 1709
客户端 1709
工序 1709
帝汶 1709
257 1708
修补 1708
关联性 1708
增加额 1708
谢意 1708
5.4 1707
乏 1707
咨委会 1707
坎昆 1707
征询 1707
离岸 1707
耸@@ 1707
被毁 1707
迁往 1707
门外 1707
面具 1707
弟 1706
洪 1706
涂 1706
过错 1706
Mohamed 1705
似宜 1705
帐单 1705
标示 1705
苍白 1705
Fl@@ 1704
体中 1704
变通 1704
官员们 1704
批量 1704
涂层 1704
倒闭 1703
未作 1703
研讨 1703
驾车 1703
OR@@ 1702
上床 1702
特里@@ 1702
稍 1702
第46 1702
量子 1702
3500 1701
京@@ 1701
好人 1701
抗辩 1701
竞争者 1701
首选 1701
306 1700
E. 1700
oj@@ 1700
不可侵犯 1700
企@@ 1700
土豆 1700
娘 1700
背离 1700
降雨 1700
鼻 1700
19-@@ 1699
7:@@ 1699
不动 1699
勇@@ 1699
奶酪 1699
本届 1699
1970 1698
律法 1698
77.@@ 1697
ul 1697
尽头 1697
巨头 1697
描写 1697
背叛 1697
调停 1697
酷 1697
静静 1697
偿@@ 1696
树叶 1696
植入 1696
立方米 1696
续会 1696
责任者 1696
38% 1695
持有者 1695
剑桥 1694
不正常 1693
个性化 1693
受阻 1693
对口 1693
祂 1693
升起 1692
擦 1692
矮 1692
起始 1692
炸死 1691
79.@@ 1690
基里巴斯 1690
契@@ 1690
229 1689
pp@@ 1689
一年 1689
位数 1689
保释 1689
出价 1689
分泌 1689
忧@@ 1689
政治部 1689
未获 1689
维权 1689
花旗 1689
花朵 1689
防灾 1689
青蛙 1689
自立 1688
诚 1688
267 1687
90％ 1687
悉尼 1687
提早 1687
采样 1687
76.@@ 1686
无私 1686
硫@@ 1686
薄膜 1686
领事馆 1686
241 1685
ill 1685
业务@@ 1685
多半 1685
帅 1684
拥护 1684
过渡性 1684
零容忍 1684
香味 1684
人次 1683
凹@@ 1683
忙碌 1683
核技术 1683
电影院 1683
重力 1683
举起 1682
今 1682
新疆 1682
有别于 1682
特里 1682
自觉 1682
劳工部 1681
羊毛 1681
西北部 1681
触 1681
11-@@ 1680
什叶派 1680
傻瓜 1680
暴乱 1680
畸形 1680
股本 1680
赐给 1680
转折点 1680
迅猛 1680
1514 1679
为有 1679
勒索 1679
大事 1679
语句 1679
选拔 1679
递延 1679
And@@ 1678
第65 1678
管教 1678
贺卡 1678
娃娃 1677
部级 1677
amm@@ 1676
加班费 1676
畜牧业 1676
访客 1676
跨大西洋 1676
弃权票 1675
译员 1675
赠 1675
二十@@ 1674
学童 1674
年终 1674
毛派 1674
鼠标 1674
剪 1673
十年 1672
手下 1672
涌 1672
电文 1672
不及 1671
兽医 1671
役@@ 1671
感应 1671
源头 1671
训练班 1671
750 1670
伞 1670
长长 1670
Mat@@ 1669
二○○@@ 1669
伸 1669
侧重点 1669
单单 1669
弧@@ 1669
灰尘 1669
燃料@@ 1669
虚 1669
69.@@ 1668
ich 1668
man@@ 1668
有系统 1668
炼@@ 1668
约瑟 1668
309 1667
320 1667
Wal@@ 1667
com@@ 1667
伍@@ 1667
偿金 1667
听听 1667
浏览器 1667
添 1667
源码 1667
金融@@ 1667
域名 1666
政和 1666
缠@@ 1666
罗伯特·@@ 1666
做为 1665
后天 1665
帖 1665
浓 1665
良知 1665
钱财 1665
20号 1664
253 1664
右翼 1664
患上 1664
联机 1664
非正常 1664
30亿 1663
中间人 1663
无助于 1663
不久前 1662
在座 1662
搅拌 1662
淀粉 1662
约为 1662
分遣队 1661
愈来愈 1661
特质 1661
56/2@@ 1660
90.@@ 1660
不惜 1660
冷冻 1660
干的 1660
担保权 1660
接壤 1660
比索 1660
火炬 1660
隔绝 1660
加尔@@ 1659
振 1659
筹@@ 1659
A/C.3/5@@ 1658
CO2 1658
Ros@@ 1658
万国宫 1658
上调 1658
按摩 1658
权时 1658
走开 1658
跟我 1658
较早 1658
Co@@ 1657
ph@@ 1657
不具 1657
废墟 1657
7.1 1656
宰@@ 1656
引诱 1656
漫画 1656
分居 1655
卜@@ 1655
晕@@ 1655
滋生 1655
潜能值 1655
而来 1655
ace 1654
可受 1654
在押 1654
多民族 1654
工人们 1654
惧怕 1654
过重 1654
坏@@ 1653
尝 1653
显着 1653
环境部 1653
纠@@ 1653
维斯 1653
航海 1653
遗体 1653
不遵守 1652
兔 1652
归档 1652
电线 1652
罗德 1652
错综复杂 1652
Cor@@ 1651
地处 1651
奈 1651
好坏 1651
妙 1651
度量 1651
抗灾 1651
联检组 1651
2000@@ 1650
保证金 1650
服饰 1650
261 1649
农夫 1649
敦@@ 1649
聊 1649
叛@@ 1648
得不到 1648
兆 1647
召 1647
女友 1647
恒星 1647
抨击 1647
11时@@ 1646
5/Add.1 1646
Kr@@ 1646
ank@@ 1646
比勒陀利亚 1646
烧毁 1646
金和 1646
忍 1645
或因 1645
辩方 1645
鉴@@ 1645
内陆国 1644
渗@@ 1644
ber@@ 1643
舌 1643
赶快 1643
308 1642
4万 1642
不清 1642
实施者 1642
耗尽 1642
80年代 1641
I.@@ 1641
机械@@ 1641
矿区 1641
稳健 1641
逐年 1641
三角洲 1640
不切实际 1640
别处 1640
岭 1640
弄清 1640
循证 1640
念@@ 1640
抚恤金 1640
泪 1640
93.@@ 1639
发售 1639
发音 1639
抗议者 1639
暴 1639
腺@@ 1639
加载 1638
巴马科 1638
渡@@ 1638
象征性 1638
违犯 1638
习@@ 1637
克朗 1637
抑郁症 1637
机枪 1637
满怀 1637
纱 1637
首尔 1637
一眼 1636
喉@@ 1636
总而言之 1636
枯@@ 1636
爸 1636
狐狸 1636
纳德 1636
羞@@ 1636
36% 1635
E/C.12 1635
分级 1635
商务部 1635
寄养 1635
礼服 1635
绅士 1635
英勇 1635
59/2@@ 1634
@@@ 1634
尖端 1634
态@@ 1634
OL 1633
gu@@ 1633
当场 1633
恶魔 1633
执业 1633
显微镜 1633
生化 1633
减税 1632
午饭 1632
域内 1632
挡@@ 1632
革 1632
物力 1631
选中 1631
园艺 1630
夺 1630
撒谎 1630
渡 1630
篮@@ 1630
裁量 1630
迷惑 1630
驯鹿 1630
2000万 1629
247 1629
岁@@ 1629
打伤 1629
棉 1629
责令 1629
ord@@ 1628
先驱 1628
向外 1628
第242 1628
244 1627
会长 1627
即使是 1627
器械 1627
基尔 1627
枪击 1627
砸@@ 1627
郎 1627
为最 1626
台风 1626
呼 1626
孟@@ 1626
结转 1626
追 1626
2004-@@ 1625
330 1625
宇航员 1625
补充性 1625
银河 1625
1.0@@ 1624
It 1624
作风 1624
年老 1624
律@@ 1624
玻璃@@ 1624
私隐 1624
主语 1623
如能 1623
拼命 1623
烂@@ 1623
饼干 1623
1400 1622
HIV 1622
四年 1622
斯普斯卡 1622
种姓 1622
稀@@ 1622
税务局 1622
迎来 1622
近海 1622
非裔 1622
施暴 1621
ex 1620
www.un.org/@@ 1620
投票站 1620
提具 1620
旋 1620
溶 1620
码@@ 1620
239 1619
AD@@ 1619
JIU 1619
大夫 1619
突变 1619
蒸发 1619
驻在 1619
０@@ 1619
大洋 1618
头衔 1618
活动家 1618
留存 1618
精通 1618
孕产 1617
约谈 1617
芳@@ 1617
ih@@ 1616
ri 1616
不大 1616
举出 1616
大区 1616
怜悯 1616
最高级 1616
未予 1616
adi 1615
制成品 1615
畅@@ 1615
Res@@ 1614
中学生 1614
今世 1614
氏@@ 1614
狩猎 1614
1100 1613
始 1613
拖延地 1613
政府军 1613
期盼 1613
烃 1613
答道 1613
裁 1613
谜 1613
铃 1613
闪 1613
首位 1613
伪 1612
冒着 1612
棒@@ 1612
相差 1612
郁@@ 1612
外壳 1611
甘 1611
能见度 1611
不干涉 1610
化肥 1610
明斯克 1610
近乎 1610
通话 1610
316 1609
助产士 1609
商谈 1609
坦白 1609
托·@@ 1609
毁@@ 1609
观光 1609
预制 1609
魔 1609
2008-@@ 1608
叠 1608
售价 1608
布琼布拉 1608
弗雷@@ 1608
往常 1608
治罪 1608
透彻 1608
强国 1607
惩罚性 1607
拼写 1607
石块 1607
私 1607
逐一 1607
30-@@ 1606
CP@@ 1606
修订版 1606
奏效 1606
方和 1606
无常 1606
短短 1606
罐@@ 1606
预留 1606
250万 1605
258 1605
并已 1605
撤军 1605
环球 1605
视察团 1605
254 1604
ero 1604
参赛 1604
娃 1604
忙于 1604
顶级 1604
中低 1603
右手 1603
处理厂 1603
如期 1603
弹头 1603
晚期 1603
杀手 1603
步入 1603
挑起 1602
推向 1602
效@@ 1602
毛坯 1602
礼仪 1602
终 1602
萨米人 1602
扯 1601
洁@@ 1601
海区 1601
能以 1601
过上 1601
伐木 1600
劣势 1600
招呼 1600
来吧 1600
身穿 1600
249 1599
使用费 1599
沙龙 1599
闯入 1599
S/2009/@@ 1598
场面 1598
死因 1598
海边 1598
热心 1598
的黎波里 1598
肺@@ 1598
虫@@ 1598
过大 1598
一级 1597
向导 1597
售@@ 1597
应聘 1597
德语 1597
投放 1597
挽回 1597
渔 1597
电站 1597
Ed@@ 1596
冒犯 1596
改编 1596
桂@@ 1596
行政法 1596
42% 1595
ST/SGB/200@@ 1595
依次 1595
足迹 1595
迁@@ 1595
埃博拉 1594
大国 1594
景点 1594
氯苯 1594
钚 1594
呈交 1593
莱斯 1593
讲到 1593
低价 1592
喊@@ 1592
增值税 1592
大肆 1592
性生活 1592
讲坛 1592
勾@@ 1591
对冲基金 1591
氧气 1591
登陆 1591
说说 1591
飙升 1591
89.@@ 1590
串@@ 1590
塔拉 1590
低迷 1589
受制于 1589
塑性 1589
手头 1589
联会 1589
腐@@ 1589
Khal@@ 1588
·马@@ 1588
不间断 1588
口服 1588
子们 1588
桑 1588
网播 1588
胎@@ 1588
详@@ 1588
A/4@@ 1587
中度 1587
偷偷 1586
所能 1586
非洲裔 1586
麦凯恩 1586
Em@@ 1585
劝@@ 1585
商学院 1585
峡谷 1585
264 1584
下班 1584
入账 1584
午夜 1584
官兵 1584
对地 1584
祸 1584
路障 1584
复议 1583
花园里 1583
视线 1583
贼 1583
齐全 1583
加薪 1582
召唤 1582
滑雪 1582
糊@@ 1582
写的 1581
太过 1581
时装 1581
火箭弹 1581
疗@@ 1581
高盛 1581
不锈 1580
东正教 1580
医学院 1580
宴 1580
挫败 1580
海岸线 1580
煮@@ 1580
而论 1580
菲尔德 1580
AP 1579
中国@@ 1579
做饭 1579
学徒 1579
德尔@@ 1579
抬起 1579
间隙 1579
迟@@ 1578
ler 1577
军事化 1577
基因组 1577
复核 1577
肆意 1577
贵重 1577
车祸 1577
８@@ 1577
do 1576
匠 1576
第66/@@ 1576
钾 1576
275 1575
不容 1575
凝聚 1575
安娜 1575
手语 1575
申 1575
迭代 1575
与人 1574
围困 1574
实习生 1574
寂寞 1574
寄给 1574
文件夹 1574
气球 1574
身旁 1574
1时15 1573
克尔 1573
安德@@ 1573
尔森 1573
涉案 1573
苏珊 1573
诈骗 1573
起源于 1573
310 1572
加油 1572
显示器 1572
隐含 1572
/CO@@ 1571
71.@@ 1571
A-@@ 1571
CCPR/C/@@ 1571
ale 1571
傻 1571
子宫 1571
建构 1571
开业 1571
急于 1571
继任 1571
32% 1570
湾仔 1570
不至于 1569
专有 1569
交互式 1569
光彩 1569
减刑 1569
听讯 1569
吸入器 1569
怀有 1569
致以 1569
连通 1569
互动式 1568
希尔 1568
苯丙胺类 1568
.com 1567
娅 1567
寿@@ 1567
广告@@ 1567
1957年 1566
攻 1566
最惠国 1566
煤气 1566
维生素 1566
翁 1566
313 1565
CL@@ 1565
原住民 1565
扫除 1565
上演 1564
主页 1564
乙醇 1564
写下 1564
复习 1564
执政党 1564
楼房 1564
调查组 1564
110@@ 1563
A/61/2@@ 1563
Bur@@ 1563
Mon@@ 1563
挑 1563
挪@@ 1563
整顿 1563
288 1562
分量 1562
女权 1562
寻 1562
屏 1562
柜@@ 1562
氧化物 1562
污 1562
狱@@ 1562
电厂 1562
装卸 1562
马拉喀什 1562
﹐ 1562
Bu@@ 1561
尘@@ 1561
炸@@ 1561
电子@@ 1561
／@@ 1561
乡镇 1560
只得 1560
托马斯 1560
泥土 1560
泪水 1560
雨季 1560
霸权 1560
上层 1559
副产品 1559
动手 1559
夺@@ 1559
奥委会 1559
成品 1559
租户 1559
窒息 1559
A/AC.105 1558
PS 1558
同日 1558
困苦 1558
民营 1558
锚@@ 1558
11:@@ 1557
120万 1557
D-@@ 1557
ova 1557
一路 1557
业经 1557
名列 1557
猎人 1557
辨@@ 1557
阿里@@ 1557
A/AC.105/@@ 1556
亭 1556
十字 1556
各成员国 1556
栽培 1556
流落 1556
那件 1556
供词 1555
正确性 1555
毫无@@ 1555
2007-2008年 1554
会后 1554
光滑 1554
察觉 1554
并无 1554
性交 1554
粉末 1554
95@@ 1553
pro@@ 1553
少将 1553
确有 1553
阿巴斯 1553
不容易 1552
人种 1552
侦测 1552
德里@@ 1552
拐@@ 1552
普拉@@ 1552
而出 1552
裂纹 1552
大雨 1551
将向 1551
核动力源 1551
爽 1551
给定 1551
马尔 1550
A/C.6/5@@ 1549
ira 1549
哨 1549
安卡拉 1549
忠告 1549
敲@@ 1549
普通法 1549
益 1549
精灵 1549
罢 1549
诚然 1549
业部 1548
前言 1548
拆卸 1548
剧本 1547
平价 1547
果汁 1547
笔记 1547
怎 1546
马克@@ 1546
21号 1545
5,000 1545
S/RES 1545
妙@@ 1545
磁带 1545
37% 1544
很高 1544
总能 1544
直播 1544
饰@@ 1544
高大 1544
ali 1543
去掉 1543
可悲 1543
向来 1543
奇妙 1543
特工 1543
15亿 1542
凯特 1542
县@@ 1542
很好 1542
程序法 1542
兆@@ 1541
多彩 1541
常识 1541
有机@@ 1541
胖@@ 1541
船队 1541
318 1540
XML 1540
按揭 1540
握 1540
迈 1540
阔@@ 1540
2200 1539
263 1539
5.5 1539
匀支 1539
散会 1539
简报会 1539
ain 1538
安全法 1538
目下 1538
落到 1538
邀 1538
铸造 1538
2400 1537
ric@@ 1537
·奥@@ 1537
甜蜜 1537
驱回 1537
259 1536
CC 1536
OT@@ 1536
同样地 1536
复发 1536
特拉特洛尔科 1536
笑声 1536
细微 1536
觉@@ 1536
交替 1535
伙计 1535
充沛 1535
凌晨 1535
动向 1535
取而代之 1535
援助@@ 1535
日托 1535
殿下 1535
添加剂 1535
让他 1535
详 1535
268 1534
兽@@ 1534
启 1534
婴幼儿 1534
流利 1534
皇 1534
群落 1534
覆 1534
A/C.2/6@@ 1533
Pet@@ 1533
人命 1533
掩护 1533
时分 1533
监测@@ 1533
科威特国 1533
ud 1532
广东 1532
迁 1532
钞票 1532
芽 1531
资质 1531
赶紧 1531
醉@@ 1531
十足 1530
增援 1530
忠于 1530
最长 1530
白皮书 1530
钻井 1530
冰川 1529
原件 1529
营养不良 1529
餐桌 1529
体育部 1528
哲学家 1528
客运 1528
粉碎 1528
说明书 1528
镀@@ 1528
专心 1527
干练 1527
心地 1527
良性 1527
INF.@@ 1526
主办@@ 1526
仁慈 1526
即为 1526
封面 1526
时髦 1526
湿度 1526
月度 1525
港币 1525
邻 1525
锐@@ 1525
领导力 1525
2006-@@ 1524
oul@@ 1524
嫩 1524
据信 1524
水里 1524
洪灾 1524
缺损 1524
膝@@ 1524
评估组 1524
运算 1524
ano 1523
乾@@ 1523
浩@@ 1523
滞@@ 1523
铅@@ 1523
46/@@ 1522
屁股 1522
皱 1522
长城 1522
75.@@ 1521
以其 1521
受体 1521
润@@ 1521
趣 1521
雕像 1521
骨骼 1521
０ 1521
0.0@@ 1520
分之一 1520
危@@ 1520
安妮 1520
蒙特@@ 1520
订定 1520
262 1519
Col@@ 1519
停下 1519
再来 1519
卵@@ 1519
台阶 1519
波及 1519
纹@@ 1519
继而 1519
美术 1519
闷@@ 1519
阵列 1519
－－ 1519
92.@@ 1518
Ng@@ 1518
宠@@ 1518
年长 1518
掩@@ 1518
牢@@ 1518
辨别 1518
遍及 1518
110.@@ 1517
个子 1517
付清 1517
储藏 1517
用心 1517
精美 1517
IF@@ 1516
不带 1516
哈尔@@ 1516
回升 1516
围墙 1516
情人节 1516
第七十 1516
衡平 1516
2009/@@ 1515
伞@@ 1515
战役 1515
胶囊 1515
较长 1515
迟缓 1515
４@@ 1515
外展 1514
存取 1514
片段 1514
纷@@ 1514
这份 1514
迫在眉睫 1514
ley 1513
化武 1513
地层 1513
待审 1513
托儿所 1513
第54/@@ 1513
翻了 1513
蠢@@ 1513
那条 1513
食物权 1513
刚好 1512
构思 1512
辛 1512
迫击炮 1512
驱使 1512
借款人 1511
岗 1511
板块 1511
柴@@ 1511
di 1510
工业@@ 1510
法系 1510
面板 1510
188@@ 1509
3/Add.1 1509
96.@@ 1509
三年期 1509
发言稿 1509
客车 1509
岛民 1509
想过 1509
田野 1509
路易斯 1509
隔离区 1509
9月份 1508
修订案 1508
在被 1508
1,0@@ 1507
43% 1507
乡下 1507
智 1507
根基 1507
猜想 1507
阀@@ 1507
E/CN.4/200@@ 1506
伍德 1506
审咨委 1506
投标人 1506
摄像机 1506
来回 1506
纪@@ 1506
美食 1506
领带 1506
及格 1505
发射器 1505
小事 1505
并存 1505
庄 1505
暨 1505
浴 1505
第15@@ 1505
编织 1505
衰 1505
辩护人 1505
钩 1505
难忘 1505
光荣 1504
脊髓 1504
赖以 1504
铸 1504
ol 1503
抛 1503
水手 1503
浑身 1503
海豚 1503
真心 1503
砍@@ 1503
酚 1503
2/L.@@ 1502
师资 1502
戒烟 1502
打了 1502
清新 1502
判罪 1501
握手 1501
烘@@ 1501
黑夜 1501
150@@ 1500
Mus@@ 1500
一九九@@ 1500
乔治@@ 1500
南极洲 1500
地方性 1500
奥斯卡 1500
定律 1500
山地 1500
氟氯化 1500
电阻 1500
莎士比亚 1500
6/2@@ 1499
宏 1499
有否 1499
热水 1499
矿山 1499
our 1498
使她 1498
充电 1498
唤醒 1498
基桑加尼 1498
多种多样 1498
碟 1498
A. 1497
嫌疑 1497
金属@@ 1497
伊科 1496
水晶 1496
现成 1496
生机 1496
礼宾 1496
180@@ 1495
奶油 1495
整修 1495
照亮 1495
维亚 1495
Rob@@ 1494
化妆品 1494
发扬 1494
性病 1494
排出 1494
曝光 1494
游牧 1494
用意 1494
退款 1494
:30 1493
上个 1493
哈拉@@ 1493
如前所述 1493
布达佩斯 1493
元数据 1492
冻 1492
徐@@ 1492
牵连 1492
那家 1492
P/200@@ 1491
位居 1491
全日制 1491
客们 1491
德斯 1491
配给 1491
来函 1490
缓@@ 1490
警戒 1490
轰@@ 1490
8:@@ 1489
―― 1489
卡·@@ 1489
懒@@ 1489
旅行者 1489
爱好者 1489
生产线 1489
用人 1489
秘@@ 1489
称职 1489
腺 1489
递给 1489
里亚尔 1489
阿斯@@ 1489
A/C.2/5@@ 1488
伊比利亚 1488
写在 1488
别无选择 1488
植树 1488
生物@@ 1488
转播 1488
31% 1487
出名 1487
筹办 1487
解救 1487
询@@ 1487
锅@@ 1487
㈦ 1486
报案 1486
棒球 1486
洛美 1486
炭@@ 1486
现役 1486
肺癌 1486
芦@@ 1486
追逐 1486
800万 1485
·巴@@ 1485
堤 1485
损毁 1485
政策性 1485
能在 1485
说过 1485
镜@@ 1485
83.@@ 1484
也没有 1484
博览会 1484
合用 1484
或使 1484
敌视 1484
独有 1484
职业病 1484
阿什@@ 1484
关头 1483
千百万 1483
印刷@@ 1483
变压器 1483
脊 1483
为零 1482
坝 1482
壮 1482
形容词 1482
染色体 1482
爷 1482
考古 1482
遏止 1482
286 1481
一无所知 1481
亚历山大 1481
叫声 1481
同学们 1481
当下 1481
课税 1481
雅虎 1481
1.6 1480
茎 1480
Cha@@ 1479
PA 1479
失控 1479
甚么 1479
自上 1479
269 1478
78.@@ 1478
IX 1478
au 1478
ht@@ 1478
伊斯@@ 1478
歧@@ 1478
第43 1478
绝缘 1478
装满 1478
转过 1478
2:30 1477
ick@@ 1477
严谨 1477
分公司 1477
川@@ 1477
新来 1477
相遇 1477
腾出 1477
黎明 1477
不是吗 1476
会场 1476
整洁 1476
河水 1476
这笔 1476
逝世 1476
青睐 1476
44% 1475
DA 1475
卖掉 1475
室外 1475
要想 1475
愈合 1474
提要 1474
方言 1474
精致 1474
隐 1474
复印件 1473
安·@@ 1473
德国人 1473
无能为力 1473
本期 1473
繁琐 1473
剥@@ 1472
恰好 1472
新闻@@ 1472
珍视 1472
统计学 1472
范 1472
丢弃 1471
国民军 1471
访@@ 1471
陆路 1471
声望 1470
漆@@ 1470
胆 1470
芒@@ 1470
贬低 1470
遥 1470
长寿 1470
6万 1469
古迹 1469
恭@@ 1469
联营 1469
进球 1469
醒@@ 1469
61/2@@ 1468
亚伯拉罕 1468
函@@ 1468
商量 1468
契机 1468
性工作者 1468
成败 1468
苯酚 1468
荧光 1468
谣言 1468
园区 1467
并用 1467
班上 1467
自制 1467
非军事区 1467
势必 1466
得意 1466
替@@ 1466
联席 1466
议院 1466
须由 1466
侦探 1465
分层 1465
春节 1465
SM@@ 1464
保罗·@@ 1464
实实在在 1464
政见 1464
疑 1464
鞭@@ 1464
CERD/C/@@ 1463
UNA 1463
enc@@ 1463
卢比 1463
海拔 1463
瓣 1463
荒漠 1463
调解员 1463
1900 1462
art 1462
亡@@ 1462
人民军 1462
参选 1462
后方 1462
垃圾@@ 1462
多长 1462
沿用 1462
胰岛素 1462
赔 1462
压抑 1461
妥 1461
当做 1461
殿@@ 1461
源代码 1461
芒 1461
订明 1461
铺设 1461
防火 1461
80.@@ 1460
乐园 1460
出口@@ 1460
总括 1460
藏在 1460
卖出 1459
并从 1459
衰老 1459
进攻性 1459
份@@ 1458
精细 1458
112@@ 1457
乙方 1457
供应@@ 1457
可于 1457
梅尔 1457
Michael 1456
切换 1456
善治 1456
多功能 1456
宋@@ 1456
屏障 1456
无尽 1456
ma@@ 1455
柔和 1455
长处 1455
饥@@ 1455
叉 1454
妈@@ 1454
宏@@ 1454
家居 1454
所作所为 1454
摔 1454
改写 1454
普选 1454
渐 1454
疯 1454
窗@@ 1454
谓 1454
可喜 1453
她@@ 1453
如上 1453
打个 1453
斯塔 1453
是吗 1453
海滨 1453
筛查 1453
遗漏 1453
六氯环己烷 1452
散播 1452
时会 1452
校准 1452
气质 1452
2005-2006年 1451
7.3 1451
利坚 1451
小狗 1451
过长 1451
12000 1450
关掉 1450
皮特凯恩 1450
身高 1450
2,000 1449
为时过早 1449
帮派 1449
梅托希亚 1449
第17@@ 1449
雕@@ 1449
14-@@ 1448
Kam@@ 1448
上衣 1448
中用 1448
挨饿 1448
秘 1448
量刑 1448
向后 1447
拉姆 1447
2.6 1446
ous@@ 1446
东北亚 1446
产能 1446
倒塌 1446
吵 1446
恳求 1446
昂 1446
款式 1446
精明 1446
原状 1445
四氯化碳 1445
开立 1445
手动 1445
抽屉 1445
梯 1445
93@@ 1444
南奥塞梯 1444
接近于 1444
照相机 1444
直属 1444
第51/@@ 1444
箱@@ 1444
车库 1444
73.@@ 1443
保护局 1443
凭@@ 1443
定时 1443
廷杜夫 1443
拿来 1443
合力 1442
孕@@ 1442
微粒 1442
斯科 1442
最有 1442
梯度 1442
渡过 1442
秒钟 1442
调往 1442
难于 1441
ini 1440
不好 1440
引信 1440
所欠 1440
扣减 1440
理查德 1440
蜜@@ 1440
达尔 1440
Per@@ 1439
S/199@@ 1439
万物 1439
内务 1439
协调局 1439
台式 1439
境界 1439
改装 1439
伽@@ 1438
巾 1438
急诊 1438
拍照 1438
新人 1438
迁离 1438
29% 1437
54/2@@ 1437
IO@@ 1437
International 1437
不同意 1437
召集人 1437
愤@@ 1437
模特 1437
籍@@ 1437
312 1436
83@@ 1436
下旬 1436
为我 1436
五溴二 1436
伊加特 1436
庞@@ 1436
敷@@ 1436
沟@@ 1436
研究组 1436
缓急 1436
/CRP.@@ 1435
380 1435
E/CN.4/Sub.2/@@ 1435
for 1435
好吃 1435
悉 1435
普尔 1435
留言 1435
苗@@ 1435
1956年 1434
Pol@@ 1434
多式 1434
肥沃 1434
里克 1434
雄性 1434
驴 1434
10:@@ 1433
wa 1433
心血管 1433
怪物 1433
林地 1433
解脱 1433
染料 1432
榜 1432
绿化 1432
问他 1432
乌兹别克斯坦@@ 1431
单调 1431
夺走 1431
水体 1431
灾祸 1431
犹大 1431
眠 1431
驾 1431
1980 1430
屈 1430
应征 1430
活动@@ 1430
竣工 1430
艾哈迈德·@@ 1430
袋子 1430
难点 1430
雨林 1430
颤抖 1430
mdash 1429
一百万 1429
凝 1429
孕 1429
挤压 1429
仪@@ 1428
军民 1428
巴拉@@ 1428
碘@@ 1428
逮捕证 1428
金字塔 1428
19世纪 1427
1:15 1427
V.@@ 1427
不符合 1427
旷日持久 1427
更长 1427
有意思 1427
燕@@ 1427
立体 1427
ham 1426
出了 1426
利雅得 1426
学习者 1426
政局 1426
入籍 1425
布雷 1425
水坝 1425
知识库 1425
诱发 1425
一次 1424
中风 1424
忙着 1424
犹 1424
公设 1423
凌辱 1423
司法@@ 1423
征兵 1423
洗澡 1423
清点 1423
筋 1423
联系人 1423
蓝线 1423
评为 1423
读取 1423
贝卡 1423
资料@@ 1423
越界 1423
64/2@@ 1422
过滤器 1422
霉素 1422
6.4 1421
定论 1421
施用 1421
iya 1420
别国 1420
忽@@ 1420
正文 1420
躲 1420
亲吻 1419
愿@@ 1419
拔 1419
推选 1419
34% 1418
倒是 1418
克兰 1418
刮 1418
孟加拉 1418
盟 1418
秃@@ 1418
akh@@ 1417
便捷 1417
儿科 1417
品尝 1417
复查 1417
小屋 1417
此事 1417
监察@@ 1417
眼神 1417
竞标 1417
SP 1416
卡塔尔国 1416
栅栏 1416
楼上 1416
畏惧 1416
痒 1416
登载 1416
辈子 1416
马诺河 1416
停在 1415
免得 1415
安全地 1415
本会 1415
碱@@ 1415
自定义 1415
逆向 1415
gr@@ 1414
丰厚 1414
会为 1414
修订本 1414
分析法 1414
发型 1414
指着 1414
断然 1414
洞穴 1414
甲方 1414
谱@@ 1414
Cr@@ 1413
从属 1413
全力以赴 1413
和平@@ 1413
塞尔 1413
曼联 1413
献 1413
70.@@ 1412
句型 1412
哈里 1412
广东省 1412
招生 1412
晒@@ 1412
邮戳 1412
阵营 1412
隐蔽 1412
314 1411
专栏 1411
南大 1411
双胞胎 1411
叠@@ 1411
姆斯 1411
委托人 1411
年均 1411
贫血 1411
体操 1410
埃及人 1410
基建 1410
徒步 1410
玛丽亚 1410
羡慕 1410
自然界 1410
一千@@ 1409
伸展 1409
地段 1409
奇特 1409
将以 1409
武断 1409
炎热 1409
生产@@ 1409
相继 1409
移到 1409
这样一来 1409
驱散 1409
000亿 1408
中途 1408
典 1408
将为 1408
尔特 1408
积金 1408
血腥 1408
读到 1408
重演 1408
加仑 1407
备案 1407
边上 1407
酬金 1407
手续费 1406
歌声 1406
筹 1406
轮椅 1406
人意 1405
冈@@ 1405
珍妮 1405
谚语 1405
默许 1405
out@@ 1404
大衣 1404
时与 1404
机床 1404
结晶 1404
野外 1404
面包@@ 1404
kh@@ 1403
亚当 1403
引力 1403
珍珠 1403
膝 1403
高贵 1403
互信 1402
保险法 1402
烫 1402
犯罪率 1402
ood 1401
s.@@ 1401
小时候 1401
浦@@ 1401
皇后 1401
1353 1400
F-15 1400
伪装 1400
估量 1400
外币 1400
姑@@ 1400
日程表 1400
灾@@ 1400
繁多 1400
E/CN.7/@@ 1399
侵占 1399
圈子 1399
如对 1399
幽灵 1399
慌@@ 1399
疲倦 1399
苏丹人 1399
莱特 1399
起了 1399
防水 1399
︰ 1399
庄稼 1398
６@@ 1398
厂房 1397
奢侈品 1397
次日 1397
波士顿 1397
纳·@@ 1397
逃走 1397
吊销 1396
婴 1396
本性 1396
水土 1396
西区 1396
通力 1396
采掘业 1396
长江 1396
靶@@ 1396
1959年 1395
ila 1395
上报 1395
懒惰 1395
显露 1395
法老 1395
遇害 1395
平凡 1394
氨酸 1394
温家宝 1394
纯洁 1394
联络人 1394
95.@@ 1393
南京 1393
堕落 1393
未交 1393
爬上 1393
筑@@ 1393
聊@@ 1393
2004-2007年 1392
2300 1392
Un@@ 1392
奸@@ 1392
布兰@@ 1392
总的说来 1392
掉了 1392
核安全 1392
滋@@ 1392
言辞 1392
分析员 1391
循 1391
玛丽@@ 1391
联手 1391
290 1390
一.@@ 1390
向往 1390
塑 1390
天花板 1390
徒劳 1390
无家可归者 1390
星系 1390
欢 1390
溢 1390
盆@@ 1390
衬 1390
较差 1390
邮品 1390
5000万 1389
AB@@ 1389
L.2 1389
侯赛因 1389
嫩@@ 1389
对话者 1389
待定 1389
生命力 1389
藤 1389
规矩 1389
Az@@ 1388
tr@@ 1388
参与权 1388
尊 1388
弗拉@@ 1388
怨@@ 1388
点头 1388
萨姆 1388
蓬@@ 1388
oz@@ 1387
曼德拉 1387
在下 1386
失灵 1386
廊 1386
本·@@ 1386
派出所 1386
溴 1386
用药 1386
米勒 1386
色素 1386
范式 1386
700万 1385
写出 1385
南非洲 1385
扼杀 1385
试验@@ 1385
200000 1384
84.@@ 1384
SA 1384
内载 1384
圣战 1384
坏事 1384
妄@@ 1384
想念 1384
意为 1384
改成 1384
斯拉夫 1384
糊 1384
触摸 1384
不正当 1383
也为 1383
晓得 1383
纵容 1383
顾虑 1383
ost@@ 1382
一九@@ 1382
低级 1382
希拉里 1382
快要 1382
涌现 1382
深思 1382
织在 1382
酸化 1382
颇@@ 1382
７@@ 1382
与水 1381
跟他 1381
ence 1380
up@@ 1380
ure 1380
保险业 1380
合体 1380
戒 1380
海伦 1380
窃 1380
贺@@ 1380
越发 1380
辣 1380
E/CN.15/@@ 1379
T-@@ 1379
延缓 1379
性命 1379
标定 1379
溶解 1379
行车 1379
辖 1379
代表处 1378
君 1378
妹 1378
师范 1378
滑稽 1378
灾民 1378
神父 1378
迈克尔·@@ 1378
迪·@@ 1378
侍@@ 1377
发交 1377
圣灵 1377
学界 1377
衔 1377
鱼种 1377
不合@@ 1376
变数 1376
同位素 1376
才华 1376
换成 1376
索马里人 1376
A/HRC/WG.6/@@ 1375
CMP.@@ 1375
人中 1375
忘了 1375
抉择 1375
招致 1375
涨@@ 1375
渴 1375
而作 1375
错误地 1375
零星 1375
音像 1375
代理商 1374
促进@@ 1374
有空 1374
1947年 1373
8万 1373
引领 1373
承载 1373
欺@@ 1373
流逝 1373
萨斯 1373
观赏 1373
讲究 1373
餐饮 1373
出入境 1372
嵌入 1372
汀 1372
湾@@ 1372
2000/@@ 1371
2100 1371
Ne@@ 1371
• 1371
公屋 1371
暑假 1371
水井 1371
港元 1371
留用 1371
Jos@@ 1370
Mad@@ 1370
君主 1370
唇 1370
弹簧 1370
歇@@ 1370
焊 1370
简言之 1370
虔诚 1370
1981 1369
2012/@@ 1369
94@@ 1369
专责 1369
买下 1369
合作部 1369
小鸟 1369
抽签 1369
沙漠化 1369
添@@ 1369
禁用 1369
须在 1369
创设 1368
悠@@ 1368
熟知 1368
见表@@ 1368
计划@@ 1368
赋 1368
钦佩 1368
272 1367
乘数 1367
体制性 1367
全然 1367
年青 1367
无从 1367
而不@@ 1367
订货 1367
记录@@ 1367
Hal@@ 1366
中外 1366
交涉 1366
公私营 1366
反对者 1366
奇异 1366
定点 1366
感恩节 1366
控制区 1366
蜂蜜 1366
中间@@ 1365
努 1365
捐赠者 1365
生产量 1365
科托努 1365
组分 1365
缩写 1365
联阵 1365
这不 1365
往下 1364
敬畏 1364
疫@@ 1364
直辖市 1364
绕过 1364
肃@@ 1364
训 1364
踏上 1364
辉 1364
鼓动 1364
1874 1363
伤员 1363
供求 1363
修女 1363
凝视 1363
分之@@ 1363
刑事法 1363
华沙 1363
表上 1363
解剖 1363
追赶 1363
静电 1363
中医 1362
吃完 1362
居住区 1362
铅笔 1362
.c@@ 1361
Add.5 1361
上尉 1361
下定 1361
主审 1361
区议会 1361
少见 1361
滑坡 1361
碰巧 1361
葬@@ 1361
逼@@ 1361
Tar@@ 1360
不顾 1360
十字架 1360
安全感 1360
略微 1360
车厢 1360
15/@@ 1359
丰田 1359
塑@@ 1359
方框 1359
晨@@ 1359
机械化 1359
炼 1359
项@@ 1359
,7@@ 1358
03@@ 1358
2009-2010年 1358
amp@@ 1358
半球 1358
外形 1358
好些 1358
文艺 1358
请将 1358
诸位 1358
踩@@ 1358
还价 1358
面对面 1358
克人 1357
暗淡 1357
生物量 1357
第54/2@@ 1357
ET@@ 1356
不向 1356
整齐 1356
育龄 1356
Ra@@ 1355
不得已 1355
介于 1355
任满 1355
循序渐进 1355
排在 1355
蹂躏 1355
以西 1354
昂山 1354
水泵 1354
雷曼 1354
18号 1353
315 1353
IL@@ 1353
不知@@ 1353
司法权 1353
图标 1353
外加 1353
对峙 1353
射入 1353
年幼 1353
扔@@ 1353
映 1353
桌上 1353
米歇尔 1353
47% 1352
侧面 1352
参差不齐 1352
客气 1352
屠@@ 1352
康乐 1352
斯通 1352
沙巴 1352
篮 1352
过了 1352
li 1351
克族 1351
和第 1351
濒临 1351
站立 1351
采掘 1351
12亿 1350
6.5 1350
仓@@ 1350
保护人 1350
特纳 1350
王室 1350
蜘蛛 1350
通货 1350
雀@@ 1350
预测性 1350
#@@ 1349
2014/@@ 1349
仗 1349
入睡 1349
分队 1349
好玩 1349
施压 1349
时空 1349
社会化 1349
缓存 1349
劝说 1348
捐献 1348
教程 1348
诈 1348
Shar@@ 1347
不少于 1347
傍晚 1347
多年期 1347
州立 1347
电离 1347
相近 1347
空洞 1347
纯属 1347
17/@@ 1346
23号 1346
姿 1346
峰值 1346
心肌 1346
想着 1346
水池 1346
胜地 1346
蜡@@ 1346
轧@@ 1346
550 1345
E/ICEF/@@ 1345
Rev.2 1345
ura 1345
劝告 1345
动性 1345
大桥 1345
天文学 1345
惊 1345
惯@@ 1345
提炼 1345
狱中 1345
直流 1345
矿工 1345
A/C.1/6@@ 1344
Add.1-@@ 1344
DVD 1344
PC.@@ 1344
吊 1344
校舍 1344
正向 1344
中世纪 1343
筑 1343
舰队 1343
计算机化 1343
遣@@ 1343
ore 1342
买主 1342
均须 1342
女士们 1342
尽责 1342
正规化 1342
病房 1342
遗骸 1342
21/@@ 1341
48% 1341
A/59/2@@ 1341
A/C.2/57/L.@@ 1341
COP.@@ 1341
o-@@ 1341
产期 1341
四方 1341
如图 1341
工时 1341
甄别 1341
税法 1341
赠@@ 1341
还款 1341
书目 1340
享@@ 1340
勾结 1340
反之 1340
司令 1340
室@@ 1340
恐@@ 1340
滔@@ 1340
第68/2@@ 1340
Val@@ 1339
ue 1339
外人 1339
妇科 1339
拐卖 1339
棚@@ 1339
渍 1339
甲板 1339
虐@@ 1339
金子 1339
严酷 1338
唤起 1338
地盘 1338
大坝 1338
并肩 1338
是指 1338
爆破 1338
难受 1338
发自 1337
拉克 1337
潜水 1337
老实 1337
誉 1337
,8@@ 1336
25-@@ 1336
光电 1336
啥 1336
必备 1336
技术@@ 1336
标界 1336
瘘管 1336
相联系 1336
纪录片 1336
闷 1336
雕塑 1336
RO@@ 1335
亲近 1335
仇敌 1335
卸任 1335
泄@@ 1335
游击队 1335
用性 1335
路程 1335
闪闪 1335
UN 1334
便会 1334
域@@ 1334
审判前 1334
居留证 1334
技术处 1334
有色 1334
留学 1334
酯@@ 1334
顾问@@ 1334
,6@@ 1333
别墅 1333
厌烦 1333
无穷 1333
神情 1333
装甲车 1333
销售量 1333
120@@ 1332
1624 1332
ly 1332
干脆 1332
植物@@ 1332
请求书 1332
一夫多妻制 1331
仓储 1331
养活 1331
境遇 1331
好友 1331
有条件 1331
疲惫 1331
袋@@ 1331
逊尼派 1331
共和党人 1330
所含 1330
按其 1330
明日 1330
暖和 1330
水位 1330
笛 1330
277 1329
导出 1329
小的 1329
引致 1329
期权 1329
比对 1329
瀑布 1329
片刻 1329
窗子 1329
第68/@@ 1329
萨尔 1329
门前 1329
52% 1328
con@@ 1328
历次 1328
摔@@ 1328
狱警 1328
诊@@ 1328
颅@@ 1328
２ 1328
281 1327
SS 1327
与日俱增 1327
仍是 1327
无助 1327
琼@@ 1327
肾脏 1327
Ahmed 1326
全程 1326
劳动@@ 1326
心思 1326
旗下 1326
珀@@ 1326
56% 1325
852 1325
不舒服 1325
代行 1325
外衣 1325
放电 1325
染色 1325
答覆 1325
wor@@ 1324
举例来说 1324
受限 1324
吉隆坡 1324
托尼 1324
滤波器 1324
结实 1324
路易 1324
题材 1324
ita 1323
在任何 1323
就学 1323
斯托 1323
星座 1323
武库 1323
残障 1323
浆@@ 1323
赠送 1323
骗子 1323
交还 1322
光临 1322
助学金 1322
包机 1322
平板 1322
数以 1322
时钟 1322
有悖于 1322
检查@@ 1322
炭 1322
记作 1322
顶端 1322
驱动器 1322
18-@@ 1321
Ny@@ 1321
临到 1321
宵禁 1321
店铺 1321
法西斯 1321
维度 1321
先生们 1320
咨询组 1320
地下室 1320
多变 1320
帕拉 1320
抽出 1320
看得 1320
衰落 1320
频谱 1320
325 1319
兼任 1319
尽情 1319
棍 1319
比勒 1319
沉 1319
溜 1319
犯了 1319
轻而易举 1319
1994-1995年 1318
276 1318
S/2011/@@ 1318
分机 1318
彩虹 1318
脆 1318
迈阿密 1318
迪亚@@ 1318
送入 1318
顺着 1318
SD@@ 1317
农用 1317
后卫 1317
垮 1317
旅游者 1317
权重 1317
溢@@ 1317
火力 1317
衰竭 1317
观察员国 1317
转基因 1317
逃到 1317
顺差 1317
写给 1316
别是 1316
合营 1316
封建 1316
尸 1316
露面 1316
S/1996 1315
ena 1315
佩戴 1315
攻势 1315
货款 1315
326 1314
万维网 1314
并被 1314
承租人 1314
理学 1314
禽@@ 1314
高棉 1314
106.@@ 1313
74.@@ 1313
XL@@ 1313
伦·@@ 1313
供养 1313
分辨 1313
弓@@ 1313
扰动 1313
明朗 1313
课外 1313
17-@@ 1312
186@@ 1312
7万 1312
MISC.@@ 1312
呃 1312
咸@@ 1312
国度 1312
增派 1312
悬崖 1312
撑@@ 1312
槽@@ 1312
肥皂 1312
达·@@ 1312
过得 1312
迷失 1312
退学 1312
骆驼 1312
23/@@ 1311
参谋长 1311
喔 1311
思索 1311
时速 1311
超额 1311
酸性 1311
1952年 1310
PD@@ 1310
XXIX 1310
日间 1310
桌@@ 1310
裔人 1310
身着 1310
285 1309
85.@@ 1309
May@@ 1309
从小 1309
则@@ 1309
庄@@ 1309
抑@@ 1309
旷野 1309
普及率 1309
灌 1309
知觉 1309
秘诀 1309
醋 1309
下落不明 1308
反常 1308
崩@@ 1308
庆典 1308
有一点 1308
痛惜 1308
索赔额 1308
葡萄@@ 1308
赏 1308
57/@@ 1307
EC@@ 1307
下个 1307
业内 1307
中枢 1307
史蒂@@ 1307
无关紧要 1307
浓厚 1307
消逝 1307
纪念@@ 1307
从这 1306
体育馆 1306
器@@ 1306
塌@@ 1306
打电话 1306
担 1306
数控 1306
溺@@ 1306
罗斯福 1306
飞速 1306
25亿 1305
I-@@ 1305
ment 1305
丰 1305
举足轻重 1305
史无前例 1305
抱负 1305
条理 1305
比亚 1305
碗@@ 1305
考量 1305
获奖 1305
EN@@ 1304
玛格丽特 1304
下方 1303
亏 1303
愁 1303
汇辑 1303
浸 1303
解开 1303
达卡 1303
金融业 1303
340 1302
Mil@@ 1302
N.@@ 1302
兄 1302
商业界 1302
心目 1302
晚间 1302
更少 1302
注册处 1302
眉 1302
连接@@ 1302
遥控 1302
2001-2010十年期 1301
媒 1301
帐款 1301
死后 1301
热器 1301
许许多多 1301
雷场 1301
功夫 1300
南朝鲜 1300
大洲 1300
氟氯烃 1300
票价 1300
酸盐 1300
发援会 1299
找我 1299
泊@@ 1299
灼@@ 1299
相片 1299
科斯 1299
突击 1299
//www.un@@ 1298
乃是 1298
伊斯 1298
况 1298
所说 1298
红新月 1298
终审 1298
网路 1298
轮船 1298
一连串 1297
兼容性 1297
孟买 1297
巧@@ 1297
差错 1297
很久以前 1297
懒 1297
气旋 1297
浴@@ 1297
18/@@ 1296
Sy@@ 1296
oo 1296
吃掉 1296
气流 1296
溢出 1296
祈求 1296
错了 1296
278 1295
亟 1295
交纳 1295
助人 1295
参赞 1295
墓 1295
廷 1295
晚了 1295
楚 1295
炫耀 1295
癌@@ 1295
调至 1295
金斯 1295
鲍勃 1295
A/CN.4/@@ 1294
es/@@ 1294
怀特 1294
恐龙 1294
散射 1294
极化 1294
民解 1294
父母亲 1294
用完 1294
相位 1294
短片 1294
阅@@ 1294
３ 1294
287 1293
ve 1293
争斗 1293
代表@@ 1293
先行 1293
利·@@ 1293
受托 1293
学家们 1293
整套 1293
模范 1293
虐 1293
里亚@@ 1293
金银 1293
多伦多 1292
布拉格 1292
琼 1292
美化 1292
肆虐 1292
1987 1291
Q/@@ 1291
历时 1291
地里 1291
弗洛@@ 1291
甚微 1291
转介 1291
顽@@ 1291
先锋 1290
募集 1290
带宽 1290
幻 1290
归化 1290
搭建 1290
相关联 1290
瞪@@ 1290
福利@@ 1290
秦@@ 1290
首府 1290
46% 1289
加之 1289
威力 1289
穴 1289
编译 1289
A/C.4/@@ 1288
劳工局 1288
带入 1288
热衷于 1288
笨 1288
聘@@ 1288
22-@@ 1287
eh@@ 1287
完好 1287
尽全力 1287
核燃料 1287
请问 1287
82.@@ 1286
mon@@ 1286
供应量 1286
侵袭 1286
剑@@ 1286
岌岌可危 1286
斜坡 1286
新华社 1286
旅游@@ 1286
荒唐 1286
,0@@ 1285
21-@@ 1285
以色列国 1285
冲洗 1285
国名 1285
宫殿 1285
提单 1285
晓@@ 1285
粪便 1285
紊乱 1285
10,000 1284
DP/FPA/@@ 1284
已获 1284
手榴弹 1284
摄影师 1284
摇滚 1284
楚@@ 1284
至上 1284
B-@@ 1283
书本 1283
仪表 1283
权法 1283
游泳池 1283
病症 1283
舌@@ 1283
赌@@ 1283
释 1283
隔壁 1283
大洋洲 1282
萨利@@ 1282
选为 1282
骤@@ 1282
AP@@ 1281
la@@ 1281
主妇 1281
危险@@ 1281
技合 1281
39% 1280
53/@@ 1280
RS 1280
公投 1280
后才 1280
告终 1280
孙子 1280
尼罗 1280
屡@@ 1280
幕@@ 1280
猎 1280
a/@@ 1279
oo@@ 1279
宽大 1279
常备 1279
放开 1279
泳@@ 1279
立案 1279
273 1278
恩贾梅纳 1278
漫步 1278
盯着 1278
签定 1278
缓刑 1278
胆固醇 1278
走势 1278
通讯@@ 1278
07@@ 1277
勋章 1277
北韩 1277
巴士拉 1277
携 1277
激怒 1277
石蜡 1277
虚伪 1277
iz 1276
事前 1276
克拉克 1276
决策权 1276
妖@@ 1276
战线 1276
旺 1276
资本@@ 1276
达尔@@ 1276
187@@ 1275
4.6 1275
86.@@ 1275
ei 1275
不需要 1275
二零零六年 1275
创下 1275
南海 1275
卫生局 1275
戒毒 1275
爆炸@@ 1275
物权 1275
苛刻 1275
阿里·@@ 1275
BC 1274
伙伴们 1274
保佑 1274
关系法 1274
冯@@ 1274
印第安 1274
困难重重 1274
大湖 1274
开发商 1274
弊端 1274
改用 1274
美金 1274
莎拉 1274
血糖 1274
ult@@ 1273
与此相反 1273
亚马逊 1273
可变 1273
市级 1273
接待@@ 1273
炸毁 1273
畅 1273
稻米 1273
窗帘 1273
职业者 1273
载人 1273
钢筋 1273
if 1272
丑@@ 1272
守卫 1272
张力 1272
扫射 1272
敢于 1272
机电 1272
破灭 1272
身亡 1272
转至 1272
不均 1271
不实 1271
向性 1271
哈马@@ 1271
奢侈 1271
得当 1271
款待 1271
辐照 1271
鸿@@ 1271
威尔@@ 1270
检察署 1270
公元 1269
工党 1269
托儿 1269
托运 1269
报到 1269
摘录 1269
断层 1269
标本 1269
流的 1269
籽 1269
终极 1269
苦恼 1269
誓言 1269
ja 1268
匙 1268
固执 1268
小区 1268
怂恿 1268
抽取 1268
杆@@ 1268
牵 1268
猪肉 1268
西南亚 1268
说起 1268
东区 1267
吞并 1267
报废 1267
摊派 1267
科尔多凡 1267
陆运 1267
375 1266
克里斯蒂@@ 1266
几百万 1266
大法官 1266
徘徊 1266
意想不到 1266
病因 1266
米尔 1266
飞去 1266
21@@ 1265
M. 1265
ut 1265
中西部 1265
会员卡 1265
传到 1265
削 1265
在册 1265
椰@@ 1265
模样 1265
潮@@ 1265
烧伤 1265
疹 1265
睡在 1265
肠道 1265
肩上 1265
重构 1265
335 1264
Da@@ 1264
te@@ 1264
发烧 1264
泛非 1264
8.1 1263
The 1263
下周 1263
AS 1262
一面 1262
伊斯兰堡 1262
伟@@ 1262
信道 1262
坐落 1262
多名 1262
天文 1262
归功 1262
扯@@ 1262
找寻 1262
润 1262
队列 1262
评估所 1261
诅咒 1261
躲在 1261
指针 1260
数和 1260
此地 1260
毁掉 1260
液化 1260
过往 1260
进食 1260
风味 1260
13亿 1259
La@@ 1259
age 1259
保障法 1259
天津 1259
新郎 1259
柴 1259
概 1259
瑞克 1259
274 1258
3.6 1258
Ind@@ 1258
TP@@ 1258
但该 1258
承保 1258
石化 1258
0.5% 1257
323 1257
ary 1257
接轨 1257
梳@@ 1257
窑 1257
乳房 1256
有能力 1256
样板 1256
牛仔裤 1256
策@@ 1256
贩子 1256
再三 1255
幸存 1255
衣着 1255
阿马@@ 1255
:00 1254
David 1254
ez@@ 1254
克劳@@ 1254
勒·@@ 1254
协约 1254
地貌 1254
好评 1254
属实 1254
行文 1254
319 1253
Bel@@ 1253
don 1253
住了 1253
全心全意 1253
及其他 1253
宁可 1253
审计师 1253
无用 1253
.gov.@@ 1252
ó@@ 1252
前一 1252
掺@@ 1252
期初 1252
窗外 1252
竹 1252
良 1252
苍@@ 1252
走近 1252
逐案 1252
1559 1251
凝胶 1251
向她 1251
忧伤 1251
怎麽 1251
户口 1251
49/2@@ 1250
57% 1250
ia@@ 1250
坐着 1250
小船 1250
看他 1250
粗鲁 1250
美容 1250
审计长 1249
弥漫 1249
归功于 1249
怀念 1249
枪杀 1249
雀 1249
1/Add.1 1248
Mah@@ 1248
偷走 1248
差点 1248
建筑@@ 1248
熊猫 1248
贾 1248
醇@@ 1248
88.@@ 1247
体育场 1247
合作者 1247
嘴巴 1247
求得 1247
颜@@ 1247
,9@@ 1246
5/200@@ 1246
7.4 1246
前去 1246
古柯 1246
演进 1246
科技@@ 1246
212@@ 1245
41% 1245
愉悦 1245
最重要 1245
爱因斯坦 1245
特朗普 1245
甲型 1245
那麽 1245
CEDAW/C@@ 1244
克鲁@@ 1244
悼念 1244
沉降 1244
特人 1244
第42 1244
萨米 1244
览 1244
起身 1244
间断 1244
12:@@ 1243
单项 1243
因在 1243
增量 1243
并进 1243
民主@@ 1243
碧@@ 1243
筒@@ 1243
维系 1243
色谱 1243
馀 1243
2002-@@ 1242
CD/18@@ 1242
Gre@@ 1242
ino 1242
同情心 1242
商议 1242
德曼 1242
残害 1242
种植园 1242
腔@@ 1242
加利福尼亚州 1241
应负 1241
攸关者 1241
更有 1241
跳跃 1241
重金属 1241
8/2@@ 1240
Bal@@ 1240
Mur@@ 1240
公决 1240
堪称 1240
本金 1240
管理法 1240
规划@@ 1240
预见性 1240
不见 1239
伸手 1239
审判室 1239
短文 1239
硬盘 1239
第39@@ 1239
补偿金 1239
违宪 1239
驱逐令 1239
高低 1239
ort 1238
人满为患 1238
八.@@ 1238
军控 1238
年薪 1238
挨 1238
控方 1238
洗衣 1238
淡化 1238
精子 1238
虚构 1238
顶峰 1238
D/@@ 1237
Gar@@ 1237
MO@@ 1237
Sol@@ 1237
区间 1237
受教育权 1237
感官 1237
禁核试 1237
让你 1237
279 1236
不只是 1236
笼 1236
美分 1236
脚下 1236
费力 1236
赡养 1236
咖啡@@ 1235
地主 1235
天性 1235
本港 1235
款人 1235
现值 1235
矮@@ 1235
贫民区 1235
ke 1234
之角 1234
传承 1234
农产 1234
凌@@ 1234
士兵们 1234
接收@@ 1234
迎合 1234
非本 1234
风能 1234
75％ 1233
Fa@@ 1233
Med@@ 1233
中转 1233
保费 1233
山坡 1233
无故 1233
活在 1233
砍 1233
耗时 1233
议员们 1233
返国 1233
驻外 1233
偏袒 1232
前述 1232
反正 1232
园林 1232
大赛 1232
奏@@ 1232
嫌 1232
巴斯 1232
开具 1232
脊椎 1232
走吧 1232
近距离 1232
采矿业 1232
333 1231
人事@@ 1231
代际 1231
去做 1231
反感 1231
各式各样 1231
吉他 1231
图画 1231
弗里敦 1231
无礼 1231
请假 1231
赛跑 1231
人也 1230
分明 1230
功课 1230
勇 1230
喘@@ 1230
心智 1230
探望 1230
索要 1230
赎金 1230
入住 1229
厌@@ 1229
受苦 1229
堵 1229
播种 1229
昏 1229
第A 1229
茶叶 1229
追随者 1229
12年 1228
2600 1228
45/@@ 1228
不完全 1228
头等 1228
巨型 1228
绑 1228
车轮 1228
逼供 1228
51% 1227
pdf 1227
寂静 1227
沼泽 1227
炎症 1227
科尔 1227
纤@@ 1227
难免 1227
282 1226
ect@@ 1226
ović 1226
做个 1226
毛泽东 1226
缺水 1226
赡养费 1226
PLC 1225
乙型 1225
出访 1225
口译员 1225
奖赏 1225
彼得·@@ 1225
洗手 1225
爱国者 1225
班机 1225
重塑 1225
问答 1225
预后 1225
53% 1224
WG@@ 1224
⑶ 1224
二维 1224
伊斯兰国 1224
利弊 1224
十二@@ 1224
华人 1224
巴克@@ 1224
店@@ 1224
术@@ 1224
油井 1224
纸上 1224
西南部 1224
140@@ 1223
中年 1223
乍@@ 1223
佐 1223
实情 1223
希伯@@ 1223
打工 1223
毛利 1223
珀 1223
伯利恒 1222
佛罗里达 1222
在这@@ 1222
小子 1222
滑动 1222
真菌 1222
耗资 1222
阴道 1222
297 1221
Jo@@ 1221
不适当 1221
占了 1221
捐 1221
Go@@ 1220
O/@@ 1220
互换 1220
他妈的 1220
公诉人 1220
卡尔扎伊 1220
挣@@ 1220
暂缓 1220
权责 1220
面上 1220
99% 1219
HA@@ 1219
ial 1219
伊图 1219
化疗 1219
嫁 1219
悬浮 1219
盏 1219
章@@ 1219
耐用 1219
耕 1219
跑去 1219
11/@@ 1218
IN 1218
强势 1218
教益 1218
正由 1218
臂@@ 1218
记账 1218
趁@@ 1218
黎@@ 1218
2018年 1217
TR@@ 1217
yn@@ 1217
以备 1217
债务国 1217
埃厄 1217
好战 1217
归根结底 1217
录制 1217
棵树 1217
虫病 1217
递增 1217
CP.@@ 1216
F-14 1216
堪@@ 1216
录用 1216
悟 1216
提款权 1216
留有 1216
简而言之 1216
贡 1216
2009-@@ 1215
A/62/2@@ 1215
伽利略 1215
分在 1215
片面 1215
病的 1215
直观 1215
即刻 1214
拿破仑 1214
授 1214
水上 1214
爱滋病 1214
魂@@ 1214
336 1213
49% 1213
可乐 1213
合同法 1213
如你 1213
横跨 1213
移除 1213
第53/2@@ 1213
缀 1213
铬 1213
阿联酋 1213
非人道 1213
295 1212
ner 1212
动人 1212
卡特 1212
巴德 1212
最爱 1212
法律@@ 1212
维生素@@ 1212
自主性 1212
重现 1212
霸@@ 1212
同化 1211
审计@@ 1211
能源部 1211
遗迹 1211
钦 1211
长期性 1211
～ 1211
202@@ 1210
59/@@ 1210
加在 1210
品味 1210
给付 1210
70年代 1209
Gl@@ 1209
II/@@ 1209
再接再厉 1209
短的 1209
筛 1209
顽强 1209
3/200@@ 1208
NO@@ 1208
仙 1208
偏僻 1208
入门 1208
凑@@ 1208
反向 1208
杖 1208
莫过于 1208
说完 1208
辞去 1208
鸽子 1208
；@@ 1208
ier 1207
忧郁 1207
英才 1207
总长 1206
盗版 1206
称道 1206
订婚 1206
送来 1206
遵@@ 1206
颁@@ 1206
预想 1206
7.5 1205
不好意思 1205
地道 1205
忍耐 1205
思念 1205
页数 1205
600@@ 1204
F/@@ 1204
est 1204
令人鼓舞 1204
偏爱 1204
健 1204
克利@@ 1204
臣@@ 1204
集邮 1204
高山 1204
Fr@@ 1203
传闻 1203
想去 1203
手势 1203
斥 1203
浮 1203
电信@@ 1203
禁忌 1203
表层 1203
金币 1203
七十 1202
仁@@ 1202
成语 1202
文摘 1202
斜 1202
欢喜 1202
超重 1202
钩@@ 1202
9/200@@ 1201
刊载 1201
探矿 1201
次于 1201
羽@@ 1201
词组 1201
过头 1201
震荡 1201
40亿 1200
PBC.@@ 1200
协联 1200
时间@@ 1200
母国 1200
渣@@ 1200
溴二 1200
第46/@@ 1200
纪念品 1200
草莓 1200
训练@@ 1200
追捕 1200
22号 1199
317 1199
Ph@@ 1199
上届 1199
利人 1199
匹@@ 1199
协委会 1199
增速 1199
夫斯基 1199
尘土 1199
睁@@ 1199
辨 1199
闲 1199
507 1198
hat 1198
再者 1198
卷宗 1198
听我 1198
妨害 1198
扁 1198
指甲 1198
波浪 1198
莲 1198
著称 1198
非农业 1198
1960年代 1197
72.@@ 1197
7月份 1197
MA 1197
wh@@ 1197
俘虏 1197
尘埃 1197
开放性 1197
才智 1197
深厚 1197
稳妥 1197
２００@@ 1197
119@@ 1196
NE@@ 1196
OE@@ 1196
其上 1196
如不 1196
定出 1196
收成 1196
植 1196
背部 1196
骗@@ 1196
63/@@ 1195
BE@@ 1195
出行 1195
加德满都 1195
听觉 1195
小儿 1195
挤出 1195
棋@@ 1195
沙田 1195
赞 1195
ff@@ 1194
分行 1194
发来 1194
取用 1194
口音 1194
捆@@ 1194
比我 1194
特委会 1194
监督@@ 1194
蚂蚁 1194
蚊子 1194
Fran@@ 1193
以该 1193
无证 1193
表征 1193
警力 1193
音乐家 1193
337 1192
uk 1192
受力 1192
局域网 1192
慈爱 1192
拮据 1192
纳斯 1192
魁北克 1192
Han@@ 1191
判分 1191
可耻 1191
法希尔 1191
相爱 1191
祭@@ 1191
纠缠 1191
追随 1191
顺从 1191
须要 1191
Ru@@ 1190
ski 1190
we 1190
互为 1190
内有 1190
渗入 1190
芋 1190
认明 1190
金边 1190
阿卜杜勒 1190
高职 1190
25/@@ 1189
Mo@@ 1189
公交车 1189
在下列 1189
屡次 1189
嵌@@ 1189
教育者 1189
施暴者 1189
杂 1189
润滑 1189
看望 1189
绩 1189
重于 1189
镇静 1189
001 1188
6/Add.1 1188
不堪@@ 1188
关门 1188
取证 1188
大叫 1188
本年度 1188
督导 1188
禁区 1188
营养素 1188
萨米@@ 1188
袭击者 1188
诊治 1188
1时@@ 1187
2015 1187
erm@@ 1187
sa 1187
受托人 1187
拉巴特 1187
无能 1187
航道 1187
虫害 1187
雕 1187
５ 1187
umb@@ 1186
下于 1186
中间商 1186
亲王 1186
保密性 1186
兰·@@ 1186
富含 1186
挣钱 1186
最易 1186
蛮@@ 1186
赢了 1186
运兵车 1186
野兽 1186
雌@@ 1186
高尔夫球 1186
25号 1185
句@@ 1185
地区性 1185
审评委 1185
小费 1185
弱者 1185
抓获 1185
查谟 1185
污泥 1185
牢牢 1185
请愿书 1185
远东 1185
Mart@@ 1184
ST/@@ 1184
东道主 1184
了结 1184
克罗@@ 1184
卡拉 1184
平权 1184
并发 1184
教育局 1184
照护 1184
理财 1184
神经元 1184
袜子 1184
贞@@ 1184
郊 1184
部和 1184
门票 1184
�� 1184
令人不安 1183
夺去 1183
小心翼翼 1183
掌权 1183
旅行@@ 1183
无可 1183
涩 1183
盲 1183
输出国 1183
遗属 1183
鹅@@ 1183
191@@ 1182
271 1182
中心@@ 1182
从业者 1182
列述 1182
埋设 1182
析@@ 1182
美女 1182
谈起 1182
一万 1181
减让 1181
副总裁 1181
哑 1181
失散 1181
收紧 1181
油脂 1181
海床 1181
疗 1181
稀有 1181
第69 1181
给与 1181
虽说 1181
超声波 1181
辩说 1181
/200@@ 1180
℃ 1180
无限制 1180
篇章 1180
贷项 1180
通报会 1180
丝绸 1179
交通@@ 1179
以利 1179
公有 1179
原子弹 1179
喊道 1179
岂@@ 1179
急速 1179
恒 1179
稽@@ 1179
致词 1179
1号 1178
289 1178
AC@@ 1178
erg@@ 1178
下台 1178
决算 1178
受援 1178
害羞 1178
手持 1178
跌倒 1178
隐形 1178
A/CN.9/7@@ 1177
Dar@@ 1177
丢@@ 1177
交易@@ 1177
可言 1177
屏@@ 1177
摘 1177
班子 1177
疲@@ 1177
经济学家 1177
落下 1177
195@@ 1176
2700 1176
Um@@ 1176
教区 1176
谋杀罪 1176
＋ 1176
��� 1176
58% 1175
Ha@@ 1175
for@@ 1175
四.@@ 1175
学问 1175
更广 1175
甲状腺 1175
童话 1175
胡锦涛 1175
马吕斯 1175
284 1174
298 1174
54% 1174
A/58/2@@ 1174
Ban@@ 1174
Mas@@ 1174
俊@@ 1174
保险金 1174
减为 1174
到访 1174
历届 1174
客房 1174
巴库 1174
布伦 1174
息息相关 1174
眉@@ 1174
谋杀案 1174
转诊 1174
钉@@ 1174
67% 1173
ack@@ 1173
ies 1173
动身 1173
叫人 1173
失常 1173
密不可分 1173
港岛 1173
第62/208 1173
E/CN.4/@@ 1172
③ 1172
不全 1172
不详 1172
出错 1172
北基伍 1172
布满 1172
愁@@ 1172
省略 1172
细心 1172
罕 1172
赞助者 1172
趋@@ 1172
附于 1172
韧性 1172
24号 1171
勘查 1171
害者 1171
接头 1171
敌国 1171
无动于衷 1171
这就是说 1171
钴 1171
8.2 1170
CRP.2 1170
Dj@@ 1170
He@@ 1170
壮观 1170
池塘 1170
男孩子 1170
记名 1170
辅助性 1170
迷信 1170
81.@@ 1169
做梦 1169
哲@@ 1169
床位 1169
等值 1169
粒@@ 1169
六年 1168
冶金 1168
安的列斯 1168
弦@@ 1168
拘留者 1168
特遣 1168
何况 1167
充裕 1167
公证 1167
头顶 1167
抢救 1167
收割 1167
无声 1167
赫尔 1167
逃往 1167
292 1166
可靠地 1166
束@@ 1166
栽 1166
逃亡 1166
Min@@ 1165
sch@@ 1165
剪切 1165
十亿 1165
处死 1165
摩根 1165
送进 1165
食堂 1165
TD/B/@@ 1164
ima 1164
人时 1164
售出 1164
早点 1164
用餐 1164
疮 1164
自相矛盾 1164
药剂 1164
蕾@@ 1164
采行 1164
60亿 1163
五.@@ 1163
冰冷 1163
听了 1163
犯罪法 1163
用手 1163
轻罪 1163
辖下 1163
鲸 1163
麦当劳 1163
100.@@ 1162
7/SR.@@ 1162
WTO 1162
上载 1162
交火 1162
再说 1162
功能性 1162
去了 1162
名片 1162
孤儿院 1162
居于 1162
布尼亚 1162
抹 1162
显出 1162
死的 1162
雅温得 1162
1500万 1161
A/C.3/62/L.@@ 1161
ith 1161
主流化 1161
从没有 1161
停泊 1161
刹车 1161
取自 1161
受益国 1161
喜好 1161
婚姻法 1161
惊恐 1161
戏剧性 1161
改派 1161
躲@@ 1161
驱动力 1161
黄油 1161
A/64/6@@ 1160
印刷品 1160
小节 1160
心意 1160
搅@@ 1160
海龟 1160
滤波 1160
独特性 1160
男友 1160
瘤@@ 1160
购物@@ 1160
进了 1160
100,000 1159
432 1159
E/2010 1159
Peter 1159
优缺点 1159
化物 1159
哮喘 1159
增高 1159
导入 1159
更易 1159
民族@@ 1159
治疗@@ 1159
联萨 1159
良机 1159
ie@@ 1158
事务厅 1158
使用量 1158
去吧 1158
夹克 1158
密钥 1158
恶人 1158
执勤 1158
政治@@ 1158
闻@@ 1158
50,000 1157
加盟 1157
喉咙 1157
基督教徒 1157
失明 1157
抚养费 1157
表团 1157
借助于 1156
复活节 1156
定理 1156
情报@@ 1156
拜托 1156
血症 1156
资料袋 1156
过夜 1156
这时候 1156
鲸@@ 1156
26号 1155
IV@@ 1155
事由 1155
传票 1155
兴旺 1155
则为 1155
周到 1155
呼唤 1155
大理石 1155
当家 1155
揭@@ 1155
歌剧 1155
电能 1155
祸患 1155
米特@@ 1155
背上 1155
透明性 1155
K.@@ 1154
ach 1154
周刊 1154
大专 1154
暗中 1154
杭州 1154
矫@@ 1154
糊涂 1154
美人 1154
镁 1154
ko 1153
二十世纪 1153
倡@@ 1153
巴厘岛 1153
架子 1153
高档 1153
人类学 1152
传导 1152
哩 1152
安全带 1152
寸 1152
指示@@ 1152
第一百零@@ 1152
莲@@ 1152
走来 1152
路透社 1152
邮 1152
重启 1152
2800 1151
3000万 1151
63% 1151
CER 1151
中会 1151
冕 1151
名下 1151
回信 1151
抚@@ 1151
栖@@ 1151
氯化萘 1151
泳 1151
由衷 1151
赔偿@@ 1151
马克·@@ 1151
黑客 1151
130万 1150
2005/2@@ 1150
24/@@ 1150
划一 1150
卓@@ 1150
发货 1150
府@@ 1150
摇摇@@ 1150
暴动 1150
注册@@ 1150
萨格勒布 1150
趁 1150
辨识 1150
aa 1149
se 1149
代顿 1149
帕克 1149
突 1149
精华 1149
调派 1149
辩 1149
闭上 1149
预支 1149
ela 1148
增建 1148
左翼 1148
期期 1148
督@@ 1148
站不住脚 1148
2002/2@@ 1147
IA 1147
不合 1147
付钱 1147
公平性 1147
合作署 1147
尤指 1147
崇@@ 1147
绵羊 1147
自下而上 1147
远方 1147
＝ 1147
328 1146
不言而喻 1146
对不 1146
操作性 1146
欧佩克 1146
特此 1146
福德 1146
第X@@ 1146
过低 1146
锦标赛 1146
327 1145
500000 1145
SB@@ 1145
上风 1145
充资 1145
强盗 1145
捏造 1145
矢量 1145
藻 1145
钦@@ 1145
2.7 1144
作主 1144
拇指 1144
普里@@ 1144
氨 1144
沙拉 1144
派人 1144
贴上 1144
12/@@ 1143
T.@@ 1143
itt@@ 1143
因人 1143
没能 1143
畜@@ 1143
皱@@ 1143
窃@@ 1143
设计@@ 1143
辣@@ 1143
DI 1142
ida 1142
帝 1142
毛巾 1142
液相 1142
着想 1142
称号 1142
花了 1142
辩论会 1142
还可 1142
,5@@ 1141
上台 1141
五年期 1141
以对 1141
依循 1141
保住 1141
呈件 1141
忧 1141
患@@ 1141
爱丽丝 1141
见证人 1141
谨@@ 1141
工艺品 1140
换算 1140
揭开 1140
松散 1140
熏@@ 1140
特大 1140
环发 1140
粮@@ 1140
适量 1140
1572 1139
Ev@@ 1139
XXI 1139
上期 1139
拟出 1139
曲面 1139
核弹头 1139
美观 1139
荷载 1139
赖斯 1139
/2007 1138
296 1138
A/AC.96/@@ 1138
公元前 1138
分立 1138
剖析 1138
受雇于 1138
奔跑 1138
好啊 1138
日落 1138
格斯 1138
激 1138
猴 1138
路由 1138
AR 1137
国是 1137
拉尔@@ 1137
明知 1137
病院 1137
装上 1137
转子 1137
4.7 1136
CAT/C/@@ 1136
a.@@ 1136
add@@ 1136
ñ@@ 1136
价款 1136
内衣 1136
办事员 1136
同伙 1136
威士忌 1136
孕期 1136
富于 1136
捷 1136
沉思 1136
罗姆族 1136
罪孽 1136
62% 1135
650 1135
CO 1135
尖叫 1135
柔性 1135
民有 1135
水污染 1135
波长 1135
磁性 1135
震撼 1135
音响 1135
49/@@ 1134
光泽 1134
卧 1134
布雷@@ 1134
怨恨 1134
法第 1134
电车 1134
监管者 1134
竞技 1134
键@@ 1134
2025年 1133
感恩 1133
收听 1133
新版 1133
未使用 1133
洛斯 1133
烈士 1133
看好 1133
罢@@ 1133
自来水 1133
26/@@ 1132
291 1132
SU@@ 1132
San@@ 1132
VII 1132
不见了 1132
囚@@ 1132
姐@@ 1132
宿 1132
波哥大 1132
甚少 1132
赛车 1132
镇定 1132
驰 1132
2003/2@@ 1131
何人 1131
和尚 1131
女神 1131
憎恶 1131
推论 1131
本分 1131
知情权 1131
箭@@ 1131
纺@@ 1131
肚@@ 1131
语境 1131
迟早 1131
·埃@@ 1130
正本 1130
营救 1130
A/63/2@@ 1129
g/@@ 1129
充 1129
工件 1129
普罗@@ 1129
来得 1129
溃疡 1129
焚@@ 1129
牛排 1129
猎物 1129
稀释 1129
老太太 1129
聋@@ 1129
艾 1129
躺 1129
钟头 1129
/2000 1128
160@@ 1128
ish 1128
一俟 1128
三明治 1128
中场 1128
分校 1128
前行 1128
塔·@@ 1128
毅力 1128
落成 1128
议请 1128
逐个 1128
鲜艳 1128
侦@@ 1127
兵营 1127
宾语 1127
工程学 1127
河边 1127
物色 1127
空缺率 1127
让人 1127
My@@ 1126
class3' 1126
也好 1126
伐@@ 1126
后继 1126
工具箱 1126
幽默感 1126
得益 1126
我从 1126
有区别 1126
桃 1126
疯@@ 1126
纲 1126
走动 1126
雌性 1126
非军事 1126
1503 1125
be 1125
世行 1125
互通 1125
五千 1125
假冒 1125
坚硬 1125
孤单 1125
废气 1125
微分 1125
是要 1125
核军备 1125
相一致 1125
达累斯萨拉姆 1125
Ber@@ 1124
伙伴国 1124
先令 1124
响起 1124
妇女节 1124
拐 1124
湖区 1124
译为 1124
非核 1124
害虫 1123
廉@@ 1123
显微 1123
阿勒@@ 1123
370 1122
64/@@ 1122
65/@@ 1122
XXVI 1122
九十年代 1122
人民党 1122
体性 1122
卑鄙 1122
孕育 1122
序号 1122
挽@@ 1122
深夜 1122
170@@ 1121
44/@@ 1121
之用 1121
便可 1121
卡罗@@ 1121
台上 1121
婚前 1121
渗 1121
狮 1121
罚@@ 1121
联尼 1121
70亿 1120
AF@@ 1120
ick 1120
做得 1120
出在 1120
埃德@@ 1120
战事 1120
挑剔 1120
掀起 1120
粗略 1120
络 1120
著作权 1120
还好 1120
闪光 1120
RES 1119
class2' 1119
宅 1119
尼亚拉 1119
监督员 1119
饿 1119
骑马 1119
黑塞哥 1119
4500 1118
ock 1118
不解 1118
剃@@ 1118
引出 1118
打字 1118
技经 1118
推到 1118
没关系 1118
混沌 1118
生的 1118
第V@@ 1118
背诵 1118
评论家 1118
项链 1118
香气 1118
E-@@ 1117
For@@ 1117
class4' 1117
商家 1117
执 1117
暴跌 1117
条纹 1117
确诊 1117
联储 1117
落后于 1117
100％ 1116
331 1116
que 1116
偏高 1116
排挤 1116
毯子 1116
这些年来 1116
386 1115
M-@@ 1115
光灯 1115
内乱 1115
出生日期 1115
列在 1115
协调性 1115
哑@@ 1115
墨水 1115
就象 1115
普惠制 1115
格林@@ 1115
赌 1115
.htm 1114
40000 1114
5.6 1114
不说 1114
伟 1114
出版@@ 1114
向着 1114
威尼斯 1114
宏大 1114
布罗@@ 1114
录像带 1114
抓紧 1114
推销员 1114
旋律 1114
茜 1114
风气 1114
321 1113
sen 1113
前锋 1113
即是 1113
固化 1113
小规模 1113
年数 1113
机动车 1113
滨 1113
狱 1113
322 1112
A/65/L.@@ 1112
Er@@ 1112
一辈子 1112
军舰 1112
原地 1112
基辅 1112
复国 1112
奶粉 1112
审判权 1112
德拉 1112
扔掉 1112
残割 1112
氨@@ 1112
辽@@ 1112
2010-2013年 1111
NPT/CONF.@@ 1111
周密 1111
惨 1111
想方设法 1111
截面 1111
折算 1111
早饭 1111
标准@@ 1111
E/2006/@@ 1110
发疯 1110
栏目 1110
格伦 1110
沙姆沙伊赫 1110
瑜伽 1110
职场 1110
肽 1110
蹦@@ 1110
默示 1110
324 1109
uri 1109
尝@@ 1109
捧 1109
计画 1109
AC.@@ 1108
○@@ 1108
交叉@@ 1108
得对 1108
正确地 1108
警署 1108
驾驶@@ 1108
land 1107
乌萨马·本·拉丹 1107
儒@@ 1107
商贸 1107
增益 1107
州政府 1107
正要 1107
罪责 1107
萨克斯坦 1107
逛 1107
防火墙 1107
346 1106
专利权 1106
出面 1106
受人 1106
坊 1106
夺得 1106
岸@@ 1106
巴巴 1106
搬 1106
收件人 1106
珍 1106
香水 1106
POPS/POPRC.@@ 1105
人与 1105
平和 1105
抗旱 1105
盟@@ 1105
短时 1105
294 1104
anda 1104
冷水 1104
填妥 1104
廉署 1104
意料 1104
服务局 1104
氯化@@ 1104
游艇 1104
田地 1104
畜牧 1104
罗马@@ 1104
而行 1104
若有 1104
铃@@ 1104
Facebook 1103
上帝军 1103
复仇 1103
妇女@@ 1103
收受 1103
梦中 1103
燃烧@@ 1103
科尔@@ 1103
穆巴拉克 1103
紧接着 1103
置身 1103
0.7％ 1102
381 1102
塔吉克 1102
复印 1102
征集 1102
支派 1102
改观 1102
甩@@ 1102
紫 1102
联危 1102
马普托 1102
高端 1102
140万 1101
2008-2013年 1101
五百 1101
写成 1101
历经 1101
弓 1101
格雷@@ 1101
法塔赫 1101
热闹 1101
趣@@ 1101
采伐 1101
阿萨德 1101
389 1100
A/57/2@@ 1100
A/62 1100
Bou@@ 1100
二十六 1100
僵硬 1100
兑换率 1100
卑@@ 1100
慰@@ 1100
指示性 1100
断绝 1100
消耗量 1100
第比利斯 1100
腐烂 1100
2006-2010年 1099
299 1099
Ro@@ 1099
下水道 1099
前身 1099
动物@@ 1099
喷射 1099
大军 1099
少校 1099
干了 1099
新车 1099
犯法 1099
琳@@ 1099
线条 1099
芳香 1099
蒸气 1099
西蒙 1099
406 1098
Mak@@ 1098
名牌 1098
安全套 1098
并列 1098
本区 1098
礁 1098
赢@@ 1098
越是 1098
332 1097
壶 1097
平坦 1097
来访者 1097
穿梭 1097
维拉 1097
能对 1097
能干 1097
莫斯 1097
诡@@ 1097
财务处 1097
487 1096
CRC/C/15/Add.@@ 1096
不和 1096
付诸实施 1096
刀具 1096
喂@@ 1096
捆绑 1096
榴弹 1096
活化 1096
灯泡 1096
界别 1096
继任者 1096
花瓶 1096
页@@ 1096
339 1095
ES-10 1095
class5' 1095
亡 1095
从来没有 1095
方位 1095
有增无减 1095
染上 1095
案卷 1095
空闲 1095
风筝 1095
334 1094
352 1094
354 1094
41/213 1094
为数不多 1094
办公楼 1094
本案 1094
灭亡 1094
状语 1094
狭义 1094
117@@ 1093
345 1093
Bank 1093
GN@@ 1093
何地 1093
平壤 1093
泉@@ 1093
踩 1093
420 1092
一站式 1092
上传 1092
救济金 1092
越狱 1092
镇上 1092
Sect. 1091
仍@@ 1091
占地 1091
唇@@ 1091
果是 1091
柏 1091
翁@@ 1091
赫·@@ 1091
远大 1091
509 1090
A/62/7@@ 1090
Po@@ 1090
class1' 1090
候审 1090
克里斯 1090
内置 1090
赵@@ 1090
1390 1089
Bak@@ 1089
交易商 1089
吉利 1089
囊括 1089
弗莱@@ 1089
慢性病 1089
旦 1089
民权 1089
电视@@ 1089
等效 1089
踏 1089
辊 1089
隐性 1089
ash 1088
仆 1088
双眼 1088
坛@@ 1088
对账 1088
损@@ 1088
提振 1088
杂交 1088
死人 1088
贸 1088
送上 1088
友情 1087
叙事 1087
哈里里 1087
特设局 1087
自律 1087
293 1086
tion@@ 1086
巴比伦 1086
探险 1086
文号 1086
新法 1086
朱 1086
权者 1086
汉姆 1086
礼堂 1086
谐@@ 1086
陆续 1086
1.8 1085
Bas@@ 1085
下巴 1085
凭单 1085
加里 1085
北京市 1085
卸 1085
受邀 1085
字面 1085
心跳 1085
校内 1085
湿润 1085
看重 1085
那座 1085
黄昏 1085
2011-@@ 1084
23-@@ 1084
Lu@@ 1084
Muhammad 1084
Sab@@ 1084
不可抗力 1084
不服 1084
公司法 1084
合作区 1084
小队 1084
建筑群 1084
改名 1084
斯坦福 1084
毕业后 1084
河里 1084
痴@@ 1084
端口 1084
黑洞 1084
4/Add.1 1083
51/2@@ 1083
BS 1083
候任 1083
到时 1083
卡洛斯 1083
受影响 1083
惟@@ 1083
涉足 1083
菲利@@ 1083
还押 1083
逼近 1083
ü@@ 1082
亚伦 1082
保有权 1082
决定权 1082
堵@@ 1082
岂 1082
有多 1082
栗 1082
炒 1082
猛 1082
积聚 1082
遂 1082
间内 1082
骨髓 1082
128.@@ 1081
48/2@@ 1081
ib 1081
借钱 1081
全年 1081
彰显 1081
欠佳 1081
洒@@ 1081
淋巴 1081
现为 1081
疑似 1081
纽约州 1081
蒙特 1081
锥@@ 1081
降水 1081
Ahmad 1080
乱伦 1080
加油站 1080
勇士 1080
区域化 1080
手腕 1080
晋@@ 1080
末期 1080
极少数 1080
欺凌 1080
看管 1080
睹 1080
获得者 1080
貌@@ 1080
374 1079
出版商 1079
拾@@ 1079
看书 1079
脑部 1079
连通性 1079
野餐 1079
非官方 1079
低地 1078
德鲁@@ 1078
炒@@ 1078
用词 1078
盘点 1078
离家 1078
纳库 1078
飞来 1078
SC 1077
从速 1077
叙利亚人 1077
委员们 1077
瞬@@ 1077
而使 1077
证言 1077
逃税 1077
A/57/L.@@ 1076
Ash@@ 1076
乐团 1076
乒乓球 1076
南基伍 1076
塔什干 1076
装入 1076
酬 1076
Khan 1075
TP 1075
Ur@@ 1075
az 1075
回收率 1075
手提 1075
撰@@ 1075
烟囱 1075
而为 1075
萝@@ 1075
赌场 1075
远未 1075
通则 1075
遇难 1075
重置 1075
颈部 1075
高处 1075
uz@@ 1074
专家组 1074
先天性 1074
光是 1074
原子@@ 1074
孤身 1074
希特勒 1074
开工 1074
徽 1074
拖车 1074
涵@@ 1074
爪 1074
背面 1074
str@@ 1073
一点@@ 1073
代管 1073
史上 1073
各省 1073
抢走 1073
海浪 1073
编队 1073
/2008 1072
Hu@@ 1072
Windows 1072
会把 1072
共谋 1072
天啊 1072
报告@@ 1072
梗@@ 1072
混蛋 1072
照相 1072
转售 1072
非常规 1072
1.7 1071
e.@@ 1071
亚美尼亚人 1071
假的 1071
喷 1071
国和 1071
将此 1071
截 1071
斯卡@@ 1071
欣然 1071
蒂斯 1071
Kal@@ 1070
下图 1070
基调 1070
当心 1070
打仗 1070
攻读 1070
数组 1070
点火 1070
管治 1070
肖 1070
装船 1070
资源部 1070
近亲 1070
配量 1070
329 1069
A/66/7@@ 1069
ett@@ 1069
共振 1069
召@@ 1069
处理@@ 1069
尔人 1069
汉字 1069
电脑化 1069
登记簿 1069
视而不见 1069
软禁 1069
170万 1068
387 1068
Nd@@ 1068
Ta@@ 1068
削@@ 1068
机车 1068
纹理 1068
锥体 1068
2011-2012年 1067
不分 1067
卸@@ 1067
摇摆 1067
盟军 1067
缴@@ 1067
耕@@ 1067
貌 1067
进口@@ 1067
Af@@ 1066
书上 1066
喷洒 1066
姚明 1066
安放 1066
巧合 1066
急忙 1066
文具 1066
活动者 1066
淘@@ 1066
营业@@ 1066
藏匿 1066
香料 1066
Ir@@ 1065
交界 1065
偷渡 1065
分离主义 1065
多层 1065
尊贵 1065
所有制 1065
有利可图 1065
温馨 1065
稀土 1065
都灵 1065
寓@@ 1064
幕后 1064
球赛 1064
疯了 1064
赢利 1064
转口 1064
郑重 1064
锻@@ 1064
Ty@@ 1063
努美阿 1063
咖啡馆 1063
娘@@ 1063
席卷 1063
底线 1063
废旧 1063
微克 1063
求婚 1063
管理费 1063
茅@@ 1063
迟钝 1063
飞翔 1063
366 1062
丸 1062
收录 1062
攻击者 1062
格兰@@ 1062
那时候 1062
Pal@@ 1061
ade 1061
hi 1061
到场 1061
可按 1061
扎实 1061
特拉 1061
能耗 1061
达尔文 1061
还愿 1061
LO@@ 1060
呈文 1060
工业部 1060
得去 1060
插件 1060
无歧视 1060
沙子 1060
湄公河 1060
演唱 1060
糟@@ 1060
阿布 1060
阿拉法特 1060
驾@@ 1060
6/200@@ 1059
Alma 1059
Group 1059
丢掉 1059
净增 1059
学率 1059
比利 1059
汞@@ 1059
流泪 1059
消亡 1059
用了 1059
矿井 1059
第45 1059
艾哈迈德 1059
诱拐 1059
凯恩斯 1058
卫生部长 1058
各类 1058
崔@@ 1058
当值 1058
或许是 1058
抓到 1058
接生 1058
改叙 1058
旱 1058
炼油厂 1058
询 1058
重庆 1058
倒霉 1057
冷淡 1057
即在 1057
多么的 1057
截获 1057
技师 1057
旱@@ 1057
每一 1057
民生 1057
电动机 1057
轮到 1057
隙 1057
341 1056
十年代 1056
发抖 1056
堡垒 1056
复合@@ 1056
婆 1056
拉开 1056
第48/2@@ 1056
约瑟夫·@@ 1056
议论 1056
31-@@ 1055
·萨@@ 1055
上诉人 1055
受难者 1055
可获 1055
姊妹 1055
宪 1055
悦@@ 1055
本系统 1055
毛衣 1055
绳@@ 1055
贤 1055
逼迫 1055
14:@@ 1054
H. 1054
S/2012 1054
上门 1054
倾 1054
其三 1054
可被 1054
妻@@ 1054
布尔@@ 1054
拉伸 1054
摆放 1054
读写 1054
贸易部 1054
跃 1054
13/@@ 1053
多党 1053
将从 1053
店员 1053
所有人 1053
看过 1053
第77 1053
藤@@ 1053
订本 1053
逝 1053
重审 1053
.html 1052
AA 1052
人寿 1052
天哪 1052
履历 1052
摄取 1052
棋 1052
空间局 1052
记忆力 1052
酿@@ 1052
97% 1051
一堂 1051
伴有 1051
作过 1051
关乎 1051
愤 1051
投诉人 1051
易事 1051
晃@@ 1051
罹患 1051
芝@@ 1051
觉察 1051
rah 1050
世间 1050
关於 1050
制卡 1050
卫士 1050
发运 1050
打来 1050
打着 1050
数以百计 1050
机队 1050
Google 1049
Pe@@ 1049
之列 1049
向南 1049
得主 1049
怨 1049
高新 1049
350万 1048
务虚会 1048
埃米尔 1048
导管 1048
打赌 1048
科学@@ 1048
阴 1048
高位 1048
A/64/2@@ 1047
停了 1047
原产地 1047
开发者 1047
接受者 1047
算出 1047
肆无忌惮 1047
衰@@ 1047
诚@@ 1047
转录 1047
达赖 1047
那不勒斯 1047
闪耀 1047
ICC@@ 1046
KO@@ 1046
ón 1046
同谋 1046
客气话 1046
布卡武 1046
悬殊 1046
曲折 1046
核生化 1046
橙@@ 1046
气动 1046
混合@@ 1046
特尔 1046
矩形 1046
诱人 1046
ins 1045
ok 1045
债权国 1045
开普敦 1045
征兆 1045
脱贫 1045
2500万 1044
408 1044
973 1044
佩林达巴 1044
俾@@ 1044
后台 1044
派任 1044
火山@@ 1044
皱纹 1044
窥@@ 1044
27/@@ 1043
347 1043
CF@@ 1043
CN@@ 1043
其事 1043
栽@@ 1043
梭@@ 1043
泄 1043
1月份 1042
2.5% 1042
357 1042
丑陋 1042
印度人 1042
堆积 1042
尼尔 1042
抗性 1042
模块化 1042
油轮 1042
祖父母 1042
纬@@ 1042
纾@@ 1042
羞愧 1042
裹@@ 1042
....@@ 1041
25万 1041
IBM 1041
智商 1041
正轨 1041
混杂 1041
盘问 1041
第七十六 1041
胰@@ 1041
隐患 1041
人年 1040
倾销 1040
多年@@ 1040
尼罗河 1040
忌@@ 1040
成交 1040
手们 1040
盛大 1040
缘@@ 1040
肾@@ 1040
齐心协力 1040
Ob@@ 1039
库克 1039
新兵 1039
病原体 1039
耍 1039
艰辛 1039
财务科 1039
轻度 1039
迪克 1039
锚 1039
0/2@@ 1038
349 1038
e/@@ 1038
出场 1038
力所能及 1038
守法 1038
干吗 1038
整数 1038
瘾 1038
钓鱼 1038
体育@@ 1037
保姆 1037
发指 1037
喻 1037
对照组 1037
搭乘 1037
灵敏度 1037
硬度 1037
祥@@ 1037
肿@@ 1037
自已 1037
A/63/L.@@ 1036
公牛 1036
利比里亚人 1036
性和 1036
无机 1036
晚宴 1036
编造 1036
致癌 1036
请向 1036
闸 1036
22/@@ 1035
4800 1035
A/CN.9/6@@ 1035
制动 1035
复原力 1035
属地 1035
笨@@ 1035
缓减 1035
讲演 1035
请洽 1035
走得 1035
过份 1035
近些 1035
非婚生 1035
1.5% 1034
2008/09年度 1034
佛罗里达州 1034
军团 1034
含糊不清 1034
多元性 1034
对数 1034
往后 1034
汉普 1034
法兰西 1034
渗漏 1034
申领 1034
贵宾 1034
迟延 1034
错失 1034
106@@ 1033
ac 1033
公债 1033
公路网 1033
呈报 1033
大通 1033
头巾 1033
憎恨 1033
普斯 1033
模糊不清 1033
油墨 1033
玛丽·@@ 1033
看的 1033
第一〇@@ 1033
贩 1033
贴在 1033
Mac@@ 1032
品格 1032
所选 1032
收敛 1032
核电 1032
点心 1032
绪@@ 1032
贝蒂 1032
逆差 1032
值班 1031
光束 1031
公交 1031
冷酷 1031
复方 1031
就像 1031
真主 1031
节第 1031
轻视 1031
阿姆斯特丹 1031
AH@@ 1030
š@@ 1030
公义 1030
已于 1030
广度 1030
折叠 1030
拓扑 1030
智囊团 1030
未受 1030
枕头 1030
琳·@@ 1030
第338 1030
维克@@ 1030
460 1029
初始化 1029
水事 1029
符@@ 1029
减慢 1028
加拿大人 1028
墓@@ 1028
威尔逊 1028
接手 1028
澳元 1028
贬@@ 1028
辐射@@ 1028
不得在 1027
保护令 1027
兰特 1027
分配数 1027
化妆 1027
受惠 1027
大腿 1027
嫁妆 1027
所生 1027
犹太教 1027
田间 1027
稠密 1027
雇 1027
348 1026
E/CN.4/1999 1026
字眼 1026
或用 1026
澳@@ 1026
火花 1026
犬@@ 1026
第S-@@ 1026
结壳 1026
统一性 1026
缆@@ 1026
66% 1025
P/L.@@ 1025
如需 1025
忘掉 1025
机密性 1025
消防@@ 1025
灯塔 1025
西雅图 1025
贷方 1025
顶点 1025
饭菜 1025
87.@@ 1024
A/C.2/60 1024
S/PV.@@ 1024
写明 1024
图纸 1024
如是 1024
玷污 1024
疏远 1024
飘 1024
鳞@@ 1024
382 1023
7/200@@ 1023
BO@@ 1023
ker 1023
一般说来 1023
与之 1023
信使 1023
副司长 1023
十五日 1023
坑@@ 1023
常数 1023
库尔德人 1023
托雷斯 1023
评议 1023
费时 1023
运抵 1023
酬@@ 1023
Inspira 1022
eed 1022
we@@ 1022
停靠 1022
厨@@ 1022
找不到 1022
无休止 1022
这部 1022
351 1021
class6' 1021
乙烯 1021
二百 1021
仔 1021
份量 1021
古巴人 1021
可口可乐 1021
娇@@ 1021
慈@@ 1021
整治 1021
沉淀 1021
消遣 1021
童兵 1021
行贿 1021
160万 1020
356 1020
385 1020
A/C.4/5@@ 1020
E/CN.3/@@ 1020
G/@@ 1020
Kafr 1020
Paul 1020
十分之一 1020
卜拉希米 1020
基尼 1020
宇航 1020
庆@@ 1020
热能 1020
纷争 1020
钢板 1020
９@@ 1020
习惯于 1019
吸烟者 1019
夕 1019
定语 1019
朴 1019
竟@@ 1019
辱骂 1019
陪审员 1019
面纱 1019
鲸鱼 1019
16号 1018
A/C.2/66/L.@@ 1018
Im@@ 1018
住宅区 1018
作弊 1018
前次 1018
副手 1018
喷雾 1018
总统府 1018
时而 1018
点半 1018
计时 1018
调查处 1018
进取 1018
401 1017
8/Add.1 1017
SAT 1017
会被 1017
低落 1017
体格 1017
应按照 1017
弄清楚 1017
微风 1017
惨重 1017
极高 1017
生于 1017
登机 1017
科伦坡 1017
草率 1017
7/Add.1 1016
商船 1016
安德烈 1016
弗兰@@ 1016
技艺 1016
新式 1016
禽 1016
私营化 1016
误会 1016
贮@@ 1016
铲@@ 1016
霍尔 1016
13:@@ 1015
不太可能 1015
制衡 1015
工资@@ 1015
应否 1015
快餐 1015
昔日 1015
规范化 1015
阿勒颇 1015
附属于 1015
驱赶 1015
专业性 1014
于此 1014
再现 1014
刻意 1014
坏了 1014
大炮 1014
教唆 1014
杂质 1014
看清 1014
车票 1014
钢笔 1014
问她 1014
队友 1014
魏@@ 1014
Don 1013
oun 1013
三十日 1013
分局 1013
变了 1013
歌词 1013
正交 1013
烯@@ 1013
烷@@ 1013
疑惑 1013
重整 1013
2900 1012
TE@@ 1012
ip 1012
听审 1012
屁 1012
措@@ 1012
百货 1012
盼 1012
越多 1012
越大 1012
辅以 1012
通缉 1012
隐喻 1012
64% 1011
Franc@@ 1011
act@@ 1011
停产 1011
停职 1011
接连 1011
携带者 1011
椎@@ 1011
比他 1011
盐类 1011
磋商会 1011
表态 1011
警察@@ 1011
订出 1011
记号 1011
辅导员 1011
180万 1010
US@@ 1010
·恩@@ 1010
冥想 1010
台北 1010
土木 1010
性状 1010
愈@@ 1010
投票@@ 1010
经商 1010
荷尔蒙 1010
裁武 1010
记下 1010
靠着 1010
马拉松 1010
16/@@ 1009
EA-6B 1009
Na@@ 1009
iii 1009
illa 1009
保护者 1009
光子 1009
冗余 1009
夷@@ 1009
奶牛 1009
待决 1009
护卫 1009
接通 1009
脱落 1009
6/Rev.1 1008
IE@@ 1008
一旁 1008
头盔 1008
巢@@ 1008
房东 1008
揽 1008
波斯 1008
着装 1008
立宪 1008
缉@@ 1008
西斯 1008
课文 1008
默默 1008
E/CN.4/2005/@@ 1007
乎 1007
公理 1007
单车 1007
师生 1007
恐 1007
摄氏度 1007
检察@@ 1007
稀 1007
管人 1007
茂@@ 1007
词义 1007
都柏林 1007
除此以外 1007
/2001 1006
300@@ 1006
364 1006
MS 1006
Mich@@ 1006
光度 1006
后被 1006
法律界 1006
跳动 1006
转会 1006
违法者 1006
迪斯尼 1006
12:00 1005
1591 1005
440 1005
480 1005
61% 1005
信条 1005
发怒 1005
突袭 1005
综合征 1005
迪亚 1005
钢管 1005
霍姆斯 1005
鹿@@ 1005
Mos@@ 1004
剧场 1004
效忠 1004
敢@@ 1004
烫@@ 1004
特别法 1004
筛@@ 1004
织为 1004
财团 1004
还得 1004
里斯 1004
阿族 1004
14/@@ 1003
Bus@@ 1003
Os@@ 1003
农发基金 1003
反种族 1003
意见书 1003
打听 1003
节食 1003
袍 1003
财经 1003
贯 1003
适龄 1003
3,000 1002
355 1002
488 1002
Abdel@@ 1002
Av@@ 1002
供货 1002
供需 1002
勘测 1002
咽@@ 1002
国家队 1002
开阔 1002
操作员 1002
最快 1002
涵 1002
灌注 1002
百分之百 1002
随处 1002
霉@@ 1002
353 1001
优越性 1001
内核 1001
拥 1001
火鸡 1001
特雷@@ 1001
电子版 1001
自学 1001
赔偿额 1001
轻率 1001
飞到 1001
A/65/7@@ 1000
H.@@ 1000
berg 1000
不休 1000
书架 1000
二A 1000
二十二 1000
光亮 1000
军费 1000
婚约 1000
拷打 1000
民粹 1000
炮火 1000
笼子 1000
CP. 999
中东欧 999
伐 999
克雷@@ 999
刚果人 999
双亲 999
喘 999
姐 999
握@@ 999
文斯 999
罐头 999
罗安达 999
腊@@ 999
衰减 999
身在 999
透了 999
's 998
410 998
Cap@@ 998
Int@@ 998
如实 998
巴勒莫 998
得来 998
最先进 998
格言 998
欣喜 998
Mag@@ 997
上瘾 997
平滑 997
核计划 997
棱@@ 997
歇 997
破损 997
租借 997
衬衣 997
西方人 997
责任@@ 997
世界@@ 996
亚特兰大 996
内尔 996
前文 996
叹息 996
垒 996
她的 996
好比 996
恳请 996
手无寸铁 996
波段 996
温哥华 996
照样 996
苦苦 996
造影 996
重负 996
阿拉斯加 996
1982 995
250@@ 995
392 995
A/C.1/65/L.@@ 995
到下 995
向量 995
埋在 995
已在 995
描@@ 995
观测@@ 995
韵@@ 995
2010-@@ 994
D节 994
不平 994
分界线 994
去向 994
在说 994
改划 994
此信 994
法尔 994
清扫 994
电荷 994
色调 994
鸡肉 994
E/CN.15/200@@ 993
兜@@ 993
切削 993
动因 993
双手 993
庄园 993
拳击 993
独裁者 993
袖@@ 993
评委 993
调查者 993
贝拉 993
阴暗 993
A/66/2@@ 992
养分 992
圣赫勒拿 992
始终如一 992
年头 992
广播@@ 992
扳@@ 992
拷贝 992
橄榄@@ 992
没用 992
源性 992
王朝 992
理论@@ 992
病患 992
苍蝇 992
袖 992
豪 992
5500 991
察看 991
徽@@ 991
怎@@ 991
成文法 991
打碎 991
把门 991
撇@@ 991
氨基酸 991
流露 991
移至 991
第87 991
谦虚 991
达西 991
遗传学 991
酝酿 991
驾驭 991
2004/05年 990
A/C.1/60 990
Ibrahim 990
old@@ 990
八十 990
寡 990
管局 990
索尼 990
迁至 990
附在 990
3/SR.@@ 989
344 989
3800 989
68% 989
Del@@ 989
SPLOS/@@ 989
处女 989
奸 989
瑕疵 989
用者 989
重担 989
马·@@ 989
2008@@ 988
为你 988
吵@@ 988
基质 988
失学 988
奥利@@ 988
是以 988
款者 988
目击 988
约瑟夫 988
胜诉 988
见识 988
ati 987
gh@@ 987
嚷 987
在位 987
地面站 987
夜班 987
抱着 987
拉法 987
用电 987
疆界 987
病学 987
科比 987
药用 987
谎@@ 987
/C/@@ 986
ola 986
体贴 986
何等 986
军阀 986
所见 986
搏 986
沐浴 986
沸@@ 986
漫 986
紧凑 986
阿片 986
Bro@@ 985
分子@@ 985
妇女们 985
实验性 985
店主 985
悦 985
橘@@ 985
狠狠 985
眼球 985
苷 985
豹 985
选择权 985
重度 985
隔开 985
霸 985
14亿 984
图示 984
坚守 984
孔径 984
布莱克 984
帆船 984
沉没 984
途@@ 984
390 983
8.3 983
IA@@ 983
ear@@ 983
分给 983
助产 983
当它 983
总产值 983
曼哈顿 983
畜 983
脱节 983
边界线 983
15:@@ 982
夏日 982
横滨 982
汇兑 982
洽谈 982
记在 982
违 982
遇上 982
镶@@ 982
Rad@@ 981
个人@@ 981
取暖 981
审阅 981
恤 981
或多或少 981
数月 981
贸易商 981
青红皂白 981
马达 981
SG@@ 980
ide 980
不合法 980
丰度 980
促进者 980
减债 980
向北 980
恼 980
法学会 980
溪@@ 980
葡萄糖 980
金发 980
1521 979
Comm@@ 979
卤@@ 979
外派 979
左手 979
并给 979
强加于 979
惠 979
托马斯·@@ 979
生命线 979
碳酸@@ 979
职守 979
螺旋@@ 979
210@@ 978
405 978
60000 978
国与国 978
尼亚人 978
生来 978
穷困 978
蓄 978
西红柿 978
观察@@ 978
转弯 978
食者 978
2013/@@ 977
National 977
awa 977
像素 977
各部 977
唉 977
垂 977
大有@@ 977
扶助 977
操控 977
歉意 977
潭 977
110万 976
72% 976
伊·@@ 976
圣母 976
工业区 976
调查队 976
败坏 976
颜料 976
E/CN.4/2006/@@ 975
E/CN.7/200@@ 975
不知不觉 975
八溴二 975
分处 975
客观地 975
有点儿 975
粉红色 975
耽误 975
英俊 975
译本 975
阿姆@@ 975
领导权 975
马德@@ 975
10月份 974
388 974
Met@@ 974
POPS/COP.@@ 974
sky 974
上天 974
亨特 974
体质 974
刚度 974
叮@@ 974
叹@@ 974
图谋 974
家畜 974
布设 974
愚昧 974
授权@@ 974
木板 974
木炭 974
查清 974
沉浸 974
炎@@ 974
相识 974
穿透 974
蛇@@ 974
誓@@ 974
贴现率 974
赫斯渥 974
轮子 974
金刚石 974
Pi@@ 973
ile 973
乞讨 973
交错 973
亿万 973
克里米亚 973
入口处 973
印度教 973
希腊人 973
归为 973
恶毒 973
战火 973
报盘 973
普拉 973
深渊 973
稻@@ 973
第七十一 973
聚类 973
胜于 973
说是 973
赞许 973
较短 973
马铃薯 973
4.8 972
Mir@@ 972
XX@@ 972
·德@@ 972
云南 972
公关 972
存储器 972
攀登 972
破旧 972
荫 972
L-@@ 971
卑 971
受虐待 971
受限制 971
吵架 971
哨@@ 971
娱乐@@ 971
将有 971
晕 971
死伤 971
生物体 971
蚁@@ 971
裸体 971
詹姆斯·@@ 971
试剂 971
还会 971
问你 971
非员额 971
372 970
A/C.2/65/L.@@ 970
Ass@@ 970
不准 970
买进 970
创业者 970
同级 970
宽阔 970
报称 970
浙江 970
说着 970
通讯社 970
钉子 970
2000/2@@ 969
A/67/7@@ 969
会所 969
劫 969
十字@@ 969
反响 969
反面 969
山姆 969
时宜 969
来电 969
积蓄 969
统计处 969
罪案 969
英亩 969
血浆 969
赢家 969
预算司 969
35分 968
三日 968
为时 968
供暖 968
大方 968
就医 968
常住 968
很低 968
旋转翼 968
无阻 968
智者 968
环形 968
自此 968
警示 968
3.7 967
6－@@ 967
B/@@ 967
E/2013 967
Say@@ 967
eva 967
代之以 967
停用 967
办学 967
屏蔽 967
收货人 967
散居 967
敦 967
自大 967
草药 967
质询 967
配制 967
重开 967
锥 967
343 966
L/@@ 966
MT@@ 966
ite 966
事处 966
召回 966
当着 966
斯图@@ 966
纬度 966
蹄@@ 966
2.8 965
41/@@ 965
71% 965
免责 965
入选 965
半夜 965
吞噬 965
寄予 965
拉马拉 965
拍卖@@ 965
掌声 965
民主党人 965
渔具 965
疯子 965
通胀率 965
阿鲁巴 965
飞快 965
430 964
上为 964
共鸣 964
历史@@ 964
已为 964
摇晃 964
时能 964
末端 964
枯燥 964
热忱 964
美景 964
赔款 964
邮报 964
４ 964
10:00－ 963
397 963
士们 963
字节 963
市内 963
布料 963
按下 963
挡住 963
材@@ 963
林迪西 963
程序员 963
羊群 963
膏@@ 963
萃取 963
里程 963
领馆 963
359 962
9/SR.@@ 962
凑 962
到新 962
变质 962
总则 962
杜马 962
油画 962
臀部 962
评选 962
优待 961
共事 961
利纳 961
太空@@ 961
庇护国 961
当地人 961
接地 961
斯特拉斯堡 961
框@@ 961
正统 961
答卷 961
缔@@ 961
罗伯@@ 961
胞 961
讨价 961
趋 961
颠@@ 961
342 960
A/C.5/52 960
Add.6 960
以待 960
伤势 960
对上 960
打乱 960
找回 960
着迷 960
税额 960
置换 960
钛@@ 960
A/C.3/60 959
保单 959
印本 959
工作室 959
彻 959
林区 959
牵引 959
白雪 959
神学 959
萨·@@ 959
送去 959
1994-@@ 958
DO@@ 958
We@@ 958
van 958
东斯 958
仓促 958
妓院 958
婆@@ 958
客机 958
巨 958
拖到 958
瘟疫 958
盾牌 958
碱性 958
缕 958
联络员 958
末日 957
栈 957
正对 957
淫 957
皮带 957
累了 957
重任 957
钻探 957
长们 957
霍 957
368 956
3900 956
hm@@ 956
pe 956
噩梦 956
复数 956
套房 956
数据源 956
武术 956
滞 956
特兰 956
生死 956
经理人 956
路易斯·@@ 956
83% 955
A/C.2/68/L.@@ 955
政策局 955
数年 955
格拉 955
泊 955
法官们 955
病了 955
顶尖 955
魔力 955
伤者 954
固态 954
爱护 954
社会@@ 954
Hassan 953
之举 953
塞拉@@ 953
弘扬 953
纳尔 953
行吗 953
西装 953
358 952
一段时间 952
书信 952
书院 952
半径 952
取胜 952
复印机 952
查到 952
毒物 952
滋味 952
算了 952
行情 952
达标 952
鲍尔 952
109.@@ 951
850 951
A/C.3/57/L.@@ 951
丘 951
也不例外 951
冠状 951
净值 951
厘@@ 951
天真 951
小提琴 951
推土机 951
柠檬@@ 951
标语 951
永生 951
烹调 951
联军 951
请他 951
调查@@ 951
逾越 951
470 950
per@@ 950
九年 950
剔除 950
南瓜 950
可作 950
威德 950
开明 950
皮肤@@ 950
翅 950
肺部 950
雄厚 950
须向 950
风度 950
高手 950
11亿 949
475 949
82% 949
red@@ 949
创新型 949
在此@@ 949
奖牌 949
广岛 949
弱小 949
往上 949
旺盛 949
熄灭 949
着急 949
空虚 949
蒙古国 949
重债 949
鼓起 949
Mans@@ 948
且@@ 948
先于 948
南盟 948
头疼 948
普·@@ 948
三角形 947
出生地 947
劝阻 947
同业 947
填料 947
总线 947
担保人 947
撞到 947
无缝 947
生态学 947
稍有 947
苑 947
菲利普 947
诀窍 947
马丁内斯 947
Sk@@ 946
买入 946
二十三 946
交接 946
坠毁 946
大不 946
往事 946
摆动 946
摩根士丹利 946
深造 946
狡猾 946
约旦河 946
臭名昭著 946
苏呼米 946
荒凉 946
锤 946
非洲@@ 946
1160 945
413 945
A/C.3/58/L.@@ 945
A/C.3/63/L.@@ 945
人权日 945
再造 945
勘察 945
反省 945
受损害 945
工作天 945
戴维 945
投向 945
时日 945
精品 945
衡@@ 945
设计者 945
陈述@@ 945
霍华德 945
24-@@ 944
Naqurah 944
OzL.Pro.@@ 944
Wh@@ 944
ora 944
不得对 944
乞丐 944
凝固 944
国库 944
子宫@@ 944
帮他 944
据悉 944
文第 944
艺人 944
Andre@@ 943
ris 943
付息 943
位子 943
反犹太主义 943
平衡@@ 943
把戏 943
毫@@ 943
皇室 943
红树林 943
纤维素 943
苔丝 943
辜负 943
那间 943
1200万 942
33号 942
373 942
Gal@@ 942
Inc. 942
Nas@@ 942
Sil@@ 942
㈧ 942
不作 942
二百@@ 942
存续 942
并没 942
接见 942
残留物 942
细小 942
绘@@ 942
聋 942
舱位 942
依托 941
常年 941
心头 941
愤慨 941
拖网 941
故乡 941
河道 941
渠 941
觉醒 941
量级 941
118@@ 940
18:@@ 940
800@@ 940
XXVII 940
erv@@ 940
下半@@ 940
侠 940
分类账 940
反应器 940
可贵 940
方形 940
村里 940
栖息地 940
欣 940
点名 940
索尔 940
追寻 940
预设 940
风机 940
115@@ 939
428 939
KB 939
体型 939
帕斯 939
照着 939
纵火 939
蒙上 939
Mohammed 938
从那时 938
同感 938
团结@@ 938
捣@@ 938
排污 938
火炮 938
生子 938
电影@@ 938
畔 938
疾 938
监督团 938
相传 938
虹@@ 938
颤 938
185@@ 937
402 937
540 937
96% 937
Tal@@ 937
上车 937
不可靠 937
京 937
似可 937
关照 937
启蒙 937
第57/270 937
能用 937
要紧 937
谨慎地 937
趋同 937
辣椒 937
383 936
Pa@@ 936
Si@@ 936
万多 936
体能 936
受聘 936
可口 936
可谓 936
在我看来 936
布拉 936
无耻 936
社发 936
腺癌 936
花儿 936
葡语 936
虽@@ 936
言行 936
铁矿石 936
锋@@ 936
项目表 936
404 935
仆@@ 935
信息学 935
到此 935
弧 935
最高层 935
泉水 935
犯错 935
生物圈 935
语种 935
金星 935
Bri@@ 934
代数 934
反射@@ 934
喉 934
太阳系 934
彩票 934
愈加 934
撕裂 934
放学 934
无处不在 934
枢密院 934
科技署 934
舰@@ 934
里拉 934
2012-@@ 933
379 933
AI@@ 933
Hel@@ 933
不可以 933
以致于 933
伦理学 933
孩儿 933
幼年 933
惜 933
散文 933
构筑 933
爱尔@@ 933
环保署 933
矿物质 933
碟@@ 933
纳尔逊 933
要地 933
警队 933
郭@@ 933
仍需 932
体温 932
修剪 932
卡路里 932
帕尔@@ 932
店里 932
异构体 932
手铐 932
极低 932
残骸 932
派发 932
老百姓 932
观测站 932
觉悟 932
首饰 932
369 931
73% 931
77% 931
78% 931
91.@@ 931
上场 931
可与 931
咪 931
国军 931
大奖 931
幻觉 931
牟利 931
病媒 931
网友 931
脱水 931
适当性 931
阳台 931
16:@@ 930
2003/04年 930
411 930
ire 930
不规则 930
内塔尼亚胡 930
后退 930
微微 930
怪异 930
惩@@ 930
投影 930
煎@@ 930
缴获 930
耻@@ 930
谦卑 930
转帐 930
魂 930
2000多 929
61/@@ 929
不稳定性 929
伤痕 929
挥霍 929
葵@@ 929
被保险人 929
迭@@ 929
预售 929
预知 929
11月份 928
371 928
Dav@@ 928
Hus@@ 928
Maz@@ 928
会法 928
嵌入式 928
打动 928
暑 928
溪 928
耶鲁 928
袜 928
al-Sha'b 927
剩@@ 927
匆@@ 927
宫颈癌 927
式样 927
惯性 927
扑 927
留心 927
相联 927
竖 927
菊@@ 927
20,000 926
北区 926
吸血鬼 926
并按 926
广西 926
检视 926
浮现 926
滕@@ 926
硬性 926
示意 926
腰带 926
苯丙胺 926
警察署 926
122.@@ 925
Ger@@ 925
Part@@ 925
anga 925
口感 925
平方@@ 925
抗争 925
持平 925
放了 925
束力 925
液态 925
读完 925
高效地 925
鸭子 925
A/64/L.@@ 924
ua 924
世界观 924
之路 924
修道院 924
内分泌 924
回落 924
惟有 924
洋葱 924
犹豫不决 924
生育@@ 924
碘 924
表单 924
角膜 924
难堪 924
骨干 924
391 923
416 923
Mun@@ 923
Nab@@ 923
SR@@ 923
·穆@@ 923
又是 923
品德 923
奋力 923
居留权 923
布鲁斯 923
掘@@ 923
汽 923
蚕@@ 923
谜@@ 923
雇工 923
7500 922
农民工 922
联合@@ 922
艰@@ 922
路段 922
较多 922
那段 922
阿里 922
魔术 922
2003-2004年 921
86% 921
ance 921
bl@@ 921
乘以 921
凳 921
卡纳克 921
宗派 921
归来 921
德州 921
拼 921
掳@@ 921
简编 921
退缩 921
非物质 921
1：@@ 920
ICCD/CRIC 920
isa 920
不道德 920
世界级 920
丛@@ 920
也会 920
倍增 920
医务@@ 920
奄@@ 920
投保人 920
抽查 920
炸伤 920
语言学 920
防护@@ 920
两难 919
关节炎 919
十日 919
墨尔本 919
外向 919
定下 919
微乎其微 919
昌@@ 919
海法 919
硫酸 919
蕴含 919
镀 919
阿斯马拉 919
首当其冲 919
5/SR.@@ 918
5900 918
9.1 918
Cal@@ 918
DC 918
LT@@ 918
PL@@ 918
克森 918
划线 918
坏人 918
基多 918
外貌 918
姜@@ 918
打架 918
材质 918
欧文 918
犹太@@ 918
自以为 918
节俭 918
连串 918
默克尔 918
1820 917
bo@@ 917
人居二 917
住家 917
倾弃 917
冥@@ 917
切除术 917
呕吐 917
外交界 917
强奸罪 917
柱子 917
液晶 917
第33/@@ 917
组织@@ 917
绑定 917
美的 917
贫乏 917
黑白 917
RA 916
ens 916
主耶稣 916
利未 916
属人 916
开花 916
结石 916
维生素A 916
肇@@ 916
胺@@ 916
闻到 916
8/SR.@@ 915
GA 915
Ge@@ 915
休战 915
围巾 915
城墙 915
安大略 915
布加勒斯特 915
振荡 915
摧残 915
效性 915
无端 915
饵 915
1990-@@ 914
456 914
一看 914
拉斯@@ 914
拾 914
摄入量 914
敲门 914
替补 914
牺牲品 914
绳索 914
16-@@ 913
AC 913
IG@@ 913
人性化 913
剪辑 913
卫生间 913
器皿 913
增殖 913
应许 913
房客 913
果树 913
活的 913
由於 913
适得其反 913
32@@ 912
395 912
A/C.2/69/L.@@ 912
Abdul@@ 912
下限 912
估@@ 912
南省 912
君子 912
在哪 912
坠 912
数十万 912
沈@@ 912
涨幅 912
渺茫 912
腐化 912
要务 912
铁路网 912
问世 912
25年 911
Ni@@ 911
化学@@ 911
单方 911
地壳 911
坎 911
寄生虫 911
庸@@ 911
思想家 911
戴尔 911
汉城 911
法证 911
第55 911
累累 911
老式 911
自杀式 911
诺·@@ 911
调出 911
通奸 911
郁 911
1953年 910
2006/07年 910
FCCC/SB@@ 910
ne@@ 910
于众 910
凶 910
寺庙 910
庙 910
廉洁 910
房地@@ 910
果然 910
标志性 910
篡改 910
脑筋 910
莉莉 910
不下 909
冷却@@ 909
匪 909
实事求是 909
扁@@ 909
抗震 909
斯科特 909
派生 909
纸质 909
线圈 909
蚊@@ 909
酵母 909
釜山 909
飞过 909
高价 909
Jam@@ 908
为整 908
塑料袋 908
幸 908
情境 908
折中 908
沦@@ 908
电子化 908
电视剧 908
白血病 908
花生 908
购买者 908
跳过 908
零售业 908
1929 907
ery 907
imana 907
书法 907
以多 907
包装@@ 907
同前 907
大部份 907
布干维尔 907
微薄 907
畅通 907
破伤风 907
究 907
话说 907
足球赛 907
踪@@ 907
轧 907
预处理 907
16亿 906
1747 906
2010号 906
409 906
LL 906
ald 906
亚语 906
分节 906
则应 906
工作团 906
巴希尔 906
很高兴 906
杂草 906
海鲜 906
窝@@ 906
装在 906
远期 906
骑车 906
362 905
398 905
92% 905
BP 905
ack 905
乌龟 905
决策层 905
分词 905
医生们 905
妥@@ 905
本杰明 905
阻断 905
面料 905
363 904
407 904
Com@@ 904
Raf@@ 904
催生 904
六点 904
宇 904
小贩 904
戒备 904
戴维斯 904
牛顿 904
羞耻 904
较小 904
面条 904
Wil@@ 903
下有 903
仅为 903
压低 903
喧@@ 903
展期 903
急切 903
明晰 903
有鉴于 903
本意 903
来年 903
毒气 903
注资 903
番茄 903
白痴 903
真好 903
粘土 903
老爸 903
诺维奇 903
105.@@ 902
184@@ 902
74% 902
Bor@@ 902
亚于 902
可恶 902
各处 902
带进 902
执行者 902
投下 902
抗原 902
极地 902
污辱 902
痛心 902
督促 902
邮袋 902
CN-235 901
E/2012 901
Saf@@ 901
中环 901
农地 901
安抚 901
巴伦西亚 901
氯氟烃 901
确证 901
董@@ 901
裁缝 901
跨过 901
金正日 901
零售@@ 901
非选择性 901
CRP.3 900
LU@@ 900
P/C@@ 900
VI 900
丽莎 900
么@@ 900
亲友 900
你好 900
区块 900
厚厚 900
吞 900
唱名 900
婉@@ 900
婴儿@@ 900
嫁@@ 900
审查@@ 900
巴西利亚 900
情侣 900
战区 900
酵@@ 900
里根 900
60年代 899
GC 899
oll@@ 899
交代 899
分离@@ 899
到家 899
司法所 899
射程 899
扇@@ 899
搜救 899
料到 899
查封 899
用上 899
留学生 899
瞎@@ 899
空的 899
诚恳 899
非但 899
11:30 898
1983 898
62/@@ 898
No.@@ 898
严禁 898
丰收 898
何在 898
侯@@ 898
号和第 898
好奇心 898
定购 898
家门 898
弗里 898
旗舰 898
殉@@ 898
河岸 898
署于 898
胃口 898
被困 898
遍@@ 898
138.@@ 897
501 897
× 897
不通 897
为难 897
乌兹别克 897
亮点 897
出人意料 897
吸食 897
天文学家 897
奢华 897
对现 897
尾声 897
怀里 897
拉动 897
文版 897
深水 897
灶 897
蛛@@ 897
计为 897
非加太 897
9.2 896
93% 896
E/1999 896
Kab@@ 896
Lar@@ 896
ant 896
mann 896
不足为奇 896
分析家 896
利伯维尔 896
吉拉@@ 896
地平线 896
按此 896
本领 896
活塞 896
浑@@ 896
蜡 896
讨好 896
说不定 896
/c@@ 895
SP@@ 895
冷藏 895
筋@@ 895
营区 895
560 894
950 894
二十多 894
介词 894
凉爽 894
利润率 894
培 894
境@@ 894
捞@@ 894
淋 894
莱尔 894
起重机 894
颠倒 894
A/62/5@@ 893
俱@@ 893
可得性 893
求你 893
相悖 893
穆尔 893
简陋 893
104.@@ 892
不成比例 892
如意 892
姬 892
拦@@ 892
无奈 892
星际 892
暑期 892
暴发 892
融洽 892
金戈 892
361 891
377 891
Raj@@ 891
ea 891
三点 891
储层 891
切勿 891
反坦克 891
名言 891
楼下 891
模态 891
毒药 891
灵敏 891
的人 891
空地 891
立法@@ 891
脸部 891
认清 891
重写 891
AG@@ 890
E/CN.4/2003/@@ 890
不前 890
亚历@@ 890
伤痛 890
僵化 890
党内 890
应付款 890
彼得@@ 890
很容易 890
成都 890
拘束 890
按期 890
搭档 890
撤走 890
政治学 890
橡皮 890
177@@ 889
2004/2@@ 889
384 889
D. 889
th 889
不去 889
健身房 889
出产 889
弃置 889
打量 889
敏感度 889
昏迷 889
社署 889
穆 889
蒸 889
计价 889
限值 889
1995/@@ 888
403 888
76% 888
出租人 888
励@@ 888
品位 888
安置@@ 888
栖 888
比方说 888
浦 888
漠不关心 888
生态@@ 888
碳氢化 888
螺栓 888
迷恋 888
50多 887
Fin@@ 887
些@@ 887
博弈 887
嘲弄 887
大增 887
特快 887
科纳 887
耐烦 887
脂肪酸 887
途经 887
EX@@ 886
不景气 886
中层 886
住址 886
共犯 886
国队 886
平方英尺 886
拢 886
救治 886
月光 886
查获 886
核战争 886
正当性 886
洋洋 886
短链 886
纯度 886
调频 886
雏@@ 886
预选 886
高点 886
鹅 886
黑板 886
445 885
ros@@ 885
不愉快 885
为的 885
低声 885
储存@@ 885
前哨 885
力行 885
宰 885
富足 885
工匠 885
援助国 885
旧约 885
昭@@ 885
本处 885
果子 885
罪人 885
酚@@ 885
里克·@@ 885
阻燃 885
驱虫 885
A/59/L.@@ 884
Ol@@ 884
与会者们 884
乙烷 884
危 884
国应 884
德克@@ 884
拖拉机 884
救了 884
柠檬 884
欧统局 884
漂浮 884
筹委会 884
绑@@ 884
职级 884
该死的 884
阿卜@@ 884
革命@@ 884
/2009 883
87% 883
rez 883
一月份 883
一行 883
业局 883
倒数 883
凤@@ 883
战祸 883
攻击性 883
痊愈 883
茎@@ 883
评估团 883
须有 883
100亿 882
A/C.2/58/L.@@ 882
Rep@@ 882
九日 882
发热 882
年报 882
手脚 882
有两 882
自有 882
邓小平 882
靴子 882
高超 882
2019年 881
ODP 881
上扬 881
中大 881
举报人 881
同心协力 881
妓 881
小溪 881
巴赫 881
斑点 881
武士 881
灭火 881
维尔@@ 881
罗维 881
诱因 881
身影 881
闸@@ 881
阁 881
Tall 880
光源 880
参观者 880
失眠 880
寂 880
属事 880
心爱 880
搞定 880
狂欢 880
猜疑 880
玄@@ 880
轮机 880
辽阔 880
驱逐者 880
鲁莽 880
鼎@@ 880
415 879
凌驾 879
函作 879
圣洁 879
德勒 879
德文 879
新手 879
日光 879
检察厅 879
联络组 879
西安 879
起誓 879
钙@@ 879
Don@@ 878
刃 878
坚果 878
安大略省 878
已有 878
征召 878
打入 878
更好地 878
有一次 878
柯 878
泰米尔 878
献上 878
篱笆 878
终将 878
联塔 878
膀胱 878
蒙巴萨 878
辱 878
量度 878
降雨量 878
除掉 878
Ap@@ 877
Mel@@ 877
Nor@@ 877
上以 877
侨@@ 877
流氓 877
狂风 877
缺血 877
谈判者 877
UNEP/@@ 876
一席之地 876
不包括 876
封装 876
开发部 876
愈演愈烈 876
振作 876
杰宁 876
注射液 876
眷@@ 876
第98 876
等国 876
赫尔@@ 876
逗@@ 876
须知 876
485 875
A/67/2@@ 875
App@@ 875
万象 875
展品 875
拳头 875
推展 875
救济@@ 875
斯蒂芬 875
新婚 875
本体 875
枯 875
第986 875
臣 875
贯@@ 875
重男轻女 875
钓@@ 875
367 874
9万 874
CEO 874
与此 874
未婚@@ 874
核发 874
波斯@@ 874
牛仔 874
自满 874
里海 874
门上 874
A/58/L.@@ 873
PL 873
W/@@ 873
东耶路撒冷 873
丰盛 873
向东 873
善后 873
基点 873
年复一年 873
明信片 873
深知 873
牌子 873
画像 873
留守 873
矩 873
秘书@@ 873
萨达姆 873
诉人 873
配对 873
阿方索 873
难怪 873
骨质 873
22:@@ 872
477 872
503 872
A/57/7@@ 872
PT@@ 872
br@@ 872
南半球 872
售货员 872
喇叭 872
围着 872
巫术 872
怒气 872
报答 872
消耗品 872
纱@@ 872
郊野 872
/2003 871
3200 871
412 871
enko 871
ond@@ 871
yan 871
不易 871
为国际 871
常性 871
武汉 871
波斯湾 871
联预 871
自然@@ 871
FP@@ 870
I. 870
Tel@@ 870
Zh@@ 870
三年 870
产儿 870
宝座 870
尺@@ 870
山东 870
战地 870
文科 870
致富 870
诱使 870
辩驳 870
迥@@ 870
闲置 870
难者 870
/2002 869
2005-2015年 869
4/SR.@@ 869
AL 869
Str@@ 869
ado 869
○ 869
为什麽 869
刷新 869
发泄 869
同工同酬 869
威廉@@ 869
影视 869
温度计 869
胡萝卜 869
贷款人 869
跟在 869
车里 869
20/@@ 868
NGO 868
SS@@ 868
伊始 868
伍 868
出口量 868
出生证 868
制冷剂 868
印有 868
婚后 868
市议会 868
建于 868
慎@@ 868
支离破碎 868
整体性 868
电影节 868
羊羔 868
芽@@ 868
蠢 868
400多 867
串通 867
军政府 867
剖@@ 867
土地换 867
管线 867
衍生物 867
讯@@ 867
迷路 867
900万 866
Ser@@ 866
]@@ 866
作响 866
厌 866
干线 866
底薪 866
彼 866
探寻 866
沉闷 866
特例 866
王储 866
甜美 866
石墨 866
神职 866
翔 866
芙@@ 866
西蒙@@ 866
酸奶 866
417 865
WP. 865
亮度 865
带子 865
应负责 865
徽章 865
易燃 865
气象学 865
水性 865
统计@@ 865
缅@@ 865
营业额 865
赛场 865
/2004 864
376 864
414 864
Ky@@ 864
Richard 864
Vol.II 864
代号 864
放大器 864
易懂 864
求学 864
潜水@@ 864
相伴 864
菲尔@@ 864
邪@@ 864
飞地 864
1－@@ 863
GPS 863
Mer@@ 863
S/2014/@@ 863
net 863
做起 863
旁观者 863
潜意识 863
球菌 863
第49/2@@ 863
要说 863
防雷 863
阿特拉斯 863
A/53/2@@ 862
HF@@ 862
uel 862
→ 862
之日 862
公益@@ 862
咕@@ 862
岸上 862
流畅 862
逃出 862
露西 862
Kan@@ 861
uz 861
ö@@ 861
光照 861
压倒性 861
参半 861
岸边 861
崩 861
救生@@ 861
村落 861
比尔·@@ 861
考查 861
药剂师 861
菠@@ 861
要约 861
跟前 861
郎@@ 861
银子 861
69% 860
E/1998 860
mail 860
为您 860
入世 860
动荡不安 860
命中 860
性情 860
打猎 860
抑或 860
未曾 860
标出 860
派到 860
流行性 860
碑 860
粮价 860
绝佳 860
试样 860
124.@@ 859
62/2@@ 859
万分 859
兆瓦 859
受贿 859
并重 859
库尔@@ 859
座椅 859
扔到 859
日语 859
早起 859
椭圆 859
游离 859
玛利亚 859
珥 859
螺纹 859
较弱 859
14000 858
393 858
A/C.1/63/L.@@ 858
E/CONF.@@ 858
嘉 858
填报 858
岗@@ 858
帐务 858
弗雷 858
有机物 858
燃气 858
眠@@ 858
种植@@ 858
租房 858
精确度 858
缩水 858
0年代 857
300000 857
30年代 857
605 857
Mik@@ 857
人行道 857
布托 857
扑灭 857
毋庸置疑 857
污名 857
第XV 857
限量 857
靴 857
骗局 857
下行 856
写上 856
受挫 856
命题 856
学派 856
想把 856
无政府 856
标注 856
校外 856
滤 856
甘蔗 856
1284 855
E/CN.4/2004/@@ 855
asp@@ 855
by 855
保守党 855
勋爵 855
印记 855
寄来 855
张开 855
感性 855
放款 855
清洁@@ 855
祝@@ 855
管理器 855
高峰期 855
鹰@@ 855
A/C.1/64/L.@@ 854
Cent@@ 854
不知所措 854
全港 854
增减 854
对性 854
慈悲 854
早孕 854
涂抹 854
美洲狮 854
蜜 854
诊断@@ 854
该款 854
韦斯 854
class7' 853
中区 853
伏击 853
初衷 853
德利 853
排球 853
摸索 853
有待于 853
正被 853
练@@ 853
育种 853
谢赫 853
贝利 853
通路 853
风光 853
iro 852
三百 852
二零零@@ 852
伊尔 852
奠@@ 852
幻灯片 852
无忧 852
是说 852
洋溢 852
澳大利亚人 852
真想 852
编辑器 852
缠绕 852
至高无上 852
调任 852
象牙 852
逆境 852
118.@@ 851
497 851
E/CN.4/1998 851
SC-@@ 851
不为 851
不超过 851
农场主 851
北基伍省 851
工具@@ 851
法理 851
溃@@ 851
礁@@ 851
管子 851
编成 851
请在 851
辱@@ 851
附着 851
But@@ 850
ast 850
不合适 850
印章 850
哈里@@ 850
就诊 850
当晚 850
恋人 850
漠视 850
电话@@ 850
相似性 850
纸币 850
绝食 850
美貌 850
色谱法 850
资源@@ 850
面目 850
高估 850
BA 849
FS 849
Mut@@ 849
下月 849
传出 849
偷盗 849
宽敞 849
抢劫@@ 849
润滑剂 849
看一下 849
翼@@ 849
谁@@ 849
59% 848
A/C.2/64/L.@@ 848
不容忽视 848
中继器 848
二手@@ 848
值此 848
分流 848
堪 848
奴@@ 848
季刊 848
就业部 848
庆幸 848
有理 848
法院的 848
第48/218 848
要好 848
足球队 848
长篇 848
399 847
Dom@@ 847
不为过 847
伊拉@@ 847
卡特@@ 847
打出 847
拉赫@@ 847
排行榜 847
放出 847
爽@@ 847
词汇@@ 847
走下 847
越高 847
载在 847
龄@@ 847
/2007/@@ 846
2.5@@ 846
396 846
418 846
486 846
IS3.@@ 846
R-@@ 846
不高 846
勃 846
卡比拉 846
大卫·@@ 846
审判庭 846
害人 846
批出 846
折断 846
有碍 846
枪手 846
海豹 846
至此 846
费尔@@ 846
轻蔑 846
鄙视 846
重中之重 846
食谱 846
餐具 846
GIS 845
不绝 845
乔布斯 845
倒下 845
假想 845
司空见惯 845
听询 845
失败者 845
拉里 845
接收器 845
比特 845
污染源 845
洗涤 845
盐酸 845
赐予 845
趣味 845
高高 845
1,6@@ 844
1998-@@ 844
2.2@@ 844
394 844
426 844
共进 844
单体 844
岳@@ 844
本周 844
树干 844
毋@@ 844
比的 844
泊车 844
相抵 844
研拟 844
长出 844
二零零四年 843
凋亡 843
分散@@ 843
商机 843
嗓子 843
实验@@ 843
小路 843
戈登 843
手工艺 843
果园 843
法罗群岛 843
症@@ 843
职称 843
艾德 843
解职 843
逸 843
鸭@@ 843
108@@ 842
omb@@ 842
up 842
幼稚 842
暂时性 842
木制 842
梢 842
棺材 842
漆黑 842
福尔 842
腺炎 842
谐 842
贱 842
赔@@ 842
阿卜杜拉·@@ 842
音量 842
黄河 842
/2006/@@ 841
492 841
SL@@ 841
fre@@ 841
v.@@ 841
倒在 841
化身 841
后院 841
哈尔 841
土地法 841
射出 841
巴解 841
某国 841
格勒 841
气愤 841
水印 841
科夫 841
背包 841
花粉 841
血流 841
西伯利亚 841
谢赫·@@ 841
还本 841
难关 841
520 840
ji 840
五点 840
克劳 840
公开@@ 840
几内亚湾 840
喇嘛 840
扶轮社 840
晴朗 840
母鸡 840
淋浴 840
演讲者 840
相似之处 840
硕@@ 840
米德 840
缴交 840
自负 840
蒙得维的亚 840
薇 840
译者 840
蹲@@ 840
阻抗 840
降价 840
频频 840
55分 839
84% 839
A/59/5@@ 839
不喜欢 839
关连 839
冰山 839
前款 839
幌子 839
御@@ 839
总有 839
慕尼黑 839
捷径 839
柔 839
樱桃 839
测算 839
瞧@@ 839
茱@@ 839
退税 839
非同 839
2008-2010年 838
old 838
sd@@ 838
下层 838
不含 838
决策@@ 838
变化@@ 838
地表水 838
学好 838
撒下 838
昌 838
每项 838
甸 838
盲文 838
维纳 838
蝎@@ 838
TRA@@ 837
不对称 837
务员 837
受命 837
夜总会 837
建设@@ 837
弄到 837
怀抱 837
房屋署 837
探险@@ 837
炉子 837
而过 837
联邦区 837
蚀@@ 837
赌注 837
阿齐兹 837
东方省 836
保守派 836
暮@@ 836
校友 836
氰胺 836
水解 836
波音 836
点子 836
犯罪学 836
真爱 836
粘度 836
素材 836
萨克 836
通俗 836
3.5% 835
3:00－6:00 835
603 835
∕ 835
事务署 835
伺服 835
刊@@ 835
圣彼得堡 835
拉登 835
掠@@ 835
控罪 835
揭发 835
核电厂 835
桔@@ 835
母体 835
浮游 835
菲尔 835
蒂娜 835
酰胺 835
81% 834
Sm@@ 834
做爱 834
可不是 834
塘 834
尘器 834
性强 834
有机会 834
残废 834
汇丰 834
琳达 834
裸@@ 834
谓语 834
转速 834
通量 834
雌 834
La 833
esc@@ 833
不胜 833
中校 833
十年期 833
嗡@@ 833
挤满 833
携@@ 833
无记名 833
晃 833
梳理 833
气压 833
现年 833
矿场 833
花卉 833
苔@@ 833
路人 833
阶梯 833
4900 832
克洛@@ 832
出院 832
制导 832
危难 832
售卖 832
情理 832
第48/162 832
饶 832
4000万 831
上部 831
不正确 831
乐曲 831
双臂 831
圣何塞 831
大麻@@ 831
开着 831
恼火 831
救护 831
昼夜 831
有条不紊 831
民俗 831
病床 831
盒@@ 831
讨 831
面值 831
436 830
ise 830
ony 830
中子 830
丹尼@@ 830
冲浪 830
出处 830
别名 830
壁炉 830
射频 830
总算 830
挂图 830
梗死 830
社会性 830
算术 830
管制法 830
罗列 830
美联社 830
耳机 830
背心 830
船运 830
och@@ 829
亟待 829
公文 829
办案 829
女性化 829
孵@@ 829
性爱 829
接吻 829
於是 829
有如 829
神气 829
等我 829
经销 829
里夫 829
490 828
70多 828
克里斯托@@ 828
击退 828
压缩机 828
呵 828
回顾性 828
循@@ 828
总要 828
恩斯 828
收复 828
最穷 828
有种 828
演练 828
玩弄 828
网关 828
脸颊 828
诉说 828
那块 828
A/59/7@@ 827
Robert 827
eth 827
仰 827
任由 827
克莱斯勒 827
刚性 827
原判 827
售后 827
多边@@ 827
将会 827
弊 827
得体 827
恨@@ 827
打字机 827
推崇 827
毒打 827
淡淡 827
灭失 827
翠@@ 827
自如 827
艾伯@@ 827
谐波 827
躲藏 827
迟疑 827
防线 827
502 826
A/63/7@@ 826
S/2013 826
aka 826
ami 826
ella 826
关系@@ 826
失落 826
属下 826
开发区 826
或大 826
手写 826
新奇 826
汹涌 826
畏@@ 826
自家 826
蓬 826
贴近 826
赎@@ 826
邮递 826
闭路 826
霞 826
378 825
Phil@@ 825
REP/200@@ 825
lah 825
医保 825
医疗队 825
堕@@ 825
塞尔维亚人 825
多用途 825
安德鲁 825
安息日 825
弟@@ 825
未及 825
珍妮@@ 825
税制 825
维多利亚@@ 825
美林 825
雪上加霜 825
预谋 825
A/CN.9/5@@ 824
Te@@ 824
佩 824
允诺 824
先发制人 824
准确度 824
列宁 824
剧增 824
嚷@@ 824
垄断@@ 824
多多 824
得力 824
插图 824
栅 824
特曼 824
童子军 824
组织科 824
膳宿 824
醛 824
2007/2@@ 823
Dr@@ 823
Kat@@ 823
一步@@ 823
吉斯 823
听懂 823
咖啡因 823
多普勒 823
好久 823
工夫 823
强权 823
抗菌 823
日出 823
最适 823
特意 823
电容 823
画廊 823
竖@@ 823
素养 823
雇佣兵 823
1-3 822
506 822
OP 822
乌姆@@ 822
于人 822
使用@@ 822
在此之后 822
巴菲特 822
开户 822
惰性 822
曲直 822
梅斯 822
瓦尔@@ 822
绌 822
请到 822
贞 822
革命性 822
XXIII 821
不仅如此 821
二恶英 821
其是 821
制药@@ 821
宵 821
布拉柴维尔 821
更低 821
氯丁二烯 821
疫 821
附庸 821
35亿 820
A/ES-10 820
ement 820
休养 820
吴 820
抵减 820
拉拉 820
捐给 820
教官 820
普遍化 820
真话 820
蔡@@ 820
观察者 820
访问者 820
阿里斯蒂德 820
青岛 820
498 819
E/CN.4/1997 819
信箱 819
农历 819
副院长 819
和谈 819
哄 819
妇联 819
庭院 819
捐款额 819
环礁 819
甜点 819
置之不理 819
裁判@@ 819
降温 819
20:@@ 818
ABC 818
San 818
上表 818
不能够 818
受难 818
怕@@ 818
旧的 818
木工 818
松弛 818
查证 818
民们 818
狭小 818
皮质 818
细化 818
缆 818
缉毒 818
苏丹国 818
荫@@ 818
藉由 818
规划部 818
转拨 818
邀请@@ 818
里德 818
饿@@ 818
Bern@@ 817
CP 817
不定期 817
了吧 817
双层 817
商号 817
囤积 817
垮台 817
套装 817
对法 817
左侧 817
抬高 817
敞@@ 817
植根于 817
比值 817
清查 817
罗姆@@ 817
遮盖 817
重创 817
19:@@ 816
Chr@@ 816
Jabal 816
PM@@ 816
S. 816
ams 816
中尉 816
响声 816
宗教@@ 816
机智 816
爱他 816
究@@ 816
绸@@ 816
联结 816
脱下 816
艾尔@@ 816
苏人解 816
进军 816
防洪 816
雷尔 816
//www.un.org/@@ 815
28/@@ 815
[...]
